{
  "version": "1.0",
  "truncation": null,
  "padding": null,
  "added_tokens": [
    {
      "id": 0,
      "content": "[PAD]",
      "single_word": false,
      "lstrip": false,
      "rstrip": false,
      "normalized": false,
      "special": true
    },
    {
      "id": 1,
      "content": "[UNK]",
      "single_word": false,
      "lstrip": false,
      "rstrip": false,
      "normalized": false,
      "special": true
    },
    {
      "id": 2,
      "content": "[CLS]",
      "single_word": false,
      "lstrip": false,
      "rstrip": false,
      "normalized": false,
      "special": true
    },
    {
      "id": 3,
      "content": "[SEP]",
      "single_word": false,
      "lstrip": false,
      "rstrip": false,
      "normalized": false,
      "special": true
    },
    {
      "id": 4,
      "content": "[MASK]",
      "single_word": false,
      "lstrip": false,
      "rstrip": false,
      "normalized": false,
      "special": true
    }
  ],
  "normalizer": {
    "type": "Sequence",
    "normalizers": [
      {
        "type": "NFD"
      },
      {
        "type": "Lowercase"
      },
      {
        "type": "StripAccents"
      }
    ]
  },
  "pre_tokenizer": {
    "type": "Whitespace"
  },
  "post_processor": null,
  "decoder": null,
  "model": {
    "type": "BPE",
    "dropout": null,
    "unk_token": null,
    "continuing_subword_prefix": null,
    "end_of_word_suffix": null,
    "fuse_unk": false,
    "byte_fallback": false,
    "ignore_merges": false,
    "vocab": {
      "[PAD]": 0,
      "[UNK]": 1,
      "[CLS]": 2,
      "[SEP]": 3,
      "[MASK]": 4,
      "!": 5,
      "\"": 6,
      "#": 7,
      "$": 8,
      "%": 9,
      "&": 10,
      "'": 11,
      "(": 12,
      ")": 13,
      "*": 14,
      "+": 15,
      ",": 16,
      "-": 17,
      ".": 18,
      "/": 19,
      "0": 20,
      "1": 21,
      "2": 22,
      "3": 23,
      "4": 24,
      "5": 25,
      "6": 26,
      "7": 27,
      "8": 28,
      "9": 29,
      ":": 30,
      ";": 31,
      "<": 32,
      "=": 33,
      ">": 34,
      "?": 35,
      "@": 36,
      "[": 37,
      "\\": 38,
      "]": 39,
      "^": 40,
      "_": 41,
      "`": 42,
      "a": 43,
      "b": 44,
      "c": 45,
      "d": 46,
      "e": 47,
      "f": 48,
      "g": 49,
      "h": 50,
      "i": 51,
      "j": 52,
      "k": 53,
      "l": 54,
      "m": 55,
      "n": 56,
      "o": 57,
      "p": 58,
      "q": 59,
      "r": 60,
      "s": 61,
      "t": 62,
      "u": 63,
      "v": 64,
      "w": 65,
      "x": 66,
      "y": 67,
      "z": 68,
      "{": 69,
      "~": 70,
      "¡": 71,
      "£": 72,
      "¦": 73,
      "¨": 74,
      "ª": 75,
      "«": 76,
      "­": 77,
      "®": 78,
      "¯": 79,
      "°": 80,
      "º": 81,
      "œ": 82,
      "ȡ": 83,
      "ȥ": 84,
      "ˠ": 85,
      "α": 86,
      "β": 87,
      "γ": 88,
      "δ": 89,
      "ε": 90,
      "ζ": 91,
      "η": 92,
      "ι": 93,
      "κ": 94,
      "ρ": 95,
      "σ": 96,
      "τ": 97,
      "υ": 98,
      "χ": 99,
      "ω": 100,
      "ϳ": 101,
      "х": 102,
      "׺": 103,
      "ݳ": 104,
      "–": 105,
      "—": 106,
      "’": 107,
      "“": 108,
      "”": 109,
      "‡": 110,
      "…": 111,
      "‰": 112,
      "′": 113,
      "″": 114,
      "€": 115,
      "�": 116,
      "th": 117,
      "the": 118,
      "in": 119,
      "an": 120,
      "re": 121,
      "se": 122,
      "on": 123,
      "at": 124,
      "er": 125,
      "ou": 126,
      "en": 127,
      "or": 128,
      "st": 129,
      "al": 130,
      "it": 131,
      "sep": 132,
      "to": 133,
      "ing": 134,
      "ed": 135,
      "is": 136,
      "and": 137,
      "of": 138,
      "es": 139,
      "ar": 140,
      "as": 141,
      "le": 142,
      "ic": 143,
      "om": 144,
      "ion": 145,
      "be": 146,
      "no": 147,
      "ve": 148,
      "ent": 149,
      "ch": 150,
      "il": 151,
      "ro": 152,
      "he": 153,
      "that": 154,
      "ly": 155,
      "we": 156,
      "de": 157,
      "for": 158,
      "ac": 159,
      "you": 160,
      "ha": 161,
      "im": 162,
      "ver": 163,
      "lo": 164,
      "are": 165,
      "wh": 166,
      "ay": 167,
      "am": 168,
      "id": 169,
      "li": 170,
      "was": 171,
      "ut": 172,
      "ol": 173,
      "ge": 174,
      "gh": 175,
      "su": 176,
      "ri": 177,
      "un": 178,
      "ab": 179,
      "ation": 180,
      "ad": 181,
      "ce": 182,
      "ne": 183,
      "ir": 184,
      "ke": 185,
      "mo": 186,
      "ct": 187,
      "wi": 188,
      "go": 189,
      "pro": 190,
      "con": 191,
      "pe": 192,
      "ur": 193,
      "do": 194,
      "te": 195,
      "ld": 196,
      "they": 197,
      "with": 198,
      "com": 199,
      "out": 200,
      "all": 201,
      "ter": 202,
      "not": 203,
      "ment": 204,
      "one": 205,
      "po": 206,
      "now": 207,
      "have": 208,
      "fe": 209,
      "ill": 210,
      "ul": 211,
      "if": 212,
      "ma": 213,
      "ca": 214,
      "sh": 215,
      "so": 216,
      "me": 217,
      "fr": 218,
      "ate": 219,
      "ould": 220,
      "per": 221,
      "ye": 222,
      "ant": 223,
      "use": 224,
      "tr": 225,
      "ther": 226,
      "ght": 227,
      "pl": 228,
      "ex": 229,
      "but": 230,
      "qu": 231,
      "si": 232,
      "oun": 233,
      "op": 234,
      "ll": 235,
      "res": 236,
      "there": 237,
      "man": 238,
      "ome": 239,
      "by": 240,
      "know": 241,
      "uh": 242,
      "ta": 243,
      "ust": 244,
      "us": 245,
      "wor": 246,
      "ity": 247,
      "from": 248,
      "ag": 249,
      "red": 250,
      "ers": 251,
      "our": 252,
      "ess": 253,
      "co": 254,
      "um": 255,
      "od": 256,
      "art": 257,
      "act": 258,
      "can": 259,
      "this": 260,
      "ally": 261,
      "ies": 262,
      "ard": 263,
      "thing": 264,
      "gr": 265,
      "some": 266,
      "ort": 267,
      "ap": 268,
      "ind": 269,
      "up": 270,
      "sa": 271,
      "em": 272,
      "la": 273,
      "his": 274,
      "ho": 275,
      "end": 276,
      "has": 277,
      "ie": 278,
      "had": 279,
      "ist": 280,
      "tim": 281,
      "very": 282,
      "ud": 283,
      "ive": 284,
      "like": 285,
      "wn": 286,
      "ci": 287,
      "were": 288,
      "bo": 289,
      "ts": 290,
      "my": 291,
      "ig": 292,
      "any": 293,
      "way": 294,
      "cl": 295,
      "about": 296,
      "ok": 297,
      "pr": 298,
      "ren": 299,
      "pre": 300,
      "iv": 301,
      "its": 302,
      "ain": 303,
      "what": 304,
      "port": 305,
      "just": 306,
      "ice": 307,
      "don": 308,
      "will": 309,
      "here": 310,
      "their": 311,
      "more": 312,
      "other": 313,
      "ine": 314,
      "would": 315,
      "ink": 316,
      "get": 317,
      "cent": 318,
      "der": 319,
      "work": 320,
      "ound": 321,
      "ong": 322,
      "ish": 323,
      "ated": 324,
      "ions": 325,
      "ser": 326,
      "ah": 327,
      "ous": 328,
      "them": 329,
      "ack": 330,
      "ev": 331,
      "af": 332,
      "sed": 333,
      "fo": 334,
      "ast": 335,
      "ople": 336,
      "age": 337,
      "people": 338,
      "cause": 339,
      "she": 340,
      "ough": 341,
      "new": 342,
      "able": 343,
      "ru": 344,
      "bl": 345,
      "ans": 346,
      "year": 347,
      "ty": 348,
      "well": 349,
      "ree": 350,
      "ple": 351,
      "who": 352,
      "when": 353,
      "time": 354,
      "yeah": 355,
      "did": 356,
      "iz": 357,
      "think": 358,
      "ure": 359,
      "ite": 360,
      "been": 361,
      "form": 362,
      "ble": 363,
      "ses": 364,
      "because": 365,
      "ame": 366,
      "ach": 367,
      "00": 368,
      "low": 369,
      "off": 370,
      "sen": 371,
      "her": 372,
      "than": 373,
      "ance": 374,
      "ting": 375,
      "gu": 376,
      "old": 377,
      "ace": 378,
      "sp": 379,
      "most": 380,
      "part": 381,
      "day": 382,
      "over": 383,
      "bu": 384,
      "br": 385,
      "ich": 386,
      "king": 387,
      "ire": 388,
      "cr": 389,
      "mar": 390,
      "ations": 391,
      "ight": 392,
      "ef": 393,
      "el": 394,
      "serv": 395,
      "ber": 396,
      "dis": 397,
      "cre": 398,
      "wo": 399,
      "int": 400,
      "est": 401,
      "mon": 402,
      "av": 403,
      "coun": 404,
      "ck": 405,
      "pt": 406,
      "only": 407,
      "rest": 408,
      "19": 409,
      "du": 410,
      "good": 411,
      "could": 412,
      "him": 413,
      "enc": 414,
      "right": 415,
      "ence": 416,
      "which": 417,
      "hi": 418,
      "every": 419,
      "ful": 420,
      "ors": 421,
      "see": 422,
      "your": 423,
      "jo": 424,
      "ra": 425,
      "ical": 426,
      "cor": 427,
      "said": 428,
      "ments": 429,
      "fin": 430,
      "comp": 431,
      "ip": 432,
      "ary": 433,
      "ction": 434,
      "how": 435,
      "gre": 436,
      "col": 437,
      "comm": 438,
      "ving": 439,
      "land": 440,
      "many": 441,
      "ild": 442,
      "want": 443,
      "pa": 444,
      "leg": 445,
      "car": 446,
      "where": 447,
      "spe": 448,
      "tain": 449,
      "vi": 450,
      "need": 451,
      "ted": 452,
      "ates": 453,
      "pu": 454,
      "into": 455,
      "sho": 456,
      "mu": 457,
      "really": 458,
      "should": 459,
      "then": 460,
      "vie": 461,
      "ory": 462,
      "cont": 463,
      "inter": 464,
      "two": 465,
      "cur": 466,
      "sy": 467,
      "sel": 468,
      "fir": 469,
      "des": 470,
      "ition": 471,
      "fore": 472,
      "bet": 473,
      "sc": 474,
      "look": 475,
      "ial": 476,
      "min": 477,
      "may": 478,
      "ang": 479,
      "lot": 480,
      "even": 481,
      "back": 482,
      "ces": 483,
      "cess": 484,
      "je": 485,
      "never": 486,
      "ue": 487,
      "much": 488,
      "ep": 489,
      "these": 490,
      "under": 491,
      "au": 492,
      "does": 493,
      "ater": 494,
      "come": 495,
      "pol": 496,
      "ia": 497,
      "ile": 498,
      "after": 499,
      "also": 500,
      "tle": 501,
      "years": 502,
      "pos": 503,
      "got": 504,
      "say": 505,
      "try": 506,
      "ose": 507,
      "hou": 508,
      "son": 509,
      "ress": 510,
      "ved": 511,
      "going": 512,
      "pp": 513,
      "ices": 514,
      "stand": 515,
      "used": 516,
      "vis": 517,
      "ning": 518,
      "long": 519,
      "publ": 520,
      "side": 521,
      "eral": 522,
      "gram": 523,
      "ities": 524,
      "lit": 525,
      "dif": 526,
      "ry": 527,
      "ten": 528,
      "tur": 529,
      "ak": 530,
      "rent": 531,
      "cho": 532,
      "fun": 533,
      "sm": 534,
      "program": 535,
      "ian": 536,
      "pri": 537,
      "reg": 538,
      "hel": 539,
      "ought": 540,
      "ident": 541,
      "sur": 542,
      "requ": 543,
      "cial": 544,
      "ned": 545,
      "too": 546,
      "tal": 547,
      "ass": 548,
      "down": 549,
      "lar": 550,
      "make": 551,
      "thr": 552,
      "fect": 553,
      "made": 554,
      "inform": 555,
      "less": 556,
      "ick": 557,
      "vern": 558,
      "inte": 559,
      "cost": 560,
      "row": 561,
      "first": 562,
      "iss": 563,
      "law": 564,
      "val": 565,
      "air": 566,
      "govern": 567,
      "view": 568,
      "ga": 569,
      "med": 570,
      "ven": 571,
      "cer": 572,
      "take": 573,
      "--": 574,
      "state": 575,
      "als": 576,
      "information": 577,
      "ange": 578,
      "through": 579,
      "gan": 580,
      "high": 581,
      "add": 582,
      "gen": 583,
      "ways": 584,
      "ys": 585,
      "par": 586,
      "public": 587,
      "oh": 588,
      "still": 589,
      "ating": 590,
      "those": 591,
      "read": 592,
      "ph": 593,
      "ide": 594,
      "cour": 595,
      "ily": 596,
      "ba": 597,
      "ational": 598,
      "cal": 599,
      "str": 600,
      "ury": 601,
      "ict": 602,
      "didn": 603,
      "place": 604,
      "help": 605,
      "self": 606,
      "something": 607,
      "tri": 608,
      "clo": 609,
      "little": 610,
      "legal": 611,
      "nor": 612,
      "house": 613,
      "ative": 614,
      "fl": 615,
      "things": 616,
      "stem": 617,
      "gn": 618,
      "before": 619,
      "set": 620,
      "ular": 621,
      "ility": 622,
      "sure": 623,
      "stud": 624,
      "pay": 625,
      "incl": 626,
      "main": 627,
      "system": 628,
      "report": 629,
      "war": 630,
      "exp": 631,
      "lect": 632,
      "call": 633,
      "ms": 634,
      "mean": 635,
      "ob": 636,
      "sub": 637,
      "government": 638,
      "ks": 639,
      "fam": 640,
      "ds": 641,
      "ents": 642,
      "own": 643,
      "log": 644,
      "city": 645,
      "fed": 646,
      "find": 647,
      "arch": 648,
      "ject": 649,
      "put": 650,
      "being": 651,
      "atch": 652,
      "play": 653,
      "ific": 654,
      "vol": 655,
      "ign": 656,
      "ves": 657,
      "vel": 658,
      "vo": 659,
      "ited": 660,
      "hand": 661,
      "plan": 662,
      "ail": 663,
      "again": 664,
      "wer": 665,
      "sent": 666,
      "ste": 667,
      "around": 668,
      "such": 669,
      "cle": 670,
      "kes": 671,
      "real": 672,
      "dr": 673,
      "fact": 674,
      "kind": 675,
      "diffe": 676,
      "last": 677,
      "great": 678,
      "show": 679,
      "interest": 680,
      "att": 681,
      "let": 682,
      "pres": 683,
      "ult": 684,
      "eng": 685,
      "led": 686,
      "ked": 687,
      "ward": 688,
      "mem": 689,
      "ings": 690,
      "ied": 691,
      "tre": 692,
      "tem": 693,
      "small": 694,
      "amer": 695,
      "ual": 696,
      "emp": 697,
      "uring": 698,
      "though": 699,
      "sul": 700,
      "produ": 701,
      "ics": 702,
      "les": 703,
      "town": 704,
      "world": 705,
      "ures": 706,
      "ens": 707,
      "ced": 708,
      "times": 709,
      "agenc": 710,
      "mone": 711,
      "organ": 712,
      "cut": 713,
      "ps": 714,
      "home": 715,
      "bar": 716,
      "wr": 717,
      "care": 718,
      "while": 719,
      "ear": 720,
      "199": 721,
      "wee": 722,
      "rel": 723,
      "bus": 724,
      "found": 725,
      "life": 726,
      "always": 727,
      "sum": 728,
      "pon": 729,
      "sup": 730,
      "went": 731,
      "person": 732,
      "federal": 733,
      "ants": 734,
      "fic": 735,
      "americ": 736,
      "national": 737,
      "cap": 738,
      "ital": 739,
      "ben": 740,
      "tom": 741,
      "da": 742,
      "sk": 743,
      "stru": 744,
      "money": 745,
      "import": 746,
      "three": 747,
      "proble": 748,
      "sive": 749,
      "organiz": 750,
      "century": 751,
      "same": 752,
      "happ": 753,
      "sit": 754,
      "bod": 755,
      "vers": 756,
      "start": 757,
      "sin": 758,
      "child": 759,
      "far": 760,
      "aud": 761,
      "appro": 762,
      "pop": 763,
      "ped": 764,
      "mer": 765,
      "ger": 766,
      "test": 767,
      "both": 768,
      "big": 769,
      "et": 770,
      "num": 771,
      "ship": 772,
      "tra": 773,
      "io": 774,
      "fer": 775,
      "char": 776,
      "ster": 777,
      "ft": 778,
      "came": 779,
      "case": 780,
      "ives": 781,
      "sou": 782,
      "head": 783,
      "sim": 784,
      "yes": 785,
      "best": 786,
      "seem": 787,
      "bro": 788,
      "che": 789,
      "services": 790,
      "vent": 791,
      "bor": 792,
      "thought": 793,
      "beli": 794,
      "pect": 795,
      "000": 796,
      "ls": 797,
      "build": 798,
      "ss": 799,
      "effect": 800,
      "rist": 801,
      "won": 802,
      "scho": 803,
      "ably": 804,
      "post": 805,
      "por": 806,
      "ason": 807,
      "school": 808,
      "sha": 809,
      "anything": 810,
      "ner": 811,
      "room": 812,
      "book": 813,
      "hard": 814,
      "econ": 815,
      "better": 816,
      "hu": 817,
      "econom": 818,
      "lead": 819,
      "thor": 820,
      "men": 821,
      "might": 822,
      "ding": 823,
      "body": 824,
      "each": 825,
      "rule": 826,
      "large": 827,
      "tech": 828,
      "ket": 829,
      "ween": 830,
      "during": 831,
      "contro": 832,
      "chang": 833,
      "peri": 834,
      "between": 835,
      "sto": 836,
      "que": 837,
      "hist": 838,
      "ious": 839,
      "includ": 840,
      "aren": 841,
      "different": 842,
      "dec": 843,
      "service": 844,
      "comple": 845,
      "since": 846,
      "xt": 847,
      "incre": 848,
      "ters": 849,
      "ot": 850,
      "respon": 851,
      "wom": 852,
      "ase": 853,
      "velo": 854,
      "important": 855,
      "point": 856,
      "prov": 857,
      "unt": 858,
      "issu": 859,
      "sist": 860,
      "must": 861,
      "few": 862,
      "mil": 863,
      "water": 864,
      "week": 865,
      "dist": 866,
      "another": 867,
      "away": 868,
      "tax": 869,
      "sible": 870,
      "country": 871,
      "urch": 872,
      "cond": 873,
      "develo": 874,
      "percent": 875,
      "pal": 876,
      "ually": 877,
      "dep": 878,
      "resul": 879,
      "del": 880,
      "fol": 881,
      "watch": 882,
      "manage": 883,
      "ards": 884,
      "quest": 885,
      "cus": 886,
      "ever": 887,
      "ton": 888,
      "ided": 889,
      "wal": 890,
      "hold": 891,
      "partic": 892,
      "sign": 893,
      "run": 894,
      "busin": 895,
      "mat": 896,
      "cu": 897,
      "stree": 898,
      "ired": 899,
      "ished": 900,
      "feel": 901,
      "kid": 902,
      "emplo": 903,
      "sing": 904,
      "wa": 905,
      "muse": 906,
      "light": 907,
      "area": 908,
      "lim": 909,
      "visit": 910,
      "ash": 911,
      "keep": 912,
      "fri": 913,
      "island": 914,
      "qual": 915,
      "vest": 916,
      "benef": 917,
      "win": 918,
      "open": 919,
      "doesn": 920,
      "fort": 921,
      "why": 922,
      "change": 923,
      "night": 924,
      "ath": 925,
      "tract": 926,
      "ata": 927,
      "mail": 928,
      "pret": 929,
      "ized": 930,
      "exam": 931,
      "dire": 932,
      "bur": 933,
      "eas": 934,
      "four": 935,
      "na": 936,
      "20": 937,
      "states": 938,
      "ilt": 939,
      "commun": 940,
      "ken": 941,
      "allow": 942,
      "cam": 943,
      "prof": 944,
      "ris": 945,
      "alth": 946,
      "bit": 947,
      "posed": 948,
      "ise": 949,
      "finan": 950,
      "once": 951,
      "ban": 952,
      "management": 953,
      "near": 954,
      "mr": 955,
      "sid": 956,
      "ically": 957,
      "jon": 958,
      "guess": 959,
      "cept": 960,
      "ff": 961,
      "gress": 962,
      "mill": 963,
      "prob": 964,
      "anal": 965,
      "san": 966,
      "pat": 967,
      "miss": 968,
      "trans": 969,
      "nothing": 970,
      "ared": 971,
      "present": 972,
      "ju": 973,
      "jor": 974,
      "number": 975,
      "sol": 976,
      "lin": 977,
      "invest": 978,
      "left": 979,
      "saving": 980,
      "bud": 981,
      "data": 982,
      "top": 983,
      "tell": 984,
      "children": 985,
      "bre": 986,
      "accoun": 987,
      "built": 988,
      "mor": 989,
      "done": 990,
      "ping": 991,
      "ze": 992,
      "business": 993,
      "bas": 994,
      "ism": 995,
      "without": 996,
      "loc": 997,
      "doing": 998,
      "month": 999,
      "museum": 1000,
      "ately": 1001,
      "colle": 1002,
      "friend": 1003,
      "bad": 1004,
      "line": 1005,
      "follow": 1006,
      "ution": 1007,
      "president": 1008,
      "nat": 1009,
      "white": 1010,
      "ats": 1011,
      "ded": 1012,
      "ross": 1013,
      "hun": 1014,
      "mus": 1015,
      "live": 1016,
      "net": 1017,
      "cy": 1018,
      "programs": 1019,
      "polit": 1020,
      "shop": 1021,
      "five": 1022,
      "den": 1023,
      "certain": 1024,
      "18": 1025,
      "reason": 1026,
      "gao": 1027,
      "hol": 1028,
      "probably": 1029,
      "fa": 1030,
      "ists": 1031,
      "hour": 1032,
      "enough": 1033,
      "grou": 1034,
      "turn": 1035,
      "support": 1036,
      "inst": 1037,
      "ann": 1038,
      "ability": 1039,
      "job": 1040,
      "logy": 1041,
      "direct": 1042,
      "major": 1043,
      "inton": 1044,
      "vir": 1045,
      "oper": 1046,
      "give": 1047,
      "pain": 1048,
      "mal": 1049,
      "hor": 1050,
      "vide": 1051,
      "secur": 1052,
      "redu": 1053,
      "ages": 1054,
      "hal": 1055,
      "next": 1056,
      "clinton": 1057,
      "ley": 1058,
      "oc": 1059,
      "require": 1060,
      "sever": 1061,
      "church": 1062,
      "ib": 1063,
      "gl": 1064,
      "gest": 1065,
      "ient": 1066,
      "known": 1067,
      "along": 1068,
      "took": 1069,
      "har": 1070,
      "sal": 1071,
      "youn": 1072,
      "dri": 1073,
      "making": 1074,
      "impro": 1075,
      "stat": 1076,
      "office": 1077,
      "suc": 1078,
      "fac": 1079,
      "seen": 1080,
      "list": 1081,
      "gy": 1082,
      "10": 1083,
      "called": 1084,
      "name": 1085,
      "west": 1086,
      "var": 1087,
      "power": 1088,
      "joy": 1089,
      "kids": 1090,
      "crit": 1091,
      "reli": 1092,
      "giv": 1093,
      "grow": 1094,
      "bed": 1095,
      "several": 1096,
      "product": 1097,
      "eve": 1098,
      "ries": 1099,
      "ute": 1100,
      "until": 1101,
      "ude": 1102,
      "against": 1103,
      "audit": 1104,
      "today": 1105,
      "pract": 1106,
      "forman": 1107,
      "gin": 1108,
      "review": 1109,
      "process": 1110,
      "ane": 1111,
      "pretty": 1112,
      "performan": 1113,
      "congress": 1114,
      "expect": 1115,
      "ians": 1116,
      "control": 1117,
      "everything": 1118,
      "news": 1119,
      "tou": 1120,
      "south": 1121,
      "contin": 1122,
      "financial": 1123,
      "ago": 1124,
      "bers": 1125,
      "mi": 1126,
      "mand": 1127,
      "rece": 1128,
      "lsc": 1129,
      "ended": 1130,
      "pot": 1131,
      "dol": 1132,
      "search": 1133,
      "stay": 1134,
      "aff": 1135,
      "ric": 1136,
      "class": 1137,
      "family": 1138,
      "wanted": 1139,
      "north": 1140,
      "clear": 1141,
      "days": 1142,
      "pie": 1143,
      "rence": 1144,
      "security": 1145,
      "appe": 1146,
      "..": 1147,
      "writ": 1148,
      "east": 1149,
      "agencies": 1150,
      "usu": 1151,
      "late": 1152,
      "road": 1153,
      "gener": 1154,
      "uni": 1155,
      "happen": 1156,
      "course": 1157,
      "fig": 1158,
      "ides": 1159,
      "sun": 1160,
      "street": 1161,
      "az": 1162,
      "priv": 1163,
      "american": 1164,
      "huh": 1165,
      "trad": 1166,
      "depend": 1167,
      "polic": 1168,
      "free": 1169,
      "howe": 1170,
      "cri": 1171,
      "techno": 1172,
      "agency": 1173,
      "ional": 1174,
      "enjoy": 1175,
      "ref": 1176,
      "however": 1177,
      "understand": 1178,
      "ames": 1179,
      "level": 1180,
      "costs": 1181,
      "15": 1182,
      "bal": 1183,
      "lu": 1184,
      "whe": 1185,
      "bill": 1186,
      "mit": 1187,
      "remain": 1188,
      "stu": 1189,
      "app": 1190,
      "dest": 1191,
      "hn": 1192,
      "market": 1193,
      "general": 1194,
      "site": 1195,
      "popular": 1196,
      "non": 1197,
      "often": 1198,
      "study": 1199,
      "ret": 1200,
      "past": 1201,
      "performance": 1202,
      "ready": 1203,
      "ither": 1204,
      "believe": 1205,
      "invol": 1206,
      "stop": 1207,
      "john": 1208,
      "else": 1209,
      "ade": 1210,
      "project": 1211,
      "local": 1212,
      "current": 1213,
      "avail": 1214,
      "lea": 1215,
      "possible": 1216,
      "elect": 1217,
      "dre": 1218,
      "aw": 1219,
      "plic": 1220,
      "paper": 1221,
      "offic": 1222,
      "ues": 1223,
      "order": 1224,
      "ness": 1225,
      "prom": 1226,
      "spend": 1227,
      "imp": 1228,
      "having": 1229,
      "cover": 1230,
      "band": 1231,
      "problem": 1232,
      "crim": 1233,
      "design": 1234,
      "buy": 1235,
      "pet": 1236,
      "os": 1237,
      "ier": 1238,
      "ground": 1239,
      "getting": 1240,
      "plain": 1241,
      "second": 1242,
      "member": 1243,
      "train": 1244,
      "ivid": 1245,
      "vill": 1246,
      "thir": 1247,
      "using": 1248,
      "vil": 1249,
      "half": 1250,
      "health": 1251,
      "based": 1252,
      "story": 1253,
      "plac": 1254,
      "black": 1255,
      "rug": 1256,
      "ones": 1257,
      "center": 1258,
      "problems": 1259,
      "capital": 1260,
      "roy": 1261,
      "deli": 1262,
      "provide": 1263,
      "recent": 1264,
      "least": 1265,
      "ples": 1266,
      "ron": 1267,
      "minist": 1268,
      "estim": 1269,
      "isn": 1270,
      "six": 1271,
      "regul": 1272,
      "exe": 1273,
      "spec": 1274,
      "200": 1275,
      "asked": 1276,
      "aut": 1277,
      "aring": 1278,
      "looked": 1279,
      "women": 1280,
      "company": 1281,
      "struct": 1282,
      "almost": 1283,
      "saw": 1284,
      "quite": 1285,
      "activ": 1286,
      "execut": 1287,
      "ling": 1288,
      "million": 1289,
      "depart": 1290,
      "aid": 1291,
      "everyone": 1292,
      "says": 1293,
      "ii": 1294,
      "moun": 1295,
      "united": 1296,
      "success": 1297,
      "ural": 1298,
      "fully": 1299,
      "flo": 1300,
      "din": 1301,
      "rul": 1302,
      "young": 1303,
      "mid": 1304,
      "building": 1305,
      "budget": 1306,
      "hum": 1307,
      "igin": 1308,
      "ified": 1309,
      "edu": 1310,
      "wasn": 1311,
      "agree": 1312,
      "whole": 1313,
      "origin": 1314,
      "court": 1315,
      "comes": 1316,
      "ysis": 1317,
      "available": 1318,
      "develop": 1319,
      "upp": 1320,
      "beach": 1321,
      "rid": 1322,
      "cli": 1323,
      "igh": 1324,
      "face": 1325,
      "wall": 1326,
      "hind": 1327,
      "dollar": 1328,
      "pur": 1329,
      "actually": 1330,
      "food": 1331,
      "nice": 1332,
      "analysis": 1333,
      "ons": 1334,
      "moder": 1335,
      "asses": 1336,
      "ize": 1337,
      "17": 1338,
      "step": 1339,
      "concer": 1340,
      "lish": 1341,
      "addition": 1342,
      "ral": 1343,
      "told": 1344,
      "fel": 1345,
      "consid": 1346,
      "fine": 1347,
      "gard": 1348,
      "discus": 1349,
      "ency": 1350,
      "makes": 1351,
      "changes": 1352,
      "history": 1353,
      "love": 1354,
      "blo": 1355,
      "comput": 1356,
      "commit": 1357,
      "fur": 1358,
      "jud": 1359,
      "cla": 1360,
      "among": 1361,
      "ried": 1362,
      "idea": 1363,
      "spect": 1364,
      "fil": 1365,
      "yet": 1366,
      "rom": 1367,
      "lawy": 1368,
      "ele": 1369,
      "author": 1370,
      "whether": 1371,
      "individ": 1372,
      "tupp": 1373,
      "worth": 1374,
      "mind": 1375,
      "rather": 1376,
      "ources": 1377,
      "tuppence": 1378,
      "fut": 1379,
      "deal": 1380,
      "tommy": 1381,
      "working": 1382,
      "including": 1383,
      "jap": 1384,
      "maybe": 1385,
      "question": 1386,
      "employe": 1387,
      "complete": 1388,
      "cas": 1389,
      "hote": 1390,
      "ars": 1391,
      "ensive": 1392,
      "term": 1393,
      "true": 1394,
      "indust": 1395,
      "sug": 1396,
      "trying": 1397,
      "social": 1398,
      "di": 1399,
      "rate": 1400,
      "idence": 1401,
      "experi": 1402,
      "eu": 1403,
      "consider": 1404,
      "sty": 1405,
      "fish": 1406,
      "ged": 1407,
      "acy": 1408,
      "sat": 1409,
      "research": 1410,
      "mic": 1411,
      "benefits": 1412,
      "usually": 1413,
      "nal": 1414,
      "sound": 1415,
      "full": 1416,
      "defin": 1417,
      "close": 1418,
      "fall": 1419,
      "heard": 1420,
      "within": 1421,
      "brit": 1422,
      "needed": 1423,
      "coming": 1424,
      "sw": 1425,
      "uation": 1426,
      "ball": 1427,
      "okay": 1428,
      "wood": 1429,
      "ix": 1430,
      "sib": 1431,
      "adv": 1432,
      "ived": 1433,
      "someone": 1434,
      "ances": 1435,
      "prote": 1436,
      "manag": 1437,
      "12": 1438,
      "door": 1439,
      "yor": 1440,
      "grap": 1441,
      "round": 1442,
      "ina": 1443,
      "ask": 1444,
      "key": 1445,
      "tex": 1446,
      "cou": 1447,
      "organizations": 1448,
      "either": 1449,
      "later": 1450,
      "prin": 1451,
      "beaut": 1452,
      "technology": 1453,
      "soci": 1454,
      "private": 1455,
      "equ": 1456,
      "ission": 1457,
      "wide": 1458,
      "quality": 1459,
      "sch": 1460,
      "early": 1461,
      "bon": 1462,
      "signific": 1463,
      "pen": 1464,
      "meth": 1465,
      "given": 1466,
      "16": 1467,
      "income": 1468,
      "lab": 1469,
      "kill": 1470,
      "turned": 1471,
      "ont": 1472,
      "future": 1473,
      "accor": 1474,
      "issues": 1475,
      "human": 1476,
      "york": 1477,
      "temple": 1478,
      "ny": 1479,
      "others": 1480,
      "tourist": 1481,
      "decis": 1482,
      "tour": 1483,
      "hill": 1484,
      "bs": 1485,
      "presen": 1486,
      "seems": 1487,
      "amoun": 1488,
      "travel": 1489,
      "stuff": 1490,
      "postal": 1491,
      "cing": 1492,
      "looking": 1493,
      "final": 1494,
      "ously": 1495,
      "christ": 1496,
      "sco": 1497,
      "claim": 1498,
      "interesting": 1499,
      "modern": 1500,
      "ribut": 1501,
      "estab": 1502,
      "across": 1503,
      "outside": 1504,
      "ulation": 1505,
      "example": 1506,
      "move": 1507,
      "gir": 1508,
      "wel": 1509,
      "lear": 1510,
      "systems": 1511,
      "needs": 1512,
      "ield": 1513,
      "toge": 1514,
      "cred": 1515,
      "talking": 1516,
      "together": 1517,
      "dred": 1518,
      "rench": 1519,
      "easy": 1520,
      "results": 1521,
      "cast": 1522,
      "tail": 1523,
      "meas": 1524,
      "held": 1525,
      "hundred": 1526,
      "30": 1527,
      "reach": 1528,
      "due": 1529,
      "become": 1530,
      "short": 1531,
      "50": 1532,
      "drug": 1533,
      "effective": 1534,
      "ories": 1535,
      "plement": 1536,
      "include": 1537,
      "tains": 1538,
      "compan": 1539,
      "sil": 1540,
      "special": 1541,
      "drew": 1542,
      "taken": 1543,
      "administ": 1544,
      "attract": 1545,
      "nam": 1546,
      "park": 1547,
      "init": 1548,
      "standards": 1549,
      "sort": 1550,
      "economic": 1551,
      "miles": 1552,
      "coast": 1553,
      "ior": 1554,
      "ible": 1555,
      "ify": 1556,
      "fav": 1557,
      "works": 1558,
      "ased": 1559,
      "squ": 1560,
      "rin": 1561,
      "paren": 1562,
      "poor": 1563,
      "wish": 1564,
      "ns": 1565,
      "pose": 1566,
      "cro": 1567,
      "cient": 1568,
      "uses": 1569,
      "hus": 1570,
      "sometimes": 1571,
      "ison": 1572,
      "iro": 1573,
      "gree": 1574,
      "group": 1575,
      "period": 1576,
      "ateg": 1577,
      "ctions": 1578,
      "team": 1579,
      "typ": 1580,
      "knew": 1581,
      "value": 1582,
      "mom": 1583,
      "ws": 1584,
      "already": 1585,
      "matter": 1586,
      "iety": 1587,
      "particular": 1588,
      "bes": 1589,
      "associ": 1590,
      "offer": 1591,
      "suggest": 1592,
      "significant": 1593,
      "graph": 1594,
      "staff": 1595,
      "policy": 1596,
      "represent": 1597,
      "vered": 1598,
      "necess": 1599,
      "death": 1600,
      "talk": 1601,
      "started": 1602,
      "french": 1603,
      "met": 1604,
      "although": 1605,
      "flu": 1606,
      "scre": 1607,
      "recor": 1608,
      "atory": 1609,
      "music": 1610,
      "iful": 1611,
      "pas": 1612,
      "sof": 1613,
      "begin": 1614,
      "front": 1615,
      "daan": 1616,
      "diffic": 1617,
      "ti": 1618,
      "profess": 1619,
      "hours": 1620,
      "ming": 1621,
      "organization": 1622,
      "dra": 1623,
      "gun": 1624,
      "def": 1625,
      "rope": 1626,
      "action": 1627,
      "chine": 1628,
      "rich": 1629,
      "ilities": 1630,
      "envir": 1631,
      "dou": 1632,
      "force": 1633,
      "reco": 1634,
      "improve": 1635,
      "ica": 1636,
      "environ": 1637,
      "couldn": 1638,
      "particip": 1639,
      "descri": 1640,
      "grand": 1641,
      "woman": 1642,
      "official": 1643,
      "sell": 1644,
      "assist": 1645,
      "shows": 1646,
      "department": 1647,
      "walk": 1648,
      "summer": 1649,
      "personal": 1650,
      "star": 1651,
      "ined": 1652,
      "fail": 1653,
      "exist": 1654,
      "stead": 1655,
      "months": 1656,
      "computer": 1657,
      "board": 1658,
      "word": 1659,
      "ilar": 1660,
      "dro": 1661,
      "model": 1662,
      "commission": 1663,
      "ney": 1664,
      "cially": 1665,
      "account": 1666,
      "risk": 1667,
      "tru": 1668,
      "husband": 1669,
      "educ": 1670,
      "behind": 1671,
      "enter": 1672,
      "approach": 1673,
      "toward": 1674,
      "cases": 1675,
      "according": 1676,
      "mot": 1677,
      "workers": 1678,
      "cks": 1679,
      "himself": 1680,
      "remember": 1681,
      "dollars": 1682,
      "soft": 1683,
      "lower": 1684,
      "access": 1685,
      "type": 1686,
      "republic": 1687,
      "utes": 1688,
      "likely": 1689,
      "eval": 1690,
      "areas": 1691,
      "justice": 1692,
      "mis": 1693,
      "feat": 1694,
      "wonder": 1695,
      "movie": 1696,
      "corpor": 1697,
      "position": 1698,
      "beautiful": 1699,
      "ery": 1700,
      "fle": 1701,
      "increase": 1702,
      "fight": 1703,
      "studies": 1704,
      "environment": 1705,
      "selves": 1706,
      "atic": 1707,
      "wait": 1708,
      "implement": 1709,
      "specific": 1710,
      "tradition": 1711,
      "14": 1712,
      "required": 1713,
      "administr": 1714,
      "cult": 1715,
      "conside": 1716,
      "ins": 1717,
      "ousand": 1718,
      "considered": 1719,
      "unch": 1720,
      "thousand": 1721,
      "dom": 1722,
      "served": 1723,
      "rict": 1724,
      "ination": 1725,
      "amount": 1726,
      "spo": 1727,
      "lost": 1728,
      "affect": 1729,
      "civil": 1730,
      "companies": 1731,
      "pan": 1732,
      "regard": 1733,
      "const": 1734,
      "political": 1735,
      "tic": 1736,
      "anyone": 1737,
      "method": 1738,
      "requirements": 1739,
      "sight": 1740,
      "planning": 1741,
      "ank": 1742,
      "europe": 1743,
      "dam": 1744,
      "famous": 1745,
      "alco": 1746,
      "total": 1747,
      "became": 1748,
      "ising": 1749,
      "wouldn": 1750,
      "related": 1751,
      "abo": 1752,
      "bring": 1753,
      "itions": 1754,
      "river": 1755,
      "isl": 1756,
      "members": 1757,
      "impact": 1758,
      "deb": 1759,
      "development": 1760,
      "ham": 1761,
      "teen": 1762,
      "difficult": 1763,
      "serve": 1764,
      "cannot": 1765,
      "scen": 1766,
      "gets": 1767,
      "haven": 1768,
      "rules": 1769,
      "cop": 1770,
      "tar": 1771,
      "demo": 1772,
      "gave": 1773,
      "community": 1774,
      "roll": 1775,
      "employees": 1776,
      "alcohol": 1777,
      "ator": 1778,
      "texas": 1779,
      "taking": 1780,
      "foot": 1781,
      "wash": 1782,
      "ured": 1783,
      "mother": 1784,
      "covered": 1785,
      "nation": 1786,
      "houses": 1787,
      "exact": 1788,
      "resources": 1789,
      "aur": 1790,
      "lou": 1791,
      "similar": 1792,
      "fair": 1793,
      "sion": 1794,
      "histor": 1795,
      "employ": 1796,
      "ines": 1797,
      "felt": 1798,
      "ense": 1799,
      "dle": 1800,
      "lan": 1801,
      "demand": 1802,
      "single": 1803,
      "collection": 1804,
      "favor": 1805,
      "delivery": 1806,
      "div": 1807,
      "ante": 1808,
      "gas": 1809,
      "leave": 1810,
      "ctor": 1811,
      "cell": 1812,
      "thern": 1813,
      "appropri": 1814,
      "british": 1815,
      "compet": 1816,
      "achie": 1817,
      "perform": 1818,
      "wife": 1819,
      "cted": 1820,
      "docu": 1821,
      "object": 1822,
      "mur": 1823,
      "eyes": 1824,
      "mas": 1825,
      "espe": 1826,
      "argu": 1827,
      "takes": 1828,
      "prim": 1829,
      "ening": 1830,
      "famil": 1831,
      "wrong": 1832,
      "piece": 1833,
      "labor": 1834,
      "couple": 1835,
      "cru": 1836,
      "gain": 1837,
      "especially": 1838,
      "section": 1839,
      "bat": 1840,
      "price": 1841,
      "field": 1842,
      "soon": 1843,
      "restaur": 1844,
      "cir": 1845,
      "proper": 1846,
      "sky": 1847,
      "cit": 1848,
      "ention": 1849,
      "quick": 1850,
      "recogn": 1851,
      "vision": 1852,
      "hear": 1853,
      "univers": 1854,
      "goes": 1855,
      "subject": 1856,
      "entire": 1857,
      "words": 1858,
      "expensive": 1859,
      "tv": 1860,
      "gg": 1861,
      "bey": 1862,
      "fast": 1863,
      "fre": 1864,
      "mee": 1865,
      "gold": 1866,
      "table": 1867,
      "knowled": 1868,
      "pick": 1869,
      "morning": 1870,
      "activities": 1871,
      "range": 1872,
      "dy": 1873,
      "ama": 1874,
      "conf": 1875,
      "cul": 1876,
      "teach": 1877,
      "termin": 1878,
      "treat": 1879,
      "60": 1880,
      "mary": 1881,
      "common": 1882,
      "parents": 1883,
      "issue": 1884,
      "result": 1885,
      "sir": 1886,
      "believ": 1887,
      "ni": 1888,
      "lies": 1889,
      "spr": 1890,
      "bir": 1891,
      "omb": 1892,
      "pass": 1893,
      "emer": 1894,
      "sense": 1895,
      "eight": 1896,
      "longer": 1897,
      "tele": 1898,
      "comments": 1899,
      "ond": 1900,
      "ran": 1901,
      "adrin": 1902,
      "proposed": 1903,
      "involved": 1904,
      "worked": 1905,
      "stone": 1906,
      "moved": 1907,
      "aged": 1908,
      "college": 1909,
      "accept": 1910,
      "figure": 1911,
      "base": 1912,
      "began": 1913,
      "collect": 1914,
      "population": 1915,
      "ges": 1916,
      "america": 1917,
      "style": 1918,
      "provided": 1919,
      "ark": 1920,
      "heart": 1921,
      "cust": 1922,
      "super": 1923,
      "themselves": 1924,
      "decl": 1925,
      "boy": 1926,
      "terr": 1927,
      "strong": 1928,
      "god": 1929,
      "clu": 1930,
      "ators": 1931,
      "middle": 1932,
      "standard": 1933,
      "hall": 1934,
      "hit": 1935,
      "ale": 1936,
      "drink": 1937,
      "ently": 1938,
      "hope": 1939,
      "charac": 1940,
      "lig": 1941,
      "reports": 1942,
      "changed": 1943,
      "mult": 1944,
      "offe": 1945,
      "kept": 1946,
      "asing": 1947,
      "central": 1948,
      "huge": 1949,
      "france": 1950,
      "roman": 1951,
      "living": 1952,
      "sea": 1953,
      "tend": 1954,
      "inv": 1955,
      "nar": 1956,
      "books": 1957,
      "ford": 1958,
      "viol": 1959,
      "instead": 1960,
      "quar": 1961,
      "ith": 1962,
      "happy": 1963,
      "expected": 1964,
      "visitors": 1965,
      "democr": 1966,
      "rates": 1967,
      "amp": 1968,
      "safe": 1969,
      "dead": 1970,
      "iding": 1971,
      "reporting": 1972,
      "contract": 1973,
      "fill": 1974,
      "hot": 1975,
      "village": 1976,
      "avo": 1977,
      "industry": 1978,
      "request": 1979,
      "fire": 1980,
      "198": 1981,
      "struction": 1982,
      "twent": 1983,
      "ients": 1984,
      "sex": 1985,
      "bel": 1986,
      "minutes": 1987,
      "juli": 1988,
      "ised": 1989,
      "attor": 1990,
      "speak": 1991,
      "above": 1992,
      "tings": 1993,
      "nine": 1994,
      "intervent": 1995,
      "located": 1996,
      "bush": 1997,
      "places": 1998,
      "poiro": 1999,
      "tried": 2000,
      "relig": 2001,
      "poirot": 2002,
      "wil": 2003,
      "ather": 2004,
      "evidence": 2005,
      "green": 2006,
      "cat": 2007,
      "jour": 2008,
      "heav": 2009,
      "igned": 2010,
      "web": 2011,
      "haps": 2012,
      "executive": 2013,
      "means": 2014,
      "milit": 2015,
      "views": 2016,
      "mark": 2017,
      "ption": 2018,
      "square": 2019,
      "dan": 2020,
      "plant": 2021,
      "recomm": 2022,
      "seven": 2023,
      "further": 2024,
      "archite": 2025,
      "girl": 2026,
      "anti": 2027,
      "experience": 2028,
      "soc": 2029,
      "ibility": 2030,
      "lawyers": 2031,
      "questions": 2032,
      "mad": 2033,
      "13": 2034,
      "architect": 2035,
      "fif": 2036,
      "necessary": 2037,
      "span": 2038,
      "lake": 2039,
      "kets": 2040,
      "palace": 2041,
      "gar": 2042,
      "gone": 2043,
      "meet": 2044,
      "economy": 2045,
      "sold": 2046,
      "explain": 2047,
      "ficient": 2048,
      "gro": 2049,
      "anim": 2050,
      "acqu": 2051,
      "mrs": 2052,
      "mission": 2053,
      "bul": 2054,
      "gate": 2055,
      "smo": 2056,
      "detail": 2057,
      "brought": 2058,
      "ler": 2059,
      "lied": 2060,
      "supp": 2061,
      "received": 2062,
      "rious": 2063,
      "opt": 2064,
      "nes": 2065,
      "break": 2066,
      "influ": 2067,
      "perhaps": 2068,
      "trou": 2069,
      "exactly": 2070,
      "rain": 2071,
      "alter": 2072,
      "hur": 2073,
      "cret": 2074,
      "party": 2075,
      "twenty": 2076,
      "ko": 2077,
      "jer": 2078,
      "funding": 2079,
      "individual": 2080,
      "suf": 2081,
      "chall": 2082,
      "preci": 2083,
      "medic": 2084,
      "ires": 2085,
      "rible": 2086,
      "lived": 2087,
      "trust": 2088,
      "ancient": 2089,
      "campa": 2090,
      "thre": 2091,
      "inside": 2092,
      "contribut": 2093,
      "knowledge": 2094,
      "rock": 2095,
      "third": 2096,
      "ington": 2097,
      "perfect": 2098,
      "friends": 2099,
      "tries": 2100,
      "allowed": 2101,
      "opport": 2102,
      "opportun": 2103,
      "zz": 2104,
      "itch": 2105,
      "independ": 2106,
      "sci": 2107,
      "pul": 2108,
      "happened": 2109,
      "cum": 2110,
      "wind": 2111,
      "foreign": 2112,
      "event": 2113,
      "ira": 2114,
      "saint": 2115,
      "hotel": 2116,
      "aper": 2117,
      "itor": 2118,
      "paid": 2119,
      "reform": 2120,
      "vic": 2121,
      "completely": 2122,
      "initi": 2123,
      "gypt": 2124,
      "father": 2125,
      "weather": 2126,
      "pict": 2127,
      "egypt": 2128,
      "plans": 2129,
      "shops": 2130,
      "original": 2131,
      "custom": 2132,
      "dog": 2133,
      "applic": 2134,
      "istic": 2135,
      "neigh": 2136,
      "moment": 2137,
      "investment": 2138,
      "jun": 2139,
      "rs": 2140,
      "ressed": 2141,
      "los": 2142,
      "continu": 2143,
      "chan": 2144,
      "pped": 2145,
      "itive": 2146,
      "explo": 2147,
      "check": 2148,
      "epa": 2149,
      "crow": 2150,
      "drive": 2151,
      "lack": 2152,
      "bert": 2153,
      "household": 2154,
      "stern": 2155,
      "stri": 2156,
      "ram": 2157,
      "fell": 2158,
      "created": 2159,
      "decided": 2160,
      "julius": 2161,
      "ake": 2162,
      "rap": 2163,
      "trade": 2164,
      "hy": 2165,
      "campaign": 2166,
      "atives": 2167,
      "colum": 2168,
      "peace": 2169,
      "ali": 2170,
      "ware": 2171,
      "decision": 2172,
      "tee": 2173,
      "designed": 2174,
      "james": 2175,
      "resort": 2176,
      "buildings": 2177,
      "100": 2178,
      "address": 2179,
      "attention": 2180,
      "ays": 2181,
      "lev": 2182,
      "consist": 2183,
      "stood": 2184,
      "itself": 2185,
      "desp": 2186,
      "conne": 2187,
      "lines": 2188,
      "...": 2189,
      "phone": 2190,
      "higher": 2191,
      "japan": 2192,
      "corre": 2193,
      "hom": 2194,
      "saying": 2195,
      "arri": 2196,
      "culture": 2197,
      "2000": 2198,
      "rad": 2199,
      "ceed": 2200,
      "respect": 2201,
      "display": 2202,
      "following": 2203,
      "sport": 2204,
      "chinese": 2205,
      "actions": 2206,
      "color": 2207,
      "emerg": 2208,
      "ences": 2209,
      "game": 2210,
      "native": 2211,
      "surance": 2212,
      "card": 2213,
      "ply": 2214,
      "funds": 2215,
      "sor": 2216,
      "none": 2217,
      "dor": 2218,
      "strateg": 2219,
      "groups": 2220,
      "military": 2221,
      "geor": 2222,
      "recently": 2223,
      "washington": 2224,
      "clean": 2225,
      "equip": 2226,
      "royal": 2227,
      "bi": 2228,
      "aver": 2229,
      "exper": 2230,
      "attack": 2231,
      "spir": 2232,
      "sam": 2233,
      "ades": 2234,
      "guide": 2235,
      "trees": 2236,
      "logical": 2237,
      "chance": 2238,
      "return": 2239,
      "valley": 2240,
      "iet": 2241,
      "rus": 2242,
      "english": 2243,
      "assess": 2244,
      "cup": 2245,
      "taxes": 2246,
      "hood": 2247,
      "spending": 2248,
      "princi": 2249,
      "season": 2250,
      "dow": 2251,
      "credit": 2252,
      "reven": 2253,
      "afr": 2254,
      "ered": 2255,
      "pack": 2256,
      "sand": 2257,
      "40": 2258,
      "artic": 2259,
      "seemed": 2260,
      "forts": 2261,
      "ference": 2262,
      "sl": 2263,
      "situation": 2264,
      "ky": 2265,
      "pho": 2266,
      "western": 2267,
      "anger": 2268,
      "medi": 2269,
      "whate": 2270,
      "practices": 2271,
      "whatever": 2272,
      "sym": 2273,
      "item": 2274,
      "benefit": 2275,
      "education": 2276,
      "eat": 2277,
      "sla": 2278,
      "poll": 2279,
      "separ": 2280,
      "except": 2281,
      "cele": 2282,
      "apart": 2283,
      "legisl": 2284,
      "prior": 2285,
      "ints": 2286,
      "condu": 2287,
      "bri": 2288,
      "surround": 2289,
      "spent": 2290,
      "iled": 2291,
      "complex": 2292,
      "box": 2293,
      "engine": 2294,
      "resident": 2295,
      "ization": 2296,
      "broad": 2297,
      "responsib": 2298,
      "itely": 2299,
      "demon": 2300,
      "character": 2301,
      "included": 2302,
      "save": 2303,
      "focus": 2304,
      "phys": 2305,
      "clients": 2306,
      "training": 2307,
      "count": 2308,
      "fortun": 2309,
      "finally": 2310,
      "mater": 2311,
      "ingle": 2312,
      "answer": 2313,
      "countries": 2314,
      "guy": 2315,
      "sites": 2316,
      "share": 2317,
      "sle": 2318,
      "streets": 2319,
      "annual": 2320,
      "critical": 2321,
      "van": 2322,
      "manu": 2323,
      "relation": 2324,
      "pleas": 2325,
      "growth": 2326,
      "tro": 2327,
      "communic": 2328,
      "airs": 2329,
      "reported": 2330,
      "flow": 2331,
      "leader": 2332,
      "garden": 2333,
      "traditional": 2334,
      "grant": 2335,
      "voice": 2336,
      "lying": 2337,
      "ony": 2338,
      "station": 2339,
      "efforts": 2340,
      "supposed": 2341,
      "auditors": 2342,
      "bank": 2343,
      "assistance": 2344,
      "vote": 2345,
      "tit": 2346,
      "notice": 2347,
      "consum": 2348,
      "islands": 2349,
      "slow": 2350,
      "provides": 2351,
      "cook": 2352,
      "natural": 2353,
      "tained": 2354,
      "inglethor": 2355,
      "gall": 2356,
      "district": 2357,
      "determin": 2358,
      "ught": 2359,
      "isra": 2360,
      "path": 2361,
      "rup": 2362,
      "died": 2363,
      "link": 2364,
      "former": 2365,
      "ource": 2366,
      "scul": 2367,
      "despite": 2368,
      "celebr": 2369,
      "uals": 2370,
      "sequ": 2371,
      "bot": 2372,
      "dome": 2373,
      "km": 2374,
      "indic": 2375,
      "tu": 2376,
      "ume": 2377,
      "firm": 2378,
      "throughout": 2379,
      "construction": 2380,
      "prices": 2381,
      "retire": 2382,
      "written": 2383,
      "document": 2384,
      "xic": 2385,
      "phil": 2386,
      "beyond": 2387,
      "inglethorp": 2388,
      "bay": 2389,
      "wants": 2390,
      "analy": 2391,
      "draw": 2392,
      "mist": 2393,
      "university": 2394,
      "secret": 2395,
      "vin": 2396,
      "anyway": 2397,
      "lands": 2398,
      "lives": 2399,
      "cold": 2400,
      "vict": 2401,
      "issions": 2402,
      "additional": 2403,
      "sculpt": 2404,
      "role": 2405,
      "older": 2406,
      "exhi": 2407,
      "thinking": 2408,
      "paris": 2409,
      "blood": 2410,
      "wise": 2411,
      "subst": 2412,
      "ened": 2413,
      "interested": 2414,
      "correct": 2415,
      "laws": 2416,
      "ronic": 2417,
      "wealth": 2418,
      "imag": 2419,
      "size": 2420,
      "increased": 2421,
      "various": 2422,
      "remains": 2423,
      "hon": 2424,
      "wed": 2425,
      "internet": 2426,
      "rooms": 2427,
      "dav": 2428,
      "commer": 2429,
      "ival": 2430,
      "ques": 2431,
      "appropriate": 2432,
      "occur": 2433,
      "material": 2434,
      "establish": 2435,
      "cand": 2436,
      "nobody": 2437,
      "vious": 2438,
      "sets": 2439,
      "stra": 2440,
      "cked": 2441,
      "developed": 2442,
      "hands": 2443,
      "pun": 2444,
      "ering": 2445,
      "prep": 2446,
      "society": 2447,
      "11": 2448,
      "definitely": 2449,
      "types": 2450,
      "concl": 2451,
      "equipment": 2452,
      "gd": 2453,
      "nic": 2454,
      "instit": 2455,
      "manufact": 2456,
      "acc": 2457,
      "bab": 2458,
      "anese": 2459,
      "upon": 2460,
      "langu": 2461,
      "scr": 2462,
      "comment": 2463,
      "allas": 2464,
      "clim": 2465,
      "pieces": 2466,
      "arily": 2467,
      "agre": 2468,
      "ols": 2469,
      "lots": 2470,
      "mov": 2471,
      "china": 2472,
      "myself": 2473,
      "page": 2474,
      "americans": 2475,
      "dallas": 2476,
      "emissions": 2477,
      "named": 2478,
      "gaz": 2479,
      "70": 2480,
      "shopping": 2481,
      "stic": 2482,
      "dered": 2483,
      "potent": 2484,
      "published": 2485,
      "running": 2486,
      "hosp": 2487,
      "ends": 2488,
      "izing": 2489,
      "gardens": 2490,
      "ging": 2491,
      "ored": 2492,
      "mess": 2493,
      "rights": 2494,
      "install": 2495,
      "dark": 2496,
      "region": 2497,
      "25": 2498,
      "cape": 2499,
      "alone": 2500,
      "assum": 2501,
      "proced": 2502,
      "crime": 2503,
      "gal": 2504,
      "below": 2505,
      "ders": 2506,
      "horse": 2507,
      "ched": 2508,
      "movies": 2509,
      "tourists": 2510,
      "looks": 2511,
      "patients": 2512,
      "everybody": 2513,
      "increasing": 2514,
      "spanish": 2515,
      "cha": 2516,
      "vert": 2517,
      "lie": 2518,
      "quickly": 2519,
      "floor": 2520,
      "regulatory": 2521,
      "destroy": 2522,
      "mc": 2523,
      "deep": 2524,
      "multi": 2525,
      "mir": 2526,
      "tin": 2527,
      "slate": 2528,
      "leading": 2529,
      "evalu": 2530,
      "attem": 2531,
      "cathe": 2532,
      "continue": 2533,
      "protect": 2534,
      "bye": 2535,
      "insurance": 2536,
      "international": 2537,
      "date": 2538,
      "establ": 2539,
      "fix": 2540,
      "lad": 2541,
      "japanese": 2542,
      "rou": 2543,
      "ghter": 2544,
      "surv": 2545,
      "accounting": 2546,
      "comb": 2547,
      "opin": 2548,
      "established": 2549,
      "ature": 2550,
      "certainly": 2551,
      "russi": 2552,
      "brid": 2553,
      "prefer": 2554,
      "encour": 2555,
      "entities": 2556,
      "stock": 2557,
      "generally": 2558,
      "effects": 2559,
      "lon": 2560,
      "press": 2561,
      "pra": 2562,
      "mart": 2563,
      "pred": 2564,
      "tural": 2565,
      "nov": 2566,
      "goals": 2567,
      "tor": 2568,
      "practice": 2569,
      "brown": 2570,
      "revol": 2571,
      "err": 2572,
      "gi": 2573,
      "jes": 2574,
      "tered": 2575,
      "learn": 2576,
      "includes": 2577,
      "weeks": 2578,
      "largest": 2579,
      "crimin": 2580,
      "emergency": 2581,
      "mort": 2582,
      "photo": 2583,
      "recommend": 2584,
      "aking": 2585,
      "parts": 2586,
      "doub": 2587,
      "xim": 2588,
      "nia": 2589,
      "ordin": 2590,
      "integr": 2591,
      "winter": 2592,
      "letter": 2593,
      "gent": 2594,
      "leav": 2595,
      "choice": 2596,
      "absol": 2597,
      "earth": 2598,
      "bought": 2599,
      "volume": 2600,
      "nature": 2601,
      "master": 2602,
      "hen": 2603,
      "ality": 2604,
      "tower": 2605,
      "ches": 2606,
      "extre": 2607,
      "wers": 2608,
      "regular": 2609,
      "scot": 2610,
      "trouble": 2611,
      "surpri": 2612,
      "difference": 2613,
      "ern": 2614,
      "fund": 2615,
      "mitted": 2616,
      "film": 2617,
      "authority": 2618,
      "committee": 2619,
      "fran": 2620,
      "internal": 2621,
      "average": 2622,
      "antic": 2623,
      "blue": 2624,
      "cathedr": 2625,
      "carry": 2626,
      "basis": 2627,
      "ka": 2628,
      "rote": 2629,
      "indian": 2630,
      "offers": 2631,
      "relationship": 2632,
      "payment": 2633,
      "skill": 2634,
      "walls": 2635,
      "investig": 2636,
      "favorite": 2637,
      "profit": 2638,
      "jury": 2639,
      "closed": 2640,
      "farm": 2641,
      "watching": 2642,
      "standing": 2643,
      "neighbor": 2644,
      "fare": 2645,
      "space": 2646,
      "officials": 2647,
      "lor": 2648,
      "terms": 2649,
      "drugs": 2650,
      "production": 2651,
      "wrote": 2652,
      "steps": 2653,
      "senior": 2654,
      "nel": 2655,
      "cities": 2656,
      "terrible": 2657,
      "battle": 2658,
      "meeting": 2659,
      "aries": 2660,
      "monu": 2661,
      "ino": 2662,
      "reduce": 2663,
      "assu": 2664,
      "reflect": 2665,
      "hotels": 2666,
      "prison": 2667,
      "rences": 2668,
      "events": 2669,
      "medical": 2670,
      "grad": 2671,
      "beaches": 2672,
      "irs": 2673,
      "students": 2674,
      "iced": 2675,
      "ification": 2676,
      "absolute": 2677,
      "ensure": 2678,
      "easily": 2679,
      "spot": 2680,
      "arm": 2681,
      "beat": 2682,
      "liam": 2683,
      "lawyer": 2684,
      "payments": 2685,
      "growing": 2686,
      "fash": 2687,
      "kers": 2688,
      "ado": 2689,
      "possib": 2690,
      "luck": 2691,
      "whose": 2692,
      "families": 2693,
      "ases": 2694,
      "schools": 2695,
      "george": 2696,
      "ring": 2697,
      "sounds": 2698,
      "excell": 2699,
      "olf": 2700,
      "frequ": 2701,
      "ae": 2702,
      "hop": 2703,
      "restaurants": 2704,
      "usal": 2705,
      "iling": 2706,
      "ivity": 2707,
      "products": 2708,
      "louis": 2709,
      "ables": 2710,
      "avoid": 2711,
      "presented": 2712,
      "retirement": 2713,
      "fit": 2714,
      "bell": 2715,
      "cin": 2716,
      "successful": 2717,
      "fu": 2718,
      "cars": 2719,
      "particularly": 2720,
      "accur": 2721,
      "fest": 2722,
      "feet": 2723,
      "giving": 2724,
      "spl": 2725,
      "added": 2726,
      "points": 2727,
      "measure": 2728,
      "liance": 2729,
      "flex": 2730,
      "sant": 2731,
      "individuals": 2732,
      "managers": 2733,
      "vey": 2734,
      "dut": 2735,
      "rac": 2736,
      "weap": 2737,
      "liber": 2738,
      "nearly": 2739,
      "wear": 2740,
      "limited": 2741,
      "achieve": 2742,
      "simple": 2743,
      "purch": 2744,
      "mention": 2745,
      "helped": 2746,
      "administration": 2747,
      "craf": 2748,
      "thes": 2749,
      "male": 2750,
      "ener": 2751,
      "treas": 2752,
      "2001": 2753,
      "rial": 2754,
      "rout": 2755,
      "setting": 2756,
      "revenue": 2757,
      "charge": 2758,
      "somebody": 2759,
      "entr": 2760,
      "quiet": 2761,
      "fashion": 2762,
      "award": 2763,
      "levels": 2764,
      "location": 2765,
      "killed": 2766,
      "1996": 2767,
      "savings": 2768,
      "rose": 2769,
      "simply": 2770,
      "accom": 2771,
      "dave": 2772,
      "enced": 2773,
      "ression": 2774,
      "appear": 2775,
      "neg": 2776,
      "prevent": 2777,
      "playing": 2778,
      "jewish": 2779,
      "lay": 2780,
      "conserv": 2781,
      "sert": 2782,
      "language": 2783,
      "immedi": 2784,
      "glass": 2785,
      "fan": 2786,
      "thirty": 2787,
      "placed": 2788,
      "david": 2789,
      "dau": 2790,
      "extreme": 2791,
      "stre": 2792,
      "decor": 2793,
      "camp": 2794,
      "equal": 2795,
      "note": 2796,
      "knows": 2797,
      "constit": 2798,
      "track": 2799,
      "passed": 2800,
      "fis": 2801,
      "cali": 2802,
      "mag": 2803,
      "smaller": 2804,
      "journal": 2805,
      "israel": 2806,
      "identify": 2807,
      "christian": 2808,
      "gust": 2809,
      "mostly": 2810,
      "response": 2811,
      "challeng": 2812,
      "items": 2813,
      "seeing": 2814,
      "serious": 2815,
      "effort": 2816,
      "excellent": 2817,
      "sports": 2818,
      "kal": 2819,
      "uries": 2820,
      "agreed": 2821,
      "brother": 2822,
      "mountains": 2823,
      "hong": 2824,
      "kong": 2825,
      "text": 2826,
      "policies": 2827,
      "wild": 2828,
      "operations": 2829,
      "india": 2830,
      "spring": 2831,
      "die": 2832,
      "host": 2833,
      "trip": 2834,
      "structure": 2835,
      "ston": 2836,
      "magaz": 2837,
      "beginning": 2838,
      "religious": 2839,
      "pm": 2840,
      "sn": 2841,
      "methods": 2842,
      "ker": 2843,
      "truth": 2844,
      "glo": 2845,
      "eye": 2846,
      "paying": 2847,
      "forward": 2848,
      "afford": 2849,
      "responsible": 2850,
      "german": 2851,
      "centuries": 2852,
      "married": 2853,
      "yourself": 2854,
      "sult": 2855,
      "mine": 2856,
      "cry": 2857,
      "estimates": 2858,
      "participants": 2859,
      "pointed": 2860,
      "han": 2861,
      "inc": 2862,
      "jerusal": 2863,
      "jerusalem": 2864,
      "capt": 2865,
      "ini": 2866,
      "lier": 2867,
      "cav": 2868,
      "requires": 2869,
      "record": 2870,
      "hair": 2871,
      "southern": 2872,
      "cil": 2873,
      "pes": 2874,
      "army": 2875,
      "bing": 2876,
      "refer": 2877,
      "catch": 2878,
      "media": 2879,
      "reasons": 2880,
      "castle": 2881,
      "cathedral": 2882,
      "anymore": 2883,
      "gue": 2884,
      "intel": 2885,
      "sions": 2886,
      "impres": 2887,
      "receive": 2888,
      "ext": 2889,
      "sig": 2890,
      "gotten": 2891,
      "spoke": 2892,
      "constant": 2893,
      "danger": 2894,
      "verse": 2895,
      "currently": 2896,
      "hans": 2897,
      "nearby": 2898,
      "gives": 2899,
      "exc": 2900,
      "arts": 2901,
      "newsp": 2902,
      "reading": 2903,
      "ief": 2904,
      "voc": 2905,
      "believed": 2906,
      "alternative": 2907,
      "ending": 2908,
      "budd": 2909,
      "judge": 2910,
      "potential": 2911,
      "newspaper": 2912,
      "fiscal": 2913,
      "lat": 2914,
      "oil": 2915,
      "threat": 2916,
      "exer": 2917,
      "estimate": 2918,
      "environmental": 2919,
      "independent": 2920,
      "property": 2921,
      "za": 2922,
      "electric": 2923,
      "yard": 2924,
      "goods": 2925,
      "bridge": 2926,
      "greek": 2927,
      "shed": 2928,
      "director": 2929,
      "aware": 2930,
      "bol": 2931,
      "cross": 2932,
      "born": 2933,
      "mountain": 2934,
      "article": 2935,
      "sac": 2936,
      "relative": 2937,
      "micro": 2938,
      "series": 2939,
      "taining": 2940,
      "via": 2941,
      "stor": 2942,
      "propos": 2943,
      "pread": 2944,
      "sector": 2945,
      "opened": 2946,
      "iction": 2947,
      "associated": 2948,
      "pic": 2949,
      "stories": 2950,
      "contains": 2951,
      "raised": 2952,
      "viously": 2953,
      "commercial": 2954,
      "county": 2955,
      "debt": 2956,
      "larger": 2957,
      "watched": 2958,
      "candid": 2959,
      "pel": 2960,
      "demonstr": 2961,
      "statements": 2962,
      "stream": 2963,
      "dden": 2964,
      "adjust": 2965,
      "create": 2966,
      "regulations": 2967,
      "purpose": 2968,
      "absolutely": 2969,
      "nur": 2970,
      "era": 2971,
      "leaders": 2972,
      "republicans": 2973,
      "narrow": 2974,
      "antees": 2975,
      "empire": 2976,
      "willing": 2977,
      "tomb": 2978,
      "hate": 2979,
      "mos": 2980,
      "useful": 2981,
      "boat": 2982,
      "shot": 2983,
      "advant": 2984,
      "function": 2985,
      "continued": 2986,
      "jan": 2987,
      "lled": 2988,
      "statement": 2989,
      "rang": 2990,
      "weak": 2991,
      "mode": 2992,
      "expand": 2993,
      "store": 2994,
      "wing": 2995,
      "multiple": 2996,
      "dance": 2997,
      "califor": 2998,
      "ung": 2999,
      "neys": 3000,
      "beha": 3001,
      "italian": 3002,
      "influence": 3003,
      "pil": 3004,
      "occas": 3005,
      "entrance": 3006,
      "vac": 3007,
      "variety": 3008,
      "migr": 3009,
      "usion": 3010,
      "decisions": 3011,
      "ining": 3012,
      "politics": 3013,
      "billion": 3014,
      "swim": 3015,
      "intervention": 3016,
      "hanson": 3017,
      "aters": 3018,
      "suit": 3019,
      "worse": 3020,
      "ium": 3021,
      "las": 3022,
      "source": 3023,
      "stopped": 3024,
      "professional": 3025,
      "domestic": 3026,
      "greater": 3027,
      "basic": 3028,
      "chief": 3029,
      "liter": 3030,
      "northern": 3031,
      "critics": 3032,
      "rupt": 3033,
      "cesses": 3034,
      "providing": 3035,
      "fishing": 3036,
      "therefore": 3037,
      "quarter": 3038,
      "citiz": 3039,
      "forced": 3040,
      "daily": 3041,
      "convers": 3042,
      "eastern": 3043,
      "liked": 3044,
      "science": 3045,
      "uary": 3046,
      "activity": 3047,
      "assessment": 3048,
      "weight": 3049,
      "limit": 3050,
      "towards": 3051,
      "eth": 3052,
      "sudden": 3053,
      "guard": 3054,
      "intro": 3055,
      "directly": 3056,
      "opportunity": 3057,
      "affected": 3058,
      "jobs": 3059,
      "spain": 3060,
      "stores": 3061,
      "acts": 3062,
      "ore": 3063,
      "funny": 3064,
      "heavy": 3065,
      "1999": 3066,
      "condition": 3067,
      "mou": 3068,
      "stick": 3069,
      "moving": 3070,
      "factors": 3071,
      "estimated": 3072,
      "odo": 3073,
      "destroyed": 3074,
      "cash": 3075,
      "offered": 3076,
      "animals": 3077,
      "bono": 3078,
      "features": 3079,
      "wonderful": 3080,
      "gam": 3081,
      "talked": 3082,
      "existing": 3083,
      "hang": 3084,
      "zen": 3085,
      "discussed": 3086,
      "thousands": 3087,
      "police": 3088,
      "zo": 3089,
      "theater": 3090,
      "fas": 3091,
      "rural": 3092,
      "magn": 3093,
      "mere": 3094,
      "brief": 3095,
      "match": 3096,
      "brand": 3097,
      "regist": 3098,
      "pit": 3099,
      "wast": 3100,
      "amaz": 3101,
      "followed": 3102,
      "bag": 3103,
      "select": 3104,
      "lose": 3105,
      "icians": 3106,
      "starting": 3107,
      "straight": 3108,
      "forest": 3109,
      "efficient": 3110,
      "gon": 3111,
      "comfort": 3112,
      "gore": 3113,
      "majority": 3114,
      "extra": 3115,
      "bling": 3116,
      "aded": 3117,
      "compliance": 3118,
      "1990": 3119,
      "claims": 3120,
      "sleep": 3121,
      "worry": 3122,
      "meant": 3123,
      "chair": 3124,
      "testing": 3125,
      "ift": 3126,
      "played": 3127,
      "500": 3128,
      "fly": 3129,
      "thus": 3130,
      "caught": 3131,
      "unless": 3132,
      "introdu": 3133,
      "representation": 3134,
      "rise": 3135,
      "dows": 3136,
      "rail": 3137,
      "lap": 3138,
      "entity": 3139,
      "daughter": 3140,
      "categ": 3141,
      "wit": 3142,
      "treatment": 3143,
      "games": 3144,
      "procedures": 3145,
      "association": 3146,
      "attorney": 3147,
      "pha": 3148,
      "choose": 3149,
      "jesus": 3150,
      "22": 3151,
      "ially": 3152,
      "py": 3153,
      "frank": 3154,
      "enjoyed": 3155,
      "route": 3156,
      "ander": 3157,
      "advert": 3158,
      "european": 3159,
      "california": 3160,
      "pers": 3161,
      "jama": 3162,
      "active": 3163,
      "bles": 3164,
      "meaning": 3165,
      "warm": 3166,
      "doro": 3167,
      "unit": 3168,
      "lax": 3169,
      "paintings": 3170,
      "evening": 3171,
      "clock": 3172,
      "ana": 3173,
      "aging": 3174,
      "england": 3175,
      "shr": 3176,
      "plus": 3177,
      "bled": 3178,
      "opinion": 3179,
      "va": 3180,
      "sec": 3181,
      "ahead": 3182,
      "tw": 3183,
      "relev": 3184,
      "ague": 3185,
      "lau": 3186,
      "coffe": 3187,
      "violence": 3188,
      "behavi": 3189,
      "vast": 3190,
      "fresh": 3191,
      "employment": 3192,
      "eventually": 3193,
      "iar": 3194,
      "calls": 3195,
      "filled": 3196,
      "rare": 3197,
      "eness": 3198,
      "attorneys": 3199,
      "lic": 3200,
      "assets": 3201,
      "leon": 3202,
      "1998": 3203,
      "transport": 3204,
      "decre": 3205,
      "hospital": 3206,
      "grew": 3207,
      "ideas": 3208,
      "separate": 3209,
      "distribut": 3210,
      "walking": 3211,
      "clearly": 3212,
      "nit": 3213,
      "hael": 3214,
      "ptions": 3215,
      "club": 3216,
      "coffee": 3217,
      "ato": 3218,
      "acquis": 3219,
      "energy": 3220,
      "impossible": 3221,
      "minim": 3222,
      "satis": 3223,
      "strategic": 3224,
      "90": 3225,
      "ji": 3226,
      "contr": 3227,
      "astic": 3228,
      "dram": 3229,
      "reached": 3230,
      "bits": 3231,
      "zed": 3232,
      "foc": 3233,
      "ience": 3234,
      "iring": 3235,
      "construct": 3236,
      "electronic": 3237,
      "doctor": 3238,
      "plants": 3239,
      "emper": 3240,
      "boys": 3241,
      "compared": 3242,
      "sales": 3243,
      "pleasant": 3244,
      "nie": 3245,
      "listen": 3246,
      "shouldn": 3247,
      "papers": 3248,
      "defense": 3249,
      "techn": 3250,
      "doubt": 3251,
      "minute": 3252,
      "vegas": 3253,
      "cise": 3254,
      "minor": 3255,
      "arab": 3256,
      "noted": 3257,
      "appreci": 3258,
      "rue": 3259,
      "bound": 3260,
      "cafe": 3261,
      "wine": 3262,
      "viet": 3263,
      "newsweek": 3264,
      "mix": 3265,
      "waiting": 3266,
      "fing": 3267,
      "write": 3268,
      "sitting": 3269,
      "remained": 3270,
      "mob": 3271,
      "italy": 3272,
      "sad": 3273,
      "originally": 3274,
      "bron": 3275,
      "kyo": 3276,
      "cham": 3277,
      "aces": 3278,
      "trail": 3279,
      "temples": 3280,
      "evaluation": 3281,
      "mac": 3282,
      "80": 3283,
      "nu": 3284,
      "birth": 3285,
      "ties": 3286,
      "berg": 3287,
      "ump": 3288,
      "explore": 3289,
      "prepared": 3290,
      "eld": 3291,
      "ental": 3292,
      "positive": 3293,
      "regarding": 3294,
      "shown": 3295,
      "architecture": 3296,
      "inde": 3297,
      "tests": 3298,
      "risks": 3299,
      "statue": 3300,
      "hurt": 3301,
      "repe": 3302,
      "mexic": 3303,
      "objectives": 3304,
      "union": 3305,
      "protection": 3306,
      "software": 3307,
      "cultural": 3308,
      "corner": 3309,
      "feeling": 3310,
      "television": 3311,
      "boo": 3312,
      "bow": 3313,
      "funded": 3314,
      "ids": 3315,
      "ride": 3316,
      "ners": 3317,
      "earlier": 3318,
      "keeping": 3319,
      "writing": 3320,
      "oppos": 3321,
      "intended": 3322,
      "initial": 3323,
      "vice": 3324,
      "swe": 3325,
      "sources": 3326,
      "holy": 3327,
      "send": 3328,
      "ww": 3329,
      "identified": 3330,
      "race": 3331,
      "easier": 3332,
      "ai": 3333,
      "21": 3334,
      "ave": 3335,
      "immediately": 3336,
      "robert": 3337,
      "igno": 3338,
      "memor": 3339,
      "version": 3340,
      "cheap": 3341,
      "generation": 3342,
      "hone": 3343,
      "ku": 3344,
      "arent": 3345,
      "interventions": 3346,
      "parties": 3347,
      "numbers": 3348,
      "completed": 3349,
      "19th": 3350,
      "interior": 3351,
      "strange": 3352,
      "thinks": 3353,
      "controls": 3354,
      "painted": 3355,
      "screening": 3356,
      "chest": 3357,
      "council": 3358,
      "values": 3359,
      "malay": 3360,
      "golf": 3361,
      "conditions": 3362,
      "carri": 3363,
      "burgh": 3364,
      "camping": 3365,
      "entertain": 3366,
      "matters": 3367,
      "oldest": 3368,
      "poses": 3369,
      "towns": 3370,
      "corporate": 3371,
      "failed": 3372,
      "homes": 3373,
      "relax": 3374,
      "ousing": 3375,
      "thanks": 3376,
      "apparent": 3377,
      "loved": 3378,
      "plent": 3379,
      "picture": 3380,
      "baby": 3381,
      "whit": 3382,
      "capac": 3383,
      "july": 3384,
      "stayed": 3385,
      "implementation": 3386,
      "esses": 3387,
      "settle": 3388,
      "psy": 3389,
      "august": 3390,
      "draf": 3391,
      "restaurant": 3392,
      "attempt": 3393,
      "normal": 3394,
      "stein": 3395,
      "familiar": 3396,
      "hest": 3397,
      "susan": 3398,
      "fat": 3399,
      "techni": 3400,
      "cool": 3401,
      "patient": 3402,
      "extremely": 3403,
      "chap": 3404,
      "tery": 3405,
      "bac": 3406,
      "advoc": 3407,
      "aster": 3408,
      "march": 3409,
      "flexibility": 3410,
      "ada": 3411,
      "usual": 3412,
      "caused": 3413,
      "finance": 3414,
      "1997": 3415,
      "apo": 3416,
      "shall": 3417,
      "resses": 3418,
      "spee": 3419,
      "survey": 3420,
      "dedic": 3421,
      "relevant": 3422,
      "bou": 3423,
      "respond": 3424,
      "virgin": 3425,
      "neighborhood": 3426,
      "engage": 3427,
      "incent": 3428,
      "thank": 3429,
      "owner": 3430,
      "mall": 3431,
      "tun": 3432,
      "employee": 3433,
      "valu": 3434,
      "concerned": 3435,
      "16th": 3436,
      "bio": 3437,
      "forms": 3438,
      "clothes": 3439,
      "roof": 3440,
      "mental": 3441,
      "grantees": 3442,
      "jac": 3443,
      "determ": 3444,
      "counsel": 3445,
      "understanding": 3446,
      "executives": 3447,
      "responsibility": 3448,
      "rit": 3449,
      "thic": 3450,
      "dinner": 3451,
      "client": 3452,
      "suggested": 3453,
      "records": 3454,
      "determine": 3455,
      "iday": 3456,
      "dod": 3457,
      "offices": 3458,
      "biggest": 3459,
      "projects": 3460,
      "routes": 3461,
      "ths": 3462,
      "istics": 3463,
      "weren": 3464,
      "197": 3465,
      "jack": 3466,
      "spread": 3467,
      "tes": 3468,
      "imin": 3469,
      "fici": 3470,
      "sword": 3471,
      "thro": 3472,
      "frame": 3473,
      "reduction": 3474,
      "republican": 3475,
      "performed": 3476,
      "fifty": 3477,
      "dress": 3478,
      "scri": 3479,
      "produced": 3480,
      "cio": 3481,
      "overall": 3482,
      "visions": 3483,
      "career": 3484,
      "ises": 3485,
      "actual": 3486,
      "marri": 3487,
      "fortunately": 3488,
      "signed": 3489,
      "pts": 3490,
      "vari": 3491,
      "mont": 3492,
      "counter": 3493,
      "industrial": 3494,
      "ote": 3495,
      "forces": 3496,
      "18th": 3497,
      "behavior": 3498,
      "stands": 3499,
      "foundation": 3500,
      "changing": 3501,
      "golden": 3502,
      "manufacturing": 3503,
      "deci": 3504,
      "chic": 3505,
      "libr": 3506,
      "cot": 3507,
      "lux": 3508,
      "invent": 3509,
      "colon": 3510,
      "residents": 3511,
      "housing": 3512,
      "tough": 3513,
      "importance": 3514,
      "bour": 3515,
      "urs": 3516,
      "lunch": 3517,
      "flat": 3518,
      "17th": 3519,
      "recognized": 3520,
      "ultim": 3521,
      "mortality": 3522,
      "tel": 3523,
      "otherwise": 3524,
      "historical": 3525,
      "advantage": 3526,
      "stairs": 3527,
      "atest": 3528,
      "traf": 3529,
      "exchange": 3530,
      "welfare": 3531,
      "processes": 3532,
      "voted": 3533,
      "pictures": 3534,
      "revolution": 3535,
      "thorn": 3536,
      "aim": 3537,
      "editor": 3538,
      "feed": 3539,
      "stren": 3540,
      "ande": 3541,
      "burden": 3542,
      "cycl": 3543,
      "discussion": 3544,
      "william": 3545,
      "uck": 3546,
      "lection": 3547,
      "loss": 3548,
      "situ": 3549,
      "starr": 3550,
      "greatest": 3551,
      "powerful": 3552,
      "pollution": 3553,
      "microsoft": 3554,
      "mber": 3555,
      "pool": 3556,
      "highly": 3557,
      "windows": 3558,
      "victim": 3559,
      "acquisition": 3560,
      "ying": 3561,
      "cards": 3562,
      "snow": 3563,
      "concent": 3564,
      "guar": 3565,
      "skin": 3566,
      "rulemaking": 3567,
      "anced": 3568,
      "wered": 3569,
      "sharing": 3570,
      "grass": 3571,
      "anywhere": 3572,
      "households": 3573,
      "rub": 3574,
      "guys": 3575,
      "aust": 3576,
      "scient": 3577,
      "numer": 3578,
      "dream": 3579,
      "domin": 3580,
      "iers": 3581,
      "solid": 3582,
      "appeared": 3583,
      "immigr": 3584,
      "abuse": 3585,
      "shar": 3586,
      "emperor": 3587,
      "conference": 3588,
      "senate": 3589,
      "compar": 3590,
      "1995": 3591,
      "founded": 3592,
      "occup": 3593,
      "gor": 3594,
      "yer": 3595,
      "throw": 3596,
      "kinds": 3597,
      "bru": 3598,
      "fear": 3599,
      "observ": 3600,
      "learned": 3601,
      "technical": 3602,
      "rand": 3603,
      "oud": 3604,
      "ida": 3605,
      "cade": 3606,
      "trial": 3607,
      "lady": 3608,
      "noon": 3609,
      "finished": 3610,
      "iron": 3611,
      "ishing": 3612,
      "sensit": 3613,
      "radio": 3614,
      "ieval": 3615,
      "medieval": 3616,
      "accounts": 3617,
      "competition": 3618,
      "complain": 3619,
      "reve": 3620,
      "chem": 3621,
      "resol": 3622,
      "appeal": 3623,
      "unique": 3624,
      "conduct": 3625,
      "imagine": 3626,
      "michael": 3627,
      "nod": 3628,
      "ug": 3629,
      "theory": 3630,
      "machine": 3631,
      "exten": 3632,
      "plenty": 3633,
      "capacity": 3634,
      "goal": 3635,
      "traffic": 3636,
      "stain": 3637,
      "soph": 3638,
      "hig": 3639,
      "tree": 3640,
      "boil": 3641,
      "findings": 3642,
      "muslim": 3643,
      "advice": 3644,
      "24": 3645,
      "hundreds": 3646,
      "mile": 3647,
      "happens": 3648,
      "involve": 3649,
      "june": 3650,
      "bby": 3651,
      "restrict": 3652,
      "bla": 3653,
      "reci": 3654,
      "chapel": 3655,
      "essent": 3656,
      "showed": 3657,
      "busy": 3658,
      "iles": 3659,
      "cert": 3660,
      "patter": 3661,
      "determined": 3662,
      "rome": 3663,
      "afraid": 3664,
      "apply": 3665,
      "ik": 3666,
      "portion": 3667,
      "businesses": 3668,
      "claimed": 3669,
      "profession": 3670,
      "tren": 3671,
      "suppose": 3672,
      "dry": 3673,
      "worst": 3674,
      "consistent": 3675,
      "magazine": 3676,
      "sem": 3677,
      "degree": 3678,
      "tot": 3679,
      "veget": 3680,
      "drinking": 3681,
      "ctors": 3682,
      "marked": 3683,
      "makers": 3684,
      "mosque": 3685,
      "produce": 3686,
      "adequ": 3687,
      "concerns": 3688,
      "legislation": 3689,
      "jane": 3690,
      "tea": 3691,
      "artists": 3692,
      "ships": 3693,
      "accident": 3694,
      "ario": 3695,
      "confl": 3696,
      "speaking": 3697,
      "student": 3698,
      "window": 3699,
      "lif": 3700,
      "election": 3701,
      "fighting": 3702,
      "interview": 3703,
      "transfer": 3704,
      "described": 3705,
      "factor": 3706,
      "merch": 3707,
      "recommendations": 3708,
      "exercise": 3709,
      "leadership": 3710,
      "handle": 3711,
      "reduced": 3712,
      "mount": 3713,
      "seat": 3714,
      "circum": 3715,
      "historic": 3716,
      "bid": 3717,
      "bright": 3718,
      "names": 3719,
      "stated": 3720,
      "aside": 3721,
      "sett": 3722,
      "girls": 3723,
      "bare": 3724,
      "boats": 3725,
      "pair": 3726,
      "cis": 3727,
      "players": 3728,
      "endish": 3729,
      "angeles": 3730,
      "congressional": 3731,
      "fairly": 3732,
      "honor": 3733,
      "loan": 3734,
      "quant": 3735,
      "critic": 3736,
      "slight": 3737,
      "previous": 3738,
      "courts": 3739,
      "opposite": 3740,
      "sole": 3741,
      "spirit": 3742,
      "hadn": 3743,
      "moral": 3744,
      "younger": 3745,
      "evol": 3746,
      "blin": 3747,
      "status": 3748,
      "murder": 3749,
      "tric": 3750,
      "tempor": 3751,
      "leaving": 3752,
      "repor": 3753,
      "neither": 3754,
      "serves": 3755,
      "cavendish": 3756,
      "bomb": 3757,
      "hic": 3758,
      "units": 3759,
      "edule": 3760,
      "rough": 3761,
      "autom": 3762,
      "hills": 3763,
      "streng": 3764,
      "zer": 3765,
      "inct": 3766,
      "inqu": 3767,
      "facilities": 3768,
      "gradu": 3769,
      "itude": 3770,
      "hero": 3771,
      "dish": 3772,
      "schedule": 3773,
      "sufficient": 3774,
      "forth": 3775,
      "convin": 3776,
      "deliver": 3777,
      "missed": 3778,
      "tiny": 3779,
      "rum": 3780,
      "peak": 3781,
      "topic": 3782,
      "accompl": 3783,
      "faith": 3784,
      "freed": 3785,
      "constitution": 3786,
      "gallery": 3787,
      "impressive": 3788,
      "amazing": 3789,
      "totally": 3790,
      "ena": 3791,
      "gry": 3792,
      "apped": 3793,
      "network": 3794,
      "painting": 3795,
      "twice": 3796,
      "sar": 3797,
      "firms": 3798,
      "challenges": 3799,
      "reviews": 3800,
      "massive": 3801,
      "democrats": 3802,
      "song": 3803,
      "irish": 3804,
      "urban": 3805,
      "helps": 3806,
      "drop": 3807,
      "cyn": 3808,
      "reasonable": 3809,
      "speech": 3810,
      "library": 3811,
      "alle": 3812,
      "users": 3813,
      "dublin": 3814,
      "aspect": 3815,
      "turning": 3816,
      "steel": 3817,
      "arrived": 3818,
      "highest": 3819,
      "entertainment": 3820,
      "bust": 3821,
      "irt": 3822,
      "portu": 3823,
      "smith": 3824,
      "logies": 3825,
      "measures": 3826,
      "online": 3827,
      "organizational": 3828,
      "developing": 3829,
      "announ": 3830,
      "figures": 3831,
      "ais": 3832,
      "wan": 3833,
      "imper": 3834,
      "planned": 3835,
      "differences": 3836,
      "ville": 3837,
      "negative": 3838,
      "options": 3839,
      "satur": 3840,
      "gothic": 3841,
      "meyer": 3842,
      "mun": 3843,
      "enem": 3844,
      "markets": 3845,
      "accountability": 3846,
      "ration": 3847,
      "holding": 3848,
      "stret": 3849,
      "dece": 3850,
      "progress": 3851,
      "engineering": 3852,
      "double": 3853,
      "apr": 3854,
      "requirement": 3855,
      "aven": 3856,
      "push": 3857,
      "walked": 3858,
      "selling": 3859,
      "scenario": 3860,
      "dad": 3861,
      "fro": 3862,
      "mosp": 3863,
      "preh": 3864,
      "glad": 3865,
      "believes": 3866,
      "scale": 3867,
      "video": 3868,
      "touch": 3869,
      "primary": 3870,
      "magnific": 3871,
      "decide": 3872,
      "football": 3873,
      "opportunities": 3874,
      "weapons": 3875,
      "waste": 3876,
      "dedicated": 3877,
      "hat": 3878,
      "atmosp": 3879,
      "rep": 3880,
      "load": 3881,
      "pover": 3882,
      "grim": 3883,
      "grown": 3884,
      "forget": 3885,
      "convent": 3886,
      "196": 3887,
      "compon": 3888,
      "visited": 3889,
      "agreement": 3890,
      "novel": 3891,
      "vehic": 3892,
      "acade": 3893,
      "rena": 3894,
      "jews": 3895,
      "helping": 3896,
      "gers": 3897,
      "theast": 3898,
      "guid": 3899,
      "buying": 3900,
      "pac": 3901,
      "heat": 3902,
      "leads": 3903,
      "skills": 3904,
      "santa": 3905,
      "edin": 3906,
      "addressed": 3907,
      "victor": 3908,
      "comfortable": 3909,
      "marriage": 3910,
      "tall": 3911,
      "insu": 3912,
      "depends": 3913,
      "target": 3914,
      "agon": 3915,
      "conversation": 3916,
      "ological": 3917,
      "cher": 3918,
      "attractive": 3919,
      "zone": 3920,
      "surprised": 3921,
      "numerous": 3922,
      "kar": 3923,
      "corporation": 3924,
      "territ": 3925,
      "guidance": 3926,
      "vande": 3927,
      "doors": 3928,
      "marble": 3929,
      "restored": 3930,
      "refused": 3931,
      "laugh": 3932,
      "vandemeyer": 3933,
      "adop": 3934,
      "izes": 3935,
      "runs": 3936,
      "resorts": 3937,
      "asking": 3938,
      "medicare": 3939,
      "indeed": 3940,
      "edinburgh": 3941,
      "noticed": 3942,
      "bother": 3943,
      "jamaica": 3944,
      "acted": 3945,
      "marks": 3946,
      "paul": 3947,
      "reductions": 3948,
      "defend": 3949,
      "responsibilities": 3950,
      "orient": 3951,
      "coverage": 3952,
      "title": 3953,
      "edge": 3954,
      "illust": 3955,
      "shut": 3956,
      "weekend": 3957,
      "penal": 3958,
      "hearing": 3959,
      "conven": 3960,
      "governments": 3961,
      "finding": 3962,
      "approved": 3963,
      "horses": 3964,
      "models": 3965,
      "kings": 3966,
      "holders": 3967,
      "fellow": 3968,
      "slaves": 3969,
      "gdp": 3970,
      "leng": 3971,
      "eria": 3972,
      "utions": 3973,
      "driving": 3974,
      "productivity": 3975,
      "remark": 3976,
      "volun": 3977,
      "dangerous": 3978,
      "cath": 3979,
      "examples": 3980,
      "richard": 3981,
      "accepted": 3982,
      "criminal": 3983,
      "adel": 3984,
      "nav": 3985,
      "iel": 3986,
      "conducted": 3987,
      "ops": 3988,
      "issance": 3989,
      "tested": 3990,
      "sides": 3991,
      "desert": 3992,
      "carved": 3993,
      "virt": 3994,
      "elder": 3995,
      "task": 3996,
      "perman": 3997,
      "manager": 3998,
      "supply": 3999,
      "elig": 4000,
      "grounds": 4001,
      "mass": 4002,
      "meat": 4003,
      "centre": 4004,
      "lincol": 4005,
      "holly": 4006,
      "suddenly": 4007,
      "renaissance": 4008,
      "instru": 4009,
      "reput": 4010,
      "supre": 4011,
      "consequ": 4012,
      "compe": 4013,
      "surrounding": 4014,
      "slowly": 4015,
      "photograph": 4016,
      "bure": 4017,
      "resist": 4018,
      "raise": 4019,
      "smiled": 4020,
      "physical": 4021,
      "relatively": 4022,
      "cket": 4023,
      "lets": 4024,
      "herself": 4025,
      "fascin": 4026,
      "flor": 4027,
      "owned": 4028,
      "sunday": 4029,
      "decline": 4030,
      "please": 4031,
      "194": 4032,
      "copy": 4033,
      "flowers": 4034,
      "citizens": 4035,
      "icted": 4036,
      "sus": 4037,
      "mel": 4038,
      "iveness": 4039,
      "pia": 4040,
      "tray": 4041,
      "rating": 4042,
      "bob": 4043,
      "screen": 4044,
      "festival": 4045,
      "zar": 4046,
      "stage": 4047,
      "cuts": 4048,
      "improved": 4049,
      "apparently": 4050,
      "enses": 4051,
      "shel": 4052,
      "discount": 4053,
      "distance": 4054,
      "telling": 4055,
      "principles": 4056,
      "circumst": 4057,
      "ime": 4058,
      "susp": 4059,
      "documents": 4060,
      "returned": 4061,
      "advi": 4062,
      "guil": 4063,
      "broke": 4064,
      "pursu": 4065,
      "entirely": 4066,
      "tools": 4067,
      "somewhere": 4068,
      "hasn": 4069,
      "provid": 4070,
      "presents": 4071,
      "scott": 4072,
      "fgd": 4073,
      "cris": 4074,
      "els": 4075,
      "sorry": 4076,
      "extent": 4077,
      "lincoln": 4078,
      "pill": 4079,
      "compreh": 4080,
      "manner": 4081,
      "uded": 4082,
      "formed": 4083,
      "maintain": 4084,
      "cycle": 4085,
      "harbor": 4086,
      "roads": 4087,
      "slo": 4088,
      "inju": 4089,
      "enge": 4090,
      "ald": 4091,
      "strate": 4092,
      "statues": 4093,
      "apartment": 4094,
      "vacation": 4095,
      "stal": 4096,
      "defic": 4097,
      "concern": 4098,
      "pir": 4099,
      "managed": 4100,
      "silver": 4101,
      "eleg": 4102,
      "stup": 4103,
      "stake": 4104,
      "scand": 4105,
      "tribut": 4106,
      "crowd": 4107,
      "experienced": 4108,
      "scene": 4109,
      "hid": 4110,
      "brad": 4111,
      "lights": 4112,
      "fixed": 4113,
      "april": 4114,
      "eli": 4115,
      "monica": 4116,
      "carter": 4117,
      "madeira": 4118,
      "29": 4119,
      "oned": 4120,
      "advent": 4121,
      "audits": 4122,
      "tours": 4123,
      "techniques": 4124,
      "realize": 4125,
      "dropped": 4126,
      "worried": 4127,
      "facility": 4128,
      "swimming": 4129,
      "onto": 4130,
      "whom": 4131,
      "option": 4132,
      "challenge": 4133,
      "coal": 4134,
      "spectac": 4135,
      "piazz": 4136,
      "cab": 4137,
      "kno": 4138,
      "sli": 4139,
      "rif": 4140,
      "proto": 4141,
      "fant": 4142,
      "likes": 4143,
      "mechan": 4144,
      "approval": 4145,
      "movement": 4146,
      "details": 4147,
      "content": 4148,
      "queen": 4149,
      "fraud": 4150,
      "agric": 4151,
      "elimin": 4152,
      "subsid": 4153,
      "effectively": 4154,
      "bureau": 4155,
      "23": 4156,
      "selection": 4157,
      "sters": 4158,
      "vere": 4159,
      "unfortunately": 4160,
      "comed": 4161,
      "ulous": 4162,
      "express": 4163,
      "partner": 4164,
      "magic": 4165,
      "negot": 4166,
      "saved": 4167,
      "instance": 4168,
      "explained": 4169,
      "negoti": 4170,
      "sections": 4171,
      "becoming": 4172,
      "attractions": 4173,
      "emphas": 4174,
      "fru": 4175,
      "issued": 4176,
      "block": 4177,
      "message": 4178,
      "nodded": 4179,
      "argument": 4180,
      "strategy": 4181,
      "pray": 4182,
      "monitor": 4183,
      "freedom": 4184,
      "magnificent": 4185,
      "arms": 4186,
      "fourth": 4187,
      "museums": 4188,
      "damage": 4189,
      "mes": 4190,
      "bered": 4191,
      "discuss": 4192,
      "75": 4193,
      "conce": 4194,
      "maxim": 4195,
      "explan": 4196,
      "lakes": 4197,
      "bran": 4198,
      "letters": 4199,
      "exhibit": 4200,
      "neat": 4201,
      "basically": 4202,
      "surrounded": 4203,
      "london": 4204,
      "sister": 4205,
      "speed": 4206,
      "lawn": 4207,
      "guns": 4208,
      "advertising": 4209,
      "chapter": 4210,
      "tip": 4211,
      "vit": 4212,
      "kingdom": 4213,
      "concept": 4214,
      "direction": 4215,
      "2002": 4216,
      "elements": 4217,
      "cathol": 4218,
      "ager": 4219,
      "afternoon": 4220,
      "putting": 4221,
      "wards": 4222,
      "boring": 4223,
      "classical": 4224,
      "safety": 4225,
      "monument": 4226,
      "mouth": 4227,
      "fal": 4228,
      "fred": 4229,
      "phe": 4230,
      "discovered": 4231,
      "border": 4232,
      "balance": 4233,
      "spective": 4234,
      "poverty": 4235,
      "puts": 4236,
      "religion": 4237,
      "anse": 4238,
      "ulated": 4239,
      "myster": 4240,
      "interests": 4241,
      "innov": 4242,
      "aret": 4243,
      "lling": 4244,
      "proposal": 4245,
      "lam": 4246,
      "friendly": 4247,
      "bun": 4248,
      "wis": 4249,
      "amend": 4250,
      "asts": 4251,
      "ilit": 4252,
      "proceed": 4253,
      "waters": 4254,
      "suspect": 4255,
      "upper": 4256,
      "ishment": 4257,
      "conservative": 4258,
      "draft": 4259,
      "boiler": 4260,
      "gment": 4261,
      "ano": 4262,
      "provisions": 4263,
      "valid": 4264,
      "communities": 4265,
      "26": 4266,
      "aband": 4267,
      "centers": 4268,
      "encourage": 4269,
      "focused": 4270,
      "hollywood": 4271,
      "chain": 4272,
      "female": 4273,
      "print": 4274,
      "prising": 4275,
      "akes": 4276,
      "shrine": 4277,
      "replace": 4278,
      "contain": 4279,
      "thered": 4280,
      "rennie": 4281,
      "succeed": 4282,
      "aliens": 4283,
      "customers": 4284,
      "ordinary": 4285,
      "january": 4286,
      "ara": 4287,
      "leather": 4288,
      "computers": 4289,
      "defined": 4290,
      "picked": 4291,
      "bau": 4292,
      "ican": 4293,
      "mod": 4294,
      "operating": 4295,
      "alive": 4296,
      "illegal": 4297,
      "dete": 4298,
      "improvement": 4299,
      "cable": 4300,
      "foun": 4301,
      "archae": 4302,
      "belief": 4303,
      "length": 4304,
      "volunte": 4305,
      "ology": 4306,
      "reliability": 4307,
      "processing": 4308,
      "russian": 4309,
      "electricity": 4310,
      "lock": 4311,
      "pream": 4312,
      "carried": 4313,
      "steward": 4314,
      "ficiency": 4315,
      "gay": 4316,
      "fee": 4317,
      "smart": 4318,
      "seek": 4319,
      "aked": 4320,
      "pressure": 4321,
      "otic": 4322,
      "supported": 4323,
      "mentioned": 4324,
      "ouse": 4325,
      "alex": 4326,
      "somewhat": 4327,
      "clin": 4328,
      "bars": 4329,
      "approxim": 4330,
      "millions": 4331,
      "specifically": 4332,
      "egg": 4333,
      "fired": 4334,
      "gates": 4335,
      "secut": 4336,
      "unable": 4337,
      "quit": 4338,
      "iving": 4339,
      "increases": 4340,
      "hell": 4341,
      "dole": 4342,
      "iza": 4343,
      "skies": 4344,
      "typically": 4345,
      "nast": 4346,
      "ox": 4347,
      "thom": 4348,
      "itors": 4349,
      "islam": 4350,
      "2a": 4351,
      "35": 4352,
      "dise": 4353,
      "belong": 4354,
      "worship": 4355,
      "sexual": 4356,
      "bly": 4357,
      "gri": 4358,
      "howard": 4359,
      "russia": 4360,
      "supreme": 4361,
      "brain": 4362,
      "decades": 4363,
      "eighty": 4364,
      "duty": 4365,
      "reviewed": 4366,
      "falls": 4367,
      "presence": 4368,
      "enforce": 4369,
      "regardless": 4370,
      "cow": 4371,
      "column": 4372,
      "cking": 4373,
      "atically": 4374,
      "iii": 4375,
      "calcul": 4376,
      "ski": 4377,
      "splend": 4378,
      "septem": 4379,
      "mach": 4380,
      "strugg": 4381,
      "substant": 4382,
      "madrid": 4383,
      "landscape": 4384,
      "gonna": 4385,
      "piazza": 4386,
      "september": 4387,
      "ites": 4388,
      "entered": 4389,
      "loans": 4390,
      "modif": 4391,
      "cave": 4392,
      "disco": 4393,
      "applied": 4394,
      "fascinating": 4395,
      "relea": 4396,
      "fees": 4397,
      "tape": 4398,
      "broken": 4399,
      "detailed": 4400,
      "ax": 4401,
      "schol": 4402,
      "occasion": 4403,
      "ets": 4404,
      "shook": 4405,
      "prime": 4406,
      "perfectly": 4407,
      "gang": 4408,
      "wearing": 4409,
      "click": 4410,
      "allows": 4411,
      "application": 4412,
      "ull": 4413,
      "obvious": 4414,
      "privacy": 4415,
      "collections": 4416,
      "experts": 4417,
      "jim": 4418,
      "thia": 4419,
      "yel": 4420,
      "organized": 4421,
      "teams": 4422,
      "sick": 4423,
      "lav": 4424,
      "shape": 4425,
      "napo": 4426,
      "ares": 4427,
      "audience": 4428,
      "churches": 4429,
      "strategies": 4430,
      "orders": 4431,
      "sers": 4432,
      "posing": 4433,
      "reducing": 4434,
      "contributions": 4435,
      "kent": 4436,
      "abilities": 4437,
      "notes": 4438,
      "hole": 4439,
      "breath": 4440,
      "pound": 4441,
      "heim": 4442,
      "code": 4443,
      "obtain": 4444,
      "paint": 4445,
      "christmas": 4446,
      "eries": 4447,
      "pluses": 4448,
      "anybody": 4449,
      "interpret": 4450,
      "norm": 4451,
      "realized": 4452,
      "initiatives": 4453,
      "iness": 4454,
      "tober": 4455,
      "moon": 4456,
      "initiative": 4457,
      "secretary": 4458,
      "materials": 4459,
      "francis": 4460,
      "incentives": 4461,
      "atmosphere": 4462,
      "habit": 4463,
      "agan": 4464,
      "inten": 4465,
      "sme": 4466,
      "sevent": 4467,
      "wooden": 4468,
      "protest": 4469,
      "artist": 4470,
      "medit": 4471,
      "salt": 4472,
      "october": 4473,
      "democratic": 4474,
      "accurate": 4475,
      "temporary": 4476,
      "ads": 4477,
      "operation": 4478,
      "awful": 4479,
      "communication": 4480,
      "28": 4481,
      "tired": 4482,
      "delight": 4483,
      "encies": 4484,
      "columns": 4485,
      "constructed": 4486,
      "cs": 4487,
      "pens": 4488,
      "ils": 4489,
      "adul": 4490,
      "calling": 4491,
      "besides": 4492,
      "loud": 4493,
      "launch": 4494,
      "regional": 4495,
      "facts": 4496,
      "predict": 4497,
      "craz": 4498,
      "courty": 4499,
      "strict": 4500,
      "connection": 4501,
      "amed": 4502,
      "riously": 4503,
      "proud": 4504,
      "expend": 4505,
      "reality": 4506,
      "capit": 4507,
      "baseball": 4508,
      "package": 4509,
      "consumption": 4510,
      "decorated": 4511,
      "register": 4512,
      "cats": 4513,
      "creation": 4514,
      "criteria": 4515,
      "learning": 4516,
      "debate": 4517,
      "bottom": 4518,
      "possibly": 4519,
      "guilty": 4520,
      "stewardship": 4521,
      "zes": 4522,
      "surpluses": 4523,
      "happening": 4524,
      "ulate": 4525,
      "dogs": 4526,
      "chicago": 4527,
      "27": 4528,
      "clothing": 4529,
      "limits": 4530,
      "villages": 4531,
      "phase": 4532,
      "eating": 4533,
      "fab": 4534,
      "retr": 4535,
      "aled": 4536,
      "hey": 4537,
      "ours": 4538,
      "upset": 4539,
      "charles": 4540,
      "cynthia": 4541,
      "adopted": 4542,
      "300": 4543,
      "gres": 4544,
      "yester": 4545,
      "plaz": 4546,
      "sia": 4547,
      "treated": 4548,
      "carefully": 4549,
      "pulled": 4550,
      "lucky": 4551,
      "random": 4552,
      "laid": 4553,
      "bath": 4554,
      "technologies": 4555,
      "blow": 4556,
      "rev": 4557,
      "stars": 4558,
      "conver": 4559,
      "consci": 4560,
      "lined": 4561,
      "peninsu": 4562,
      "guarante": 4563,
      "31": 4564,
      "nox": 4565,
      "outcomes": 4566,
      "iest": 4567,
      "hide": 4568,
      "purposes": 4569,
      "scotland": 4570,
      "circumstances": 4571,
      "spectacular": 4572,
      "emot": 4573,
      "buried": 4574,
      "creating": 4575,
      "trading": 4576,
      "rated": 4577,
      "antly": 4578,
      "thick": 4579,
      "alleg": 4580,
      "dramatic": 4581,
      "fought": 4582,
      "vary": 4583,
      "bigger": 4584,
      "tons": 4585,
      "offering": 4586,
      "lord": 4587,
      "frequent": 4588,
      "recycl": 4589,
      "itative": 4590,
      "byz": 4591,
      "expert": 4592,
      "extensive": 4593,
      "gle": 4594,
      "oce": 4595,
      "command": 4596,
      "hardly": 4597,
      "methodo": 4598,
      "meetings": 4599,
      "sculpture": 4600,
      "remo": 4601,
      "arrest": 4602,
      "acid": 4603,
      "absor": 4604,
      "grants": 4605,
      "functions": 4606,
      "selected": 4607,
      "league": 4608,
      "surprising": 4609,
      "obviously": 4610,
      "divis": 4611,
      "symbol": 4612,
      "dating": 4613,
      "contained": 4614,
      "shore": 4615,
      "solution": 4616,
      "hindu": 4617,
      "crete": 4618,
      "delic": 4619,
      "beauty": 4620,
      "soldiers": 4621,
      "twel": 4622,
      "dem": 4623,
      "fool": 4624,
      "formal": 4625,
      "disci": 4626,
      "crafts": 4627,
      "nut": 4628,
      "ria": 4629,
      "serving": 4630,
      "cury": 4631,
      "plays": 4632,
      "mercury": 4633,
      "motiv": 4634,
      "assumptions": 4635,
      "imperial": 4636,
      "lewin": 4637,
      "graphic": 4638,
      "fifteen": 4639,
      "chemical": 4640,
      "yesterday": 4641,
      "gs": 4642,
      "ki": 4643,
      "kit": 4644,
      "nom": 4645,
      "monday": 4646,
      "governor": 4647,
      "1994": 4648,
      "recognize": 4649,
      "communications": 4650,
      "frequently": 4651,
      "oting": 4652,
      "decade": 4653,
      "compens": 4654,
      "closer": 4655,
      "empty": 4656,
      "hunt": 4657,
      "mous": 4658,
      "auto": 4659,
      "visiting": 4660,
      "advance": 4661,
      "independence": 4662,
      "elderly": 4663,
      "ideal": 4664,
      "recip": 4665,
      "peninsula": 4666,
      "bia": 4667,
      "dig": 4668,
      "ots": 4669,
      "deem": 4670,
      "taste": 4671,
      "truly": 4672,
      "permanent": 4673,
      "coordin": 4674,
      "join": 4675,
      "implemented": 4676,
      "primarily": 4677,
      "gentle": 4678,
      "treasury": 4679,
      "slightly": 4680,
      "hire": 4681,
      "image": 4682,
      "geo": 4683,
      "fewer": 4684,
      "sie": 4685,
      "directors": 4686,
      "comprehensive": 4687,
      "bum": 4688,
      "champ": 4689,
      "statewide": 4690,
      "allowances": 4691,
      "1980": 4692,
      "bear": 4693,
      "guest": 4694,
      "contact": 4695,
      "calm": 4696,
      "alien": 4697,
      "oring": 4698,
      "doctors": 4699,
      "covers": 4700,
      "tington": 4701,
      "mature": 4702,
      "elegant": 4703,
      "ere": 4704,
      "inspect": 4705,
      "alia": 4706,
      "everywhere": 4707,
      "rising": 4708,
      "zy": 4709,
      "corp": 4710,
      "effectiveness": 4711,
      "banks": 4712,
      "horrible": 4713,
      "suffer": 4714,
      "essential": 4715,
      "preamble": 4716,
      "bout": 4717,
      "delive": 4718,
      "shadow": 4719,
      "percentage": 4720,
      "ibiza": 4721,
      "divers": 4722,
      "teacher": 4723,
      "incident": 4724,
      "mexico": 4725,
      "adequate": 4726,
      "napoleon": 4727,
      "cere": 4728,
      "citing": 4729,
      "plaza": 4730,
      "ulations": 4731,
      "ateau": 4732,
      "fields": 4733,
      "egyptian": 4734,
      "dust": 4735,
      "ya": 4736,
      "mono": 4737,
      "writer": 4738,
      "assume": 4739,
      "mainten": 4740,
      "background": 4741,
      "medicine": 4742,
      "intellect": 4743,
      "appreciate": 4744,
      "lewinsky": 4745,
      "reputation": 4746,
      "vren": 4747,
      "eligible": 4748,
      "catholic": 4749,
      "expendit": 4750,
      "delivered": 4751,
      "vrenna": 4752,
      "abort": 4753,
      "bargain": 4754,
      "approximately": 4755,
      "eigh": 4756,
      "unk": 4757,
      "session": 4758,
      "promise": 4759,
      "protected": 4760,
      "typical": 4761,
      "satisf": 4762,
      "ashed": 4763,
      "improvements": 4764,
      "leaves": 4765,
      "kentuck": 4766,
      "cen": 4767,
      "nis": 4768,
      "pin": 4769,
      "unlike": 4770,
      "parks": 4771,
      "signs": 4772,
      "customer": 4773,
      "readers": 4774,
      "heads": 4775,
      "appears": 4776,
      "confidence": 4777,
      "purchase": 4778,
      "crazy": 4779,
      "jum": 4780,
      "chronic": 4781,
      "devoted": 4782,
      "expo": 4783,
      "subsequ": 4784,
      "showing": 4785,
      "relief": 4786,
      "append": 4787,
      "departments": 4788,
      "clubs": 4789,
      "guidelines": 4790,
      "infl": 4791,
      "exter": 4792,
      "regulation": 4793,
      "administrative": 4794,
      "tickets": 4795,
      "transportation": 4796,
      "committed": 4797,
      "professor": 4798,
      "lee": 4799,
      "nings": 4800,
      "atl": 4801,
      "holds": 4802,
      "cliff": 4803,
      "insp": 4804,
      "carol": 4805,
      "positions": 4806,
      "cutting": 4807,
      "journey": 4808,
      "displays": 4809,
      "gross": 4810,
      "sely": 4811,
      "chose": 4812,
      "poison": 4813,
      "ferences": 4814,
      "ively": 4815,
      "lawrence": 4816,
      "chee": 4817,
      "motor": 4818,
      "sensitive": 4819,
      "twelve": 4820,
      "submitted": 4821,
      "britain": 4822,
      "feature": 4823,
      "catal": 4824,
      "honest": 4825,
      "retrof": 4826,
      "zing": 4827,
      "edul": 4828,
      "peter": 4829,
      "oversight": 4830,
      "schedul": 4831,
      "possibility": 4832,
      "scandal": 4833,
      "nations": 4834,
      "loy": 4835,
      "crimes": 4836,
      "released": 4837,
      "brow": 4838,
      "kir": 4839,
      "previously": 4840,
      "15th": 4841,
      "55": 4842,
      "gift": 4843,
      "mut": 4844,
      "osa": 4845,
      "anton": 4846,
      "significantly": 4847,
      "representatives": 4848,
      "institution": 4849,
      "valuable": 4850,
      "maintenance": 4851,
      "pages": 4852,
      "ams": 4853,
      "litig": 4854,
      "expectations": 4855,
      "13th": 4856,
      "implic": 4857,
      "umes": 4858,
      "cents": 4859,
      "nesses": 4860,
      "pting": 4861,
      "represented": 4862,
      "poly": 4863,
      "apt": 4864,
      "voters": 4865,
      "nas": 4866,
      "remind": 4867,
      "ender": 4868,
      "scared": 4869,
      "temper": 4870,
      "controver": 4871,
      "jones": 4872,
      "crowded": 4873,
      "surprise": 4874,
      "anne": 4875,
      "burn": 4876,
      "confident": 4877,
      "victims": 4878,
      "ordered": 4879,
      "stuck": 4880,
      "sultan": 4881,
      "intellig": 4882,
      "franklin": 4883,
      "crack": 4884,
      "amounts": 4885,
      "candidates": 4886,
      "ja": 4887,
      "losing": 4888,
      "joined": 4889,
      "economics": 4890,
      "scenes": 4891,
      "weapon": 4892,
      "bradley": 4893,
      "ocean": 4894,
      "nix": 4895,
      "replaced": 4896,
      "gods": 4897,
      "facade": 4898,
      "hs": 4899,
      "worker": 4900,
      "oblig": 4901,
      "riding": 4902,
      "tourism": 4903,
      "ceremon": 4904,
      "reject": 4905,
      "outs": 4906,
      "helpful": 4907,
      "experim": 4908,
      "bunch": 4909,
      "admit": 4910,
      "complic": 4911,
      "shared": 4912,
      "delay": 4913,
      "politicians": 4914,
      "atures": 4915,
      "psycho": 4916,
      "fans": 4917,
      "stable": 4918,
      "owners": 4919,
      "voting": 4920,
      "latest": 4921,
      "achieved": 4922,
      "smoke": 4923,
      "iraq": 4924,
      "henry": 4925,
      "courtyard": 4926,
      "ota": 4927,
      "expression": 4928,
      "affairs": 4929,
      "argue": 4930,
      "splendid": 4931,
      "caves": 4932,
      "faced": 4933,
      "continues": 4934,
      "quarters": 4935,
      "kish": 4936,
      "stations": 4937,
      "coach": 4938,
      "shoot": 4939,
      "understood": 4940,
      "poland": 4941,
      "careful": 4942,
      "tells": 4943,
      "animal": 4944,
      "jail": 4945,
      "nn": 4946,
      "becomes": 4947,
      "artif": 4948,
      "istan": 4949,
      "jewel": 4950,
      "kenned": 4951,
      "recommended": 4952,
      "troops": 4953,
      "liberal": 4954,
      "distinct": 4955,
      "rapid": 4956,
      "craft": 4957,
      "dated": 4958,
      "thin": 4959,
      "agas": 4960,
      "efficiency": 4961,
      "fert": 4962,
      "turns": 4963,
      "cried": 4964,
      "drawn": 4965,
      "failure": 4966,
      "birds": 4967,
      "philo": 4968,
      "angry": 4969,
      "arian": 4970,
      "knowing": 4971,
      "opening": 4972,
      "supporting": 4973,
      "necessarily": 4974,
      "martin": 4975,
      "florida": 4976,
      "stall": 4977,
      "forty": 4978,
      "acces": 4979,
      "consult": 4980,
      "classes": 4981,
      "pilgrim": 4982,
      "conscious": 4983,
      "dim": 4984,
      "pier": 4985,
      "vul": 4986,
      "borrow": 4987,
      "competitive": 4988,
      "dens": 4989,
      "uration": 4990,
      "shu": 4991,
      "monast": 4992,
      "writers": 4993,
      "residential": 4994,
      "crisis": 4995,
      "33": 4996,
      "swee": 4997,
      "thu": 4998,
      "icts": 4999,
      "forever": 5000,
      "opera": 5001,
      "reliable": 5002,
      "describes": 5003,
      "newspapers": 5004,
      "saturday": 5005,
      "replied": 5006,
      "appendix": 5007,
      "nixon": 5008,
      "dar": 5009,
      "stroll": 5010,
      "ador": 5011,
      "gather": 5012,
      "dum": 5013,
      "tight": 5014,
      "depending": 5015,
      "silence": 5016,
      "virginia": 5017,
      "metal": 5018,
      "gray": 5019,
      "ruct": 5020,
      "otto": 5021,
      "sights": 5022,
      "terror": 5023,
      "lis": 5024,
      "ili": 5025,
      "permit": 5026,
      "udes": 5027,
      "volcan": 5028,
      "sale": 5029,
      "bills": 5030,
      "institute": 5031,
      "substantial": 5032,
      "illy": 5033,
      "testim": 5034,
      "presidential": 5035,
      "graphy": 5036,
      "fda": 5037,
      "summary": 5038,
      "styles": 5039,
      "bird": 5040,
      "buddhist": 5041,
      "whittington": 5042,
      "garet": 5043,
      "ror": 5044,
      "guided": 5045,
      "pping": 5046,
      "portra": 5047,
      "falling": 5048,
      "storm": 5049,
      "ignored": 5050,
      "hidden": 5051,
      "monastery": 5052,
      "uct": 5053,
      "escape": 5054,
      "tonight": 5055,
      "divor": 5056,
      "giant": 5057,
      "camer": 5058,
      "pi": 5059,
      "slim": 5060,
      "orrow": 5061,
      "usions": 5062,
      "shoes": 5063,
      "handed": 5064,
      "tomorrow": 5065,
      "cheaper": 5066,
      "definition": 5067,
      "bull": 5068,
      "sample": 5069,
      "territory": 5070,
      "penalty": 5071,
      "suspic": 5072,
      "dates": 5073,
      "rat": 5074,
      "sey": 5075,
      "auditor": 5076,
      "projected": 5077,
      "candidate": 5078,
      "friday": 5079,
      "lla": 5080,
      "core": 5081,
      "ports": 5082,
      "basket": 5083,
      "assumed": 5084,
      "rival": 5085,
      "expl": 5086,
      "sentence": 5087,
      "investors": 5088,
      "harm": 5089,
      "improper": 5090,
      "facing": 5091,
      "listed": 5092,
      "literature": 5093,
      "bronze": 5094,
      "december": 5095,
      "prove": 5096,
      "investments": 5097,
      "exhibits": 5098,
      "blade": 5099,
      "greatly": 5100,
      "attend": 5101,
      "thorough": 5102,
      "punishment": 5103,
      "gressive": 5104,
      "95": 5105,
      "tokyo": 5106,
      "irts": 5107,
      "premi": 5108,
      "crus": 5109,
      "studied": 5110,
      "passa": 5111,
      "wealthy": 5112,
      "fuel": 5113,
      "minimum": 5114,
      "hes": 5115,
      "kil": 5116,
      "height": 5117,
      "daniel": 5118,
      "aling": 5119,
      "brick": 5120,
      "raising": 5121,
      "finish": 5122,
      "visits": 5123,
      "1993": 5124,
      "ferry": 5125,
      "welcome": 5126,
      "bringing": 5127,
      "theat": 5128,
      "icial": 5129,
      "rob": 5130,
      "whis": 5131,
      "colorado": 5132,
      "mistake": 5133,
      "railway": 5134,
      "conflict": 5135,
      "tan": 5136,
      "severe": 5137,
      "powers": 5138,
      "boom": 5139,
      "expressed": 5140,
      "14th": 5141,
      "collected": 5142,
      "kick": 5143,
      "oted": 5144,
      "chat": 5145,
      "appointed": 5146,
      "silent": 5147,
      "avoided": 5148,
      "sacred": 5149,
      "aspects": 5150,
      "nasty": 5151,
      "exposure": 5152,
      "kin": 5153,
      "aming": 5154,
      "resource": 5155,
      "odd": 5156,
      "germany": 5157,
      "practical": 5158,
      "officers": 5159,
      "dict": 5160,
      "sadd": 5161,
      "arrange": 5162,
      "nove": 5163,
      "aced": 5164,
      "observed": 5165,
      "largely": 5166,
      "keeps": 5167,
      "natives": 5168,
      "covering": 5169,
      "healthy": 5170,
      "attraction": 5171,
      "contrast": 5172,
      "stupid": 5173,
      "byzant": 5174,
      "inner": 5175,
      "ruins": 5176,
      "barr": 5177,
      "films": 5178,
      "participate": 5179,
      "clusive": 5180,
      "mobile": 5181,
      "dial": 5182,
      "insist": 5183,
      "asian": 5184,
      "grace": 5185,
      "turkish": 5186,
      "improving": 5187,
      "prepare": 5188,
      "providers": 5189,
      "scottish": 5190,
      "fruit": 5191,
      "hated": 5192,
      "ray": 5193,
      "remem": 5194,
      "entry": 5195,
      "ching": 5196,
      "agger": 5197,
      "stared": 5198,
      "albert": 5199,
      "begun": 5200,
      "ceiling": 5201,
      "talent": 5202,
      "remaining": 5203,
      "flood": 5204,
      "pull": 5205,
      "hypo": 5206,
      "pyram": 5207,
      "normally": 5208,
      "hud": 5209,
      "scar": 5210,
      "dozen": 5211,
      "user": 5212,
      "highway": 5213,
      "expenses": 5214,
      "johnson": 5215,
      "climb": 5216,
      "reporters": 5217,
      "remarkable": 5218,
      "adm": 5219,
      "strain": 5220,
      "mainly": 5221,
      "worthy": 5222,
      "applicable": 5223,
      "bauer": 5224,
      "attribut": 5225,
      "harder": 5226,
      "faces": 5227,
      "telephone": 5228,
      "occurred": 5229,
      "lease": 5230,
      "chal": 5231,
      "peach": 5232,
      "lls": 5233,
      "memory": 5234,
      "considering": 5235,
      "suggests": 5236,
      "global": 5237,
      "ottoman": 5238,
      "bited": 5239,
      "asia": 5240,
      "rian": 5241,
      "admitted": 5242,
      "wore": 5243,
      "colors": 5244,
      "bodies": 5245,
      "thoughts": 5246,
      "elsewhere": 5247,
      "sugar": 5248,
      "flower": 5249,
      "hers": 5250,
      "reference": 5251,
      "pets": 5252,
      "iff": 5253,
      "indians": 5254,
      "boards": 5255,
      "artifacts": 5256,
      "sper": 5257,
      "incred": 5258,
      "illi": 5259,
      "folk": 5260,
      "officer": 5261,
      "consumer": 5262,
      "victory": 5263,
      "kitch": 5264,
      "veter": 5265,
      "legend": 5266,
      "structures": 5267,
      "pleasure": 5268,
      "asks": 5269,
      "weir": 5270,
      "ura": 5271,
      "cazar": 5272,
      "collap": 5273,
      "settlement": 5274,
      "thomas": 5275,
      "45": 5276,
      "tig": 5277,
      "whenever": 5278,
      "destination": 5279,
      "peaceful": 5280,
      "ultimately": 5281,
      "lately": 5282,
      "intent": 5283,
      "breed": 5284,
      "nile": 5285,
      "prepar": 5286,
      "1960": 5287,
      "visibility": 5288,
      "ridic": 5289,
      "sures": 5290,
      "prosecut": 5291,
      "so2": 5292,
      "counts": 5293,
      "wars": 5294,
      "ios": 5295,
      "examined": 5296,
      "johnny": 5297,
      "equally": 5298,
      "invas": 5299,
      "boulev": 5300,
      "pace": 5301,
      "oked": 5302,
      "feels": 5303,
      "distribution": 5304,
      "36": 5305,
      "oth": 5306,
      "excl": 5307,
      "grade": 5308,
      "ireland": 5309,
      "monet": 5310,
      "mcca": 5311,
      "ozone": 5312,
      "aci": 5313,
      "commitment": 5314,
      "bags": 5315,
      "disease": 5316,
      "icing": 5317,
      "shor": 5318,
      "facilit": 5319,
      "listening": 5320,
      "chi": 5321,
      "brings": 5322,
      "folks": 5323,
      "violent": 5324,
      "nursing": 5325,
      "framework": 5326,
      "olog": 5327,
      "aves": 5328,
      "charged": 5329,
      "celebrated": 5330,
      "sab": 5331,
      "iting": 5332,
      "config": 5333,
      "sather": 5334,
      "bork": 5335,
      "survive": 5336,
      "carrying": 5337,
      "accuracy": 5338,
      "ancy": 5339,
      "tast": 5340,
      "seeking": 5341,
      "personnel": 5342,
      "transition": 5343,
      "involving": 5344,
      "increasingly": 5345,
      "gambling": 5346,
      "barely": 5347,
      "sts": 5348,
      "weigh": 5349,
      "taught": 5350,
      "preserved": 5351,
      "pride": 5352,
      "player": 5353,
      "morris": 5354,
      "sixty": 5355,
      "finest": 5356,
      "gul": 5357,
      "lind": 5358,
      "rust": 5359,
      "uous": 5360,
      "ami": 5361,
      "advis": 5362,
      "corrupt": 5363,
      "capable": 5364,
      "teaching": 5365,
      "investigation": 5366,
      "categories": 5367,
      "decrease": 5368,
      "fers": 5369,
      "derry": 5370,
      "vised": 5371,
      "surely": 5372,
      "earned": 5373,
      "minister": 5374,
      "evolution": 5375,
      "pine": 5376,
      "shif": 5377,
      "successfully": 5378,
      "furnit": 5379,
      "combination": 5380,
      "furniture": 5381,
      "aer": 5382,
      "kath": 5383,
      "acting": 5384,
      "2010": 5385,
      "anean": 5386,
      "democracy": 5387,
      "monuments": 5388,
      "split": 5389,
      "guese": 5390,
      "gran": 5391,
      "interim": 5392,
      "warri": 5393,
      "romans": 5394,
      "latter": 5395,
      "repeated": 5396,
      "portuguese": 5397,
      "bb": 5398,
      "ole": 5399,
      "seriously": 5400,
      "maryland": 5401,
      "principle": 5402,
      "kennedy": 5403,
      "rant": 5404,
      "instruct": 5405,
      "ultural": 5406,
      "driven": 5407,
      "elections": 5408,
      "scope": 5409,
      "measured": 5410,
      "parent": 5411,
      "crown": 5412,
      "soviet": 5413,
      "exceed": 5414,
      "isms": 5415,
      "plat": 5416,
      "nights": 5417,
      "consideration": 5418,
      "rarely": 5419,
      "settled": 5420,
      "testimony": 5421,
      "bent": 5422,
      "tone": 5423,
      "altar": 5424,
      "lobby": 5425,
      "sustain": 5426,
      "cuba": 5427,
      "links": 5428,
      "fc": 5429,
      "exciting": 5430,
      "emission": 5431,
      "articles": 5432,
      "anticip": 5433,
      "immigration": 5434,
      "restrictions": 5435,
      "rocks": 5436,
      "estate": 5437,
      "desk": 5438,
      "headed": 5439,
      "documentation": 5440,
      "discipl": 5441,
      "cous": 5442,
      "towers": 5443,
      "locked": 5444,
      "unusual": 5445,
      "proved": 5446,
      "requests": 5447,
      "expanded": 5448,
      "enforcement": 5449,
      "fres": 5450,
      "inno": 5451,
      "parliam": 5452,
      "publication": 5453,
      "beside": 5454,
      "legislative": 5455,
      "hospit": 5456,
      "icting": 5457,
      "choices": 5458,
      "staying": 5459,
      "metro": 5460,
      "connect": 5461,
      "sculptures": 5462,
      "gau": 5463,
      "pure": 5464,
      "stry": 5465,
      "meal": 5466,
      "jection": 5467,
      "privi": 5468,
      "fortress": 5469,
      "begins": 5470,
      "implementing": 5471,
      "pollut": 5472,
      "carolina": 5473,
      "chick": 5474,
      "scary": 5475,
      "promote": 5476,
      "lovely": 5477,
      "characters": 5478,
      "earthqu": 5479,
      "malaysia": 5480,
      "len": 5481,
      "incorpor": 5482,
      "defe": 5483,
      "context": 5484,
      "sau": 5485,
      "manufacture": 5486,
      "category": 5487,
      "fi": 5488,
      "kins": 5489,
      "residence": 5490,
      "winning": 5491,
      "excited": 5492,
      "adults": 5493,
      "wid": 5494,
      "sees": 5495,
      "chateau": 5496,
      "attitude": 5497,
      "1992": 5498,
      "mailers": 5499,
      "accomplish": 5500,
      "abandoned": 5501,
      "outcome": 5502,
      "embr": 5503,
      "finn": 5504,
      "shoulder": 5505,
      "palest": 5506,
      "element": 5507,
      "vas": 5508,
      "reward": 5509,
      "stair": 5510,
      "roc": 5511,
      "visible": 5512,
      "turkey": 5513,
      "suring": 5514,
      "feder": 5515,
      "writes": 5516,
      "kore": 5517,
      "stakeholders": 5518,
      "stab": 5519,
      "mosa": 5520,
      "fered": 5521,
      "1970": 5522,
      "assass": 5523,
      "rugged": 5524,
      "www": 5525,
      "wart": 5526,
      "exclusive": 5527,
      "tombs": 5528,
      "judges": 5529,
      "unknown": 5530,
      "tran": 5531,
      "approaches": 5532,
      "yards": 5533,
      "kel": 5534,
      "charges": 5535,
      "burg": 5536,
      "affair": 5537,
      "priority": 5538,
      "galleries": 5539,
      "rode": 5540,
      "shift": 5541,
      "dining": 5542,
      "excuse": 5543,
      "merely": 5544,
      "comparison": 5545,
      "mccain": 5546,
      "pink": 5547,
      "attest": 5548,
      "modest": 5549,
      "carving": 5550,
      "musee": 5551,
      "applications": 5552,
      "parliament": 5553,
      "gap": 5554,
      "uze": 5555,
      "nest": 5556,
      "sher": 5557,
      "trap": 5558,
      "prud": 5559,
      "answered": 5560,
      "disclo": 5561,
      "smile": 5562,
      "attacks": 5563,
      "cooking": 5564,
      "festiv": 5565,
      "weird": 5566,
      "wage": 5567,
      "infr": 5568,
      "elab": 5569,
      "locals": 5570,
      "climate": 5571,
      "detect": 5572,
      "remembered": 5573,
      "tues": 5574,
      "thed": 5575,
      "orange": 5576,
      "youth": 5577,
      "febru": 5578,
      "canal": 5579,
      "fundam": 5580,
      "eleven": 5581,
      "analyses": 5582,
      "avenue": 5583,
      "february": 5584,
      "ec": 5585,
      "ulty": 5586,
      "umin": 5587,
      "spin": 5588,
      "sulfur": 5589,
      "natalia": 5590,
      "ifying": 5591,
      "employed": 5592,
      "regularly": 5593,
      "bors": 5594,
      "enor": 5595,
      "carib": 5596,
      "expense": 5597,
      "farther": 5598,
      "heavily": 5599,
      "combined": 5600,
      "abortion": 5601,
      "reagan": 5602,
      "depos": 5603,
      "anta": 5604,
      "finds": 5605,
      "handsome": 5606,
      "classic": 5607,
      "copies": 5608,
      "capture": 5609,
      "kyoto": 5610,
      "scientific": 5611,
      "ugly": 5612,
      "34": 5613,
      "toxic": 5614,
      "perspective": 5615,
      "blan": 5616,
      "mayor": 5617,
      "iously": 5618,
      "financing": 5619,
      "mediterr": 5620,
      "seas": 5621,
      "oration": 5622,
      "bean": 5623,
      "hawa": 5624,
      "cel": 5625,
      "sian": 5626,
      "disput": 5627,
      "charming": 5628,
      "20th": 5629,
      "hoping": 5630,
      "appearance": 5631,
      "satisfact": 5632,
      "division": 5633,
      "itation": 5634,
      "astron": 5635,
      "desire": 5636,
      "contracts": 5637,
      "explanation": 5638,
      "mediterranean": 5639,
      "enh": 5640,
      "ola": 5641,
      "causes": 5642,
      "persons": 5643,
      "operate": 5644,
      "trained": 5645,
      "12th": 5646,
      "fifth": 5647,
      "smoking": 5648,
      "fresco": 5649,
      "bread": 5650,
      "wages": 5651,
      "tobac": 5652,
      "eds": 5653,
      "tage": 5654,
      "responses": 5655,
      "acceptable": 5656,
      "situated": 5657,
      "mers": 5658,
      "tees": 5659,
      "somehow": 5660,
      "shaped": 5661,
      "locations": 5662,
      "divided": 5663,
      "arrive": 5664,
      "byzantine": 5665,
      "195": 5666,
      "ticket": 5667,
      "faster": 5668,
      "mum": 5669,
      "disaster": 5670,
      "researchers": 5671,
      "cend": 5672,
      "pav": 5673,
      "yo": 5674,
      "stad": 5675,
      "alfred": 5676,
      "herit": 5677,
      "disney": 5678,
      "authen": 5679,
      "sanct": 5680,
      "chamber": 5681,
      "components": 5682,
      "noise": 5683,
      "opposed": 5684,
      "greuze": 5685,
      "publish": 5686,
      "souven": 5687,
      "wake": 5688,
      "generations": 5689,
      "150": 5690,
      "panel": 5691,
      "africa": 5692,
      "lers": 5693,
      "pitch": 5694,
      "clar": 5695,
      "awards": 5696,
      "announced": 5697,
      "98": 5698,
      "vine": 5699,
      "maker": 5700,
      "gains": 5701,
      "integrity": 5702,
      "removed": 5703,
      "renov": 5704,
      "neo": 5705,
      "cios": 5706,
      "donald": 5707,
      "supplement": 5708,
      "stepped": 5709,
      "committees": 5710,
      "switch": 5711,
      "survived": 5712,
      "consequences": 5713,
      "struggle": 5714,
      "gio": 5715,
      "roles": 5716,
      "uncertain": 5717,
      "tennis": 5718,
      "profits": 5719,
      "michel": 5720,
      "sandy": 5721,
      "tobacco": 5722,
      "rice": 5723,
      "sought": 5724,
      "degre": 5725,
      "properly": 5726,
      "characteristics": 5727,
      "convenient": 5728,
      "recipients": 5729,
      "oak": 5730,
      "frag": 5731,
      "plastic": 5732,
      "evil": 5733,
      "countryside": 5734,
      "resulting": 5735,
      "hunting": 5736,
      "website": 5737,
      "suffered": 5738,
      "philosoph": 5739,
      "theless": 5740,
      "iny": 5741,
      "ifications": 5742,
      "ruled": 5743,
      "existence": 5744,
      "strip": 5745,
      "recycling": 5746,
      "inspired": 5747,
      "oupe": 5748,
      "asset": 5749,
      "trips": 5750,
      "species": 5751,
      "concerning": 5752,
      "penn": 5753,
      "degrees": 5754,
      "ssed": 5755,
      "tion": 5756,
      "trium": 5757,
      "northeast": 5758,
      "participation": 5759,
      "principal": 5760,
      "conclusion": 5761,
      "encouraged": 5762,
      "chairman": 5763,
      "introduced": 5764,
      "agricultural": 5765,
      "39": 5766,
      "nate": 5767,
      "nose": 5768,
      "shing": 5769,
      "addresses": 5770,
      "flag": 5771,
      "passing": 5772,
      "broadcast": 5773,
      "branch": 5774,
      "accessible": 5775,
      "stones": 5776,
      "blame": 5777,
      "hired": 5778,
      "corn": 5779,
      "palaz": 5780,
      "conclusions": 5781,
      "captured": 5782,
      "patterns": 5783,
      "aint": 5784,
      "allowing": 5785,
      "annon": 5786,
      "electron": 5787,
      "circ": 5788,
      "physicians": 5789,
      "installation": 5790,
      "assumption": 5791,
      "colonial": 5792,
      "situations": 5793,
      "rational": 5794,
      "wound": 5795,
      "impeach": 5796,
      "neck": 5797,
      "prohi": 5798,
      "istical": 5799,
      "retired": 5800,
      "managing": 5801,
      "nin": 5802,
      "sits": 5803,
      "orate": 5804,
      "deter": 5805,
      "raj": 5806,
      "statistics": 5807,
      "torn": 5808,
      "relationships": 5809,
      "oriented": 5810,
      "volunteer": 5811,
      "boulevard": 5812,
      "cnn": 5813,
      "rely": 5814,
      "cream": 5815,
      "yours": 5816,
      "venice": 5817,
      "economists": 5818,
      "judgment": 5819,
      "invasion": 5820,
      "authentic": 5821,
      "whel": 5822,
      "ingu": 5823,
      "icy": 5824,
      "suits": 5825,
      "ansas": 5826,
      "qualified": 5827,
      "examine": 5828,
      "annually": 5829,
      "latin": 5830,
      "sharp": 5831,
      "triumph": 5832,
      "batt": 5833,
      "flight": 5834,
      "gpra": 5835,
      "inland": 5836,
      "lyn": 5837,
      "trick": 5838,
      "demands": 5839,
      "vietnam": 5840,
      "instruments": 5841,
      "bition": 5842,
      "ow": 5843,
      "tie": 5844,
      "twin": 5845,
      "rem": 5846,
      "sence": 5847,
      "summar": 5848,
      "eleph": 5849,
      "requested": 5850,
      "establishing": 5851,
      "martini": 5852,
      "dutch": 5853,
      "basketball": 5854,
      "pope": 5855,
      "illes": 5856,
      "joint": 5857,
      "venet": 5858,
      "philip": 5859,
      "accused": 5860,
      "archaeological": 5861,
      "occasionally": 5862,
      "tool": 5863,
      "imposing": 5864,
      "quiz": 5865,
      "izon": 5866,
      "controlled": 5867,
      "employers": 5868,
      "65": 5869,
      "tles": 5870,
      "inspir": 5871,
      "dear": 5872,
      "utter": 5873,
      "missions": 5874,
      "filed": 5875,
      "channel": 5876,
      "complicated": 5877,
      "thusi": 5878,
      "38": 5879,
      "mud": 5880,
      "enthusi": 5881,
      "acce": 5882,
      "auditing": 5883,
      "authorized": 5884,
      "traveling": 5885,
      "breakfast": 5886,
      "tent": 5887,
      "nepal": 5888,
      "proof": 5889,
      "extend": 5890,
      "waited": 5891,
      "prince": 5892,
      "crose": 5893,
      "periods": 5894,
      "installed": 5895,
      "32": 5896,
      "recru": 5897,
      "omer": 5898,
      "forum": 5899,
      "lip": 5900,
      "hip": 5901,
      "desper": 5902,
      "phra": 5903,
      "prescri": 5904,
      "hung": 5905,
      "elected": 5906,
      "error": 5907,
      "extended": 5908,
      "yellow": 5909,
      "expenditures": 5910,
      "grab": 5911,
      "taxpay": 5912,
      "breaking": 5913,
      "killing": 5914,
      "description": 5915,
      "teachers": 5916,
      "vulner": 5917,
      "infrast": 5918,
      "tuesday": 5919,
      "file": 5920,
      "ari": 5921,
      "190": 5922,
      "mini": 5923,
      "sons": 5924,
      "courses": 5925,
      "transform": 5926,
      "receiving": 5927,
      "experiences": 5928,
      "describe": 5929,
      "dancing": 5930,
      "muslims": 5931,
      "diversity": 5932,
      "kitchen": 5933,
      "infrastruct": 5934,
      "thri": 5935,
      "wet": 5936,
      "compensation": 5937,
      "represents": 5938,
      "defeat": 5939,
      "aux": 5940,
      "starts": 5941,
      "treaty": 5942,
      "400": 5943,
      "crash": 5944,
      "cheer": 5945,
      "representative": 5946,
      "achieving": 5947,
      "quietly": 5948,
      "vegetables": 5949,
      "gagas": 5950,
      "twi": 5951,
      "ongoing": 5952,
      "images": 5953,
      "und": 5954,
      "monarch": 5955,
      "burned": 5956,
      "involves": 5957,
      "performing": 5958,
      "apartments": 5959,
      "opinions": 5960,
      "bowl": 5961,
      "memorial": 5962,
      "monitoring": 5963,
      "enhance": 5964,
      "release": 5965,
      "bra": 5966,
      "compare": 5967,
      "plane": 5968,
      "african": 5969,
      "buddha": 5970,
      "engagement": 5971,
      "sweet": 5972,
      "theatre": 5973,
      "festivals": 5974,
      "vital": 5975,
      "pled": 5976,
      "posses": 5977,
      "examination": 5978,
      "securities": 5979,
      "declined": 5980,
      "continuing": 5981,
      "strike": 5982,
      "sophistic": 5983,
      "discovery": 5984,
      "wick": 5985,
      "inations": 5986,
      "bos": 5987,
      "estone": 5988,
      "limestone": 5989,
      "contribute": 5990,
      "criminals": 5991,
      "hospitals": 5992,
      "stadium": 5993,
      "gop": 5994,
      "priest": 5995,
      "taxi": 5996,
      "musical": 5997,
      "sunset": 5998,
      "koso": 5999,
      "sleeping": 6000,
      "pattern": 6001,
      "configuration": 6002,
      "37": 6003,
      "dio": 6004,
      "adays": 6005,
      "nowadays": 6006,
      "overwhel": 6007,
      "weekly": 6008,
      "resulted": 6009,
      "wednes": 6010,
      "enemies": 6011,
      "vehicle": 6012,
      "jewelry": 6013,
      "48": 6014,
      "fiction": 6015,
      "reserve": 6016,
      "whip": 6017,
      "iran": 6018,
      "fled": 6019,
      "agreements": 6020,
      "machines": 6021,
      "oque": 6022,
      "pom": 6023,
      "andre": 6024,
      "lean": 6025,
      "exists": 6026,
      "actor": 6027,
      "premature": 6028,
      "baroque": 6029,
      "missing": 6030,
      "roller": 6031,
      "hast": 6032,
      "rific": 6033,
      "confir": 6034,
      "answers": 6035,
      "pleased": 6036,
      "puer": 6037,
      "epis": 6038,
      "holiday": 6039,
      "performances": 6040,
      "thetic": 6041,
      "designs": 6042,
      "preferred": 6043,
      "enemy": 6044,
      "islamic": 6045,
      "yield": 6046,
      "uncle": 6047,
      "kee": 6048,
      "cairo": 6049,
      "encing": 6050,
      "everyday": 6051,
      "iana": 6052,
      "valuation": 6053,
      "driver": 6054,
      "widely": 6055,
      "objects": 6056,
      "alternatives": 6057,
      "trop": 6058,
      "ethnic": 6059,
      "thurs": 6060,
      "isol": 6061,
      "cigaret": 6062,
      "syn": 6063,
      "downtown": 6064,
      "drag": 6065,
      "cuis": 6066,
      "curious": 6067,
      "lively": 6068,
      "cruise": 6069,
      "colorful": 6070,
      "professionals": 6071,
      "dil": 6072,
      "gia": 6073,
      "rig": 6074,
      "aders": 6075,
      "cia": 6076,
      "buchan": 6077,
      "tempt": 6078,
      "barri": 6079,
      "explains": 6080,
      "drawing": 6081,
      "amendment": 6082,
      "600": 6083,
      "jam": 6084,
      "ost": 6085,
      "rein": 6086,
      "shout": 6087,
      "submit": 6088,
      "advanced": 6089,
      "adventure": 6090,
      "interpretation": 6091,
      "attestation": 6092,
      "vous": 6093,
      "inal": 6094,
      "usa": 6095,
      "directed": 6096,
      "projections": 6097,
      "unemployment": 6098,
      "identity": 6099,
      "weekends": 6100,
      "walks": 6101,
      "romantic": 6102,
      "constitutional": 6103,
      "eager": 6104,
      "iation": 6105,
      "agers": 6106,
      "aggre": 6107,
      "upstairs": 6108,
      "swing": 6109,
      "crowds": 6110,
      "connected": 6111,
      "66": 6112,
      "ell": 6113,
      "atta": 6114,
      "anda": 6115,
      "noble": 6116,
      "chip": 6117,
      "dev": 6118,
      "adding": 6119,
      "ception": 6120,
      "jordan": 6121,
      "solic": 6122,
      "prompt": 6123,
      "crop": 6124,
      "stark": 6125,
      "editorial": 6126,
      "97": 6127,
      "cure": 6128,
      "fena": 6129,
      "armed": 6130,
      "gosh": 6131,
      "metric": 6132,
      "paperwork": 6133,
      "villa": 6134,
      "declared": 6135,
      "ius": 6136,
      "jur": 6137,
      "tab": 6138,
      "rer": 6139,
      "assem": 6140,
      "nowhere": 6141,
      "guadel": 6142,
      "regions": 6143,
      "dealing": 6144,
      "swung": 6145,
      "drove": 6146,
      "employer": 6147,
      "universal": 6148,
      "superb": 6149,
      "proposals": 6150,
      "citizen": 6151,
      "guadeloupe": 6152,
      "dun": 6153,
      "rations": 6154,
      "stress": 6155,
      "shirt": 6156,
      "blind": 6157,
      "marke": 6158,
      "struck": 6159,
      "instances": 6160,
      "consumers": 6161,
      "commerce": 6162,
      "farmers": 6163,
      "deficit": 6164,
      "subsequent": 6165,
      "buchanan": 6166,
      "lion": 6167,
      "fet": 6168,
      "sail": 6169,
      "ibm": 6170,
      "gling": 6171,
      "architectural": 6172,
      "magazines": 6173,
      "oppon": 6174,
      "monte": 6175,
      "surplus": 6176,
      "wheel": 6177,
      "dorcas": 6178,
      "conservatives": 6179,
      "hanging": 6180,
      "mixed": 6181,
      "karf": 6182,
      "kne": 6183,
      "margin": 6184,
      "productive": 6185,
      "fortunate": 6186,
      "implications": 6187,
      "pottery": 6188,
      "contribution": 6189,
      "integrated": 6190,
      "treasures": 6191,
      "referred": 6192,
      "alexander": 6193,
      "enormous": 6194,
      "tp": 6195,
      "alley": 6196,
      "ingly": 6197,
      "haz": 6198,
      "prosper": 6199,
      "corps": 6200,
      "lessons": 6201,
      "topics": 6202,
      "statut": 6203,
      "northwest": 6204,
      "accordance": 6205,
      "educational": 6206,
      "israeli": 6207,
      "constantly": 6208,
      "chicken": 6209,
      "iques": 6210,
      "nip": 6211,
      "tha": 6212,
      "onso": 6213,
      "boss": 6214,
      "lessly": 6215,
      "plano": 6216,
      "distingu": 6217,
      "reforms": 6218,
      "returns": 6219,
      "linked": 6220,
      "landscap": 6221,
      "indiana": 6222,
      "litigation": 6223,
      "orth": 6224,
      "edition": 6225,
      "ici": 6226,
      "forgotten": 6227,
      "lips": 6228,
      "keys": 6229,
      "portray": 6230,
      "vehicles": 6231,
      "99": 6232,
      "gif": 6233,
      "rick": 6234,
      "output": 6235,
      "pling": 6236,
      "acks": 6237,
      "viewed": 6238,
      "steep": 6239,
      "statistical": 6240,
      "figured": 6241,
      "protocol": 6242,
      "november": 6243,
      "thouse": 6244,
      "abbey": 6245,
      "cans": 6246,
      "canada": 6247,
      "gra": 6248,
      "guards": 6249,
      "brilli": 6250,
      "homeland": 6251,
      "basil": 6252,
      "fault": 6253,
      "impression": 6254,
      "passion": 6255,
      "infrastructure": 6256,
      "rage": 6257,
      "arc": 6258,
      "ician": 6259,
      "apol": 6260,
      "chosen": 6261,
      "palais": 6262,
      "burning": 6263,
      "denied": 6264,
      "mandatory": 6265,
      "strength": 6266,
      "strengthen": 6267,
      "remote": 6268,
      "ridiculous": 6269,
      "lewis": 6270,
      "beth": 6271,
      "gean": 6272,
      "requiring": 6273,
      "obtained": 6274,
      "feelings": 6275,
      "diverse": 6276,
      "concluded": 6277,
      "converted": 6278,
      "pocket": 6279,
      "syl": 6280,
      "surface": 6281,
      "finger": 6282,
      "fingers": 6283,
      "immigrants": 6284,
      "wednesday": 6285,
      "plot": 6286,
      "som": 6287,
      "highlight": 6288,
      "supports": 6289,
      "southwest": 6290,
      "riders": 6291,
      "evaluate": 6292,
      "atoes": 6293,
      "cousin": 6294,
      "attered": 6295,
      "shrin": 6296,
      "optim": 6297,
      "wow": 6298,
      "curren": 6299,
      "recognition": 6300,
      "terrace": 6301,
      "threw": 6302,
      "neighbors": 6303,
      "statutory": 6304,
      "arrang": 6305,
      "stops": 6306,
      "casual": 6307,
      "considerable": 6308,
      "kentucky": 6309,
      "dressed": 6310,
      "jr": 6311,
      "kur": 6312,
      "secon": 6313,
      "counted": 6314,
      "duke": 6315,
      "maintained": 6316,
      "handling": 6317,
      "closely": 6318,
      "dynasty": 6319,
      "adjustment": 6320,
      "seconds": 6321,
      "shad": 6322,
      "stom": 6323,
      "blocks": 6324,
      "grocer": 6325,
      "aegean": 6326,
      "1990s": 6327,
      "carrier": 6328,
      "bible": 6329,
      "dat": 6330,
      "alan": 6331,
      "fron": 6332,
      "pushed": 6333,
      "funchal": 6334,
      "prize": 6335,
      "fancy": 6336,
      "heritage": 6337,
      "aic": 6338,
      "loves": 6339,
      "abled": 6340,
      "consolid": 6341,
      "ignor": 6342,
      "passen": 6343,
      "secure": 6344,
      "trend": 6345,
      "intellectual": 6346,
      "kan": 6347,
      "secre": 6348,
      "chin": 6349,
      "imposed": 6350,
      "nels": 6351,
      "wire": 6352,
      "grave": 6353,
      "relations": 6354,
      "visitor": 6355,
      "popularity": 6356,
      "christians": 6357,
      "recorded": 6358,
      "paths": 6359,
      "jackson": 6360,
      "rab": 6361,
      "till": 6362,
      "inent": 6363,
      "asy": 6364,
      "acious": 6365,
      "ceo": 6366,
      "disagree": 6367,
      "naz": 6368,
      "brea": 6369,
      "coastal": 6370,
      "ignore": 6371,
      "injured": 6372,
      "anno": 6373,
      "lod": 6374,
      "oles": 6375,
      "southeast": 6376,
      "traveled": 6377,
      "beautifully": 6378,
      "rupted": 6379,
      "hoped": 6380,
      "phi": 6381,
      "stam": 6382,
      "liqu": 6383,
      "map": 6384,
      "cock": 6385,
      "personally": 6386,
      "corporations": 6387,
      "dir": 6388,
      "cete": 6389,
      "frust": 6390,
      "shell": 6391,
      "informed": 6392,
      "gathered": 6393,
      "cers": 6394,
      "inting": 6395,
      "input": 6396,
      "esque": 6397,
      "aco": 6398,
      "agues": 6399,
      "enda": 6400,
      "1950": 6401,
      "housed": 6402,
      "heimmer": 6403,
      "lum": 6404,
      "wolf": 6405,
      "liest": 6406,
      "craw": 6407,
      "discover": 6408,
      "governmental": 6409,
      "bene": 6410,
      "matic": 6411,
      "truck": 6412,
      "entering": 6413,
      "gained": 6414,
      "involvement": 6415,
      "hersheimmer": 6416,
      "pig": 6417,
      "piz": 6418,
      "rot": 6419,
      "destruction": 6420,
      "exotic": 6421,
      "apple": 6422,
      "endor": 6423,
      "restric": 6424,
      "planet": 6425,
      "patron": 6426,
      "deliber": 6427,
      "authorities": 6428,
      "substance": 6429,
      "purchased": 6430,
      "guests": 6431,
      "kirby": 6432,
      "earthquake": 6433,
      "oured": 6434,
      "orca": 6435,
      "edward": 6436,
      "unlikely": 6437,
      "shi": 6438,
      "shil": 6439,
      "inef": 6440,
      "buff": 6441,
      "salary": 6442,
      "fallen": 6443,
      "laughed": 6444,
      "jaz": 6445,
      "thur": 6446,
      "adult": 6447,
      "worn": 6448,
      "collabor": 6449,
      "auth": 6450,
      "statute": 6451,
      "designated": 6452,
      "ninety": 6453,
      "impressed": 6454,
      "merchant": 6455,
      "antonio": 6456,
      "palazzo": 6457,
      "68": 6458,
      "cart": 6459,
      "tables": 6460,
      "agents": 6461,
      "promised": 6462,
      "sticks": 6463,
      "component": 6464,
      "academic": 6465,
      "deficits": 6466,
      "external": 6467,
      "divorce": 6468,
      "800": 6469,
      "swords": 6470,
      "superi": 6471,
      "admir": 6472,
      "illed": 6473,
      "igning": 6474,
      "bedroom": 6475,
      "christianity": 6476,
      "witness": 6477,
      "spiritual": 6478,
      "smell": 6479,
      "dame": 6480,
      "nick": 6481,
      "alo": 6482,
      "extr": 6483,
      "creative": 6484,
      "hillary": 6485,
      "similarly": 6486,
      "addressing": 6487,
      "indicated": 6488,
      "advocates": 6489,
      "luxury": 6490,
      "methodology": 6491,
      "confirmed": 6492,
      "fold": 6493,
      "theme": 6494,
      "ceter": 6495,
      "mann": 6496,
      "manual": 6497,
      "marine": 6498,
      "houston": 6499,
      "handled": 6500,
      "lists": 6501,
      "spoken": 6502,
      "boxes": 6503,
      "determining": 6504,
      "thesis": 6505,
      "austral": 6506,
      "convinced": 6507,
      "pounds": 6508,
      "erected": 6509,
      "reserv": 6510,
      "airport": 6511,
      "earn": 6512,
      "simp": 6513,
      "blacks": 6514,
      "flee": 6515,
      "granted": 6516,
      "praise": 6517,
      "trails": 6518,
      "inflation": 6519,
      "passage": 6520,
      "proven": 6521,
      "pools": 6522,
      "guides": 6523,
      "pays": 6524,
      "subscri": 6525,
      "nato": 6526,
      "license": 6527,
      "innovative": 6528,
      "boutiques": 6529,
      "controversi": 6530,
      "caribbean": 6531,
      "shrines": 6532,
      "dirty": 6533,
      "entit": 6534,
      "ceram": 6535,
      "transactions": 6536,
      "badly": 6537,
      "presenting": 6538,
      "diving": 6539,
      "argued": 6540,
      "striking": 6541,
      "frescoes": 6542,
      "tropical": 6543,
      "steven": 6544,
      "ito": 6545,
      "rises": 6546,
      "unified": 6547,
      "shannon": 6548,
      "initially": 6549,
      "drawings": 6550,
      "shiloh": 6551,
      "pse": 6552,
      "pist": 6553,
      "oms": 6554,
      "preced": 6555,
      "foster": 6556,
      "gues": 6557,
      "palaces": 6558,
      "chambers": 6559,
      "pilgrims": 6560,
      "pto": 6561,
      "album": 6562,
      "illino": 6563,
      "sheep": 6564,
      "newly": 6565,
      "solve": 6566,
      "relaxed": 6567,
      "scenarios": 6568,
      "portrait": 6569,
      "illinois": 6570,
      "parag": 6571,
      "grande": 6572,
      "accountable": 6573,
      "mexican": 6574,
      "virtually": 6575,
      "champion": 6576,
      "elaborate": 6577,
      "martinique": 6578,
      "aa": 6579,
      "flav": 6580,
      "assert": 6581,
      "lasted": 6582,
      "objective": 6583,
      "innocent": 6584,
      "strych": 6585,
      "uge": 6586,
      "retail": 6587,
      "define": 6588,
      "lia": 6589,
      "clou": 6590,
      "discounts": 6591,
      "settings": 6592,
      "studying": 6593,
      "influenced": 6594,
      "indicate": 6595,
      "zero": 6596,
      "rejected": 6597,
      "defeated": 6598,
      "diox": 6599,
      "fright": 6600,
      "uine": 6601,
      "assurance": 6602,
      "ifies": 6603,
      "quer": 6604,
      "cane": 6605,
      "inet": 6606,
      "throne": 6607,
      "males": 6608,
      "humans": 6609,
      "exception": 6610,
      "fortune": 6611,
      "scholar": 6612,
      "thursday": 6613,
      "basilica": 6614,
      "beneath": 6615,
      "beer": 6616,
      "pointing": 6617,
      "shock": 6618,
      "flour": 6619,
      "juan": 6620,
      "drivers": 6621,
      "assessing": 6622,
      "coastline": 6623,
      "dying": 6624,
      "strychnine": 6625,
      "gand": 6626,
      "ensuring": 6627,
      "ico": 6628,
      "exem": 6629,
      "legit": 6630,
      "regarded": 6631,
      "damaged": 6632,
      "belt": 6633,
      "profitable": 6634,
      "nurse": 6635,
      "minority": 6636,
      "graduate": 6637,
      "fcc": 6638,
      "kosovo": 6639,
      "dull": 6640,
      "pent": 6641,
      "chant": 6642,
      "constrain": 6643,
      "shim": 6644,
      "plate": 6645,
      "parad": 6646,
      "soul": 6647,
      "awak": 6648,
      "ramses": 6649,
      "recommendation": 6650,
      "demonstration": 6651,
      "trends": 6652,
      "density": 6653,
      "ication": 6654,
      "agent": 6655,
      "auma": 6656,
      "norman": 6657,
      "sacrif": 6658,
      "maximum": 6659,
      "fate": 6660,
      "rebuilt": 6661,
      "remove": 6662,
      "oning": 6663,
      "hem": 6664,
      "provision": 6665,
      "holo": 6666,
      "volunt": 6667,
      "topham": 6668,
      "hitler": 6669,
      "treasure": 6670,
      "ultimate": 6671,
      "roughly": 6672,
      "seventy": 6673,
      "experiment": 6674,
      "cree": 6675,
      "inary": 6676,
      "doz": 6677,
      "wned": 6678,
      "migrant": 6679,
      "supervis": 6680,
      "supplies": 6681,
      "pund": 6682,
      "errors": 6683,
      "venetian": 6684,
      "dioxide": 6685,
      "pc": 6686,
      "wol": 6687,
      "maintaining": 6688,
      "cares": 6689,
      "responded": 6690,
      "equival": 6691,
      "speaker": 6692,
      "racial": 6693,
      "routine": 6694,
      "guarantee": 6695,
      "fundamental": 6696,
      "deals": 6697,
      "acle": 6698,
      "outdoor": 6699,
      "appoint": 6700,
      "pregn": 6701,
      "ava": 6702,
      "letting": 6703,
      "reaching": 6704,
      "explorer": 6705,
      "songs": 6706,
      "intim": 6707,
      "injury": 6708,
      "acres": 6709,
      "suic": 6710,
      "trauma": 6711,
      "explic": 6712,
      "fisher": 6713,
      "controversial": 6714,
      "mwe": 6715,
      "retain": 6716,
      "idays": 6717,
      "consul": 6718,
      "excav": 6719,
      "gras": 6720,
      "astro": 6721,
      "appropriations": 6722,
      "carriers": 6723,
      "delightful": 6724,
      "fabric": 6725,
      "twist": 6726,
      "mich": 6727,
      "alab": 6728,
      "lored": 6729,
      "confirm": 6730,
      "pered": 6731,
      "urally": 6732,
      "rush": 6733,
      "joys": 6734,
      "fles": 6735,
      "pressed": 6736,
      "crimination": 6737,
      "significance": 6738,
      "narr": 6739,
      "smooth": 6740,
      "odox": 6741,
      "portugal": 6742,
      "veterans": 6743,
      "orthodox": 6744,
      "superior": 6745,
      "ani": 6746,
      "plum": 6747,
      "trials": 6748,
      "nervous": 6749,
      "1980s": 6750,
      "inos": 6751,
      "anx": 6752,
      "stro": 6753,
      "carpet": 6754,
      "heaven": 6755,
      "attempts": 6756,
      "tto": 6757,
      "repair": 6758,
      "amb": 6759,
      "util": 6760,
      "hiking": 6761,
      "monthly": 6762,
      "availability": 6763,
      "thrown": 6764,
      "yed": 6765,
      "resem": 6766,
      "caust": 6767,
      "discrimination": 6768,
      "mainland": 6769,
      "warning": 6770,
      "profile": 6771,
      "greece": 6772,
      "nineteen": 6773,
      "concentration": 6774,
      "satisfaction": 6775,
      "semin": 6776,
      "rogen": 6777,
      "urb": 6778,
      "agenda": 6779,
      "sav": 6780,
      "iva": 6781,
      "donations": 6782,
      "ache": 6783,
      "monks": 6784,
      "mines": 6785,
      "reluct": 6786,
      "captain": 6787,
      "balanced": 6788,
      "motion": 6789,
      "mothers": 6790,
      "exhibition": 6791,
      "false": 6792,
      "arrested": 6793,
      "carvings": 6794,
      "ula": 6795,
      "masters": 6796,
      "aks": 6797,
      "angelo": 6798,
      "factory": 6799,
      "delhi": 6800,
      "woods": 6801,
      "travelers": 6802,
      "priorities": 6803,
      "sculpted": 6804,
      "weaknesses": 6805,
      "puerto": 6806,
      "reck": 6807,
      "oro": 6808,
      "trash": 6809,
      "exposed": 6810,
      "talks": 6811,
      "genuine": 6812,
      "stron": 6813,
      "flash": 6814,
      "promot": 6815,
      "picturesque": 6816,
      "figh": 6817,
      "flying": 6818,
      "renew": 6819,
      "ential": 6820,
      "accum": 6821,
      "nema": 6822,
      "pep": 6823,
      "meanwhile": 6824,
      "earnings": 6825,
      "arrival": 6826,
      "occupied": 6827,
      "hiring": 6828,
      "inian": 6829,
      "reaction": 6830,
      "bern": 6831,
      "differ": 6832,
      "deaths": 6833,
      "emphasis": 6834,
      "sect": 6835,
      "acre": 6836,
      "useless": 6837,
      "aggressive": 6838,
      "ourselves": 6839,
      "phen": 6840,
      "elev": 6841,
      "rolling": 6842,
      "advertise": 6843,
      "merchants": 6844,
      "resistance": 6845,
      "42": 6846,
      "etr": 6847,
      "ras": 6848,
      "wtp": 6849,
      "recall": 6850,
      "ora": 6851,
      "assigned": 6852,
      "excur": 6853,
      "sip": 6854,
      "boston": 6855,
      "cles": 6856,
      "joke": 6857,
      "interviews": 6858,
      "uniform": 6859,
      "florence": 6860,
      "demanded": 6861,
      "premium": 6862,
      "phia": 6863,
      "toler": 6864,
      "isa": 6865,
      "liers": 6866,
      "nets": 6867,
      "contemporary": 6868,
      "ody": 6869,
      "angers": 6870,
      "phara": 6871,
      "expans": 6872,
      "1991": 6873,
      "boris": 6874,
      "difficulty": 6875,
      "administrator": 6876,
      "hopes": 6877,
      "identifying": 6878,
      "apolog": 6879,
      "observation": 6880,
      "loyal": 6881,
      "bauerstein": 6882,
      "facilitate": 6883,
      "sauce": 6884,
      "datab": 6885,
      "49": 6886,
      "kk": 6887,
      "nh": 6888,
      "vre": 6889,
      "outstanding": 6890,
      "discour": 6891,
      "reader": 6892,
      "provin": 6893,
      "crucial": 6894,
      "subjects": 6895,
      "planted": 6896,
      "checked": 6897,
      "globe": 6898,
      "zoo": 6899,
      "focuses": 6900,
      "aerob": 6901,
      "paragrap": 6902,
      "legitim": 6903,
      "bears": 6904,
      "ille": 6905,
      "gover": 6906,
      "notre": 6907,
      "attended": 6908,
      "relating": 6909,
      "transaction": 6910,
      "steady": 6911,
      "immediate": 6912,
      "wondered": 6913,
      "institutions": 6914,
      "occasional": 6915,
      "cowboys": 6916,
      "ggling": 6917,
      "jef": 6918,
      "oli": 6919,
      "trim": 6920,
      "inevit": 6921,
      "marry": 6922,
      "leges": 6923,
      "concerts": 6924,
      "acquired": 6925,
      "customs": 6926,
      "rapier": 6927,
      "platform": 6928,
      "cuisine": 6929,
      "aicpa": 6930,
      "incur": 6931,
      "orious": 6932,
      "perth": 6933,
      "cos": 6934,
      "cany": 6935,
      "embarr": 6936,
      "steve": 6937,
      "horror": 6938,
      "alike": 6939,
      "shelter": 6940,
      "marketing": 6941,
      "88": 6942,
      "cater": 6943,
      "sic": 6944,
      "isons": 6945,
      "permitted": 6946,
      "indig": 6947,
      "serted": 6948,
      "refuge": 6949,
      "cultures": 6950,
      "suppor": 6951,
      "attacked": 6952,
      "establishment": 6953,
      "nitrogen": 6954,
      "nuclear": 6955,
      "certification": 6956,
      "pyramid": 6957,
      "concrete": 6958,
      "00s": 6959,
      "colony": 6960,
      "auction": 6961,
      "voices": 6962,
      "posted": 6963,
      "classified": 6964,
      "discusses": 6965,
      "assistant": 6966,
      "revenues": 6967,
      "neglect": 6968,
      "bureaucr": 6969,
      "comedy": 6970,
      "camera": 6971,
      "authors": 6972,
      "dozens": 6973,
      "mend": 6974,
      "simon": 6975,
      "harmon": 6976,
      "confused": 6977,
      "invited": 6978,
      "jacob": 6979,
      "expansion": 6980,
      "omy": 6981,
      "abu": 6982,
      "export": 6983,
      "mandates": 6984,
      "dependent": 6985,
      "panic": 6986,
      "massa": 6987,
      "journalists": 6988,
      "automated": 6989,
      "injuries": 6990,
      "expertise": 6991,
      "cliffs": 6992,
      "rapidly": 6993,
      "protocols": 6994,
      "jump": 6995,
      "deserve": 6996,
      "adopt": 6997,
      "poet": 6998,
      "plom": 6999,
      "aki": 7000,
      "wedding": 7001,
      "cotton": 7002,
      "bak": 7003,
      "isite": 7004,
      "acknowled": 7005,
      "yep": 7006,
      "myth": 7007,
      "fox": 7008,
      "economically": 7009,
      "refers": 7010,
      "strongly": 7011,
      "displayed": 7012,
      "franco": 7013,
      "launched": 7014,
      "stomach": 7015,
      "naked": 7016,
      "erup": 7017,
      "beard": 7018,
      "abroad": 7019,
      "cage": 7020,
      "derived": 7021,
      "josep": 7022,
      "nonprofit": 7023,
      "indicates": 7024,
      "installations": 7025,
      "dominated": 7026,
      "fantastic": 7027,
      "47": 7028,
      "gig": 7029,
      "enjoys": 7030,
      "device": 7031,
      "peas": 7032,
      "clever": 7033,
      "ette": 7034,
      "shade": 7035,
      "allowance": 7036,
      "sixth": 7037,
      "fountain": 7038,
      "surprisingly": 7039,
      "atlanta": 7040,
      "cataly": 7041,
      "hesit": 7042,
      "boun": 7043,
      "eg": 7044,
      "lest": 7045,
      "pub": 7046,
      "simulation": 7047,
      "hardware": 7048,
      "ibly": 7049,
      "medicaid": 7050,
      "fashioned": 7051,
      "accommod": 7052,
      "honey": 7053,
      "pizza": 7054,
      "89": 7055,
      "ode": 7056,
      "renow": 7057,
      "angle": 7058,
      "files": 7059,
      "score": 7060,
      "reflected": 7061,
      "ceremony": 7062,
      "haust": 7063,
      "shield": 7064,
      "exhaust": 7065,
      "populations": 7066,
      "touched": 7067,
      "tournam": 7068,
      "personality": 7069,
      "springs": 7070,
      "throat": 7071,
      "satisfied": 7072,
      "monetary": 7073,
      "vig": 7074,
      "ornate": 7075,
      "dean": 7076,
      "conrad": 7077,
      "spection": 7078,
      "banned": 7079,
      "naturally": 7080,
      "promen": 7081,
      "competitors": 7082,
      "breaks": 7083,
      "adjusted": 7084,
      "pharaoh": 7085,
      "67": 7086,
      "absence": 7087,
      "admission": 7088,
      "excess": 7089,
      "timely": 7090,
      "restoration": 7091,
      "chell": 7092,
      "patri": 7093,
      "balls": 7094,
      "poorly": 7095,
      "columbus": 7096,
      "contrary": 7097,
      "conventional": 7098,
      "guaranteed": 7099,
      "retrofits": 7100,
      "gulf": 7101,
      "cant": 7102,
      "vard": 7103,
      "onna": 7104,
      "enhan": 7105,
      "uts": 7106,
      "avag": 7107,
      "phones": 7108,
      "palm": 7109,
      "listened": 7110,
      "diplom": 7111,
      "silk": 7112,
      "bike": 7113,
      "scheduled": 7114,
      "chatter": 7115,
      "granite": 7116,
      "restricted": 7117,
      "athen": 7118,
      "sis": 7119,
      "thy": 7120,
      "theaters": 7121,
      "org": 7122,
      "marvel": 7123,
      "legs": 7124,
      "ulture": 7125,
      "areness": 7126,
      "milk": 7127,
      "nago": 7128,
      "civilization": 7129,
      "circus": 7130,
      "straw": 7131,
      "measurement": 7132,
      "pilot": 7133,
      "resolution": 7134,
      "stained": 7135,
      "compete": 7136,
      "44": 7137,
      "bach": 7138,
      "fier": 7139,
      "gur": 7140,
      "inity": 7141,
      "shire": 7142,
      "arches": 7143,
      "gery": 7144,
      "checks": 7145,
      "osity": 7146,
      "quarterback": 7147,
      "transferred": 7148,
      "exploring": 7149,
      "assassin": 7150,
      "phrase": 7151,
      "nipa": 7152,
      "holocaust": 7153,
      "diction": 7154,
      "pap": 7155,
      "behalf": 7156,
      "actors": 7157,
      "grav": 7158,
      "affirm": 7159,
      "spons": 7160,
      "minded": 7161,
      "deeply": 7162,
      "incentive": 7163,
      "reporter": 7164,
      "bombing": 7165,
      "pushing": 7166,
      "sophisticated": 7167,
      "brilliant": 7168,
      "dal": 7169,
      "email": 7170,
      "raf": 7171,
      "recon": 7172,
      "stun": 7173,
      "unfair": 7174,
      "unexpected": 7175,
      "iry": 7176,
      "maj": 7177,
      "grin": 7178,
      "hook": 7179,
      "whereas": 7180,
      "cloth": 7181,
      "lifetime": 7182,
      "bench": 7183,
      "187": 7184,
      "generate": 7185,
      "enjoyable": 7186,
      "awareness": 7187,
      "bond": 7188,
      "wondering": 7189,
      "fashionable": 7190,
      "dramatically": 7191,
      "macau": 7192,
      "aimed": 7193,
      "feedback": 7194,
      "announce": 7195,
      "stretch": 7196,
      "eliminate": 7197,
      "mystery": 7198,
      "suffering": 7199,
      "circular": 7200,
      "impeachment": 7201,
      "arranged": 7202,
      "mate": 7203,
      "seats": 7204,
      "escap": 7205,
      "soil": 7206,
      "tapes": 7207,
      "overseas": 7208,
      "interrupted": 7209,
      "producing": 7210,
      "quered": 7211,
      "responding": 7212,
      "depression": 7213,
      "communist": 7214,
      "expecting": 7215,
      "industries": 7216,
      "modeling": 7217,
      "rocky": 7218,
      "masterpiece": 7219,
      "mits": 7220,
      "intake": 7221,
      "repa": 7222,
      "decent": 7223,
      "cler": 7224,
      "visa": 7225,
      "etc": 7226,
      "santo": 7227,
      "soccer": 7228,
      "supposedly": 7229,
      "pension": 7230,
      "volcanic": 7231,
      "1960s": 7232,
      "staircase": 7233,
      "prudie": 7234,
      "bc": 7235,
      "ohi": 7236,
      "recycle": 7237,
      "ading": 7238,
      "caf": 7239,
      "baza": 7240,
      "wave": 7241,
      "princes": 7242,
      "crossed": 7243,
      "panor": 7244,
      "antiques": 7245,
      "assuming": 7246,
      "mortg": 7247,
      "agriculture": 7248,
      "disclosure": 7249,
      "dwell": 7250,
      "mul": 7251,
      "sne": 7252,
      "ardo": 7253,
      "rivers": 7254,
      "barbar": 7255,
      "athlet": 7256,
      "recei": 7257,
      "1989": 7258,
      "jungle": 7259,
      "integration": 7260,
      "jumped": 7261,
      "warriors": 7262,
      "michelangelo": 7263,
      "jazz": 7264,
      "aerobics": 7265,
      "ohio": 7266,
      "dess": 7267,
      "rides": 7268,
      "stan": 7269,
      "isan": 7270,
      "ulating": 7271,
      "butter": 7272,
      "grat": 7273,
      "traditionally": 7274,
      "spots": 7275,
      "drinks": 7276,
      "vana": 7277,
      "agrees": 7278,
      "scholars": 7279,
      "bree": 7280,
      "og": 7281,
      "tied": 7282,
      "inspection": 7283,
      "rene": 7284,
      "loaded": 7285,
      "moor": 7286,
      "dot": 7287,
      "workforce": 7288,
      "distr": 7289,
      "refre": 7290,
      "humor": 7291,
      "couples": 7292,
      "romanesque": 7293,
      "brothers": 7294,
      "essentially": 7295,
      "victorian": 7296,
      "philosophy": 7297,
      "pup": 7298,
      "tus": 7299,
      "versa": 7300,
      "prospect": 7301,
      "carto": 7302,
      "distin": 7303,
      "solutions": 7304,
      "rico": 7305,
      "gateway": 7306,
      "threatened": 7307,
      "academy": 7308,
      "osaka": 7309,
      "institutional": 7310,
      "pierre": 7311,
      "aqu": 7312,
      "gian": 7313,
      "kni": 7314,
      "passes": 7315,
      "inhabit": 7316,
      "oral": 7317,
      "commemor": 7318,
      "persu": 7319,
      "ruined": 7320,
      "engaged": 7321,
      "prominent": 7322,
      "peaks": 7323,
      "retrofit": 7324,
      "intelligence": 7325,
      "knife": 7326,
      "bast": 7327,
      "gab": 7328,
      "mp": 7329,
      "ood": 7330,
      "prophe": 7331,
      "persist": 7332,
      "porto": 7333,
      "distur": 7334,
      "hungry": 7335,
      "mandu": 7336,
      "casino": 7337,
      "bonds": 7338,
      "skilled": 7339,
      "respondents": 7340,
      "subsidy": 7341,
      "incorporated": 7342,
      "suicide": 7343,
      "59": 7344,
      "dale": 7345,
      "tack": 7346,
      "haw": 7347,
      "compt": 7348,
      "colored": 7349,
      "carbon": 7350,
      "scout": 7351,
      "paralle": 7352,
      "dealer": 7353,
      "educated": 7354,
      "terminal": 7355,
      "campus": 7356,
      "engagements": 7357,
      "sensitivity": 7358,
      "revealed": 7359,
      "capita": 7360,
      "dirt": 7361,
      "oly": 7362,
      "vs": 7363,
      "ancing": 7364,
      "isk": 7365,
      "mood": 7366,
      "feas": 7367,
      "math": 7368,
      "aps": 7369,
      "joining": 7370,
      "obser": 7371,
      "networks": 7372,
      "bias": 7373,
      "slavery": 7374,
      "tracks": 7375,
      "pillar": 7376,
      "fertile": 7377,
      "hawaii": 7378,
      "battles": 7379,
      "120": 7380,
      "hatch": 7381,
      "yu": 7382,
      "uted": 7383,
      "portions": 7384,
      "descend": 7385,
      "litter": 7386,
      "produces": 7387,
      "colleagues": 7388,
      "harsh": 7389,
      "membership": 7390,
      "credibility": 7391,
      "crops": 7392,
      "suggestions": 7393,
      "goddess": 7394,
      "forests": 7395,
      "introduction": 7396,
      "prayer": 7397,
      "sieur": 7398,
      "kathmandu": 7399,
      "rocke": 7400,
      "pennsyl": 7401,
      "pennsylvan": 7402,
      "bage": 7403,
      "glim": 7404,
      "mild": 7405,
      "herent": 7406,
      "forbid": 7407,
      "cob": 7408,
      "intention": 7409,
      "comply": 7410,
      "publicly": 7411,
      "realistic": 7412,
      "drunk": 7413,
      "distric": 7414,
      "qualitative": 7415,
      "assessments": 7416,
      "inquiry": 7417,
      "prosperity": 7418,
      "districts": 7419,
      "cfa": 7420,
      "hcfa": 7421,
      "tam": 7422,
      "reim": 7423,
      "arist": 7424,
      "argent": 7425,
      "opposition": 7426,
      "evident": 7427,
      "wanting": 7428,
      "tribes": 7429,
      "populated": 7430,
      "beneficial": 7431,
      "discussions": 7432,
      "celebrate": 7433,
      "bottle": 7434,
      "advocacy": 7435,
      "printed": 7436,
      "sate": 7437,
      "tact": 7438,
      "erg": 7439,
      "omo": 7440,
      "utility": 7441,
      "gov": 7442,
      "caps": 7443,
      "shiva": 7444,
      "turks": 7445,
      "tale": 7446,
      "wines": 7447,
      "transl": 7448,
      "holidays": 7449,
      "2005": 7450,
      "losses": 7451,
      "neighborhoods": 7452,
      "succeeded": 7453,
      "strictly": 7454,
      "monopoly": 7455,
      "dick": 7456,
      "gated": 7457,
      "pher": 7458,
      "haul": 7459,
      "loose": 7460,
      "ceme": 7461,
      "illness": 7462,
      "exqu": 7463,
      "brut": 7464,
      "joe": 7465,
      "helms": 7466,
      "zeal": 7467,
      "texan": 7468,
      "targets": 7469,
      "gging": 7470,
      "hurry": 7471,
      "analysts": 7472,
      "francisco": 7473,
      "62": 7474,
      "cited": 7475,
      "seaf": 7476,
      "ouri": 7477,
      "leans": 7478,
      "cancer": 7479,
      "updated": 7480,
      "sending": 7481,
      "gene": 7482,
      "varied": 7483,
      "beds": 7484,
      "ruling": 7485,
      "moderate": 7486,
      "furn": 7487,
      "reflects": 7488,
      "demonstrated": 7489,
      "pacific": 7490,
      "clinical": 7491,
      "alleged": 7492,
      "istanbul": 7493,
      "joseph": 7494,
      "pennsylvania": 7495,
      "fy": 7496,
      "iner": 7497,
      "anas": 7498,
      "ros": 7499,
      "devast": 7500,
      "lovers": 7501,
      "rie": 7502,
      "mosqu": 7503,
      "traged": 7504,
      "sponso": 7505,
      "legally": 7506,
      "cale": 7507,
      "heading": 7508,
      "winner": 7509,
      "holes": 7510,
      "appeals": 7511,
      "diag": 7512,
      "hearings": 7513,
      "precisely": 7514,
      "evaluations": 7515,
      "prisoner": 7516,
      "suitable": 7517,
      "beliefs": 7518,
      "cheese": 7519,
      "currency": 7520,
      "yan": 7521,
      "revised": 7522,
      "editors": 7523,
      "leaf": 7524,
      "abc": 7525,
      "exit": 7526,
      "sized": 7527,
      "irect": 7528,
      "iano": 7529,
      "votes": 7530,
      "skirts": 7531,
      "instinct": 7532,
      "invaded": 7533,
      "soldier": 7534,
      "germans": 7535,
      "dic": 7536,
      "ease": 7537,
      "havana": 7538,
      "amen": 7539,
      "prop": 7540,
      "spear": 7541,
      "owns": 7542,
      "posts": 7543,
      "politan": 7544,
      "180": 7545,
      "dealers": 7546,
      "engineer": 7547,
      "engineers": 7548,
      "crystal": 7549,
      "scientists": 7550,
      "quantitative": 7551,
      "boilermakers": 7552,
      "phenom": 7553,
      "comptroller": 7554,
      "sponsored": 7555,
      "representing": 7556,
      "sailing": 7557,
      "spar": 7558,
      "buck": 7559,
      "chocol": 7560,
      "publications": 7561,
      "phy": 7562,
      "lastic": 7563,
      "approve": 7564,
      "2020": 7565,
      "mandate": 7566,
      "fights": 7567,
      "scrut": 7568,
      "meaningful": 7569,
      "attempted": 7570,
      "renowned": 7571,
      "bicy": 7572,
      "ux": 7573,
      "itis": 7574,
      "lowest": 7575,
      "quil": 7576,
      "grate": 7577,
      "moreover": 7578,
      "gret": 7579,
      "costly": 7580,
      "sinai": 7581,
      "naples": 7582,
      "dedu": 7583,
      "promul": 7584,
      "placing": 7585,
      "rulers": 7586,
      "rider": 7587,
      "questioned": 7588,
      "contractor": 7589,
      "precious": 7590,
      "campaigns": 7591,
      "packed": 7592,
      "procedure": 7593,
      "saddam": 7594,
      "explicit": 7595,
      "cfo": 7596,
      "skept": 7597,
      "wool": 7598,
      "monsieur": 7599,
      "shoulders": 7600,
      "jean": 7601,
      "payroll": 7602,
      "lifestyle": 7603,
      "presentation": 7604,
      "generated": 7605,
      "recording": 7606,
      "sweep": 7607,
      "dreams": 7608,
      "convince": 7609,
      "overwhelming": 7610,
      "46": 7611,
      "700": 7612,
      "bom": 7613,
      "buses": 7614,
      "xiv": 7615,
      "references": 7616,
      "icon": 7617,
      "impose": 7618,
      "ghost": 7619,
      "ister": 7620,
      "aches": 7621,
      "choo": 7622,
      "barnes": 7623,
      "sounded": 7624,
      "washed": 7625,
      "substanti": 7626,
      "challenging": 7627,
      "referral": 7628,
      "demonstrate": 7629,
      "hates": 7630,
      "tort": 7631,
      "retreat": 7632,
      "polish": 7633,
      "directions": 7634,
      "enterpri": 7635,
      "affects": 7636,
      "acceptance": 7637,
      "photos": 7638,
      "pirates": 7639,
      "suspected": 7640,
      "intelligent": 7641,
      "mosaics": 7642,
      "sacrifice": 7643,
      "hiding": 7644,
      "tut": 7645,
      "vba": 7646,
      "wrest": 7647,
      "inn": 7648,
      "proportion": 7649,
      "notion": 7650,
      "pow": 7651,
      "desir": 7652,
      "warned": 7653,
      "shame": 7654,
      "pale": 7655,
      "universe": 7656,
      "failing": 7657,
      "antique": 7658,
      "winds": 7659,
      "distributed": 7660,
      "repeat": 7661,
      "atlantic": 7662,
      "satell": 7663,
      "gsa": 7664,
      "pants": 7665,
      "wides": 7666,
      "itarian": 7667,
      "meals": 7668,
      "quote": 7669,
      "mansion": 7670,
      "erson": 7671,
      "offset": 7672,
      "warrant": 7673,
      "headquarters": 7674,
      "pork": 7675,
      "nette": 7676,
      "specified": 7677,
      "stephen": 7678,
      "lacking": 7679,
      "evaluating": 7680,
      "ficiencies": 7681,
      "aggregate": 7682,
      "passengers": 7683,
      "thum": 7684,
      "chances": 7685,
      "notable": 7686,
      "blu": 7687,
      "partly": 7688,
      "disappointed": 7689,
      "underground": 7690,
      "homeless": 7691,
      "harvard": 7692,
      "receives": 7693,
      "commonly": 7694,
      "stronger": 7695,
      "formerly": 7696,
      "11th": 7697,
      "decreased": 7698,
      "amendments": 7699,
      "chatterbox": 7700,
      "ao": 7701,
      "fires": 7702,
      "ique": 7703,
      "toku": 7704,
      "lege": 7705,
      "accent": 7706,
      "causing": 7707,
      "priced": 7708,
      "balcon": 7709,
      "bullet": 7710,
      "medium": 7711,
      "expanding": 7712,
      "dc": 7713,
      "forgot": 7714,
      "gee": 7715,
      "neut": 7716,
      "moors": 7717,
      "fined": 7718,
      "synago": 7719,
      "fake": 7720,
      "circle": 7721,
      "tends": 7722,
      "slave": 7723,
      "skiing": 7724,
      "census": 7725,
      "admire": 7726,
      "uncertainty": 7727,
      "85": 7728,
      "ape": 7729,
      "deer": 7730,
      "acing": 7731,
      "conquered": 7732,
      "outer": 7733,
      "shirts": 7734,
      "pron": 7735,
      "braz": 7736,
      "creatures": 7737,
      "compound": 7738,
      "grey": 7739,
      "surgery": 7740,
      "charm": 7741,
      "bustling": 7742,
      "ratio": 7743,
      "sanctuary": 7744,
      "attached": 7745,
      "paradise": 7746,
      "ocr": 7747,
      "replic": 7748,
      "ribly": 7749,
      "coat": 7750,
      "orted": 7751,
      "partners": 7752,
      "paused": 7753,
      "geno": 7754,
      "depict": 7755,
      "execution": 7756,
      "arguments": 7757,
      "cruel": 7758,
      "teeth": 7759,
      "flyer": 7760,
      "biography": 7761,
      "eliza": 7762,
      "advisory": 7763,
      "privilege": 7764,
      "souvenirs": 7765,
      "hastings": 7766,
      "ceramics": 7767,
      "dip": 7768,
      "eco": 7769,
      "fame": 7770,
      "wished": 7771,
      "iter": 7772,
      "betray": 7773,
      "labe": 7774,
      "puzz": 7775,
      "string": 7776,
      "tremend": 7777,
      "classification": 7778,
      "traditions": 7779,
      "technological": 7780,
      "sorts": 7781,
      "bankrupt": 7782,
      "correctly": 7783,
      "imagination": 7784,
      "davis": 7785,
      "proceedings": 7786,
      "anticipated": 7787,
      "1970s": 7788,
      "barriers": 7789,
      "punch": 7790,
      "ambit": 7791,
      "abra": 7792,
      "mau": 7793,
      "yelled": 7794,
      "okla": 7795,
      "prest": 7796,
      "polls": 7797,
      "lesson": 7798,
      "drama": 7799,
      "farming": 7800,
      "missouri": 7801,
      "solved": 7802,
      "measuring": 7803,
      "attracted": 7804,
      "featured": 7805,
      "historically": 7806,
      "multip": 7807,
      "madonna": 7808,
      "gorge": 7809,
      "resolved": 7810,
      "territories": 7811,
      "pillars": 7812,
      "collapse": 7813,
      "receipt": 7814,
      "dances": 7815,
      "mant": 7816,
      "patch": 7817,
      "sche": 7818,
      "stim": 7819,
      "arthur": 7820,
      "assign": 7821,
      "ider": 7822,
      "outlook": 7823,
      "lago": 7824,
      "themes": 7825,
      "overcome": 7826,
      "monaster": 7827,
      "backed": 7828,
      "planets": 7829,
      "museo": 7830,
      "floors": 7831,
      "lacks": 7832,
      "limitations": 7833,
      "rubber": 7834,
      "certified": 7835,
      "grocery": 7836,
      "bin": 7837,
      "fen": 7838,
      "glow": 7839,
      "wy": 7840,
      "yach": 7841,
      "unions": 7842,
      "therap": 7843,
      "sigh": 7844,
      "aga": 7845,
      "sentim": 7846,
      "brave": 7847,
      "osex": 7848,
      "steal": 7849,
      "bitter": 7850,
      "jersey": 7851,
      "babies": 7852,
      "boots": 7853,
      "fatal": 7854,
      "dishes": 7855,
      "corruption": 7856,
      "widespread": 7857,
      "cine": 7858,
      "fond": 7859,
      "kam": 7860,
      "inch": 7861,
      "reign": 7862,
      "accompany": 7863,
      "format": 7864,
      "spi": 7865,
      "burial": 7866,
      "lesser": 7867,
      "reviewing": 7868,
      "promises": 7869,
      "yorker": 7870,
      "consists": 7871,
      "concentrations": 7872,
      "bathroom": 7873,
      "chemicals": 7874,
      "pd": 7875,
      "snor": 7876,
      "tong": 7877,
      "presum": 7878,
      "voy": 7879,
      "pedest": 7880,
      "depth": 7881,
      "judicial": 7882,
      "focusing": 7883,
      "physically": 7884,
      "substit": 7885,
      "luxor": 7886,
      "moorish": 7887,
      "96": 7888,
      "jaw": 7889,
      "orleans": 7890,
      "accompan": 7891,
      "idency": 7892,
      "ups": 7893,
      "compass": 7894,
      "legacy": 7895,
      "cessive": 7896,
      "jet": 7897,
      "depicting": 7898,
      "balear": 7899,
      "sixteen": 7900,
      "protecting": 7901,
      "purchases": 7902,
      "script": 7903,
      "eggs": 7904,
      "incredible": 7905,
      "43": 7906,
      "dur": 7907,
      "rical": 7908,
      "inger": 7909,
      "armor": 7910,
      "contest": 7911,
      "feren": 7912,
      "mathem": 7913,
      "quot": 7914,
      "disgust": 7915,
      "shocked": 7916,
      "gawa": 7917,
      "summit": 7918,
      "reasonably": 7919,
      "administrators": 7920,
      "argues": 7921,
      "awarded": 7922,
      "valued": 7923,
      "industrialist": 7924,
      "delicious": 7925,
      "stalls": 7926,
      "supporters": 7927,
      "kle": 7928,
      "sses": 7929,
      "theories": 7930,
      "inexpensive": 7931,
      "reply": 7932,
      "della": 7933,
      "consen": 7934,
      "restrain": 7935,
      "spell": 7936,
      "smalle": 7937,
      "wrap": 7938,
      "follows": 7939,
      "pulling": 7940,
      "slip": 7941,
      "eighteen": 7942,
      "kilome": 7943,
      "voluntary": 7944,
      "fishermen": 7945,
      "smallest": 7946,
      "92": 7947,
      "aire": 7948,
      "ez": 7949,
      "nye": 7950,
      "reno": 7951,
      "staring": 7952,
      "stamp": 7953,
      "bearing": 7954,
      "rober": 7955,
      "pear": 7956,
      "combat": 7957,
      "maid": 7958,
      "sile": 7959,
      "associations": 7960,
      "missile": 7961,
      "rolled": 7962,
      "slau": 7963,
      "analyzed": 7964,
      "hosts": 7965,
      "lifted": 7966,
      "hazard": 7967,
      "bapt": 7968,
      "liss": 7969,
      "ament": 7970,
      "moves": 7971,
      "moham": 7972,
      "igan": 7973,
      "intense": 7974,
      "cloak": 7975,
      "stocks": 7976,
      "mailer": 7977,
      "plantation": 7978,
      "potentially": 7979,
      "extraordinary": 7980,
      "boost": 7981,
      "instrument": 7982,
      "modified": 7983,
      "volcano": 7984,
      "evolutionary": 7985,
      "pollutants": 7986,
      "inhabitants": 7987,
      "cue": 7988,
      "elastic": 7989,
      "rh": 7990,
      "insight": 7991,
      "sein": 7992,
      "forcing": 7993,
      "olta": 7994,
      "femin": 7995,
      "meta": 7996,
      "backs": 7997,
      "hub": 7998,
      "anni": 7999,
      "annie": 8000,
      "threats": 8001,
      "legislature": 8002,
      "relaxing": 8003,
      "mysterious": 8004,
      "emotional": 8005,
      "promenade": 8006,
      "dent": 8007,
      "allocation": 8008,
      "asso": 8009,
      "essay": 8010,
      "coco": 8011,
      "spare": 8012,
      "disappeared": 8013,
      "shooting": 8014,
      "identical": 8015,
      "postage": 8016,
      "fried": 8017,
      "refuse": 8018,
      "applies": 8019,
      "discussing": 8020,
      "prints": 8021,
      "consistently": 8022,
      "flows": 8023,
      "gingrich": 8024,
      "evaluated": 8025,
      "prisoners": 8026,
      "picasso": 8027,
      "apore": 8028,
      "luxu": 8029,
      "cabinet": 8030,
      "eliminated": 8031,
      "fierce": 8032,
      "aristocr": 8033,
      "biz": 8034,
      "jok": 8035,
      "kash": 8036,
      "rous": 8037,
      "seed": 8038,
      "forbes": 8039,
      "idio": 8040,
      "utah": 8041,
      "absur": 8042,
      "fection": 8043,
      "pla": 8044,
      "restore": 8045,
      "scu": 8046,
      "rows": 8047,
      "worldwide": 8048,
      "locally": 8049,
      "drives": 8050,
      "easter": 8051,
      "rolls": 8052,
      "influences": 8053,
      "literary": 8054,
      "competing": 8055,
      "ratings": 8056,
      "inspector": 8057,
      "kicked": 8058,
      "shouted": 8059,
      "equivalent": 8060,
      "affirmative": 8061,
      "oklahom": 8062,
      "fon": 8063,
      "jen": 8064,
      "ornam": 8065,
      "sumed": 8066,
      "ader": 8067,
      "enclo": 8068,
      "greed": 8069,
      "merger": 8070,
      "bloom": 8071,
      "junction": 8072,
      "ladies": 8073,
      "races": 8074,
      "solely": 8075,
      "convention": 8076,
      "navy": 8077,
      "borrowing": 8078,
      "dumb": 8079,
      "shifted": 8080,
      "250": 8081,
      "cbo": 8082,
      "hort": 8083,
      "llo": 8084,
      "mare": 8085,
      "pad": 8086,
      "tier": 8087,
      "array": 8088,
      "adap": 8089,
      "mansions": 8090,
      "hello": 8091,
      "audio": 8092,
      "circu": 8093,
      "taxpayers": 8094,
      "vulnerable": 8095,
      "catalyst": 8096,
      "bang": 8097,
      "sq": 8098,
      "envelo": 8099,
      "allies": 8100,
      "toy": 8101,
      "condem": 8102,
      "woke": 8103,
      "counting": 8104,
      "nevertheless": 8105,
      "glasses": 8106,
      "printing": 8107,
      "cattle": 8108,
      "equipped": 8109,
      "slept": 8110,
      "investigations": 8111,
      "flexible": 8112,
      "storage": 8113,
      "guarantees": 8114,
      "photographs": 8115,
      "advised": 8116,
      "gathering": 8117,
      "database": 8118,
      "mortgage": 8119,
      "neutral": 8120,
      "mohammed": 8121,
      "seaside": 8122,
      "convict": 8123,
      "illa": 8124,
      "worksharing": 8125,
      "highlights": 8126,
      "tripp": 8127,
      "barrel": 8128,
      "porch": 8129,
      "officially": 8130,
      "trains": 8131,
      "approached": 8132,
      "cells": 8133,
      "sampling": 8134,
      "encouraging": 8135,
      "swept": 8136,
      "settlements": 8137,
      "malls": 8138,
      "calculated": 8139,
      "astronomer": 8140,
      "exquisite": 8141,
      "tokugawa": 8142,
      "fbi": 8143,
      "rhy": 8144,
      "thet": 8145,
      "regret": 8146,
      "stag": 8147,
      "vet": 8148,
      "procure": 8149,
      "rushed": 8150,
      "partisan": 8151,
      "hier": 8152,
      "rake": 8153,
      "underlying": 8154,
      "calend": 8155,
      "obli": 8156,
      "volumes": 8157,
      "childhood": 8158,
      "singapore": 8159,
      "salaries": 8160,
      "sunny": 8161,
      "casinos": 8162,
      "hillside": 8163,
      "hopefully": 8164,
      "contributed": 8165,
      "determination": 8166,
      "duties": 8167,
      "achievement": 8168,
      "conducting": 8169,
      "knock": 8170,
      "validity": 8171,
      "replacement": 8172,
      "shorter": 8173,
      "linda": 8174,
      "gauve": 8175,
      "priests": 8176,
      "alabama": 8177,
      "accompanied": 8178,
      "vivid": 8179,
      "devi": 8180,
      "lift": 8181,
      "unnecessary": 8182,
      "wives": 8183,
      "peer": 8184,
      "hobby": 8185,
      "wells": 8186,
      "crum": 8187,
      "visual": 8188,
      "surge": 8189,
      "waterfront": 8190,
      "harvest": 8191,
      "nonfederal": 8192,
      "diam": 8193,
      "existed": 8194,
      "nonex": 8195,
      "mistak": 8196,
      "attempting": 8197,
      "praised": 8198,
      "ritual": 8199,
      "episode": 8200,
      "elizabeth": 8201,
      "bone": 8202,
      "bish": 8203,
      "cz": 8204,
      "hil": 8205,
      "tasks": 8206,
      "inches": 8207,
      "chor": 8208,
      "neu": 8209,
      "gos": 8210,
      "artific": 8211,
      "cannon": 8212,
      "render": 8213,
      "senor": 8214,
      "duplic": 8215,
      "stays": 8216,
      "casa": 8217,
      "panels": 8218,
      "bottles": 8219,
      "monumental": 8220,
      "manufacturers": 8221,
      "absurd": 8222,
      "hilar": 8223,
      "thal": 8224,
      "sectors": 8225,
      "liar": 8226,
      "usage": 8227,
      "spite": 8228,
      "coron": 8229,
      "studio": 8230,
      "xture": 8231,
      "milose": 8232,
      "curi": 8233,
      "nave": 8234,
      "anny": 8235,
      "applying": 8236,
      "sells": 8237,
      "failures": 8238,
      "cretion": 8239,
      "cleaning": 8240,
      "registered": 8241,
      "technique": 8242,
      "preparing": 8243,
      "vineyards": 8244,
      "gifts": 8245,
      "gments": 8246,
      "ouch": 8247,
      "ene": 8248,
      "tops": 8249,
      "assa": 8250,
      "tai": 8251,
      "sessions": 8252,
      "mari": 8253,
      "hike": 8254,
      "greg": 8255,
      "publishing": 8256,
      "trek": 8257,
      "locate": 8258,
      "operational": 8259,
      "glance": 8260,
      "defending": 8261,
      "dynam": 8262,
      "emerged": 8263,
      "electronics": 8264,
      "clouds": 8265,
      "scheme": 8266,
      "77": 8267,
      "gus": 8268,
      "nbc": 8269,
      "olive": 8270,
      "enacted": 8271,
      "amar": 8272,
      "usps": 8273,
      "indirect": 8274,
      "workplace": 8275,
      "ishes": 8276,
      "contents": 8277,
      "adds": 8278,
      "obsc": 8279,
      "humid": 8280,
      "filing": 8281,
      "invaders": 8282,
      "junk": 8283,
      "connections": 8284,
      "emerging": 8285,
      "climbing": 8286,
      "naval": 8287,
      "mechanisms": 8288,
      "incidents": 8289,
      "temperature": 8290,
      "exclusively": 8291,
      "tragedy": 8292,
      "pronoun": 8293,
      "milosevic": 8294,
      "cite": 8295,
      "dagger": 8296,
      "reo": 8297,
      "returning": 8298,
      "dee": 8299,
      "acrose": 8300,
      "conquer": 8301,
      "peel": 8302,
      "formula": 8303,
      "mond": 8304,
      "goodness": 8305,
      "parking": 8306,
      "shares": 8307,
      "cuban": 8308,
      "horus": 8309,
      "scots": 8310,
      "shortly": 8311,
      "murde": 8312,
      "winding": 8313,
      "variable": 8314,
      "entitled": 8315,
      "cafes": 8316,
      "chocolate": 8317,
      "bury": 8318,
      "jar": 8319,
      "tol": 8320,
      "ghters": 8321,
      "sume": 8322,
      "permits": 8323,
      "hoc": 8324,
      "senator": 8325,
      "bug": 8326,
      "brill": 8327,
      "landed": 8328,
      "costumes": 8329,
      "relate": 8330,
      "politically": 8331,
      "painter": 8332,
      "horizon": 8333,
      "scores": 8334,
      "describing": 8335,
      "accordingly": 8336,
      "collecting": 8337,
      "acquire": 8338,
      "assumes": 8339,
      "assured": 8340,
      "wildlife": 8341,
      "nuts": 8342,
      "ologists": 8343,
      "tastes": 8344,
      "bold": 8345,
      "bian": 8346,
      "waves": 8347,
      "chart": 8348,
      "hab": 8349,
      "persian": 8350,
      "quoted": 8351,
      "arten": 8352,
      "sens": 8353,
      "logist": 8354,
      "barbe": 8355,
      "bald": 8356,
      "budgetary": 8357,
      "princess": 8358,
      "scow": 8359,
      "ieties": 8360,
      "celebrities": 8361,
      "occurs": 8362,
      "armies": 8363,
      "literally": 8364,
      "heroes": 8365,
      "schedules": 8366,
      "substantially": 8367,
      "abraham": 8368,
      "93": 8369,
      "94": 8370,
      "juni": 8371,
      "inha": 8372,
      "itudes": 8373,
      "omin": 8374,
      "riel": 8375,
      "unhappy": 8376,
      "poe": 8377,
      "max": 8378,
      "caes": 8379,
      "cano": 8380,
      "creates": 8381,
      "cker": 8382,
      "sels": 8383,
      "economist": 8384,
      "presidents": 8385,
      "fleet": 8386,
      "basement": 8387,
      "egyptians": 8388,
      "bayliss": 8389,
      "mirror": 8390,
      "affordable": 8391,
      "excite": 8392,
      "matching": 8393,
      "reveal": 8394,
      "settlers": 8395,
      "emotion": 8396,
      "devices": 8397,
      "buffalo": 8398,
      "mam": 8399,
      "ona": 8400,
      "beres": 8401,
      "acles": 8402,
      "mela": 8403,
      "corrid": 8404,
      "happily": 8405,
      "menu": 8406,
      "burst": 8407,
      "spokes": 8408,
      "declining": 8409,
      "respected": 8410,
      "discipline": 8411,
      "versailles": 8412,
      "72": 8413,
      "bones": 8414,
      "gently": 8415,
      "hm": 8416,
      "lane": 8417,
      "yre": 8418,
      "yas": 8419,
      "semi": 8420,
      "roots": 8421,
      "loop": 8422,
      "uss": 8423,
      "cooper": 8424,
      "hism": 8425,
      "sheet": 8426,
      "differently": 8427,
      "wins": 8428,
      "traders": 8429,
      "mounted": 8430,
      "screens": 8431,
      "historians": 8432,
      "mistakes": 8433,
      "conditioning": 8434,
      "observations": 8435,
      "criticism": 8436,
      "pursue": 8437,
      "beresford": 8438,
      "melaka": 8439,
      "cad": 8440,
      "kas": 8441,
      "ogue": 8442,
      "leis": 8443,
      "chuse": 8444,
      "verti": 8445,
      "ulative": 8446,
      "aston": 8447,
      "aving": 8448,
      "interpre": 8449,
      "curve": 8450,
      "bases": 8451,
      "mainstream": 8452,
      "steam": 8453,
      "wallow": 8454,
      "signature": 8455,
      "singer": 8456,
      "millen": 8457,
      "spends": 8458,
      "moments": 8459,
      "fails": 8460,
      "accurately": 8461,
      "racing": 8462,
      "legendary": 8463,
      "elephant": 8464,
      "massachuse": 8465,
      "circuit": 8466,
      "massachuset": 8467,
      "khan": 8468,
      "pard": 8469,
      "ented": 8470,
      "illo": 8471,
      "composed": 8472,
      "poem": 8473,
      "shrugged": 8474,
      "timing": 8475,
      "barry": 8476,
      "imported": 8477,
      "20s": 8478,
      "sane": 8479,
      "glory": 8480,
      "greeks": 8481,
      "recovery": 8482,
      "murdered": 8483,
      "foreigners": 8484,
      "advantages": 8485,
      "concepts": 8486,
      "obligation": 8487,
      "preparation": 8488,
      "01": 8489,
      "kim": 8490,
      "tank": 8491,
      "anthro": 8492,
      "rey": 8493,
      "itable": 8494,
      "outrage": 8495,
      "prev": 8496,
      "preserve": 8497,
      "izer": 8498,
      "discrimin": 8499,
      "fulfill": 8500,
      "shoe": 8501,
      "scouts": 8502,
      "valle": 8503,
      "closing": 8504,
      "relics": 8505,
      "tomatoes": 8506,
      "searching": 8507,
      "generous": 8508,
      "ruler": 8509,
      "hindus": 8510,
      "dealt": 8511,
      "suggestion": 8512,
      "hyper": 8513,
      "predicted": 8514,
      "jesu": 8515,
      "sweat": 8516,
      "provider": 8517,
      "slopes": 8518,
      "exterior": 8519,
      "incredibly": 8520,
      "pavil": 8521,
      "recruit": 8522,
      "poetry": 8523,
      "gol": 8524,
      "stol": 8525,
      "stages": 8526,
      "beef": 8527,
      "preach": 8528,
      "completion": 8529,
      "banking": 8530,
      "deny": 8531,
      "silly": 8532,
      "revolving": 8533,
      "minimal": 8534,
      "chester": 8535,
      "invented": 8536,
      "founder": 8537,
      "obligations": 8538,
      "distinctive": 8539,
      "appointment": 8540,
      "michigan": 8541,
      "legitimate": 8542,
      "feasible": 8543,
      "osexual": 8544,
      "oklahoma": 8545,
      "leisure": 8546,
      "dive": 8547,
      "oy": 8548,
      "remarked": 8549,
      "veys": 8550,
      "deposition": 8551,
      "loon": 8552,
      "ghold": 8553,
      "une": 8554,
      "peo": 8555,
      "compromise": 8556,
      "irer": 8557,
      "intri": 8558,
      "compat": 8559,
      "rental": 8560,
      "choir": 8561,
      "pond": 8562,
      "nightlife": 8563,
      "aneously": 8564,
      "scenery": 8565,
      "seventh": 8566,
      "garbage": 8567,
      "communicate": 8568,
      "cooked": 8569,
      "doubted": 8570,
      "daughters": 8571,
      "willingness": 8572,
      "jamaican": 8573,
      "leonardo": 8574,
      "munic": 8575,
      "explanations": 8576,
      "controversy": 8577,
      "flavor": 8578,
      "stronghold": 8579,
      "distinction": 8580,
      "massachusetts": 8581,
      "kay": 8582,
      "lung": 8583,
      "anth": 8584,
      "oul": 8585,
      "immen": 8586,
      "confront": 8587,
      "convert": 8588,
      "containing": 8589,
      "permission": 8590,
      "boasts": 8591,
      "bucks": 8592,
      "pont": 8593,
      "nett": 8594,
      "painters": 8595,
      "thirteen": 8596,
      "demanding": 8597,
      "troubles": 8598,
      "tunnel": 8599,
      "inspiration": 8600,
      "athens": 8601,
      "kashmir": 8602,
      "57": 8603,
      "eag": 8604,
      "gender": 8605,
      "sque": 8606,
      "witch": 8607,
      "chairs": 8608,
      "dell": 8609,
      "perce": 8610,
      "bothered": 8611,
      "blank": 8612,
      "scattered": 8613,
      "logic": 8614,
      "billions": 8615,
      "graphical": 8616,
      "impacts": 8617,
      "ranking": 8618,
      "languages": 8619,
      "louisiana": 8620,
      "ownership": 8621,
      "delicate": 8622,
      "isolated": 8623,
      "monasteries": 8624,
      "130": 8625,
      "61": 8626,
      "lag": 8627,
      "nail": 8628,
      "pump": 8629,
      "rav": 8630,
      "wand": 8631,
      "sement": 8632,
      "dei": 8633,
      "amid": 8634,
      "conting": 8635,
      "convey": 8636,
      "lazy": 8637,
      "larry": 8638,
      "flan": 8639,
      "engines": 8640,
      "milan": 8641,
      "considerations": 8642,
      "flew": 8643,
      "louvre": 8644,
      "confusion": 8645,
      "arabs": 8646,
      "occupation": 8647,
      "chemist": 8648,
      "appealing": 8649,
      "lisbon": 8650,
      "gabriel": 8651,
      "artificial": 8652,
      "hed": 8653,
      "iolta": 8654,
      "nap": 8655,
      "stum": 8656,
      "hect": 8657,
      "devil": 8658,
      "adverti": 8659,
      "cooperation": 8660,
      "centered": 8661,
      "formid": 8662,
      "disability": 8663,
      "iality": 8664,
      "funeral": 8665,
      "identification": 8666,
      "obtaining": 8667,
      "borders": 8668,
      "hunger": 8669,
      "concert": 8670,
      "125": 8671,
      "planting": 8672,
      "buddhism": 8673,
      "accomplished": 8674,
      "gentleman": 8675,
      "thoroughly": 8676,
      "iciary": 8677,
      "satellite": 8678,
      "inhabited": 8679,
      "excitement": 8680,
      "aes": 8681,
      "kansas": 8682,
      "piano": 8683,
      "alliance": 8684,
      "toled": 8685,
      "isse": 8686,
      "olished": 8687,
      "pointe": 8688,
      "pless": 8689,
      "canad": 8690,
      "iga": 8691,
      "marking": 8692,
      "colleges": 8693,
      "italians": 8694,
      "iowa": 8695,
      "economies": 8696,
      "participated": 8697,
      "grandmother": 8698,
      "feller": 8699,
      "celebrity": 8700,
      "journalism": 8701,
      "picnic": 8702,
      "efficiently": 8703,
      "90s": 8704,
      "counseling": 8705,
      "complaints": 8706,
      "resolve": 8707,
      "accidents": 8708,
      "convincing": 8709,
      "escaped": 8710,
      "bazaar": 8711,
      "hack": 8712,
      "enlight": 8713,
      "accus": 8714,
      "adjac": 8715,
      "trace": 8716,
      "afterwards": 8717,
      "surfing": 8718,
      "governors": 8719,
      "viewing": 8720,
      "logists": 8721,
      "factories": 8722,
      "wrapped": 8723,
      "capabilities": 8724,
      "practically": 8725,
      "miser": 8726,
      "gardening": 8727,
      "respectively": 8728,
      "broader": 8729,
      "bridges": 8730,
      "adjustments": 8731,
      "1974": 8732,
      "coordination": 8733,
      "graceful": 8734,
      "municip": 8735,
      "faint": 8736,
      "issi": 8737,
      "progressive": 8738,
      "conquest": 8739,
      "soap": 8740,
      "odds": 8741,
      "artistic": 8742,
      "mons": 8743,
      "simult": 8744,
      "thoughtfully": 8745,
      "fourteen": 8746,
      "finances": 8747,
      "reviewers": 8748,
      "mixture": 8749,
      "balances": 8750,
      "universities": 8751,
      "willey": 8752,
      "sadly": 8753,
      "coalition": 8754,
      "kentuckian": 8755,
      "suspicion": 8756,
      "arrangements": 8757,
      "extravag": 8758,
      "seafood": 8759,
      "synagogue": 8760,
      "formidable": 8761,
      "cies": 8762,
      "zel": 8763,
      "stir": 8764,
      "alay": 8765,
      "assed": 8766,
      "mani": 8767,
      "civic": 8768,
      "auf": 8769,
      "drum": 8770,
      "presidency": 8771,
      "cared": 8772,
      "depicted": 8773,
      "videos": 8774,
      "closest": 8775,
      "sympath": 8776,
      "birthday": 8777,
      "conflicts": 8778,
      "interviewed": 8779,
      "automatically": 8780,
      "alexand": 8781,
      "protestant": 8782,
      "renovated": 8783,
      "assembly": 8784,
      "hits": 8785,
      "pile": 8786,
      "rics": 8787,
      "vague": 8788,
      "wander": 8789,
      "wels": 8790,
      "neare": 8791,
      "contrad": 8792,
      "feud": 8793,
      "excessive": 8794,
      "udi": 8795,
      "clay": 8796,
      "brant": 8797,
      "intact": 8798,
      "jeans": 8799,
      "tens": 8800,
      "audited": 8801,
      "transformed": 8802,
      "aneous": 8803,
      "descriptions": 8804,
      "girlfriend": 8805,
      "suppliers": 8806,
      "columbia": 8807,
      "appreciated": 8808,
      "predictable": 8809,
      "narrative": 8810,
      "tournament": 8811,
      "dare": 8812,
      "poured": 8813,
      "ramp": 8814,
      "lore": 8815,
      "neath": 8816,
      "caut": 8817,
      "udge": 8818,
      "inking": 8819,
      "landmark": 8820,
      "smiling": 8821,
      "gaul": 8822,
      "shake": 8823,
      "departure": 8824,
      "branches": 8825,
      "cinema": 8826,
      "aunt": 8827,
      "diet": 8828,
      "echo": 8829,
      "hence": 8830,
      "nich": 8831,
      "orchest": 8832,
      "lowered": 8833,
      "adam": 8834,
      "shine": 8835,
      "plates": 8836,
      "saints": 8837,
      "bugs": 8838,
      "elite": 8839,
      "landing": 8840,
      "parade": 8841,
      "skip": 8842,
      "skull": 8843,
      "struggling": 8844,
      "singing": 8845,
      "followers": 8846,
      "hara": 8847,
      "mike": 8848,
      "authorization": 8849,
      "christop": 8850,
      "wishes": 8851,
      "fathers": 8852,
      "channels": 8853,
      "ramparts": 8854,
      "surviv": 8855,
      "railroad": 8856,
      "bourg": 8857,
      "restriction": 8858,
      "novels": 8859,
      "pursuant": 8860,
      "deposit": 8861,
      "anxious": 8862,
      "rockefeller": 8863,
      "desirable": 8864,
      "tum": 8865,
      "atra": 8866,
      "altogether": 8867,
      "iman": 8868,
      "plau": 8869,
      "exagger": 8870,
      "newer": 8871,
      "farms": 8872,
      "cub": 8873,
      "difficulties": 8874,
      "1988": 8875,
      "sympto": 8876,
      "philadel": 8877,
      "procedural": 8878,
      "achievements": 8879,
      "graduated": 8880,
      "whispered": 8881,
      "pyramids": 8882,
      "gandhi": 8883,
      "cemetery": 8884,
      "roberts": 8885,
      "adjacent": 8886,
      "symptoms": 8887,
      "dimin": 8888,
      "ende": 8889,
      "aler": 8890,
      "esp": 8891,
      "chen": 8892,
      "liability": 8893,
      "maine": 8894,
      "button": 8895,
      "agu": 8896,
      "lain": 8897,
      "clue": 8898,
      "sheer": 8899,
      "overlooking": 8900,
      "1930": 8901,
      "pak": 8902,
      "carpets": 8903,
      "evenings": 8904,
      "underneath": 8905,
      "subtle": 8906,
      "venture": 8907,
      "camps": 8908,
      "alongside": 8909,
      "statutes": 8910,
      "dependence": 8911,
      "hussein": 8912,
      "spraw": 8913,
      "nara": 8914,
      "cinem": 8915,
      "flytrap": 8916,
      "advocate": 8917,
      "sharply": 8918,
      "vitz": 8919,
      "kitchell": 8920,
      "cigarette": 8921,
      "glimpse": 8922,
      "dign": 8923,
      "fla": 8924,
      "ffed": 8925,
      "gut": 8926,
      "sway": 8927,
      "inf": 8928,
      "ala": 8929,
      "leap": 8930,
      "commod": 8931,
      "fere": 8932,
      "coins": 8933,
      "affa": 8934,
      "shots": 8935,
      "handful": 8936,
      "enjoying": 8937,
      "hamp": 8938,
      "nationwide": 8939,
      "garage": 8940,
      "hurric": 8941,
      "samples": 8942,
      "longest": 8943,
      "lords": 8944,
      "victoria": 8945,
      "exhibitions": 8946,
      "junior": 8947,
      "stolen": 8948,
      "41": 8949,
      "63": 8950,
      "cd": 8951,
      "vy": 8952,
      "annette": 8953,
      "itzer": 8954,
      "sept": 8955,
      "rog": 8956,
      "prospective": 8957,
      "terrif": 8958,
      "terribly": 8959,
      "illumin": 8960,
      "quay": 8961,
      "odes": 8962,
      "donated": 8963,
      "serts": 8964,
      "raises": 8965,
      "angel": 8966,
      "ears": 8967,
      "brook": 8968,
      "checking": 8969,
      "qualify": 8970,
      "investing": 8971,
      "salad": 8972,
      "graphics": 8973,
      "websites": 8974,
      "supplied": 8975,
      "characteristic": 8976,
      "crypt": 8977,
      "revolutionary": 8978,
      "graduates": 8979,
      "virtual": 8980,
      "dimens": 8981,
      "warrior": 8982,
      "opponents": 8983,
      "calendar": 8984,
      "eil": 8985,
      "gged": 8986,
      "kon": 8987,
      "lone": 8988,
      "inople": 8989,
      "ione": 8990,
      "nell": 8991,
      "plun": 8992,
      "clust": 8993,
      "dislike": 8994,
      "intensive": 8995,
      "barren": 8996,
      "dinosa": 8997,
      "nationally": 8998,
      "confess": 8999,
      "democrat": 9000,
      "avoiding": 9001,
      "palestinian": 9002,
      "consolidated": 9003,
      "liquid": 9004,
      "diagno": 9005,
      "propag": 9006,
      "consensus": 9007,
      "encounter": 9008,
      "notably": 9009,
      "carries": 9010,
      "interven": 9011,
      "ppi": 9012,
      "farmer": 9013,
      "grows": 9014,
      "aska": 9015,
      "favored": 9016,
      "bulk": 9017,
      "nonetheless": 9018,
      "georgia": 9019,
      "separately": 9020,
      "liberals": 9021,
      "ethics": 9022,
      "birthplace": 9023,
      "mallorca": 9024,
      "inventory": 9025,
      "throwing": 9026,
      "absorber": 9027,
      "siege": 9028,
      "subsequently": 9029,
      "korea": 9030,
      "prohibited": 9031,
      "utterly": 9032,
      "constraints": 9033,
      "ee": 9034,
      "sba": 9035,
      "severn": 9036,
      "conspir": 9037,
      "oney": 9038,
      "offs": 9039,
      "guilt": 9040,
      "spa": 9041,
      "raw": 9042,
      "stewart": 9043,
      "stereo": 9044,
      "drain": 9045,
      "drank": 9046,
      "porce": 9047,
      "communism": 9048,
      "lush": 9049,
      "foods": 9050,
      "commissioned": 9051,
      "marty": 9052,
      "vaul": 9053,
      "frozen": 9054,
      "convenience": 9055,
      "partnership": 9056,
      "modification": 9057,
      "desperate": 9058,
      "philadelphia": 9059,
      "hint": 9060,
      "iable": 9061,
      "iors": 9062,
      "ske": 9063,
      "wings": 9064,
      "rever": 9065,
      "rebell": 9066,
      "amiga": 9067,
      "adapt": 9068,
      "dos": 9069,
      "ills": 9070,
      "affor": 9071,
      "discretion": 9072,
      "erald": 9073,
      "attan": 9074,
      "liness": 9075,
      "plains": 9076,
      "villas": 9077,
      "specialty": 9078,
      "favour": 9079,
      "offerings": 9080,
      "tires": 9081,
      "belly": 9082,
      "survival": 9083,
      "constantinople": 9084,
      "eighth": 9085,
      "suspicious": 9086,
      "mosaic": 9087,
      "cigarettes": 9088,
      "christopher": 9089,
      "flaw": 9090,
      "mish": 9091,
      "smar": 9092,
      "swallow": 9093,
      "wagon": 9094,
      "thunder": 9095,
      "alright": 9096,
      "allocated": 9097,
      "toll": 9098,
      "rio": 9099,
      "conferences": 9100,
      "poste": 9101,
      "raid": 9102,
      "wherever": 9103,
      "deciding": 9104,
      "mills": 9105,
      "holder": 9106,
      "salv": 9107,
      "floating": 9108,
      "grapher": 9109,
      "associates": 9110,
      "sooner": 9111,
      "analyze": 9112,
      "evaluators": 9113,
      "henri": 9114,
      "rangers": 9115,
      "whites": 9116,
      "valleys": 9117,
      "kl": 9118,
      "uk": 9119,
      "enqu": 9120,
      "toile": 9121,
      "utilities": 9122,
      "unpleasant": 9123,
      "teries": 9124,
      "respir": 9125,
      "bored": 9126,
      "spur": 9127,
      "este": 9128,
      "restim": 9129,
      "earliest": 9130,
      "mighty": 9131,
      "dolph": 9132,
      "appropriation": 9133,
      "initiated": 9134,
      "messages": 9135,
      "advisers": 9136,
      "portraits": 9137,
      "thriving": 9138,
      "apologize": 9139,
      "reimbur": 9140,
      "phenomen": 9141,
      "toledo": 9142,
      "dul": 9143,
      "een": 9144,
      "rim": 9145,
      "atom": 9146,
      "itan": 9147,
      "assure": 9148,
      "modate": 9149,
      "contem": 9150,
      "cohen": 9151,
      "clan": 9152,
      "eved": 9153,
      "dub": 9154,
      "desired": 9155,
      "cute": 9156,
      "camel": 9157,
      "hugh": 9158,
      "examining": 9159,
      "expects": 9160,
      "minds": 9161,
      "copper": 9162,
      "precise": 9163,
      "accommodate": 9164,
      "navig": 9165,
      "mechanism": 9166,
      "axe": 9167,
      "toxicity": 9168,
      "pregnant": 9169,
      "twisted": 9170,
      "pepper": 9171,
      "bis": 9172,
      "mie": 9173,
      "swi": 9174,
      "reed": 9175,
      "ento": 9176,
      "arte": 9177,
      "loren": 9178,
      "comic": 9179,
      "rude": 9180,
      "dismissed": 9181,
      "assment": 9182,
      "founding": 9183,
      "supper": 9184,
      "dawn": 9185,
      "wonders": 9186,
      "particles": 9187,
      "invested": 9188,
      "harris": 9189,
      "youngest": 9190,
      "villagers": 9191,
      "fluent": 9192,
      "tibet": 9193,
      "civilian": 9194,
      "arkansas": 9195,
      "punished": 9196,
      "giants": 9197,
      "possibilities": 9198,
      "automatic": 9199,
      "andrew": 9200,
      "nazi": 9201,
      "1950s": 9202,
      "stunning": 9203,
      "majest": 9204,
      "procurement": 9205,
[...]
