{
  "version": "1.0",
  "truncation": null,
  "padding": null,
  "added_tokens": [
    {
      "id": 0,
      "content": "[PAD]",
      "single_word": false,
      "lstrip": false,
      "rstrip": false,
      "normalized": false,
      "special": true
    },
    {
      "id": 1,
      "content": "[UNK]",
      "single_word": false,
      "lstrip": false,
      "rstrip": false,
      "normalized": false,
      "special": true
    },
    {
      "id": 2,
      "content": "[CLS]",
      "single_word": false,
      "lstrip": false,
      "rstrip": false,
      "normalized": false,
      "special": true
    },
    {
      "id": 3,
      "content": "[SEP]",
      "single_word": false,
      "lstrip": false,
      "rstrip": false,
      "normalized": false,
      "special": true
    },
    {
      "id": 4,
      "content": "[MASK]",
      "single_word": false,
      "lstrip": false,
      "rstrip": false,
      "normalized": false,
      "special": true
    }
  ],
  "normalizer": {
    "type": "Sequence",
    "normalizers": [
      {
        "type": "NFD"
      },
      {
        "type": "Lowercase"
      },
      {
        "type": "StripAccents"
      }
    ]
  },
  "pre_tokenizer": {
    "type": "Whitespace"
  },
  "post_processor": null,
  "decoder": null,
  "model": {
    "type": "BPE",
    "dropout": null,
    "unk_token": null,
    "continuing_subword_prefix": null,
    "end_of_word_suffix": null,
    "fuse_unk": false,
    "byte_fallback": false,
    "ignore_merges": false,
    "vocab": {
      "[PAD]": 0,
      "[UNK]": 1,
      "[CLS]": 2,
      "[SEP]": 3,
      "[MASK]": 4,
      "!": 5,
      "#": 6,
      "$": 7,
      "%": 8,
      "&": 9,
      "'": 10,
      "(": 11,
      ")": 12,
      "*": 13,
      "+": 14,
      ",": 15,
      "-": 16,
      ".": 17,
      "/": 18,
      "0": 19,
      "1": 20,
      "2": 21,
      "3": 22,
      "4": 23,
      "5": 24,
      "6": 25,
      "7": 26,
      "8": 27,
      "9": 28,
      ":": 29,
      ";": 30,
      "<": 31,
      "=": 32,
      ">": 33,
      "?": 34,
      "@": 35,
      "[": 36,
      "\\": 37,
      "]": 38,
      "^": 39,
      "_": 40,
      "a": 41,
      "b": 42,
      "c": 43,
      "d": 44,
      "e": 45,
      "f": 46,
      "g": 47,
      "h": 48,
      "i": 49,
      "j": 50,
      "k": 51,
      "l": 52,
      "m": 53,
      "n": 54,
      "o": 55,
      "p": 56,
      "q": 57,
      "r": 58,
      "s": 59,
      "t": 60,
      "u": 61,
      "v": 62,
      "w": 63,
      "x": 64,
      "y": 65,
      "z": 66,
      "{": 67,
      "}": 68,
      "~": 69,
      "£": 70,
      "¦": 71,
      "¨": 72,
      "ª": 73,
      "®": 74,
      "¯": 75,
      "°": 76,
      "đ": 77,
      "œ": 78,
      "ȡ": 79,
      "ȥ": 80,
      "ˠ": 81,
      "ϳ": 82,
      "׺": 83,
      "ݳ": 84,
      "‡": 85,
      "•": 86,
      "‰": 87,
      "€": 88,
      "➖": 89,
      "�": 90,
      "ng": 91,
      "nh": 92,
      "oi": 93,
      "ong": 94,
      "ch": 95,
      "an": 96,
      "th": 97,
      "ie": 98,
      "ua": 99,
      "tr": 100,
      "ca": 101,
      "ung": 102,
      "đa": 103,
      "kh": 104,
      "se": 105,
      "la": 106,
      "co": 107,
      "va": 108,
      "ot": 109,
      "sep": 110,
      "ho": 111,
      "uo": 112,
      "cua": 113,
      "ta": 114,
      "mot": 115,
      "en": 116,
      "ph": 117,
      "ay": 118,
      "uoc": 119,
      "gi": 120,
      "anh": 121,
      "ang": 122,
      "at": 123,
      "ien": 124,
      "toi": 125,
      "ai": 126,
      "inh": 127,
      "nhung": 128,
      "khong": 129,
      "uoi": 130,
      "ieu": 131,
      "uong": 132,
      "uc": 133,
      "đo": 134,
      "cac": 135,
      "đuoc": 136,
      "trong": 137,
      "ao": 138,
      "uy": 139,
      "đe": 140,
      "the": 141,
      "am": 142,
      "cho": 143,
      "su": 144,
      "ac": 145,
      "nguoi": 146,
      "no": 147,
      "ban": 148,
      "on": 149,
      "voi": 150,
      "tu": 151,
      "iet": 152,
      "au": 153,
      "ngh": 154,
      "uan": 155,
      "et": 156,
      "in": 157,
      "noi": 158,
      "ve": 159,
      "chung": 160,
      "uyen": 161,
      "ich": 162,
      "lam": 163,
      "ma": 164,
      "so": 165,
      "thu": 166,
      "chi": 167,
      "ra": 168,
      "qua": 169,
      "đen": 170,
      "nhu": 171,
      "to": 172,
      "ap": 173,
      "iem": 174,
      "khi": 175,
      "quan": 176,
      "cong": 177,
      "rang": 178,
      "bao": 179,
      "vi": 180,
      "biet": 181,
      "cung": 182,
      "iec": 183,
      "hon": 184,
      "đang": 185,
      "bo": 186,
      "nay": 187,
      "đong": 188,
      "nha": 189,
      "gia": 190,
      "thuc": 191,
      "nhan": 192,
      "đieu": 193,
      "nam": 194,
      "phai": 195,
      "rat": 196,
      "nhieu": 197,
      "thay": 198,
      "vao": 199,
      "đoi": 200,
      "nghi": 201,
      "con": 202,
      "tren": 203,
      "moi": 204,
      "viec": 205,
      "uh": 206,
      "le": 207,
      "đi": 208,
      "eu": 209,
      "bi": 210,
      "đau": 211,
      "tai": 212,
      "bat": 213,
      "boi": 214,
      "uon": 215,
      "cu": 216,
      "thanh": 217,
      "ach": 218,
      "cai": 219,
      "ky": 220,
      "chinh": 221,
      "van": 222,
      "lo": 223,
      "te": 224,
      "phan": 225,
      "du": 226,
      "nhat": 227,
      "lai": 228,
      "dung": 229,
      "ly": 230,
      "ke": 231,
      "thong": 232,
      "kho": 233,
      "khac": 234,
      "phi": 235,
      "tro": 236,
      "cau": 237,
      "tien": 238,
      "can": 239,
      "uat": 240,
      "tat": 241,
      "nao": 242,
      "vu": 243,
      "hoi": 244,
      "bang": 245,
      "đay": 246,
      "hang": 247,
      "cap": 248,
      "chuyen": 249,
      "ti": 250,
      "hai": 251,
      "hien": 252,
      "thoi": 253,
      "đinh": 254,
      "gio": 255,
      "iep": 256,
      "sau": 257,
      "tin": 258,
      "tuong": 259,
      "do": 260,
      "xe": 261,
      "san": 262,
      "ro": 263,
      "tinh": 264,
      "ngay": 265,
      "tot": 266,
      "vien": 267,
      "cao": 268,
      "mat": 269,
      "hop": 270,
      "cach": 271,
      "cuoc": 272,
      "tho": 273,
      "de": 274,
      "tri": 275,
      "tam": 276,
      "loi": 277,
      "thuong": 278,
      "vay": 279,
      "truong": 280,
      "lon": 281,
      "phu": 282,
      "hoac": 283,
      "re": 284,
      "dan": 285,
      "đat": 286,
      "he": 287,
      "mo": 288,
      "gian": 289,
      "uyet": 290,
      "ngo": 291,
      "nen": 292,
      "go": 293,
      "thi": 294,
      "neu": 295,
      "lien": 296,
      "nho": 297,
      "đai": 298,
      "chu": 299,
      "ar": 300,
      "tham": 301,
      "hanh": 302,
      "toan": 303,
      "kiem": 304,
      "hoa": 305,
      "phap": 306,
      "trung": 307,
      "minh": 308,
      "trinh": 309,
      "ket": 310,
      "phong": 311,
      "lan": 312,
      "me": 313,
      "yeu": 314,
      "be": 315,
      "00": 316,
      "roi": 317,
      "quoc": 318,
      "hoc": 319,
      "that": 320,
      "muon": 321,
      "tra": 322,
      "bay": 323,
      "khu": 324,
      "theo": 325,
      "nang": 326,
      "ton": 327,
      "nghe": 328,
      "trang": 329,
      "ngoai": 330,
      "song": 331,
      "tang": 332,
      "đuong": 333,
      "tieu": 334,
      "ba": 335,
      "hieu": 336,
      "giu": 337,
      "cam": 338,
      "thang": 339,
      "đung": 340,
      "pho": 341,
      "ieng": 342,
      "tim": 343,
      "bien": 344,
      "li": 345,
      "luc": 346,
      "truoc": 347,
      "thich": 348,
      "giao": 349,
      "chua": 350,
      "da": 351,
      "ri": 352,
      "sach": 353,
      "hinh": 354,
      "si": 355,
      "di": 356,
      "chan": 357,
      "dich": 358,
      "uu": 359,
      "len": 360,
      "phat": 361,
      "tac": 362,
      "19": 363,
      "ui": 364,
      "chien": 365,
      "đua": 366,
      "tay": 367,
      "ne": 368,
      "thiet": 369,
      "ngoi": 370,
      "ben": 371,
      "ngan": 372,
      "mua": 373,
      "cuoi": 374,
      "gan": 375,
      "nhin": 376,
      "ty": 377,
      "hay": 378,
      "bai": 379,
      "tap": 380,
      "huong": 381,
      "tao": 382,
      "tre": 383,
      "đao": 384,
      "quy": 385,
      "xa": 386,
      "gioi": 387,
      "um": 388,
      "tiep": 389,
      "canh": 390,
      "nuoc": 391,
      "chuong": 392,
      "điem": 393,
      "luong": 394,
      "kinh": 395,
      "vo": 396,
      "lich": 397,
      "trai": 398,
      "lap": 399,
      "chuc": 400,
      "xem": 401,
      "kien": 402,
      "tuc": 403,
      "phia": 404,
      "binh": 405,
      "han": 406,
      "tranh": 407,
      "khoi": 408,
      "xay": 409,
      "it": 410,
      "phuc": 411,
      "xuat": 412,
      "nua": 413,
      "may": 414,
      "nhien": 415,
      "er": 416,
      "kha": 417,
      "đien": 418,
      "đanh": 419,
      "nhau": 420,
      "sang": 421,
      "muc": 422,
      "hoan": 423,
      "or": 424,
      "vuc": 425,
      "hi": 426,
      "xac": 427,
      "giam": 428,
      "loai": 429,
      "tan": 430,
      "al": 431,
      "đoc": 432,
      "than": 433,
      "tuyet": 434,
      "sao": 435,
      "cuu": 436,
      "phe": 437,
      "khach": 438,
      "đoan": 439,
      "giai": 440,
      "đan": 441,
      "choi": 442,
      "quyen": 443,
      "my": 444,
      "luat": 445,
      "mac": 446,
      "het": 447,
      "đia": 448,
      "mau": 449,
      "lang": 450,
      "man": 451,
      "goi": 452,
      "vai": 453,
      "bac": 454,
      "luan": 455,
      "nghiep": 456,
      "es": 457,
      "pham": 458,
      "đon": 459,
      "lieu": 460,
      "thap": 461,
      "giong": 462,
      "chac": 463,
      "--": 464,
      "đac": 465,
      "tran": 466,
      "us": 467,
      "hau": 468,
      "giup": 469,
      "tieng": 470,
      "gom": 471,
      "dien": 472,
      "che": 473,
      "nu": 474,
      "chong": 475,
      "mai": 476,
      "toa": 477,
      "phuong": 478,
      "trien": 479,
      "nghien": 480,
      "ki": 481,
      "mi": 482,
      "ten": 483,
      "xu": 484,
      "tru": 485,
      "hoat": 486,
      "đeu": 487,
      "đu": 488,
      "we": 489,
      "manh": 490,
      "as": 491,
      "thuoc": 492,
      "nguyen": 493,
      "lua": 494,
      "lin": 495,
      "cay": 496,
      "nhiem": 497,
      "tuy": 498,
      "nghiem": 499,
      "danh": 500,
      "vong": 501,
      "dai": 502,
      "nghia": 503,
      "chon": 504,
      "duoi": 505,
      "lay": 506,
      "pha": 507,
      "sat": 508,
      "sinh": 509,
      "dang": 510,
      "chay": 511,
      "mang": 512,
      "buc": 513,
      "nhap": 514,
      "gang": 515,
      "khan": 516,
      "tong": 517,
      "quyet": 518,
      "mon": 519,
      "thuat": 520,
      "oh": 521,
      "muoi": 522,
      "tich": 523,
      "đam": 524,
      "truyen": 525,
      "luon": 526,
      "is": 527,
      "hoang": 528,
      "199": 529,
      "đep": 530,
      "cham": 531,
      "xuong": 532,
      "khoang": 533,
      "giua": 534,
      "buoc": 535,
      "vang": 536,
      "tuoi": 537,
      "chiec": 538,
      "tuan": 539,
      "tram": 540,
      "hoach": 541,
      "tiet": 542,
      "day": 543,
      "thue": 544,
      "khoan": 545,
      "thieu": 546,
      "em": 547,
      "viet": 548,
      "ut": 549,
      "ngu": 550,
      "chet": 551,
      "bon": 552,
      "sa": 553,
      "ran": 554,
      "chat": 555,
      "truc": 556,
      "nhac": 557,
      "phep": 558,
      "thai": 559,
      "qu": 560,
      "them": 561,
      "ter": 562,
      "quanh": 563,
      "lanh": 564,
      "rong": 565,
      "phim": 566,
      "vat": 567,
      "duy": 568,
      "el": 569,
      "ni": 570,
      "chuan": 571,
      "000": 572,
      "huu": 573,
      "tung": 574,
      "ls": 575,
      "chia": 576,
      "thien": 577,
      "ha": 578,
      "ngon": 579,
      "lau": 580,
      "bong": 581,
      "xung": 582,
      "thao": 583,
      "troi": 584,
      "un": 585,
      "web": 586,
      "doi": 587,
      "pa": 588,
      "xet": 589,
      "gay": 590,
      "hiem": 591,
      "mien": 592,
      "ah": 593,
      "hom": 594,
      "ur": 595,
      "doanh": 596,
      "ed": 597,
      "bau": 598,
      "quang": 599,
      "gap": 600,
      "ye": 601,
      "dau": 602,
      "tuyen": 603,
      "lac": 604,
      "mar": 605,
      "toc": 606,
      "mong": 607,
      "rieng": 608,
      "benh": 609,
      "suc": 610,
      "nong": 611,
      "khoa": 612,
      "luu": 613,
      "po": 614,
      "duc": 615,
      "cat": 616,
      "chap": 617,
      "khai": 618,
      "giay": 619,
      "ll": 620,
      "ge": 621,
      "chut": 622,
      "hy": 623,
      "vui": 624,
      "son": 625,
      "new": 626,
      "uou": 627,
      "gai": 628,
      "kich": 629,
      "tom": 630,
      "ruou": 631,
      "gui": 632,
      "sai": 633,
      "cang": 634,
      "trieu": 635,
      "20": 636,
      "hat": 637,
      "ci": 638,
      "nguon": 639,
      "quay": 640,
      "nhanh": 641,
      "cuon": 642,
      "ga": 643,
      "huy": 644,
      "les": 645,
      "long": 646,
      "khung": 647,
      "yeah": 648,
      "nhom": 649,
      "buoi": 650,
      "..": 651,
      "jon": 652,
      "xuyen": 653,
      "chiu": 654,
      "ghi": 655,
      "trach": 656,
      "soat": 657,
      "niem": 658,
      "ber": 659,
      "st": 660,
      "vua": 661,
      "ru": 662,
      "ham": 663,
      "thoai": 664,
      "cha": 665,
      "duong": 666,
      "gao": 667,
      "18": 668,
      "truy": 669,
      "đem": 670,
      "som": 671,
      "linh": 672,
      "chau": 673,
      "giau": 674,
      "land": 675,
      "ing": 676,
      "clin": 677,
      "sung": 678,
      "thuan": 679,
      "nui": 680,
      "vung": 681,
      "ce": 682,
      "na": 683,
      "rs": 684,
      "clinton": 685,
      "10": 686,
      "đuc": 687,
      "sac": 688,
      "vuot": 689,
      "dam": 690,
      "dua": 691,
      "nan": 692,
      "bieu": 693,
      "ren": 694,
      "lao": 695,
      "ry": 696,
      "goc": 697,
      "ghe": 698,
      "bua": 699,
      "lu": 700,
      "hong": 701,
      "giet": 702,
      "cuc": 703,
      "mu": 704,
      "15": 705,
      "sh": 706,
      "ork": 707,
      "thuyet": 708,
      "200": 709,
      "ngua": 710,
      "phien": 711,
      "suy": 712,
      "chieu": 713,
      "bar": 714,
      "pe": 715,
      "thua": 716,
      "sua": 717,
      "ven": 718,
      "hao": 719,
      "lsc": 720,
      "joh": 721,
      "john": 722,
      "im": 723,
      "xo": 724,
      "xau": 725,
      "khau": 726,
      "soc": 727,
      "khien": 728,
      "xi": 729,
      "lung": 730,
      "las": 731,
      "chang": 732,
      "vuon": 733,
      "quen": 734,
      "ad": 735,
      "coi": 736,
      "keo": 737,
      "buu": 738,
      "pi": 739,
      "khuyen": 740,
      "cot": 741,
      "ard": 742,
      "cuong": 743,
      "thoa": 744,
      "phieu": 745,
      "khoe": 746,
      "hut": 747,
      "gh": 748,
      "phoi": 749,
      "17": 750,
      "dong": 751,
      "don": 752,
      "ff": 753,
      "hung": 754,
      "ste": 755,
      "đot": 756,
      "hap": 757,
      "rac": 758,
      "gop": 759,
      "rin": 760,
      "ninh": 761,
      "luoc": 762,
      "tommy": 763,
      "tron": 764,
      "đap": 765,
      "ka": 766,
      "tau": 767,
      "thach": 768,
      "ck": 769,
      "hiep": 770,
      "nguy": 771,
      "ts": 772,
      "12": 773,
      "vuong": 774,
      "for": 775,
      "ju": 776,
      "phut": 777,
      "vinh": 778,
      "16": 779,
      "hen": 780,
      "jam": 781,
      "suat": 782,
      "par": 783,
      "il": 784,
      "suu": 785,
      "suot": 786,
      "car": 787,
      "giac": 788,
      "kia": 789,
      "doc": 790,
      "kham": 791,
      "sta": 792,
      "ver": 793,
      "30": 794,
      "sam": 795,
      "york": 796,
      "xep": 797,
      "ii": 798,
      "ngai": 799,
      "50": 800,
      "nhay": 801,
      "bu": 802,
      "lop": 803,
      "net": 804,
      "sap": 805,
      "texa": 806,
      "km": 807,
      "tha": 808,
      "thuyen": 809,
      "buon": 810,
      "ion": 811,
      "nuoi": 812,
      "xin": 813,
      "der": 814,
      "thung": 815,
      "za": 816,
      "texas": 817,
      "xanh": 818,
      "ler": 819,
      "khich": 820,
      "gran": 821,
      "vet": 822,
      "ngheo": 823,
      "pro": 824,
      "đich": 825,
      "dy": 826,
      "duyet": 827,
      "14": 828,
      "huh": 829,
      "tiec": 830,
      "thor": 831,
      "daan": 832,
      "ley": 833,
      "khao": 834,
      "ngton": 835,
      "thuy": 836,
      "que": 837,
      "sot": 838,
      "bur": 839,
      "lly": 840,
      "nga": 841,
      "hu": 842,
      "thoat": 843,
      "rot": 844,
      "ron": 845,
      "kem": 846,
      "loan": 847,
      "rap": 848,
      "hum": 849,
      "ko": 850,
      "per": 851,
      "khap": 852,
      "fi": 853,
      "thiep": 854,
      "poi": 855,
      "men": 856,
      "xam": 857,
      "banh": 858,
      "red": 859,
      "rung": 860,
      "gen": 861,
      "ngac": 862,
      "nham": 863,
      "com": 864,
      "ale": 865,
      "fran": 866,
      "nhuan": 867,
      "cro": 868,
      "ken": 869,
      "đuoi": 870,
      "gon": 871,
      "bus": 872,
      "rui": 873,
      "bot": 874,
      "min": 875,
      "res": 876,
      "60": 877,
      "gat": 878,
      "wo": 879,
      "inter": 880,
      "ies": 881,
      "os": 882,
      "sanh": 883,
      "ris": 884,
      "xuc": 885,
      "adrin": 886,
      "thit": 887,
      "khuon": 888,
      "dre": 889,
      "198": 890,
      "ses": 891,
      "13": 892,
      "ja": 893,
      "luyen": 894,
      "gas": 895,
      "trao": 896,
      "loat": 897,
      "meo": 898,
      "shi": 899,
      "...": 900,
      "met": 901,
      "ghet": 902,
      "col": 903,
      "ok": 904,
      "was": 905,
      "2000": 906,
      "nem": 907,
      "poirot": 908,
      "dal": 909,
      "nia": 910,
      "non": 911,
      "fe": 912,
      "juli": 913,
      "jo": 914,
      "des": 915,
      "nhe": 916,
      "ted": 917,
      "mer": 918,
      "ngoc": 919,
      "chao": 920,
      "rai": 921,
      "nhiet": 922,
      "ria": 923,
      "om": 924,
      "ld": 925,
      "mem": 926,
      "chiem": 927,
      "chim": 928,
      "rut": 929,
      "kim": 930,
      "khang": 931,
      "king": 932,
      "epa": 933,
      "bra": 934,
      "yen": 935,
      "tion": 936,
      "dao": 937,
      "wa": 938,
      "doa": 939,
      "nganh": 940,
      "james": 941,
      "julius": 942,
      "100": 943,
      "chin": 944,
      "ser": 945,
      "bia": 946,
      "cy": 947,
      "ira": 948,
      "ram": 949,
      "mail": 950,
      "nat": 951,
      "je": 952,
      "od": 953,
      "nau": 954,
      "nhi": 955,
      "luoi": 956,
      "tiem": 957,
      "huan": 958,
      "washi": 959,
      "bert": 960,
      "bro": 961,
      "los": 962,
      "washington": 963,
      "bush": 964,
      "40": 965,
      "soi": 966,
      "gu": 967,
      "nt": 968,
      "nien": 969,
      "kieu": 970,
      "drew": 971,
      "leo": 972,
      "lenh": 973,
      "tui": 974,
      "ker": 975,
      "win": 976,
      "lle": 977,
      "jer": 978,
      "pu": 979,
      "mary": 980,
      "fo": 981,
      "mich": 982,
      "uop": 983,
      "late": 984,
      "lethor": 985,
      "ss": 986,
      "ine": 987,
      "mui": 988,
      "ze": 989,
      "geor": 990,
      "den": 991,
      "scot": 992,
      "ny": 993,
      "rael": 994,
      "israel": 995,
      "ia": 996,
      "2001": 997,
      "inglethor": 998,
      "ep": 999,
      "ward": 1000,
      "inglethorp": 1001,
      "11": 1002,
      "nap": 1003,
      "del": 1004,
      "paris": 1005,
      "internet": 1006,
      "ers": 1007,
      "thon": 1008,
      "1996": 1009,
      "mc": 1010,
      "dis": 1011,
      "davi": 1012,
      "25": 1013,
      "har": 1014,
      "wn": 1015,
      "wi": 1016,
      "gd": 1017,
      "dallas": 1018,
      "70": 1019,
      "wil": 1020,
      "ling": 1021,
      "star": 1022,
      "rua": 1023,
      "ting": 1024,
      "pen": 1025,
      "nguoc": 1026,
      "sup": 1027,
      "saint": 1028,
      "khoc": 1029,
      "khieu": 1030,
      "wal": 1031,
      "cuop": 1032,
      "ble": 1033,
      "ds": 1034,
      "gar": 1035,
      "loui": 1036,
      "bom": 1037,
      "cas": 1038,
      "moc": 1039,
      "boc": 1040,
      "mieng": 1041,
      "ans": 1042,
      "zz": 1043,
      "cali": 1044,
      "mas": 1045,
      "ic": 1046,
      "slate": 1047,
      "scotland": 1048,
      "by": 1049,
      "fa": 1050,
      "ngot": 1051,
      "flo": 1052,
      "lf": 1053,
      "tes": 1054,
      "ft": 1055,
      "lla": 1056,
      "ku": 1057,
      "hep": 1058,
      "char": 1059,
      "hit": 1060,
      "lis": 1061,
      "ngang": 1062,
      "dave": 1063,
      "medi": 1064,
      "ps": 1065,
      "rose": 1066,
      "phao": 1067,
      "rau": 1068,
      "cr": 1069,
      "ji": 1070,
      "gre": 1071,
      "por": 1072,
      "lot": 1073,
      "david": 1074,
      "trua": 1075,
      "ier": 1076,
      "kong": 1077,
      "fu": 1078,
      "ane": 1079,
      "george": 1080,
      "news": 1081,
      "dio": 1082,
      "luot": 1083,
      "alem": 1084,
      "trich": 1085,
      "ana": 1086,
      "cal": 1087,
      "usalem": 1088,
      "jerusalem": 1089,
      "wood": 1090,
      "pre": 1091,
      "ek": 1092,
      "ger": 1093,
      "io": 1094,
      "tv": 1095,
      "gianh": 1096,
      "mung": 1097,
      "giang": 1098,
      "gau": 1099,
      "1999": 1100,
      "bri": 1101,
      "treo": 1102,
      "vom": 1103,
      "kin": 1104,
      "mes": 1105,
      "1998": 1106,
      "cor": 1107,
      "nguc": 1108,
      "nie": 1109,
      "omb": 1110,
      "buy": 1111,
      "ngam": 1112,
      "bui": 1113,
      "hua": 1114,
      "malay": 1115,
      "ganh": 1116,
      "lia": 1117,
      "pp": 1118,
      "khiep": 1119,
      "giuong": 1120,
      "tine": 1121,
      "doro": 1122,
      "buyt": 1123,
      "work": 1124,
      "pri": 1125,
      "califor": 1126,
      "xuan": 1127,
      "cs": 1128,
      "ngoan": 1129,
      "truot": 1130,
      "ex": 1131,
      "hanson": 1132,
      "diet": 1133,
      "1997": 1134,
      "ngung": 1135,
      "leon": 1136,
      "xinh": 1137,
      "bor": 1138,
      "hoai": 1139,
      "war": 1140,
      "sen": 1141,
      "louis": 1142,
      "kenh": 1143,
      "sieu": 1144,
      "mor": 1145,
      "california": 1146,
      "1990": 1147,
      "kal": 1148,
      "ire": 1149,
      "ama": 1150,
      "xua": 1151,
      "thinh": 1152,
      "22": 1153,
      "llo": 1154,
      "ab": 1155,
      "500": 1156,
      "ange": 1157,
      "one": 1158,
      "micro": 1159,
      "rich": 1160,
      "sy": 1161,
      "khoanh": 1162,
      "nuong": 1163,
      "robert": 1164,
      "ston": 1165,
      "deo": 1166,
      "90": 1167,
      "ack": 1168,
      "lat": 1169,
      "mis": 1170,
      "ation": 1171,
      "sia": 1172,
      "aica": 1173,
      "nor": 1174,
      "vegas": 1175,
      "ica": 1176,
      "tor": 1177,
      "jamaica": 1178,
      "ireland": 1179,
      "21": 1180,
      "frank": 1181,
      "1995": 1182,
      "vic": 1183,
      "cio": 1184,
      "sha": 1185,
      "week": 1186,
      "gra": 1187,
      "liet": 1188,
      "80": 1189,
      "mad": 1190,
      "rue": 1191,
      "hal": 1192,
      "ner": 1193,
      "grante": 1194,
      "sky": 1195,
      "wor": 1196,
      "xico": 1197,
      "tz": 1198,
      "golf": 1199,
      "ney": 1200,
      "newsweek": 1201,
      "fer": 1202,
      "pan": 1203,
      "mexico": 1204,
      "nhang": 1205,
      "pet": 1206,
      "mao": 1207,
      "rence": 1208,
      "martin": 1209,
      "made": 1210,
      "chep": 1211,
      "gie": 1212,
      "ww": 1213,
      "ray": 1214,
      "brown": 1215,
      "197": 1216,
      "dieu": 1217,
      "susan": 1218,
      "bill": 1219,
      "thac": 1220,
      "liam": 1221,
      "making": 1222,
      "lls": 1223,
      "pon": 1224,
      "berg": 1225,
      "burgh": 1226,
      "pau": 1227,
      "soft": 1228,
      "ford": 1229,
      "times": 1230,
      "tic": 1231,
      "von": 1232,
      "nes": 1233,
      "microsoft": 1234,
      "william": 1235,
      "mim": 1236,
      "bung": 1237,
      "rd": 1238,
      "lui": 1239,
      "xoa": 1240,
      "ple": 1241,
      "mey": 1242,
      "ngap": 1243,
      "angeles": 1244,
      "iel": 1245,
      "thorn": 1246,
      "qui": 1247,
      "nis": 1248,
      "sion": 1249,
      "ak": 1250,
      "zar": 1251,
      "dat": 1252,
      "iz": 1253,
      "starr": 1254,
      "stan": 1255,
      "micha": 1256,
      "huyen": 1257,
      "pra": 1258,
      "whi": 1259,
      "cen": 1260,
      "gore": 1261,
      "michael": 1262,
      "video": 1263,
      "her": 1264,
      "ther": 1265,
      "cuba": 1266,
      "hin": 1267,
      "dish": 1268,
      "24": 1269,
      "chup": 1270,
      "rea": 1271,
      "set": 1272,
      "stein": 1273,
      "jane": 1274,
      "dep": 1275,
      "ya": 1276,
      "ws": 1277,
      "blin": 1278,
      "lou": 1279,
      "kers": 1280,
      "thep": 1281,
      "die": 1282,
      "kar": 1283,
      "pla": 1284,
      "wat": 1285,
      "law": 1286,
      "ae": 1287,
      "wai": 1288,
      "care": 1289,
      "khen": 1290,
      "dor": 1291,
      "richard": 1292,
      "caven": 1293,
      "led": 1294,
      "chuoi": 1295,
      "tuoc": 1296,
      "2002": 1297,
      "cavendish": 1298,
      "xon": 1299,
      "bin": 1300,
      "grantees": 1301,
      "say": 1302,
      "thieng": 1303,
      "meyer": 1304,
      "suoi": 1305,
      "jack": 1306,
      "sis": 1307,
      "dublin": 1308,
      "pas": 1309,
      "rid": 1310,
      "196": 1311,
      "gua": 1312,
      "194": 1313,
      "stre": 1314,
      "ngat": 1315,
      "uom": 1316,
      "pal": 1317,
      "rule": 1318,
      "thic": 1319,
      "vande": 1320,
      "xom": 1321,
      "bep": 1322,
      "rulemaking": 1323,
      "vach": 1324,
      "mul": 1325,
      "vandemeyer": 1326,
      "bob": 1327,
      "ville": 1328,
      "thoang": 1329,
      "xit": 1330,
      "out": 1331,
      "sur": 1332,
      "ada": 1333,
      "let": 1334,
      "suon": 1335,
      "vin": 1336,
      "vie": 1337,
      "khon": 1338,
      "edin": 1339,
      "cet": 1340,
      "holly": 1341,
      "tach": 1342,
      "lincol": 1343,
      "franc": 1344,
      "lincoln": 1345,
      "29": 1346,
      "huoc": 1347,
      "leu": 1348,
      "mont": 1349,
      "gdp": 1350,
      "edinburgh": 1351,
      "23": 1352,
      "ght": 1353,
      "sts": 1354,
      "sin": 1355,
      "ves": 1356,
      "fin": 1357,
      "bono": 1358,
      "way": 1359,
      "lim": 1360,
      "colo": 1361,
      "monica": 1362,
      "lieng": 1363,
      "giesu": 1364,
      "ian": 1365,
      "khoac": 1366,
      "oc": 1367,
      "thau": 1368,
      "thia": 1369,
      "santa": 1370,
      "carter": 1371,
      "ibi": 1372,
      "ring": 1373,
      "ded": 1374,
      "lli": 1375,
      "gothic": 1376,
      "fgd": 1377,
      "ral": 1378,
      "choang": 1379,
      "75": 1380,
      "hindu": 1381,
      "loc": 1382,
      "26": 1383,
      "well": 1384,
      "ali": 1385,
      "smi": 1386,
      "nguong": 1387,
      "madeira": 1388,
      "pat": 1389,
      "xong": 1390,
      "hem": 1391,
      "napo": 1392,
      "ks": 1393,
      "medicare": 1394,
      "lar": 1395,
      "coc": 1396,
      "sor": 1397,
      "vir": 1398,
      "hollywood": 1399,
      "quai": 1400,
      "xoay": 1401,
      "lie": 1402,
      "ens": 1403,
      "bam": 1404,
      "sec": 1405,
      "lee": 1406,
      "35": 1407,
      "cum": 1408,
      "khia": 1409,
      "ander": 1410,
      "gal": 1411,
      "heo": 1412,
      "ding": 1413,
      "pm": 1414,
      "ster": 1415,
      "sub": 1416,
      "rennie": 1417,
      "ngau": 1418,
      "mach": 1419,
      "charles": 1420,
      "malaysia": 1421,
      "off": 1422,
      "howard": 1423,
      "alex": 1424,
      "fen": 1425,
      "pin": 1426,
      "ald": 1427,
      "chuot": 1428,
      "mp": 1429,
      "luy": 1430,
      "roc": 1431,
      "nut": 1432,
      "31": 1433,
      "khiem": 1434,
      "kenne": 1435,
      "tation": 1436,
      "indi": 1437,
      "ruoi": 1438,
      "1994": 1439,
      "27": 1440,
      "xang": 1441,
      "anse": 1442,
      "rian": 1443,
      "tia": 1444,
      "ruc": 1445,
      "vieng": 1446,
      "madrid": 1447,
      "eo": 1448,
      "whit": 1449,
      "fan": 1450,
      "cyn": 1451,
      "gr": 1452,
      "ters": 1453,
      "rao": 1454,
      "dley": 1455,
      "gam": 1456,
      "cynthia": 1457,
      "kes": 1458,
      "din": 1459,
      "caro": 1460,
      "28": 1461,
      "ore": 1462,
      "cago": 1463,
      "sho": 1464,
      "aci": 1465,
      "francis": 1466,
      "chicago": 1467,
      "ness": 1468,
      "rado": 1469,
      "300": 1470,
      "nox": 1471,
      "nas": 1472,
      "rio": 1473,
      "sch": 1474,
      "yo": 1475,
      "colum": 1476,
      "sal": 1477,
      "mia": 1478,
      "smith": 1479,
      "kiet": 1480,
      "scr": 1481,
      "lity": 1482,
      "ir": 1483,
      "mus": 1484,
      "stu": 1485,
      "uot": 1486,
      "chai": 1487,
      "1980": 1488,
      "sing": 1489,
      "napoleon": 1490,
      "triet": 1491,
      "rou": 1492,
      "grand": 1493,
      "but": 1494,
      "fred": 1495,
      "rer": 1496,
      "veni": 1497,
      "plan": 1498,
      "khoai": 1499,
      "otto": 1500,
      "via": 1501,
      "bal": 1502,
      "sey": 1503,
      "dinh": 1504,
      "fun": 1505,
      "its": 1506,
      "mieu": 1507,
      "sti": 1508,
      "cher": 1509,
      "paul": 1510,
      "ibiza": 1511,
      "tington": 1512,
      "burg": 1513,
      "nn": 1514,
      "giat": 1515,
      "sou": 1516,
      "tem": 1517,
      "kyo": 1518,
      "lit": 1519,
      "canada": 1520,
      "radio": 1521,
      "lina": 1522,
      "peter": 1523,
      "lawrence": 1524,
      "scan": 1525,
      "lewin": 1526,
      "55": 1527,
      "muu": 1528,
      "she": 1529,
      "vren": 1530,
      "rida": 1531,
      "vrenna": 1532,
      "tue": 1533,
      "khat": 1534,
      "loa": 1535,
      "street": 1536,
      "bap": 1537,
      "over": 1538,
      "oto": 1539,
      "bs": 1540,
      "hor": 1541,
      "đeo": 1542,
      "franklin": 1543,
      "bradley": 1544,
      "lewinsky": 1545,
      "trom": 1546,
      "sed": 1547,
      "taxi": 1548,
      "axit": 1549,
      "quet": 1550,
      "wan": 1551,
      "beo": 1552,
      "grant": 1553,
      "lip": 1554,
      "1993": 1555,
      "bes": 1556,
      "huynh": 1557,
      "far": 1558,
      "florida": 1559,
      "kir": 1560,
      "iraq": 1561,
      "dar": 1562,
      "henry": 1563,
      "kan": 1564,
      "ginia": 1565,
      "gg": 1566,
      "jones": 1567,
      "ism": 1568,
      "kennedy": 1569,
      "ces": 1570,
      "logi": 1571,
      "iii": 1572,
      "hall": 1573,
      "33": 1574,
      "fda": 1575,
      "plu": 1576,
      "virginia": 1577,
      "nixon": 1578,
      "dra": 1579,
      "gach": 1580,
      "chris": 1581,
      "cia": 1582,
      "white": 1583,
      "bach": 1584,
      "cre": 1585,
      "ei": 1586,
      "ngao": 1587,
      "bel": 1588,
      "colorado": 1589,
      "use": 1590,
      "tokyo": 1591,
      "eli": 1592,
      "jim": 1593,
      "ini": 1594,
      "whittington": 1595,
      "zone": 1596,
      "pala": 1597,
      "iv": 1598,
      "plaza": 1599,
      "bye": 1600,
      "ment": 1601,
      "ns": 1602,
      "nai": 1603,
      "ches": 1604,
      "trat": 1605,
      "nata": 1606,
      "phun": 1607,
      "gene": 1608,
      "bour": 1609,
      "lace": 1610,
      "95": 1611,
      "key": 1612,
      "36": 1613,
      "phau": 1614,
      "mit": 1615,
      "anton": 1616,
      "albert": 1617,
      "fle": 1618,
      "lut": 1619,
      "cla": 1620,
      "johnson": 1621,
      "nhip": 1622,
      "irs": 1623,
      "jor": 1624,
      "anti": 1625,
      "ara": 1626,
      "ottoman": 1627,
      "1960": 1628,
      "tar": 1629,
      "sar": 1630,
      "phang": 1631,
      "cui": 1632,
      "pera": 1633,
      "zo": 1634,
      "daniel": 1635,
      "bauer": 1636,
      "vati": 1637,
      "ami": 1638,
      "email": 1639,
      "lei": 1640,
      "bich": 1641,
      "bum": 1642,
      "2010": 1643,
      "cazar": 1644,
      "sul": 1645,
      "fie": 1646,
      "ges": 1647,
      "johnny": 1648,
      "sus": 1649,
      "45": 1650,
      "thomas": 1651,
      "neo": 1652,
      "mur": 1653,
      "điep": 1654,
      "bork": 1655,
      "cel": 1656,
      "venice": 1657,
      "has": 1658,
      "xide": 1659,
      "derry": 1660,
      "ozone": 1661,
      "and": 1662,
      "cc": 1663,
      "kans": 1664,
      "kentuc": 1665,
      "ret": 1666,
      "ning": 1667,
      "det": 1668,
      "kas": 1669,
      "vely": 1670,
      "duyen": 1671,
      "cain": 1672,
      "jean": 1673,
      "nhuc": 1674,
      "norman": 1675,
      "makers": 1676,
      "gac": 1677,
      "lum": 1678,
      "so2": 1679,
      "nile": 1680,
      "cra": 1681,
      "ms": 1682,
      "vers": 1683,
      "mark": 1684,
      "cri": 1685,
      "coun": 1686,
      "shar": 1687,
      "bran": 1688,
      "carolina": 1689,
      "34": 1690,
      "khuyet": 1691,
      "quat": 1692,
      "195": 1693,
      "1970": 1694,
      "vs": 1695,
      "maryland": 1696,
      "bm": 1697,
      "bun": 1698,
      "fel": 1699,
      "mccain": 1700,
      "1992": 1701,
      "pales": 1702,
      "shan": 1703,
      "med": 1704,
      "150": 1705,
      "tions": 1706,
      "finn": 1707,
      "ath": 1708,
      "wis": 1709,
      "book": 1710,
      "surplu": 1711,
      "surpluses": 1712,
      "ori": 1713,
      "cari": 1714,
      "thiu": 1715,
      "lson": 1716,
      "400": 1717,
      "ano": 1718,
      "choc": 1719,
      "mos": 1720,
      "liz": 1721,
      "kath": 1722,
      "buom": 1723,
      "trum": 1724,
      "hill": 1725,
      "sad": 1726,
      "natalia": 1727,
      "disney": 1728,
      "kyoto": 1729,
      "wes": 1730,
      "www": 1731,
      "roman": 1732,
      "heim": 1733,
      "lais": 1734,
      "reagan": 1735,
      "guc": 1736,
      "ite": 1737,
      "ller": 1738,
      "cour": 1739,
      "top": 1740,
      "guong": 1741,
      "palestine": 1742,
      "gri": 1743,
      "pot": 1744,
      "sather": 1745,
      "rus": 1746,
      "xich": 1747,
      "rie": 1748,
      "london": 1749,
      "ree": 1750,
      "97": 1751,
      "rem": 1752,
      "alfred": 1753,
      "ele": 1754,
      "dip": 1755,
      "row": 1756,
      "gus": 1757,
      "wall": 1758,
      "pur": 1759,
      "gor": 1760,
      "donald": 1761,
      "euze": 1762,
      "greuze": 1763,
      "pres": 1764,
      "dou": 1765,
      "cret": 1766,
      "avi": 1767,
      "tal": 1768,
      "side": 1769,
      "water": 1770,
      "38": 1771,
      "đt": 1772,
      "chal": 1773,
      "tur": 1774,
      "39": 1775,
      "slim": 1776,
      "190": 1777,
      "bbe": 1778,
      "66": 1779,
      "trac": 1780,
      "khuy": 1781,
      "nhoc": 1782,
      "ess": 1783,
      "muse": 1784,
      "blo": 1785,
      "less": 1786,
      "zzo": 1787,
      "martini": 1788,
      "eri": 1789,
      "nhiep": 1790,
      "98": 1791,
      "istan": 1792,
      "suong": 1793,
      "65": 1794,
      "got": 1795,
      "tuu": 1796,
      "ghep": 1797,
      "48": 1798,
      "fal": 1799,
      "py": 1800,
      "ois": 1801,
      "32": 1802,
      "cnn": 1803,
      "boiler": 1804,
      "tina": 1805,
      "fy": 1806,
      "nhon": 1807,
      "hawai": 1808,
      "pit": 1809,
      "tly": 1810,
      "iran": 1811,
      "nop": 1812,
      "dic": 1813,
      "bul": 1814,
      "rome": 1815,
      "ato": 1816,
      "vern": 1817,
      "bet": 1818,
      "anne": 1819,
      "chiet": 1820,
      "khop": 1821,
      "37": 1822,
      "sđt": 1823,
      "nhot": 1824,
      "bility": 1825,
      "600": 1826,
      "khinh": 1827,
      "quin": 1828,
      "cios": 1829,
      "jordan": 1830,
      "jan": 1831,
      "lus": 1832,
      "hers": 1833,
      "bas": 1834,
      "kansas": 1835,
      "attes": 1836,
      "tors": 1837,
      "koso": 1838,
      "green": 1839,
      "pru": 1840,
      "tennis": 1841,
      "fena": 1842,
      "vel": 1843,
      "poli": 1844,
      "gate": 1845,
      "puer": 1846,
      "raj": 1847,
      "sandy": 1848,
      "gates": 1849,
      "cm": 1850,
      "lake": 1851,
      "buchan": 1852,
      "cairo": 1853,
      "phis": 1854,
      "roque": 1855,
      "mir": 1856,
      "zi": 1857,
      "attestation": 1858,
      "bre": 1859,
      "palais": 1860,
      "ibm": 1861,
      "mag": 1862,
      "bou": 1863,
      "monte": 1864,
      "victo": 1865,
      "karf": 1866,
      "99": 1867,
      "simon": 1868,
      "gagas": 1869,
      "indiana": 1870,
      "vit": 1871,
      "stark": 1872,
      "loupe": 1873,
      "hun": 1874,
      "alexander": 1875,
      "cer": 1876,
      "gpra": 1877,
      "pop": 1878,
      "buchanan": 1879,
      "mun": 1880,
      "up": 1881,
      "ving": 1882,
      "edward": 1883,
      "cally": 1884,
      "nos": 1885,
      "deloupe": 1886,
      "baroque": 1887,
      "rico": 1888,
      "zza": 1889,
      "line": 1890,
      "guadeloupe": 1891,
      "plano": 1892,
      "xoi": 1893,
      "box": 1894,
      "beth": 1895,
      "penn": 1896,
      "dorcas": 1897,
      "ders": 1898,
      "----": 1899,
      "gean": 1900,
      "funchal": 1901,
      "tp": 1902,
      "uni": 1903,
      "kentucky": 1904,
      "ned": 1905,
      "rum": 1906,
      "hol": 1907,
      "apo": 1908,
      "kip": 1909,
      "aegean": 1910,
      "hawaii": 1911,
      "cpa": 1912,
      "bow": 1913,
      "sultan": 1914,
      "santo": 1915,
      "jackson": 1916,
      "post": 1917,
      "crose": 1918,
      "ming": 1919,
      "rick": 1920,
      "68": 1921,
      "1950": 1922,
      "ship": 1923,
      "opera": 1924,
      "sp": 1925,
      "zen": 1926,
      "cul": 1927,
      "heimmer": 1928,
      "crete": 1929,
      "run": 1930,
      "mari": 1931,
      "hersheimmer": 1932,
      "cle": 1933,
      "kirby": 1934,
      "ala": 1935,
      "juan": 1936,
      "tel": 1937,
      "llie": 1938,
      "palazzo": 1939,
      "800": 1940,
      "rad": 1941,
      "cut": 1942,
      "ary": 1943,
      "antonio": 1944,
      "dge": 1945,
      "chen": 1946,
      "cheo": 1947,
      "ota": 1948,
      "sip": 1949,
      "fon": 1950,
      "viem": 1951,
      "nhua": 1952,
      "retro": 1953,
      "album": 1954,
      "hous": 1955,
      "cur": 1956,
      "hilla": 1957,
      "hillary": 1958,
      "scap": 1959,
      "ate": 1960,
      "rod": 1961,
      "lanta": 1962,
      "venet": 1963,
      "nato": 1964,
      "tole": 1965,
      "lyn": 1966,
      "roy": 1967,
      "lange": 1968,
      "fully": 1969,
      "caribbe": 1970,
      "gieng": 1971,
      "bit": 1972,
      "steven": 1973,
      "ments": 1974,
      "wow": 1975,
      "eva": 1976,
      "loh": 1977,
      "shannon": 1978,
      "more": 1979,
      "kito": 1980,
      "caribbean": 1981,
      "pun": 1982,
      "dale": 1983,
      "usly": 1984,
      "houston": 1985,
      "steve": 1986,
      "jazz": 1987,
      "shiloh": 1988,
      "bly": 1989,
      "ec": 1990,
      "huc": 1991,
      "ent": 1992,
      "kins": 1993,
      "val": 1994,
      "ceo": 1995,
      "serbia": 1996,
      "osa": 1997,
      "dame": 1998,
      "illin": 1999,
      "clo": 2000,
      "menh": 2001,
      "city": 2002,
      "kosovo": 2003,
      "ey": 2004,
      "kit": 2005,
      "96": 2006,
      "jr": 2007,
      "aux": 2008,
      "thur": 2009,
      "tian": 2010,
      "fcc": 2011,
      "ita": 2012,
      "tua": 2013,
      "giap": 2014,
      "mann": 2015,
      "ist": 2016,
      "pizza": 2017,
      "martinique": 2018,
      "ox": 2019,
      "cale": 2020,
      "cast": 2021,
      "topham": 2022,
      "morris": 2023,
      "az": 2024,
      "pic": 2025,
      "syl": 2026,
      "retrof": 2027,
      "nte": 2028,
      "gin": 2029,
      "jaco": 2030,
      "ped": 2031,
      "khuc": 2032,
      "illinois": 2033,
      "tle": 2034,
      "dow": 2035,
      "liu": 2036,
      "hs": 2037,
      "mere": 2038,
      "thy": 2039,
      "phen": 2040,
      "phar": 2041,
      "hitler": 2042,
      "cli": 2043,
      "dot": 2044,
      "1991": 2045,
      "miche": 2046,
      "mwe": 2047,
      "pier": 2048,
      "ramses": 2049,
      "view": 2050,
      "puerto": 2051,
      "dc": 2052,
      "duoc": 2053,
      "ina": 2054,
      "rock": 2055,
      "....": 2056,
      "bern": 2057,
      "florence": 2058,
      "42": 2059,
      "log": 2060,
      "fic": 2061,
      "vis": 2062,
      "boris": 2063,
      "constan": 2064,
      "robi": 2065,
      "ag": 2066,
      "fed": 2067,
      "zan": 2068,
      "boston": 2069,
      "hel": 2070,
      "llet": 2071,
      "delhi": 2072,
      "venetian": 2073,
      "ig": 2074,
      "vard": 2075,
      "ul": 2076,
      "ngui": 2077,
      "notre": 2078,
      "ration": 2079,
      "conne": 2080,
      "sig": 2081,
      "49": 2082,
      "tus": 2083,
      "rine": 2084,
      "nette": 2085,
      "perth": 2086,
      "cow": 2087,
      "bauerstein": 2088,
      "fis": 2089,
      "glas": 2090,
      "visa": 2091,
      "nema": 2092,
      "88": 2093,
      "dhi": 2094,
      "multi": 2095,
      "langelo": 2096,
      "nhao": 2097,
      "chuoc": 2098,
      "bb": 2099,
      "jes": 2100,
      "khiet": 2101,
      "ona": 2102,
      "mini": 2103,
      "house": 2104,
      "lion": 2105,
      "abc": 2106,
      "chop": 2107,
      "lian": 2108,
      "jeff": 2109,
      "47": 2110,
      "89": 2111,
      "gro": 2112,
      "lun": 2113,
      "cop": 2114,
      "bell": 2115,
      "nito": 2116,
      "cos": 2117,
      "donna": 2118,
      "lea": 2119,
      "genera": 2120,
      "west": 2121,
      "aoh": 2122,
      "gue": 2123,
      "stone": 2124,
      "pharaoh": 2125,
      "sel": 2126,
      "ras": 2127,
      "dos": 2128,
      "187": 2129,
      "atlanta": 2130,
      "conrad": 2131,
      "fas": 2132,
      "tings": 2133,
      "michelangelo": 2134,
      "120": 2135,
      "chanh": 2136,
      "columbus": 2137,
      "phy": 2138,
      "soli": 2139,
      "67": 2140,
      "vre": 2141,
      "wtp": 2142,
      "inch": 2143,
      "ros": 2144,
      "esque": 2145,
      "sala": 2146,
      "spi": 2147,
      "tain": 2148,
      "dim": 2149,
      "cete": 2150,
      "osaka": 2151,
      "plo": 2152,
      "rt": 2153,
      "xiec": 2154,
      "josep": 2155,
      "jesus": 2156,
      "af": 2157,
      "2005": 2158,
      "park": 2159,
      "44": 2160,
      "spe": 2161,
      "latin": 2162,
      "tah": 2163,
      "1989": 2164,
      "sun": 2165,
      "ally": 2166,
      "lack": 2167,
      "ue": 2168,
      "tino": 2169,
      "ohi": 2170,
      "pr": 2171,
      "conser": 2172,
      "argen": 2173,
      "đut": 2174,
      "lux": 2175,
      "xoan": 2176,
      "dioxide": 2177,
      "nhun": 2178,
      "ari": 2179,
      "fede": 2180,
      "porto": 2181,
      "ohio": 2182,
      "kg": 2183,
      "vy": 2184,
      "xach": 2185,
      "rah": 2186,
      "app": 2187,
      "prudie": 2188,
      "vana": 2189,
      "zing": 2190,
      "nghiet": 2191,
      "nghieng": 2192,
      "itz": 2193,
      "shiva": 2194,
      "fore": 2195,
      "fbi": 2196,
      "hus": 2197,
      "mandu": 2198,
      "cd": 2199,
      "seo": 2200,
      "max": 2201,
      "vania": 2202,
      "lor": 2203,
      "poly": 2204,
      "sylvania": 2205,
      "kur": 2206,
      "lation": 2207,
      "field": 2208,
      "bama": 2209,
      "kai": 2210,
      "due": 2211,
      "carbon": 2212,
      "kathmandu": 2213,
      "01": 2214,
      "adam": 2215,
      "ths": 2216,
      "retrofits": 2217,
      "map": 2218,
      "low": 2219,
      "bale": 2220,
      "joe": 2221,
      "ware": 2222,
      "pennsylvania": 2223,
      "blan": 2224,
      "macau": 2225,
      "lewis": 2226,
      "medicai": 2227,
      "46": 2228,
      "br": 2229,
      "chell": 2230,
      "xiv": 2231,
      "ghen": 2232,
      "pring": 2233,
      "92": 2234,
      "get": 2235,
      "jai": 2236,
      "2020": 2237,
      "francisco": 2238,
      "pierre": 2239,
      "medicaid": 2240,
      "place": 2241,
      "sc": 2242,
      "scandal": 2243,
      "see": 2244,
      "ines": 2245,
      "ache": 2246,
      "gold": 2247,
      "diu": 2248,
      "saddam": 2249,
      "istanbul": 2250,
      "iro": 2251,
      "aicpa": 2252,
      "soan": 2253,
      "phila": 2254,
      "nepal": 2255,
      "ques": 2256,
      "nike": 2257,
      "louisi": 2258,
      "700": 2259,
      "edi": 2260,
      "zes": 2261,
      "havana": 2262,
      "geno": 2263,
      "sinai": 2264,
      "bop": 2265,
      "gov": 2266,
      "aerobi": 2267,
      "joseph": 2268,
      "bc": 2269,
      "op": 2270,
      "pac": 2271,
      "ked": 2272,
      "goa": 2273,
      "barnes": 2274,
      "granite": 2275,
      "lles": 2276,
      "zy": 2277,
      "đui": 2278,
      "madonna": 2279,
      "rey": 2280,
      "poste": 2281,
      "stephen": 2282,
      "missou": 2283,
      "hastings": 2284,
      "62": 2285,
      "ol": 2286,
      "wer": 2287,
      "ture": 2288,
      "85": 2289,
      "hc": 2290,
      "cole": 2291,
      "lini": 2292,
      "county": 2293,
      "nova": 2294,
      "aus": 2295,
      "moham": 2296,
      "ardo": 2297,
      "shu": 2298,
      "gsa": 2299,
      "vba": 2300,
      "vision": 2301,
      "dean": 2302,
      "ceter": 2303,
      "cathe": 2304,
      "lag": 2305,
      "bers": 2306,
      "boilermakers": 2307,
      "93": 2308,
      "agen": 2309,
      "hot": 2310,
      "ito": 2311,
      "argentina": 2312,
      "hcfa": 2313,
      "nar": 2314,
      "ats": 2315,
      "milo": 2316,
      "missouri": 2317,
      "uset": 2318,
      "laho": 2319,
      "sachuset": 2320,
      "jersey": 2321,
      "michi": 2322,
      "davis": 2323,
      "massachuset": 2324,
      "fly": 2325,
      "acrose": 2326,
      "respon": 2327,
      "cie": 2328,
      "tas": 2329,
      "leans": 2330,
      "llu": 2331,
      "180": 2332,
      "della": 2333,
      "eliza": 2334,
      "cus": 2335,
      "tered": 2336,
      "mpson": 2337,
      "romanesque": 2338,
      "43": 2339,
      "94": 2340,
      "black": 2341,
      "cara": 2342,
      "arthur": 2343,
      "mid": 2344,
      "haw": 2345,
      "naples": 2346,
      "harvard": 2347,
      "sharing": 2348,
      "series": 2349,
      "athens": 2350,
      "conservati": 2351,
      "luxor": 2352,
      "emi": 2353,
      "riu": 2354,
      "mailer": 2355,
      "picas": 2356,
      "fox": 2357,
      "muss": 2358,
      "picasso": 2359,
      "250": 2360,
      "rous": 2361,
      "mel": 2362,
      "spring": 2363,
      "sein": 2364,
      "dol": 2365,
      "dei": 2366,
      "shire": 2367,
      "massachusetts": 2368,
      "mut": 2369,
      "zed": 2370,
      "philip": 2371,
      "rom": 2372,
      "isa": 2373,
      "ists": 2374,
      "pom": 2375,
      "rocky": 2376,
      "cbo": 2377,
      "dg": 2378,
      "spa": 2379,
      "bos": 2380,
      "tripp": 2381,
      "mohammed": 2382,
      "abra": 2383,
      "mela": 2384,
      "pos": 2385,
      "shin": 2386,
      "ations": 2387,
      "fs": 2388,
      "jen": 2389,
      "wri": 2390,
      "rald": 2391,
      "orleans": 2392,
      "studio": 2393,
      "utah": 2394,
      "casa": 2395,
      "phac": 2396,
      "tou": 2397,
      "dick": 2398,
      "tana": 2399,
      "nuot": 2400,
      "lub": 2401,
      "steward": 2402,
      "stewardship": 2403,
      "bles": 2404,
      "cin": 2405,
      "lta": 2406,
      "pap": 2407,
      "hac": 2408,
      "wy": 2409,
      "ging": 2410,
      "mou": 2411,
      "singap": 2412,
      "piano": 2413,
      "kash": 2414,
      "alabama": 2415,
      "aerobics": 2416,
      "singapore": 2417,
      "glo": 2418,
      "kay": 2419,
      "pher": 2420,
      "dia": 2421,
      "patri": 2422,
      "market": 2423,
      "forbes": 2424,
      "gauve": 2425,
      "eff": 2426,
      "not": 2427,
      "vas": 2428,
      "villa": 2429,
      "boo": 2430,
      "oklaho": 2431,
      "bli": 2432,
      "cies": 2433,
      "solo": 2434,
      "thoc": 2435,
      "linda": 2436,
      "worksharing": 2437,
      "kurd": 2438,
      "responden": 2439,
      "77": 2440,
      "cation": 2441,
      "super": 2442,
      "chatter": 2443,
      "scott": 2444,
      "bourg": 2445,
      "federal": 2446,
      "elizabeth": 2447,
      ".-": 2448,
      "nbc": 2449,
      "caes": 2450,
      "tant": 2451,
      "ruz": 2452,
      "grande": 2453,
      "promul": 2454,
      "syria": 2455,
      "dates": 2456,
      "orish": 2457,
      "hunt": 2458,
      "sevic": 2459,
      "defic": 2460,
      "abraham": 2461,
      "72": 2462,
      "gli": 2463,
      "id": 2464,
      "kheo": 2465,
      "air": 2466,
      "augus": 2467,
      "apache": 2468,
      "rita": 2469,
      "chatterbox": 2470,
      "bron": 2471,
      "zion": 2472,
      "lers": 2473,
      "look": 2474,
      "moorish": 2475,
      "pollu": 2476,
      "oli": 2477,
      "dak": 2478,
      "hamp": 2479,
      "milosevic": 2480,
      "deficits": 2481,
      "nin": 2482,
      "nex": 2483,
      "milan": 2484,
      "barry": 2485,
      "pea": 2486,
      "comp": 2487,
      "ive": 2488,
      "back": 2489,
      "ced": 2490,
      "clas": 2491,
      "dro": 2492,
      "eng": 2493,
      "cono": 2494,
      "vitz": 2495,
      "sant": 2496,
      "und": 2497,
      "christo": 2498,
      "andre": 2499,
      "tori": 2500,
      "sici": 2501,
      "dit": 2502,
      "division": 2503,
      "usps": 2504,
      "fort": 2505,
      "kura": 2506,
      "mum": 2507,
      "pay": 2508,
      "zer": 2509,
      "zil": 2510,
      "thiec": 2511,
      "lem": 2512,
      "phili": 2513,
      "ars": 2514,
      "brill": 2515,
      "deci": 2516,
      "chester": 2517,
      "41": 2518,
      "61": 2519,
      "bieng": 2520,
      "fat": 2521,
      "ranh": 2522,
      "tone": 2523,
      "maine": 2524,
      "ffa": 2525,
      "hue": 2526,
      "dj": 2527,
      "ez": 2528,
      "mallo": 2529,
      "beres": 2530,
      "nett": 2531,
      "louvre": 2532,
      "jacob": 2533,
      "fac": 2534,
      "rho": 2535,
      "ching": 2536,
      "dell": 2537,
      "moder": 2538,
      "sil": 2539,
      "ched": 2540,
      "125": 2541,
      "louisiana": 2542,
      "michigan": 2543,
      "beresford": 2544,
      "yan": 2545,
      "trau": 2546,
      "das": 2547,
      "1920": 2548,
      "gandhi": 2549,
      "gabr": 2550,
      "lisbon": 2551,
      "iowa": 2552,
      "leonardo": 2553,
      "worth": 2554,
      "larry": 2555,
      "khuya": 2556,
      "oklahoma": 2557,
      "gabriel": 2558,
      "buong": 2559,
      "sq": 2560,
      "giot": 2561,
      "vera": 2562,
      "tile": 2563,
      "sim": 2564,
      "bled": 2565,
      "agencie": 2566,
      "57": 2567,
      "cti": 2568,
      "old": 2569,
      "yre": 2570,
      "maha": 2571,
      "rish": 2572,
      "ritz": 2573,
      "mandates": 2574,
      "feli": 2575,
      "balear": 2576,
      "melaka": 2577,
      "osan": 2578,
      "tig": 2579,
      "arch": 2580,
      "mond": 2581,
      "columbia": 2582,
      "ein": 2583,
      "pie": 2584,
      "viking": 2585,
      "bio": 2586,
      "govern": 2587,
      "bara": 2588,
      "under": 2589,
      "xiu": 2590,
      "willey": 2591,
      "outlook": 2592,
      "show": 2593,
      "kle": 2594,
      "mal": 2595,
      "thun": 2596,
      "cano": 2597,
      "mosai": 2598,
      "beau": 2599,
      "wells": 2600,
      "ryan": 2601,
      "gated": 2602,
      "respondents": 2603,
      "valen": 2604,
      "apple": 2605,
      "rates": 2606,
      "proven": 2607,
      "nonfederal": 2608,
      "wak": 2609,
      "1974": 2610,
      "pollutant": 2611,
      "mallor": 2612,
      "osanic": 2613,
      "130": 2614,
      "yel": 2615,
      "colon": 2616,
      "dut": 2617,
      "kefel": 2618,
      "beach": 2619,
      "1988": 2620,
      "rockefel": 2621,
      "59": 2622,
      "aba": 2623,
      "zation": 2624,
      "maker": 2625,
      "rach": 2626,
      "cun": 2627,
      "zare": 2628,
      "feet": 2629,
      "ized": 2630,
      "rockefeller": 2631,
      "fl": 2632,
      "toai": 2633,
      "nara": 2634,
      "schwar": 2635,
      "fre": 2636,
      "nac": 2637,
      "stra": 2638,
      "spo": 2639,
      "wen": 2640,
      "gion": 2641,
      "mara": 2642,
      "lica": 2643,
      "vol": 2644,
      "wick": 2645,
      "hussein": 2646,
      "philadel": 2647,
      "balearic": 2648,
      "mallorca": 2649,
      "loang": 2650,
      "mike": 2651,
      "race": 2652,
      "conservatives": 2653,
      "63": 2654,
      "fos": 2655,
      "annette": 2656,
      "gis": 2657,
      "ated": 2658,
      "dows": 2659,
      "mono": 2660,
      "1930": 2661,
      "bond": 2662,
      "workplace": 2663,
      "world": 2664,
      "pont": 2665,
      "elli": 2666,
      "tinople": 2667,
      "uk": 2668,
      "ates": 2669,
      "arte": 2670,
      "alban": 2671,
      "georgia": 2672,
      "victoria": 2673,
      "of": 2674,
      "sher": 2675,
      "boy": 2676,
      "bah": 2677,
      "ric": 2678,
      "---": 2679,
      "mino": 2680,
      "stewar": 2681,
      "alexand": 2682,
      "scape": 2683,
      "stewart": 2684,
      "lt": 2685,
      "sba": 2686,
      "andrew": 2687,
      "severn": 2688,
      "tura": 2689,
      "ins": 2690,
      "review": 2691,
      "als": 2692,
      "bacca": 2693,
      "main": 2694,
      "chambers": 2695,
      "ghts": 2696,
      "minne": 2697,
      "constantinople": 2698,
      "philadelphia": 2699,
      "bru": 2700,
      "blu": 2701,
      "stal": 2702,
      "iolta": 2703,
      "hampshire": 2704,
      "md": 2705,
      "vot": 2706,
      "sum": 2707,
      "vish": 2708,
      "ors": 2709,
      "peru": 2710,
      "1987": 2711,
      "wide": 2712,
      "novak": 2713,
      "alan": 2714,
      "gy": 2715,
      "mam": 2716,
      "nora": 2717,
      "rit": 2718,
      "christopher": 2719,
      "ik": 2720,
      "schu": 2721,
      "treu": 2722,
      "khua": 2723,
      "chio": 2724,
      "cup": 2725,
      "reed": 2726,
      "liss": 2727,
      "para": 2728,
      "change": 2729,
      "ose": 2730,
      "reu": 2731,
      "arkansas": 2732,
      "bayliss": 2733,
      "grantee": 2734,
      "toledo": 2735,
      "ghan": 2736,
      "lyon": 2737,
      "benjam": 2738,
      "mart": 2739,
      "pointe": 2740,
      "jerry": 2741,
      "vinci": 2742,
      "solici": 2743,
      "benjamin": 2744,
      "ee": 2745,
      "eh": 2746,
      "edo": 2747,
      "hm": 2748,
      "isi": 2749,
      "khe": 2750,
      "loren": 2751,
      "kistan": 2752,
      "170": 2753,
      "try": 2754,
      "kee": 2755,
      "dah": 2756,
      "allen": 2757,
      "sara": 2758,
      "penang": 2759,
      "victor": 2760,
      "bha": 2761,
      "cohen": 2762,
      "attle": 2763,
      "robot": 2764,
      "moore": 2765,
      "beat": 2766,
      "bent": 2767,
      "tennes": 2768,
      "2003": 2769,
      "henri": 2770,
      "1982": 2771,
      "brit": 2772,
      "1000": 2773,
      "900": 2774,
      "yard": 2775,
      "sees": 2776,
      "honda": 2777,
      "contra": 2778,
      "wol": 2779,
      "sort": 2780,
      "kashmir": 2781,
      "sicilia": 2782,
      "alexandria": 2783,
      "86": 2784,
      "ix": 2785,
      "squa": 2786,
      "wp": 2787,
      "zu": 2788,
      "annie": 2789,
      "rate": 2790,
      "titan": 2791,
      "nep": 2792,
      "wallace": 2793,
      "explo": 2794,
      "cta": 2795,
      "nc": 2796,
      "cata": 2797,
      "tive": 2798,
      "nest": 2799,
      "mic": 2800,
      "aswan": 2801,
      "rubin": 2802,
      "bup": 2803,
      "master": 2804,
      "84": 2805,
      "osi": 2806,
      "scho": 2807,
      "callie": 2808,
      "lated": 2809,
      "phuoc": 2810,
      "tuscan": 2811,
      "lech": 2812,
      "roe": 2813,
      "ariz": 2814,
      "mil": 2815,
      "reno": 2816,
      "1986": 2817,
      "lism": 2818,
      "tennessee": 2819,
      "ct": 2820,
      "lom": 2821,
      "teen": 2822,
      "vut": 2823,
      "hed": 2824,
      "himalay": 2825,
      "đun": 2826,
      "202": 2827,
      "nheo": 2828,
      "brazil": 2829,
      "eilat": 2830,
      "ave": 2831,
      "oxide": 2832,
      "tony": 2833,
      "gali": 2834,
      "java": 2835,
      "fema": 2836,
      "kitchell": 2837,
      "87": 2838,
      "kua": 2839,
      "nhoi": 2840,
      "nell": 2841,
      "high": 2842,
      "pakistan": 2843,
      "popu": 2844,
      "ruben": 2845,
      "netscape": 2846,
      "fax": 2847,
      "arizona": 2848,
      "kru": 2849,
      "uel": 2850,
      "lym": 2851,
      "recon": 2852,
      "goya": 2853,
      "chui": 2854,
      "miller": 2855,
      "mcdonald": 2856,
      "provence": 2857,
      "square": 2858,
      "fman": 2859,
      "thodo": 2860,
      "nico": 2861,
      "cois": 2862,
      "burger": 2863,
      "jaffa": 2864,
      "gordon": 2865,
      "ping": 2866,
      "ure": 2867,
      "costa": 2868,
      "tech": 2869,
      "liza": 2870,
      "kis": 2871,
      "paula": 2872,
      "gram": 2873,
      "kau": 2874,
      "thom": 2875,
      "thou": 2876,
      "good": 2877,
      "rial": 2878,
      "trans": 2879,
      "rent": 2880,
      "gers": 2881,
      "keu": 2882,
      "timore": 2883,
      "rober": 2884,
      "sab": 2885,
      "gawa": 2886,
      "victorian": 2887,
      "69": 2888,
      "ade": 2889,
      "mt": 2890,
      "ries": 2891,
      "zon": 2892,
      "lana": 2893,
      "pou": 2894,
      "rene": 2895,
      "francois": 2896,
      "missis": 2897,
      "williams": 2898,
      "farm": 2899,
      "vatican": 2900,
      "sippi": 2901,
      "salad": 2902,
      "mosaics": 2903,
      "mississippi": 2904,
      "nich": 2905,
      "opm": 2906,
      "prot": 2907,
      "xao": 2908,
      "nhai": 2909,
      "calle": 2910,
      "nghenh": 2911,
      "passai": 2912,
      "kieng": 2913,
      "sto": 2914,
      "ska": 2915,
      "uomo": 2916,
      "aids": 2917,
      "theu": 2918,
      "maria": 2919,
      "sol": 2920,
      "dom": 2921,
      "bennett": 2922,
      "ast": 2923,
      "ffi": 2924,
      "stephan": 2925,
      "160": 2926,
      "bull": 2927,
      "wilson": 2928,
      "greco": 2929,
      "fied": 2930,
      "jf": 2931,
      "kam": 2932,
      "pper": 2933,
      "titian": 2934,
      "bec": 2935,
      "camp": 2936,
      "1900": 2937,
      "colt": 2938,
      "greens": 2939,
      "baltimore": 2940,
      "evalua": 2941,
      "frie": 2942,
      "ile": 2943,
      "lc": 2944,
      "obe": 2945,
      "pes": 2946,
      "ann": 2947,
      "ets": 2948,
      "euro": 2949,
      "dur": 2950,
      "kep": 2951,
      "xes": 2952,
      "dere": 2953,
      "rep": 2954,
      "kil": 2955,
      "kian": 2956,
      "amiga": 2957,
      "jesse": 2958,
      "passaic": 2959,
      "nhuong": 2960,
      "hoy": 2961,
      "sand": 2962,
      "kios": 2963,
      "workers": 2964,
      "ruce": 2965,
      "glass": 2966,
      "khuay": 2967,
      "56": 2968,
      "aimd": 2969,
      "dea": 2970,
      "mers": 2971,
      "bed": 2972,
      "dian": 2973,
      "alps": 2974,
      "margar": 2975,
      "lings": 2976,
      "quirer": 2977,
      "diesel": 2978,
      "itali": 2979,
      "genova": 2980,
      "gruz": 2981,
      "tie": 2982,
      "ud": 2983,
      "vap": 2984,
      "chip": 2985,
      "domin": 2986,
      "walter": 2987,
      "caesar": 2988,
      "gruzia": 2989,
      "52": 2990,
      "nonex": 2991,
      "inc": 2992,
      "rapha": 2993,
      "lists": 2994,
      "tany": 2995,
      "martha": 2996,
      "cef": 2997,
      "peel": 2998,
      "pia": 2999,
      "ardin": 3000,
      "afghan": 3001,
      "jac": 3002,
      "holy": 3003,
      "ace": 3004,
      "tubacca": 3005,
      "toku": 3006,
      "tele": 3007,
      "rison": 3008,
      "vou": 3009,
      "orca": 3010,
      "ads": 3011,
      "78": 3012,
      "play": 3013,
      "vada": 3014,
      "phoen": 3015,
      "nelson": 3016,
      "wei": 3017,
      "island": 3018,
      "gara": 3019,
      "barto": 3020,
      "done": 3021,
      "prose": 3022,
      "fia": 3023,
      "brook": 3024,
      "fish": 3025,
      "53": 3026,
      "erson": 3027,
      "springs": 3028,
      "kaufman": 3029,
      "evaluators": 3030,
      "enquirer": 3031,
      "soda": 3032,
      "dul": 3033,
      "albri": 3034,
      "nic": 3035,
      "128": 3036,
      "hugo": 3037,
      "minis": 3038,
      "windows": 3039,
      "castle": 3040,
      "aga": 3041,
      "oro": 3042,
      "ody": 3043,
      "yu": 3044,
      "bock": 3045,
      "hei": 3046,
      "leiman": 3047,
      "vsl": 3048,
      "government": 3049,
      "glen": 3050,
      "kl": 3051,
      "trus": 3052,
      "dudo": 3053,
      "berman": 3054,
      "porte": 3055,
      "csr": 3056,
      "oney": 3057,
      "trump": 3058,
      "janet": 3059,
      "catherine": 3060,
      "england": 3061,
      "dt": 3062,
      "coca": 3063,
      "sive": 3064,
      "state": 3065,
      "jalan": 3066,
      "ramen": 3067,
      "woodward": 3068,
      "boilermaker": 3069,
      "policy": 3070,
      "mumbai": 3071,
      "zarek": 3072,
      "dudovitz": 3073,
      "54": 3074,
      "duomo": 3075,
      "khay": 3076,
      "aol": 3077,
      "vey": 3078,
      "cante": 3079,
      "ball": 3080,
      "wed": 3081,
      "nick": 3082,
      "sota": 3083,
      "richardson": 3084,
      "aviv": 3085,
      "comptro": 3086,
      "minnesota": 3087,
      "nonexchange": 3088,
      "dd": 3089,
      "fla": 3090,
      "jus": 3091,
      "gins": 3092,
      "insu": 3093,
      "sos": 3094,
      "quanti": 3095,
      "tis": 3096,
      "time": 3097,
      "menorca": 3098,
      "1983": 3099,
      "memphis": 3100,
      "zelon": 3101,
      "mission": 3102,
      "prado": 3103,
      "greenspan": 3104,
      "obelis": 3105,
      "albright": 3106,
      "aki": 3107,
      "aphis": 3108,
      "bruce": 3109,
      "gel": 3110,
      "ou": 3111,
      "ole": 3112,
      "cade": 3113,
      "nhut": 3114,
      "hills": 3115,
      "cep": 3116,
      "mugh": 3117,
      "shah": 3118,
      "nist": 3119,
      "promulgated": 3120,
      "explorer": 3121,
      "raphael": 3122,
      "bla": 3123,
      "cou": 3124,
      "kelly": 3125,
      "thompson": 3126,
      "1500": 3127,
      "oscar": 3128,
      "lubbock": 3129,
      "gman": 3130,
      "yce": 3131,
      "attan": 3132,
      "indone": 3133,
      "mahal": 3134,
      "hecta": 3135,
      "metro": 3136,
      "sian": 3137,
      "manhattan": 3138,
      "fication": 3139,
      "603": 3140,
      "fuji": 3141,
      "worksha": 3142,
      "leigh": 3143,
      "court": 3144,
      "schwartz": 3145,
      "64": 3146,
      "czarek": 3147,
      "fri": 3148,
      "ais": 3149,
      "hey": 3150,
      "1940": 3151,
      "bene": 3152,
      "mills": 3153,
      "terre": 3154,
      "casti": 3155,
      "medici": 3156,
      "cord": 3157,
      "anderson": 3158,
      "lush": 3159,
      "emily": 3160,
      "74": 3161,
      "olym": 3162,
      "thal": 3163,
      "coco": 3164,
      "mala": 3165,
      "rest": 3166,
      "relie": 3167,
      "hea": 3168,
      "baby": 3169,
      "mona": 3170,
      "quer": 3171,
      "1984": 3172,
      "charlot": 3173,
      "word": 3174,
      "turner": 3175,
      "lorenzo": 3176,
      "brittany": 3177,
      "tokugawa": 3178,
      "charlotte": 3179,
      "kor": 3180,
      "lton": 3181,
      "ola": 3182,
      "cover": 3183,
      "dun": 3184,
      "hip": 3185,
      "cir": 3186,
      "landscap": 3187,
      "buff": 3188,
      "kuala": 3189,
      "gun": 3190,
      "jun": 3191,
      "xv": 3192,
      "nhet": 3193,
      "cock": 3194,
      "gil": 3195,
      "ross": 3196,
      "dermere": 3197,
      "windermere": 3198,
      "thony": 3199,
      "outlay": 3200,
      "generaliza": 3201,
      "alo": 3202,
      "able": 3203,
      "kama": 3204,
      "anthony": 3205,
      "tour": 3206,
      "lone": 3207,
      "reim": 3208,
      "beng": 3209,
      "his": 3210,
      "rys": 3211,
      "ronald": 3212,
      "lization": 3213,
      "--------": 3214,
      "ceteau": 3215,
      "austin": 3216,
      "ely": 3217,
      "gne": 3218,
      "hhs": 3219,
      "jay": 3220,
      "shop": 3221,
      "tret": 3222,
      "cafe": 3223,
      "ating": 3224,
      "vos": 3225,
      "mons": 3226,
      "edger": 3227,
      "pol": 3228,
      "cing": 3229,
      "denver": 3230,
      "panama": 3231,
      "73": 3232,
      "bl": 3233,
      "ear": 3234,
      "epi": 3235,
      "var": 3236,
      "iencies": 3237,
      "amon": 3238,
      "canal": 3239,
      "randy": 3240,
      "elle": 3241,
      "1800": 3242,
      "nyt": 3243,
      "charlie": 3244,
      "shakes": 3245,
      "burgun": 3246,
      "patrick": 3247,
      "dakota": 3248,
      "smo": 3249,
      "robin": 3250,
      "moses": 3251,
      "marco": 3252,
      "warner": 3253,
      "jimmy": 3254,
      "comptroller": 3255,
      "ev": 3256,
      "guom": 3257,
      "prin": 3258,
      "rf": 3259,
      "yad": 3260,
      "trini": 3261,
      "tere": 3262,
      "roose": 3263,
      "methodo": 3264,
      "rist": 3265,
      "hand": 3266,
      "ernest": 3267,
      "2015": 3268,
      "koff": 3269,
      "fir": 3270,
      "fei": 3271,
      "cycla": 3272,
      "port": 3273,
      "1967": 3274,
      "ghtfully": 3275,
      "peare": 3276,
      "felipe": 3277,
      "albania": 3278,
      "indonesia": 3279,
      "shakespeare": 3280,
      "cry": 3281,
      "huyet": 3282,
      "japp": 3283,
      "oak": 3284,
      "put": 3285,
      "eno": 3286,
      "ents": 3287,
      "bir": 3288,
      "list": 3289,
      "ribe": 3290,
      "org": 3291,
      "emin": 3292,
      "sale": 3293,
      "pooh": 3294,
      "tsin": 3295,
      "gent": 3296,
      "moscow": 3297,
      "velt": 3298,
      "liani": 3299,
      "wright": 3300,
      "yeltsin": 3301,
      "margaret": 3302,
      "roosevelt": 3303,
      "81": 3304,
      "82": 3305,
      "asi": 3306,
      "fitz": 3307,
      "nfl": 3308,
      "pbs": 3309,
      "trot": 3310,
      "raleigh": 3311,
      "rood": 3312,
      "herod": 3313,
      "dad": 3314,
      "ities": 3315,
      "barik": 3316,
      "ffel": 3317,
      "kos": 3318,
      "gary": 3319,
      "iciencies": 3320,
      "rosen": 3321,
      "ful": 3322,
      "fernan": 3323,
      "flea": 3324,
      "pompe": 3325,
      "rhode": 3326,
      "holyrood": 3327,
      "grin": 3328,
      "irish": 3329,
      "amato": 3330,
      "lington": 3331,
      "uman": 3332,
      "buck": 3333,
      "tsburgh": 3334,
      "kingston": 3335,
      "castro": 3336,
      "eiffel": 3337,
      "celtic": 3338,
      "vishnu": 3339,
      "reliefs": 3340,
      "methodologi": 3341,
      "mr": 3342,
      "nhen": 3343,
      "lal": 3344,
      "vac": 3345,
      "sili": 3346,
      "mani": 3347,
      "monet": 3348,
      "51": 3349,
      "eve": 3350,
      "ggio": 3351,
      "hh": 3352,
      "kie": 3353,
      "mck": 3354,
      "sli": 3355,
      "sche": 3356,
      "chot": 3357,
      "trap": 3358,
      "đom": 3359,
      "lome": 3360,
      "degas": 3361,
      "voy": 3362,
      "kid": 3363,
      "ash": 3364,
      "salon": 3365,
      "marsh": 3366,
      "marcus": 3367,
      "shima": 3368,
      "oregon": 3369,
      "farra": 3370,
      "krugman": 3371,
      "91": 3372,
      "evan": 3373,
      "kat": 3374,
      "num": 3375,
      "pk": 3376,
      "sbourg": 3377,
      "wich": 3378,
      "wing": 3379,
      "seu": 3380,
      "cook": 3381,
      "vec": 3382,
      "bis": 3383,
      "tio": 3384,
      "road": 3385,
      "lane": 3386,
      "theodo": 3387,
      "wolf": 3388,
      "joyce": 3389,
      "bridge": 3390,
      "1975": 3391,
      "thoughtfully": 3392,
      "ese": 3393,
      "own": 3394,
      "any": 3395,
      "reo": 3396,
      "ganga": 3397,
      "cial": 3398,
      "carlos": 3399,
      "pul": 3400,
      "prises": 3401,
      "craw": 3402,
      "rubens": 3403,
      "roberts": 3404,
      "blum": 3405,
      "liem": 3406,
      "plot": 3407,
      "nhuom": 3408,
      "sui": 3409,
      "etta": 3410,
      "lex": 3411,
      "troy": 3412,
      "memo": 3413,
      "diana": 3414,
      "sainte": 3415,
      "samur": 3416,
      "hughe": 3417,
      "nasa": 3418,
      "foster": 3419,
      "edgerton": 3420,
      "plotz": 3421,
      "fil": 3422,
      "fair": 3423,
      "yor": 3424,
      "iers": 3425,
      "hoo": 3426,
      "rated": 3427,
      "capito": 3428,
      "rooney": 3429,
      "cent": 3430,
      "normandy": 3431,
      "connell": 3432,
      "stephano": 3433,
      "clar": 3434,
      "ech": 3435,
      "gur": 3436,
      "amp": 3437,
      "now": 3438,
      "ette": 3439,
      "appro": 3440,
      "reb": 3441,
      "moun": 3442,
      "meh": 3443,
      "comprises": 3444,
      "llock": 3445,
      "akbar": 3446,
      "1948": 3447,
      "watergate": 3448,
      "solomon": 3449,
      "obelisk": 3450,
      "eth": 3451,
      "tet": 3452,
      "came": 3453,
      "semi": 3454,
      "end": 3455,
      "phanh": 3456,
      "nobel": 3457,
      "lins": 3458,
      "140": 3459,
      "mccar": 3460,
      "harris": 3461,
      "ways": 3462,
      "alicante": 3463,
      "ginsburg": 3464,
      "generalizability": 3465,
      "fernando": 3466,
      "bson": 3467,
      "gard": 3468,
      "iac": 3469,
      "ively": 3470,
      "pai": 3471,
      "scri": 3472,
      "table": 3473,
      "veland": 3474,
      "tea": 3475,
      "kells": 3476,
      "loire": 3477,
      "bella": 3478,
      "nebra": 3479,
      "esp": 3480,
      "ason": 3481,
      "wind": 3482,
      "linger": 3483,
      "mort": 3484,
      "bowling": 3485,
      "strasbourg": 3486,
      "kamakura": 3487,
      "samurai": 3488,
      "sie": 3489,
      "vii": 3490,
      "leine": 3491,
      "litz": 3492,
      "alsac": 3493,
      "mish": 3494,
      "marie": 3495,
      "nagas": 3496,
      "madeleine": 3497,
      "franciscan": 3498,
      "bowl": 3499,
      "bbq": 3500,
      "philipp": 3501,
      "bengal": 3502,
      "350": 3503,
      "kris": 3504,
      "kramen": 3505,
      "pam": 3506,
      "uso": 3507,
      "vanh": 3508,
      "banes": 3509,
      "bois": 3510,
      "lair": 3511,
      "ello": 3512,
      "gala": 3513,
      "2004": 3514,
      "steele": 3515,
      "nash": 3516,
      "klein": 3517,
      "beatty": 3518,
      "olympic": 3519,
      "rfp": 3520,
      "stephanopou": 3521,
      "kramenin": 3522,
      "gha": 3523,
      "tari": 3524,
      "auto": 3525,
      "caps": 3526,
      "mei": 3527,
      "lena": 3528,
      "terrac": 3529,
      "una": 3530,
      "powell": 3531,
      "judi": 3532,
      "1981": 3533,
      "dsworth": 3534,
      "prime": 3535,
      "wordsworth": 3536,
      "sorbent": 3537,
      "galle": 3538,
      "grinned": 3539,
      "brin": 3540,
      "fra": 3541,
      "nger": 3542,
      "anna": 3543,
      "seattle": 3544,
      "amo": 3545,
      "subia": 3546,
      "nghich": 3547,
      "tyle": 3548,
      "wel": 3549,
      "hamil": 3550,
      "lized": 3551,
      "potter": 3552,
      "scru": 3553,
      "yorker": 3554,
      "crui": 3555,
      "ela": 3556,
      "pt": 3557,
      "zuc": 3558,
      "tun": 3559,
      "tudj": 3560,
      "mafia": 3561,
      "ngoat": 3562,
      "daw": 3563,
      "hydro": 3564,
      "figu": 3565,
      "gentile": 3566,
      "foun": 3567,
      "1944": 3568,
      "palma": 3569,
      "reese": 3570,
      "jefferson": 3571,
      "wolfe": 3572,
      "tuscany": 3573,
      "tudjman": 3574,
      "tut": 3575,
      "sophia": 3576,
      "tically": 3577,
      "rers": 3578,
      "sit": 3579,
      "foot": 3580,
      "ports": 3581,
      "morgan": 3582,
      "ization": 3583,
      "singer": 3584,
      "leith": 3585,
      "colonna": 3586,
      "niche": 3587,
      "campbell": 3588,
      "burgundy": 3589,
      "nebraska": 3590,
      "alsace": 3591,
      "aland": 3592,
      "crai": 3593,
      "gn": 3594,
      "hk": 3595,
      "pel": 3596,
      "pine": 3597,
      "ux": 3598,
      "solini": 3599,
      "arno": 3600,
      "nevada": 3601,
      "hamburger": 3602,
      "ffer": 3603,
      "nation": 3604,
      "zealand": 3605,
      "dence": 3606,
      "walker": 3607,
      "mussolini": 3608,
      "temple": 3609,
      "cleveland": 3610,
      "landscaped": 3611,
      "pompeii": 3612,
      "wit": 3613,
      "yd": 3614,
      "phot": 3615,
      "tol": 3616,
      "giovan": 3617,
      "rol": 3618,
      "baker": 3619,
      "river": 3620,
      "nei": 3621,
      "ory": 3622,
      "hale": 3623,
      "poke": 3624,
      "gerald": 3625,
      "101": 3626,
      "pico": 3627,
      "disco": 3628,
      "feren": 3629,
      "stream": 3630,
      "finan": 3631,
      "fenner": 3632,
      "funded": 3633,
      "lities": 3634,
      "italiane": 3635,
      "gentilello": 3636,
      "fwi": 3637,
      "hur": 3638,
      "hard": 3639,
      "iso": 3640,
      "ipm": 3641,
      "mm": 3642,
      "tsa": 3643,
      "vara": 3644,
      "tagon": 3645,
      "lock": 3646,
      "dus": 3647,
      "room": 3648,
      "deli": 3649,
      "meta": 3650,
      "1929": 3651,
      "pollock": 3652,
      "ghim": 3653,
      "ventura": 3654,
      "franco": 3655,
      "georget": 3656,
      "willie": 3657,
      "psy": 3658,
      "gaulle": 3659,
      "ically": 3660,
      "diego": 3661,
      "rajas": 3662,
      "farrakhan": 3663,
      "nagasaki": 3664,
      "pokemon": 3665,
      "georgetown": 3666,
      "76": 3667,
      "clos": 3668,
      "ant": 3669,
      "phiem": 3670,
      "ohama": 3671,
      "stua": 3672,
      "ille": 3673,
      "produc": 3674,
      "okohama": 3675,
      "brow": 3676,
      "kuji": 3677,
      "virus": 3678,
      "disneyland": 3679,
      "remsad": 3680,
      "pittsburgh": 3681,
      "connecti": 3682,
      "farmworkers": 3683,
      "79": 3684,
      "ida": 3685,
      "ob": 3686,
      "scul": 3687,
      "wto": 3688,
      "lois": 3689,
      "moy": 3690,
      "bea": 3691,
      "lisa": 3692,
      "taylor": 3693,
      "savoy": 3694,
      "nheim": 3695,
      "lds": 3696,
      "garland": 3697,
      "expres": 3698,
      "salt": 3699,
      "governmentwide": 3700,
      "yadda": 3701,
      "fau": 3702,
      "hmos": 3703,
      "ise": 3704,
      "nhtsa": 3705,
      "hoff": 3706,
      "tad": 3707,
      "leh": 3708,
      "head": 3709,
      "ballet": 3710,
      "lene": 3711,
      "milli": 3712,
      "montana": 3713,
      "saw": 3714,
      "nancy": 3715,
      "bard": 3716,
      "barbara": 3717,
      "1985": 3718,
      "merri": 3719,
      "wayne": 3720,
      "oxy": 3721,
      "schumer": 3722,
      "bbi": 3723,
      "bria": 3724,
      "kah": 3725,
      "kley": 3726,
      "yokohama": 3727,
      "taj": 3728,
      "vilion": 3729,
      "cons": 3730,
      "ngop": 3731,
      "bagh": 3732,
      "site": 3733,
      "dion": 3734,
      "algar": 3735,
      "usa": 3736,
      "chem": 3737,
      "lind": 3738,
      "pavilion": 3739,
      "barr": 3740,
      "barce": 3741,
      "bury": 3742,
      "brah": 3743,
      "llard": 3744,
      "norm": 3745,
      "petit": 3746,
      "1964": 3747,
      "arafat": 3748,
      "douglas": 3749,
      "oxley": 3750,
      "constantine": 3751,
      "craig": 3752,
      "330": 3753,
      "ction": 3754,
      "gle": 3755,
      "ptole": 3756,
      "amar": 3757,
      "arc": 3758,
      "transep": 3759,
      "commemo": 3760,
      "crom": 3761,
      "jee": 3762,
      "broo": 3763,
      "zero": 3764,
      "byzan": 3765,
      "brian": 3766,
      "warren": 3767,
      "gras": 3768,
      "1945": 3769,
      "nings": 3770,
      "pundit": 3771,
      "afghanistan": 3772,
      "stuart": 3773,
      "byzantine": 3774,
      "sses": 3775,
      "khanh": 3776,
      "town": 3777,
      "consin": 3778,
      "kees": 3779,
      "mep": 3780,
      "trek": 3781,
      "ruot": 3782,
      "burn": 3783,
      "minar": 3784,
      "zzi": 3785,
      "floren": 3786,
      "graph": 3787,
      "1972": 3788,
      "kenneth": 3789,
      "murphy": 3790,
      "wisconsin": 3791,
      "khuynh": 3792,
      "montego": 3793,
      "caleor": 3794,
      "yankees": 3795,
      "reims": 3796,
      "zucker": 3797,
      "giovanni": 3798,
      "71": 3799,
      "gwe": 3800,
      "yas": 3801,
      "ena": 3802,
      "delos": 3803,
      "lico": 3804,
      "rivie": 3805,
      "linux": 3806,
      "paro": 3807,
      "lucas": 3808,
      "morrow": 3809,
      "keswick": 3810,
      "lumpur": 3811,
      "avenger": 3812,
      "cocaine": 3813,
      "riviera": 3814,
      "alas": 3815,
      "dru": 3816,
      "sca": 3817,
      "cad": 3818,
      "billy": 3819,
      "tail": 3820,
      "kel": 3821,
      "down": 3822,
      "sano": 3823,
      "thos": 3824,
      "deau": 3825,
      "tric": 3826,
      "maison": 3827,
      "veness": 3828,
      "604": 3829,
      "dent": 3830,
      "grey": 3831,
      "panthe": 3832,
      "hercu": 3833,
      "1968": 3834,
      "shogun": 3835,
      "horus": 3836,
      "murdo": 3837,
      "isikoff": 3838,
      "trinity": 3839,
      "vecchio": 3840,
      "stephanopoulos": 3841,
      "figuration": 3842,
      "sculp": 3843,
      "algarve": 3844,
      "cket": 3845,
      "eme": 3846,
      "evely": 3847,
      "fts": 3848,
      "stac": 3849,
      "sier": 3850,
      "laser": 3851,
      "amy": 3852,
      "soho": 3853,
      "eur": 3854,
      "camii": 3855,
      "hing": 3856,
      "all": 3857,
      "hamlet": 3858,
      "nathan": 3859,
      "poin": 3860,
      "401": 3861,
      "four": 3862,
      "eping": 3863,
      "will": 3864,
      "kirk": 3865,
      "bachev": 3866,
      "kentuckian": 3867,
      "gorbachev": 3868,
      "voucher": 3869,
      "brooklyn": 3870,
      "caleornia": 3871,
      "evelyn": 3872,
      "aff": 3873,
      "ico": 3874,
      "jardin": 3875,
      "tm": 3876,
      "wers": 3877,
      "zai": 3878,
      "enter": 3879,
      "gigot": 3880,
      "kevin": 3881,
      "derick": 3882,
      "repu": 3883,
      "bass": 3884,
      "nicho": 3885,
      "polo": 3886,
      "nak": 3887,
      "kabu": 3888,
      "borneo": 3889,
      "torrent": 3890,
      "graphi": 3891,
      "waite": 3892,
      "gged": 3893,
      "christian": 3894,
      "dowd": 3895,
      "llette": 3896,
      "mughal": 3897,
      "blm": 3898,
      "mehmet": 3899,
      "kabuki": 3900,
      "450": 3901,
      "58": 3902,
      "hou": 3903,
      "inte": 3904,
      "matis": 3905,
      "detroi": 3906,
      "art": 3907,
      "hatch": 3908,
      "jona": 3909,
      "vermont": 3910,
      "fico": 3911,
      "wara": 3912,
      "wilde": 3913,
      "falls": 3914,
      "sign": 3915,
      "flytrap": 3916,
      "minoan": 3917,
      "solicited": 3918,
      "philippines": 3919,
      "matisse": 3920,
      "detroit": 3921,
      "etrus": 3922,
      "sk": 3923,
      "taine": 3924,
      "ente": 3925,
      "đoat": 3926,
      "thebes": 3927,
      "tures": 3928,
      "ved": 3929,
      "mae": 3930,
      "toy": 3931,
      "lehem": 3932,
      "keeping": 3933,
      "chur": 3934,
      "simo": 3935,
      "ement": 3936,
      "bonap": 3937,
      "sabah": 3938,
      "rano": 3939,
      "cise": 3940,
      "xiii": 3941,
      "fol": 3942,
      "bombay": 3943,
      "ggy": 3944,
      "bloom": 3945,
      "eric": 3946,
      "apollo": 3947,
      "multipollutant": 3948,
      "clark": 3949,
      "ethno": 3950,
      "mortga": 3951,
      "connecticut": 3952,
      "cris": 3953,
      "oper": 3954,
      "stro": 3955,
      "hoka": 3956,
      "machi": 3957,
      "teo": 3958,
      "duke": 3959,
      "beria": 3960,
      "campu": 3961,
      "licen": 3962,
      "sica": 3963,
      "1934": 3964,
      "miles": 3965,
      "rant": 3966,
      "terman": 3967,
      "ella": 3968,
      "nik": 3969,
      "poker": 3970,
      "newt": 3971,
      "pitre": 3972,
      "rain": 3973,
      "fow": 3974,
      "harry": 3975,
      "warsaw": 3976,
      "morrison": 3977,
      "abdul": 3978,
      "muller": 3979,
      "flemish": 3980,
      "ninja": 3981,
      "murdoch": 3982,
      "abu": 3983,
      "fur": 3984,
      "mls": 3985,
      "sburg": 3986,
      "sex": 3987,
      "ons": 3988,
      "tutan": 3989,
      "chios": 3990,
      "leen": 3991,
      "cana": 3992,
      "matthe": 3993,
      "neh": 3994,
      "layman": 3995,
      "guitar": 3996,
      "cite": 3997,
      "burton": 3998,
      "byz": 3999,
      "octagon": 4000,
      "sarbanes": 4001,
      "fying": 4002,
      "loggia": 4003,
      "adams": 4004,
      "cruise": 4005,
      "pantheon": 4006,
      "campuchia": 4007,
      "kiep": 4008,
      "rh": 4009,
      "sien": 4010,
      "lach": 4011,
      "vau": 4012,
      "theri": 4013,
      "banon": 4014,
      "vista": 4015,
      "lebanon": 4016,
      "phil": 4017,
      "rold": 4018,
      "mation": 4019,
      "siden": 4020,
      "ushu": 4021,
      "mili": 4022,
      "mics": 4023,
      "istic": 4024,
      "cartha": 4025,
      "leries": 4026,
      "1976": 4027,
      "yasu": 4028,
      "sina": 4029,
      "pm2": 4030,
      "khuyu": 4031,
      "bethlehem": 4032,
      "bernini": 4033,
      "phoenix": 4034,
      "bartolome": 4035,
      "rajasthan": 4036,
      "dhs": 4037,
      "fh": 4038,
      "gnon": 4039,
      "nba": 4040,
      "opra": 4041,
      "sm": 4042,
      "seine": 4043,
      "child": 4044,
      "tous": 4045,
      "boong": 4046,
      "boats": 4047,
      "cular": 4048,
      "record": 4049,
      "dana": 4050,
      "goo": 4051,
      "verly": 4052,
      "whip": 4053,
      "ralph": 4054,
      "stitu": 4055,
      "lizing": 4056,
      "courbet": 4057,
      "betty": 4058,
      "apolis": 4059,
      "kiosks": 4060,
      "cyclades": 4061,
      "tutankham": 4062,
      "oprah": 4063,
      "110": 4064,
      "cran": 4065,
      "clip": 4066,
      "dding": 4067,
      "spar": 4068,
      "spen": 4069,
      "christ": 4070,
      "trin": 4071,
      "truu": 4072,
      "tate": 4073,
      "gini": 4074,
      "bod": 4075,
      "tical": 4076,
      "baza": 4077,
      "dijon": 4078,
      "lsny": 4079,
      "ings": 4080,
      "peri": 4081,
      "minster": 4082,
      "wilkins": 4083,
      "centre": 4084,
      "jacks": 4085,
      "craft": 4086,
      "brandt": 4087,
      "rembrandt": 4088,
      "rajput": 4089,
      "mouth": 4090,
      "decision": 4091,
      "moderni": 4092,
      "ehfico": 4093,
      "express": 4094,
      "hoffman": 4095,
      "ptolemy": 4096,
      "ado": 4097,
      "clay": 4098,
      "dri": 4099,
      "jet": 4100,
      "nah": 4101,
      "rinh": 4102,
      "shep": 4103,
      "vier": 4104,
      "yale": 4105,
      "suma": 4106,
      "tory": 4107,
      "kyushu": 4108,
      "tex": 4109,
      "kew": 4110,
      "rees": 4111,
      "rica": 4112,
      "simpson": 4113,
      "bailey": 4114,
      "aldon": 4115,
      "tenberg": 4116,
      "hyper": 4117,
      "cott": 4118,
      "osha": 4119,
      "mercu": 4120,
      "sert": 4121,
      "michel": 4122,
      "dissa": 4123,
      "russert": 4124,
      "sherman": 4125,
      "bonaparte": 4126,
      "aldonka": 4127,
      "ea": 4128,
      "fron": 4129,
      "ip": 4130,
      "klayman": 4131,
      "sla": 4132,
      "ties": 4133,
      "vine": 4134,
      "chlo": 4135,
      "tara": 4136,
      "vienna": 4137,
      "armen": 4138,
      "based": 4139,
      "limo": 4140,
      "tucker": 4141,
      "mauri": 4142,
      "sage": 4143,
      "jose": 4144,
      "brava": 4145,
      "wald": 4146,
      "masters": 4147,
      "germain": 4148,
      "1947": 4149,
      "antium": 4150,
      "fonso": 4151,
      "transept": 4152,
      "teodoro": 4153,
      "byzantium": 4154,
      "fhwa": 4155,
      "grace": 4156,
      "tec": 4157,
      "desi": 4158,
      "archi": 4159,
      "satheri": 4160,
      "unfunded": 4161,
      "1868": 4162,
      "gation": 4163,
      "lled": 4164,
      "montmar": 4165,
      "murray": 4166,
      "1952": 4167,
      "foreclo": 4168,
      "sarawak": 4169,
      "reconfiguration": 4170,
      "sandwich": 4171,
      "glassware": 4172,
      "workshared": 4173,
      "hughes": 4174,
      "dap": 4175,
      "evie": 4176,
      "muh": 4177,
      "chrome": 4178,
      "cama": 4179,
      "cations": 4180,
      "tarian": 4181,
      "ence": 4182,
      "ienne": 4183,
      "sante": 4184,
      "trip": 4185,
      "mega": 4186,
      "link": 4187,
      "colm": 4188,
      "ics": 4189,
      "lotus": 4190,
      "corde": 4191,
      "whis": 4192,
      "palm": 4193,
      "556": 4194,
      "bourbon": 4195,
      "mund": 4196,
      "cowley": 4197,
      "philippe": 4198,
      "balearics": 4199,
      "blues": 4200,
      "policymakers": 4201,
      "tutankhamun": 4202,
      "dson": 4203,
      "fay": 4204,
      "kap": 4205,
      "xot": 4206,
      "andy": 4207,
      "co2": 4208,
      "vali": 4209,
      "phich": 4210,
      "ameri": 4211,
      "mali": 4212,
      "malla": 4213,
      "haifa": 4214,
      "roth": 4215,
      "rein": 4216,
      "danvers": 4217,
      "arlington": 4218,
      "giuliani": 4219,
      "beni": 4220,
      "lsm": 4221,
      "pollard": 4222,
      "rini": 4223,
      "mins": 4224,
      "605": 4225,
      "presort": 4226,
      "wski": 4227,
      "dorm": 4228,
      "culture": 4229,
      "contrasts": 4230,
      "galilee": 4231,
      "galleria": 4232,
      "fowler": 4233,
      "recordkeeping": 4234,
      "02": 4235,
      "83": 4236,
      "brac": 4237,
      "diep": 4238,
      "fus": 4239,
      "huou": 4240,
      "nard": 4241,
      "sco": 4242,
      "cadi": 4243,
      "lari": 4244,
      "homer": 4245,
      "loral": 4246,
      "tibe": 4247,
      "lona": 4248,
      "resort": 4249,
      "life": 4250,
      "dall": 4251,
      "trailer": 4252,
      "weis": 4253,
      "had": 4254,
      "urs": 4255,
      "parnas": 4256,
      "fig": 4257,
      "tuileries": 4258,
      "1978": 4259,
      "1979": 4260,
      "1966": 4261,
      "surf": 4262,
      "antoni": 4263,
      "muttered": 4264,
      "efficiencies": 4265,
      "andrea": 4266,
      "crystal": 4267,
      "mckin": 4268,
      "barcelona": 4269,
      "dissaving": 4270,
      "armenia": 4271,
      "750": 4272,
      "iva": 4273,
      "kra": 4274,
      "slo": 4275,
      "witz": 4276,
      "anato": 4277,
      "ieyasu": 4278,
      "khuan": 4279,
      "sevilla": 4280,
      "sure": 4281,
      "etti": 4282,
      "vil": 4283,
      "rati": 4284,
      "taire": 4285,
      "rochester": 4286,
      "hes": 4287,
      "beck": 4288,
      "beverly": 4289,
      "lic": 4290,
      "cian": 4291,
      "impres": 4292,
      "175": 4293,
      "kuwai": 4294,
      "mormon": 4295,
      "amazon": 4296,
      "rough": 4297,
      "pyrene": 4298,
      "blanca": 4299,
      "himalayas": 4300,
      "deregu": 4301,
      "benedic": 4302,
      "outlays": 4303,
      "jonathan": 4304,
      "kuwait": 4305,
      "pyrenees": 4306,
      "cv": 4307,
      "ephe": 4308,
      "elas": 4309,
      "gray": 4310,
      "nr": 4311,
      "amos": 4312,
      "sut": 4313,
      "saudi": 4314,
      "dec": 4315,
      "arca": 4316,
      "bab": 4317,
      "chevy": 4318,
      "miya": 4319,
      "ashoka": 4320,
      "marx": 4321,
      "sain": 4322,
      "cians": 4323,
      "add": 4324,
      "parti": 4325,
      "dylan": 4326,
      "1965": 4327,
      "guar": 4328,
      "creek": 4329,
      "1871": 4330,
      "goldberg": 4331,
      "einstein": 4332,
      "cromwell": 4333,
      "blair": 4334,
      "cbs": 4335,
      "eing": 4336,
      "gna": 4337,
      "oa": 4338,
      "yue": 4339,
      "oir": 4340,
      "cola": 4341,
      "amble": 4342,
      "vei": 4343,
      "bird": 4344,
      "gior": 4345,
      "mosis": 4346,
      "sid": 4347,
      "sively": 4348,
      "hiv": 4349,
      "myko": 4350,
      "els": 4351,
      "marina": 4352,
      "polis": 4353,
      "leste": 4354,
      "2007": 4355,
      "1600": 4356,
      "irak": 4357,
      "brandon": 4358,
      "helm": 4359,
      "cathedra": 4360,
      "mccarthy": 4361,
      "licensees": 4362,
      "octagonal": 4363,
      "mykonos": 4364,
      "agra": 4365,
      "brea": 4366,
      "bbled": 4367,
      "fton": 4368,
      "jar": 4369,
      "sri": 4370,
      "xuoc": 4371,
      "sonora": 4372,
      "tos": 4373,
      "boro": 4374,
      "concorde": 4375,
      "big": 4376,
      "dera": 4377,
      "1917": 4378,
      "1922": 4379,
      "1936": 4380,
      "ums": 4381,
      "ish": 4382,
      "1890": 4383,
      "venus": 4384,
      "illy": 4385,
      "buzz": 4386,
      "comple": 4387,
      "oshi": 4388,
      "jima": 4389,
      "ielberg": 4390,
      "waters": 4391,
      "carey": 4392,
      "indian": 4393,
      "creole": 4394,
      "spielberg": 4395,
      "punja": 4396,
      "tainer": 4397,
      "bronx": 4398,
      "canopy": 4399,
      "goodman": 4400,
      "lalley": 4401,
      "capitol": 4402,
      "brinkley": 4403,
      "financial": 4404,
      "centrelink": 4405,
      "anatolia": 4406,
      "iraklion": 4407,
      "cathedrale": 4408,
      "118": 4409,
      "ata": 4410,
      "bris": 4411,
      "flu": 4412,
      "gla": 4413,
      "qa": 4414,
      "strat": 4415,
      "cabin": 4416,
      "seil": 4417,
      "noc": 4418,
      "etto": 4419,
      "sop": 4420,
      "too": 4421,
      "loo": 4422,
      "dela": 4423,
      "live": 4424,
      "iston": 4425,
      "dayton": 4426,
      "ghia": 4427,
      "muot": 4428,
      "quez": 4429,
      "rama": 4430,
      "guin": 4431,
      "nism": 4432,
      "291": 4433,
      "horton": 4434,
      "griffi": 4435,
      "quinta": 4436,
      "carava": 4437,
      "ellison": 4438,
      "blue": 4439,
      "himalaya": 4440,
      "silicon": 4441,
      "sierra": 4442,
      "sinatra": 4443,
      "benidorm": 4444,
      "jau": 4445,
      "siet": 4446,
      "went": 4447,
      "xen": 4448,
      "sego": 4449,
      "tably": 4450,
      "suleiman": 4451,
      "sofa": 4452,
      "conten": 4453,
      "bip": 4454,
      "loge": 4455,
      "kef": 4456,
      "troc": 4457,
      "dori": 4458,
      "roger": 4459,
      "dey": 4460,
      "lance": 4461,
      "bee": 4462,
      "belle": 4463,
      "living": 4464,
      "rias": 4465,
      "him": 4466,
      "eds": 4467,
      "posi": 4468,
      "pepper": 4469,
      "sted": 4470,
      "dennis": 4471,
      "massage": 4472,
      "montparnas": 4473,
      "patan": 4474,
      "tiago": 4475,
      "ivy": 4476,
      "hilltop": 4477,
      "bernstein": 4478,
      "ballmer": 4479,
      "evans": 4480,
      "meiji": 4481,
      "toyota": 4482,
      "ambleside": 4483,
      "bie": 4484,
      "from": 4485,
      "grat": 4486,
      "gnan": 4487,
      "piet": 4488,
      "whe": 4489,
      "thwaite": 4490,
      "calo": 4491,
      "sulli": 4492,
      "mah": 4493,
      "radi": 4494,
      "container": 4495,
      "eux": 4496,
      "mora": 4497,
      "arched": 4498,
      "roix": 4499,
      "dification": 4500,
      "nea": 4501,
      "nebbi": 4502,
      "tapur": 4503,
      "chuck": 4504,
      "maced": 4505,
      "macroe": 4506,
      "manson": 4507,
      "est": 4508,
      "edy": 4509,
      "berlin": 4510,
      "part": 4511,
      "hudson": 4512,
      "pers": 4513,
      "rism": 4514,
      "caster": 4515,
      "works": 4516,
      "1977": 4517,
      "stanley": 4518,
      "1969": 4519,
      "rouen": 4520,
      "pitt": 4521,
      "jain": 4522,
      "boomers": 4523,
      "jfk": 4524,
      "missions": 4525,
      "kristol": 4526,
      "judith": 4527,
      "drudge": 4528,
      "sullivan": 4529,
      "macroecono": 4530,
      "aqua": 4531,
      "cru": 4532,
      "eman": 4533,
      "ill": 4534,
      "pton": 4535,
      "wau": 4536,
      "seman": 4537,
      "vale": 4538,
      "chow": 4539,
      "range": 4540,
      "rec": 4541,
      "thio": 4542,
      "beaux": 4543,
      "neil": 4544,
      "voth": 4545,
      "manning": 4546,
      "assi": 4547,
      "pole": 4548,
      "samuel": 4549,
      "faa": 4550,
      "porti": 4551,
      "gaul": 4552,
      "huang": 4553,
      "prise": 4554,
      "setting": 4555,
      "karnak": 4556,
      "alists": 4557,
      "feld": 4558,
      "prudence": 4559,
      "groves": 4560,
      "fasab": 4561,
      "kaido": 4562,
      "malcolm": 4563,
      "cocktail": 4564,
      "muham": 4565,
      "whiskey": 4566,
      "caravaggio": 4567,
      "montparnasse": 4568,
      "115": 4569,
      "1200": 4570,
      "512": 4571,
      "egli": 4572,
      "fc": 4573,
      "jas": 4574,
      "lies": 4575,
      "mg": 4576,
      "pb": 4577,
      "pus": 4578,
      "ski": 4579,
      "uri": 4580,
      "yon": 4581,
      "cated": 4582,
      "oty": 4583,
      "enron": 4584,
      "ieux": 4585,
      "thers": 4586,
      "noel": 4587,
      "dola": 4588,
      "santiago": 4589,
      "dem": 4590,
      "dant": 4591,
      "arie": 4592,
      "basti": 4593,
      "volu": 4594,
      "uts": 4595,
      "nial": 4596,
      "lsfo": 4597,
      "marseil": 4598,
      "hypos": 4599,
      "205": 4600,
      "quayle": 4601,
      "suyt": 4602,
      "pez": 4603,
      "perfe": 4604,
      "collins": 4605,
      "salva": 4606,
      "darjee": 4607,
      "crimin": 4608,
      "isaac": 4609,
      "pied": 4610,
      "hadrian": 4611,
      "eglise": 4612,
      "hypostyle": 4613,
      "darjeeling": 4614,
      "bryan": 4615,
      "econo": 4616,
      "fres": 4617,
      "olo": 4618,
      "quo": 4619,
      "sports": 4620,
      "zel": 4621,
      "cost": 4622,
      "uous": 4623,
      "sulf": 4624,
      "lamar": 4625,
      "toria": 4626,
      "dolly": 4627,
      "roll": 4628,
      "matt": 4629,
      "lio": 4630,
      "erford": 4631,
      "welles": 4632,
      "pad": 4633,
      "baugh": 4634,
      "margu": 4635,
      "llies": 4636,
      "ingly": 4637,
      "1700": 4638,
      "hungerford": 4639,
      "stems": 4640,
      "juni": 4641,
      "johor": 4642,
      "ineff": 4643,
      "preci": 4644,
      "born": 4645,
      "halles": 4646,
      "ferdin": 4647,
      "zarco": 4648,
      "pines": 4649,
      "dina": 4650,
      "bapti": 4651,
      "cosmo": 4652,
      "babylon": 4653,
      "elysees": 4654,
      "scheck": 4655,
      "marshall": 4656,
      "grasmere": 4657,
      "graphic": 4658,
      "nehru": 4659,
      "margueri": 4660,
      "ering": 4661,
      "flam": 4662,
      "jum": 4663,
      "kon": 4664,
      "wu": 4665,
      "sea": 4666,
      "tum": 4667,
      "some": 4668,
      "bol": 4669,
      "bohe": 4670,
      "bols": 4671,
      "tering": 4672,
      "vun": 4673,
      "1919": 4674,
      "berry": 4675,
      "impe": 4676,
      "adminis": 4677,
      "derwent": 4678,
      "crop": 4679,
      "jour": 4680,
      "raine": 4681,
      "nya": 4682,
      "harlem": 4683,
      "andersen": 4684,
      "offsetting": 4685,
      "carol": 4686,
      "nassau": 4687,
      "cricket": 4688,
      "blow": 4689,
      "lakeland": 4690,
      "zip": 4691,
      "picnic": 4692,
      "points": 4693,
      "malibu": 4694,
      "3000": 4695,
      "aveni": 4696,
      "clinger": 4697,
      "jc": 4698,
      "wach": 4699,
      "hok": 4700,
      "ameno": 4701,
      "bing": 4702,
      "tial": 4703,
      "gogh": 4704,
      "arcin": 4705,
      "dios": 4706,
      "1923": 4707,
      "1955": 4708,
      "manchester": 4709,
      "miami": 4710,
      "hara": 4711,
      "luent": 4712,
      "juku": 4713,
      "serra": 4714,
      "pulitz": 4715,
      "presor": 4716,
      "grafton": 4717,
      "zary": 4718,
      "sette": 4719,
      "1941": 4720,
      "butler": 4721,
      "kannon": 4722,
      "apol": 4723,
      "oliver": 4724,
      "avenida": 4725,
      "arcinas": 4726,
      "cloi": 4727,
      "ggd": 4728,
      "ino": 4729,
      "kk": 4730,
      "phon": 4731,
      "antoi": 4732,
      "then": 4733,
      "enthal": 4734,
      "onia": 4735,
      "iness": 4736,
      "toxi": 4737,
      "philli": 4738,
      "bald": 4739,
      "like": 4740,
      "manag": 4741,
      "harold": 4742,
      "paseo": 4743,
      "pear": 4744,
      "judy": 4745,
      "peren": 4746,
      "croat": 4747,
      "gondola": 4748,
      "julia": 4749,
      "cyber": 4750,
      "exxon": 4751,
      "aksa": 4752,
      "avis": 4753,
      "bloo": 4754,
      "signo": 4755,
      "edifi": 4756,
      "blumenthal": 4757,
      "galata": 4758,
      "tutmosis": 4759,
      "tadminster": 4760,
      "alaska": 4761,
      "siena": 4762,
      "montmartre": 4763,
      "mckinney": 4764,
      "cca": 4765,
      "fr": 4766,
      "xy": 4767,
      "zio": 4768,
      "inho": 4769,
      "contin": 4770,
      "eus": 4771,
      "temp": 4772,
      "rogers": 4773,
      "goshima": 4774,
      "bello": 4775,
      "orien": 4776,
      "hilly": 4777,
      "kiki": 4778,
      "mites": 4779,
      "elche": 4780,
      "haghia": 4781,
      "2018": 4782,
      "lesvos": 4783,
      "lands": 4784,
      "ffen": 4785,
      "kagoshima": 4786,
      "parcel": 4787,
      "raptor": 4788,
      "kendal": 4789,
      "nonfinancial": 4790,
      "tional": 4791,
      "iras": 4792,
      "louisville": 4793,
      "grass": 4794,
      "bina": 4795,
      "dari": 4796,
      "mitchell": 4797,
      "books": 4798,
      "ried": 4799,
      "santorini": 4800,
      "marilyn": 4801,
      "maxim": 4802,
      "jennings": 4803,
      "nepdg": 4804,
      "odys": 4805,
      "quantitat": 4806,
      "florentine": 4807,
      "complexes": 4808,
      "punjab": 4809,
      "segovia": 4810,
      "macedonia": 4811,
      "clu": 4812,
      "ged": 4813,
      "iron": 4814,
      "vieux": 4815,
      "xuoi": 4816,
      "ante": 4817,
      "majes": 4818,
      "chic": 4819,
      "texo": 4820,
      "duka": 4821,
      "cause": 4822,
      "dolo": 4823,
      "def": 4824,
      "reva": 4825,
      "mori": 4826,
      "gos": 4827,
      "liber": 4828,
      "dare": 4829,
      "rios": 4830,
      "hanuk": 4831,
      "alpha": 4832,
      "mailers": 4833,
      "champs": 4834,
      "ellen": 4835,
      "kodak": 4836,
      "compu": 4837,
      "crow": 4838,
      "merce": 4839,
      "georges": 4840,
      "listic": 4841,
      "great": 4842,
      "expen": 4843,
      "ferra": 4844,
      "1973": 4845,
      "subsi": 4846,
      "arawak": 4847,
      "donaldson": 4848,
      "puerta": 4849,
      "stevenson": 4850,
      "shuger": 4851,
      "theodore": 4852,
      "autorou": 4853,
      "idaho": 4854,
      "matthew": 4855,
      "carthagini": 4856,
      "muhammad": 4857,
      "salvador": 4858,
      "ferdinand": 4859,
      "hokkaido": 4860,
      "majestic": 4861,
      "texoma": 4862,
      "ava": 4863,
      "ghat": 4864,
      "knox": 4865,
      "mie": 4866,
      "cobbled": 4867,
      "tali": 4868,
      "moto": 4869,
      "ater": 4870,
      "acre": 4871,
      "etz": 4872,
      "maro": 4873,
      "capri": 4874,
      "dante": 4875,
      "rider": 4876,
      "singh": 4877,
      "tane": 4878,
      "nihan": 4879,
      "xop": 4880,
      "brad": 4881,
      "702": 4882,
      "ious": 4883,
      "butter": 4884,
      "litva": 4885,
      "tarzan": 4886,
      "counter": 4887,
      "douin": 4888,
      "pedro": 4889,
      "click": 4890,
      "specu": 4891,
      "payments": 4892,
      "philips": 4893,
      "frederick": 4894,
      "flash": 4895,
      "crawfish": 4896,
      "moynihan": 4897,
      "emerald": 4898,
      "amenophis": 4899,
      "hanukkah": 4900,
      "bhu": 4901,
      "elieu": 4902,
      "gs": 4903,
      "ide": 4904,
      "jin": 4905,
      "koh": 4906,
      "ktapur": 4907,
      "oas": 4908,
      "prac": 4909,
      "plate": 4910,
      "ruong": 4911,
      "sni": 4912,
      "lada": 4913,
      "giza": 4914,
      "giotto": 4915,
      "ame": 4916,
      "amia": 4917,
      "oned": 4918,
      "etienne": 4919,
      "chill": 4920,
      "visi": 4921,
      "board": 4922,
      "bian": 4923,
      "tively": 4924,
      "xeng": 4925,
      "rez": 4926,
      "reilly": 4927,
      "ngoac": 4928,
      "meda": 4929,
      "cambridge": 4930,
      "ermin": 4931,
      "esco": 4932,
      "lining": 4933,
      "ahu": 4934,
      "ruth": 4935,
      "gaoas": 4936,
      "verdant": 4937,
      "kobe": 4938,
      "kings": 4939,
      "gup": 4940,
      "gutenberg": 4941,
      "richelieu": 4942,
      "pass": 4943,
      "palla": 4944,
      "colom": 4945,
      "studios": 4946,
      "stick": 4947,
      "flexi": 4948,
      "sharon": 4949,
      "copd": 4950,
      "applica": 4951,
      "classes": 4952,
      "bhaktapur": 4953,
      "marguerite": 4954,
      "bt": 4955,
      "cien": 4956,
      "dram": 4957,
      "ered": 4958,
      "emissions": 4959,
      "fai": 4960,
      "frio": 4961,
      "iberia": 4962,
      "lv": 4963,
      "vcr": 4964,
      "yem": 4965,
      "zim": 4966,
      "sean": 4967,
      "varan": 4968,
      "hoanh": 4969,
      "thet": 4970,
      "vila": 4971,
      "vice": 4972,
      "canvas": 4973,
      "reve": 4974,
      "arches": 4975,
      "bey": 4976,
      "ester": 4977,
      "mip": 4978,
      "terry": 4979,
      "palac": 4980,
      "ington": 4981,
      "damas": 4982,
      "point": 4983,
      "menta": 4984,
      "croa": 4985,
      "jeep": 4986,
      "centra": 4987,
      "larly": 4988,
      "liest": 4989,
      "indigent": 4990,
      "logical": 4991,
      "crafts": 4992,
      "politan": 4993,
      "prc": 4994,
      "gloria": 4995,
      "jfmip": 4996,
      "12866": 4997,
      "enterprise": 4998,
      "portico": 4999,
      "cosmopolitan": 5000,
      "varanasi": 5001,
      "aro": 5002,
      "dz": 5003,
      "east": 5004,
      "free": 5005,
      "kum": 5006,
      "nier": 5007,
      "pcao": 5008,
      "scali": 5009,
      "oils": 5010,
      "anor": 5011,
      "coli": 5012,
      "chora": 5013,
      "ngham": 5014,
      "mason": 5015,
      "sour": 5016,
      "rapi": 5017,
      "tomo": 5018,
      "vio": 5019,
      "keley": 5020,
      "rodin": 5021,
      "mea": 5022,
      "giun": 5023,
      "rith": 5024,
      "lenborn": 5025,
      "1939": 5026,
      "haye": 5027,
      "erlenborn": 5028,
      "orrin": 5029,
      "mace": 5030,
      "nifer": 5031,
      "pilla": 5032,
      "forrest": 5033,
      "judea": 5034,
      "mena": 5035,
      "mets": 5036,
      "wales": 5037,
      "gul": 5038,
      "lates": 5039,
      "penrith": 5040,
      "graphy": 5041,
      "eleanor": 5042,
      "buffet": 5043,
      "amoniac": 5044,
      "espn": 5045,
      "decisionmaking": 5046,
      "impression": 5047,
      "ephesus": 5048,
      "elastic": 5049,
      "griffith": 5050,
      "bohemi": 5051,
      "pulitzer": 5052,
      "dukakis": 5053,
      "maroon": 5054,
      "pcaob": 5055,
      "fit": 5056,
      "fring": 5057,
      "gge": 5058,
      "kota": 5059,
      "zquez": 5060,
      "case": 5061,
      "gic": 5062,
      "ams": 5063,
      "bank": 5064,
      "viii": 5065,
      "trim": 5066,
      "danny": 5067,
      "gosh": 5068,
      "lantan": 5069,
      "landers": 5070,
      "campo": 5071,
      "lius": 5072,
      "light": 5073,
      "rip": 5074,
      "rity": 5075,
      "diane": 5076,
      "esplan": 5077,
      "niko": 5078,
      "huyt": 5079,
      "berto": 5080,
      "impu": 5081,
      "hungary": 5082,
      "joan": 5083,
      "leonard": 5084,
      "1971": 5085,
      "subclasses": 5086,
      "ggs": 5087,
      "logists": 5088,
      "brant": 5089,
      "talmu": 5090,
      "juanito": 5091,
      "thurmond": 5092,
      "generalization": 5093,
      "lorraine": 5094,
      "polychrome": 5095,
      "titanic": 5096,
      "kissinger": 5097,
      "teresa": 5098,
      "firth": 5099,
      "rosenberg": 5100,
      "sumatra": 5101,
      "marseilles": 5102,
      "elasticities": 5103,
      "dman": 5104,
      "fork": 5105,
      "gung": 5106,
      "grow": 5107,
      "gging": 5108,
      "kleiman": 5109,
      "nit": 5110,
      "pc": 5111,
      "pisa": 5112,
      "suyen": 5113,
      "oira": 5114,
      "cater": 5115,
      "ucla": 5116,
      "there": 5117,
      "amun": 5118,
      "bane": 5119,
      "turin": 5120,
      "boa": 5121,
      "kelantan": 5122,
      "trian": 5123,
      "reen": 5124,
      "helen": 5125,
      "bench": 5126,
      "tanf": 5127,
      "este": 5128,
      "haute": 5129,
      "mix": 5130,
      "linds": 5131,
      "montreu": 5132,
      "paa": 5133,
      "paler": 5134,
      "pomona": 5135,
      "nath": 5136,
      "126": 5137,
      "illo": 5138,
      "504": 5139,
      "kemp": 5140,
      "perot": 5141,
      "commu": 5142,
      "brock": 5143,
      "hart": 5144,
      "wic": 5145,
      "calcut": 5146,
      "presiden": 5147,
      "gerth": 5148,
      "corn": 5149,
      "corre": 5150,
      "ably": 5151,
      "torre": 5152,
      "llian": 5153,
      "stupa": 5154,
      "grim": 5155,
      "avignon": 5156,
      "fontaine": 5157,
      "flynt": 5158,
      "effluent": 5159,
      "olive": 5160,
      "cedar": 5161,
      "techno": 5162,
      "koran": 5163,
      "rainfore": 5164,
      "gupta": 5165,
      "lindsay": 5166,
      "montreuil": 5167,
      "palermo": 5168,
      "calcutta": 5169,
      "alam": 5170,
      "pane": 5171,
      "sno": 5172,
      "span": 5173,
      "twork": 5174,
      "wyo": 5175,
      "sei": 5176,
      "seti": 5177,
      "tab": 5178,
      "suh": 5179,
      "mata": 5180,
      "sox": 5181,
      "confe": 5182,
      "coniston": 5183,
      "kei": 5184,
      "sands": 5185,
      "mati": 5186,
      "tribu": 5187,
      "essex": 5188,
      "lines": 5189,
      "chate": 5190,
      "pod": 5191,
      "ductwork": 5192,
      "vention": 5193,
      "venez": 5194,
      "picar": 5195,
      "cotta": 5196,
      "ardt": 5197,
      "texaco": 5198,
      "148": 5199,
      "leyman": 5200,
      "woody": 5201,
      "1300": 5202,
      "tedly": 5203,
      "merca": 5204,
      "kerr": 5205,
      "grego": 5206,
      "brick": 5207,
      "robertson": 5208,
      "waikiki": 5209,
      "subpart": 5210,
      "shes": 5211,
      "draw": 5212,
      "holder": 5213,
      "royko": 5214,
      "stevens": 5215,
      "kiosk": 5216,
      "endpoints": 5217,
      "streamlining": 5218,
      "baghdad": 5219,
      "front": 5220,
      "cloister": 5221,
      "inhouse": 5222,
      "mercedes": 5223,
      "asan": 5224,
      "cram": 5225,
      "gger": 5226,
      "hn": 5227,
      "sepul": 5228,
      "encla": 5229,
      "aten": 5230,
      "masa": 5231,
      "bilities": 5232,
      "tica": 5233,
      "ark": 5234,
      "mecca": 5235,
      "lucy": 5236,
      "sic": 5237,
      "1915": 5238,
      "isti": 5239,
      "salam": 5240,
      "uncon": 5241,
      "unds": 5242,
      "yeats": 5243,
      "pool": 5244,
      "pound": 5245,
      "berkeley": 5246,
      "ghlin": 5247,
      "gonzo": 5248,
      "607": 5249,
      "harvey": 5250,
      "garten": 5251,
      "charac": 5252,
      "fukuji": 5253,
      "madeiran": 5254,
      "izmir": 5255,
      "1946": 5256,
      "cetel": 5257,
      "cumber": 5258,
      "mustang": 5259,
      "rouge": 5260,
      "1953": 5261,
      "lessly": 5262,
      "greenberg": 5263,
      "maggio": 5264,
      "bernard": 5265,
      "yankee": 5266,
      "dutch": 5267,
      "summer": 5268,
      "appropri": 5269,
      "hamilton": 5270,
      "sitcom": 5271,
      "mercury": 5272,
      "krakew": 5273,
      "saintes": 5274,
      "toobin": 5275,
      "odyssey": 5276,
      "fringe": 5277,
      "esplanade": 5278,
      "2k": 5279,
      "cleo": 5280,
      "clun": 5281,
      "fsis": 5282,
      "iq": 5283,
      "ians": 5284,
      "knot": 5285,
      "nlada": 5286,
      "oley": 5287,
      "pd": 5288,
      "pf": 5289,
      "pfi": 5290,
      "tc": 5291,
      "une": 5292,
      "wh": 5293,
      "yam": 5294,
      "y2k": 5295,
      "caen": 5296,
      "lawn": 5297,
      "cokie": 5298,
      "rata": 5299,
      "torah": 5300,
      "lowe": 5301,
      "lour": 5302,
      "mozar": 5303,
      "chum": 5304,
      "meri": 5305,
      "albu": 5306,
      "mandra": 5307,
      "hauss": 5308,
      "chel": 5309,
      "satan": 5310,
      "rana": 5311,
      "laura": 5312,
      "cites": 5313,
      "ciano": 5314,
      "gaz": 5315,
      "rina": 5316,
      "verone": 5317,
      "bursa": 5318,
      "frana": 5319,
      "rams": 5320,
      "gues": 5321,
      "walt": 5322,
      "garm": 5323,
      "casting": 5324,
      "caletta": 5325,
      "lieberman": 5326,
      "balkans": 5327,
      "bourne": 5328,
      "versal": 5329,
      "vingly": 5330,
      "universal": 5331,
      "aryan": 5332,
      "augustus": 5333,
      "showroom": 5334,
      "dominica": 5335,
      "justin": 5336,
      "heavy": 5337,
      "everest": 5338,
      "lehrer": 5339,
      "milliken": 5340,
      "bastille": 5341,
      "perfect": 5342,
      "toxican": 5343,
      "causeway": 5344,
      "knott": 5345,
      "pfizer": 5346,
      "veronese": 5347,
      "aven": 5348,
      "ebay": 5349,
      "fro": 5350,
      "gno": 5351,
      "gem": 5352,
      "isis": 5353,
      "knos": 5354,
      "ups": 5355,
      "zac": 5356,
      "chrys": 5357,
      "come": 5358,
      "cooper": 5359,
      "ental": 5360,
      "ammon": 5361,
      "oning": 5362,
      "autho": 5363,
      "lama": 5364,
      "maple": 5365,
      "quacy": 5366,
      "tomi": 5367,
      "teau": 5368,
      "keholder": 5369,
      "dodge": 5370,
      "mate": 5371,
      "rex": 5372,
      "mode": 5373,
      "gou": 5374,
      "gow": 5375,
      "arche": 5376,
      "bashi": 5377,
      "mana": 5378,
      "sarah": 5379,
      "termin": 5380,
      "night": 5381,
      "rugged": 5382,
      "muda": 5383,
      "petra": 5384,
      "xii": 5385,
      "1789": 5386,
      "kali": 5387,
      "122": 5388,
      "123": 5389,
      "pari": 5390,
      "stakeholder": 5391,
      "dyck": 5392,
      "fire": 5393,
      "job": 5394,
      "winnie": 5395,
      "mclau": 5396,
      "kudu": 5397,
      "herman": 5398,
      "ridge": 5399,
      "1942": 5400,
      "gallon": 5401,
      "gret": 5402,
      "bellini": 5403,
      "lessness": 5404,
      "shinjuku": 5405,
      "kayak": 5406,
      "attleboro": 5407,
      "adequacy": 5408,
      "shops": 5409,
      "methodological": 5410,
      "riverside": 5411,
      "commemorates": 5412,
      "sculpted": 5413,
      "etruscan": 5414,
      "chlorine": 5415,
      "blowjob": 5416,
      "palacio": 5417,
      "wyoming": 5418,
      "116": 5419,
      "abi": 5420,
      "gni": 5421,
      "hr": 5422,
      "pao": 5423,
      "pret": 5424,
      "sfas": 5425,
      "yup": 5426,
      "sely": 5427,
      "vall": 5428,
      "hour": 5429,
      "enti": 5430,
      "giles": 5431,
      "suez": 5432,
      "tula": 5433,
      "quach": 5434,
      "levin": 5435,
      "bias": 5436,
      "loe": 5437,
      "tee": 5438,
      "tiles": 5439,
      "deco": 5440,
      "gora": 5441,
      "rand": 5442,
      "nicole": 5443,
      "unders": 5444,
      "hatshep": 5445,
      "renoir": 5446,
      "pino": 5447,
      "filed": 5448,
      "nati": 5449,
      "predomin": 5450,
      "tories": 5451,
      "fergus": 5452,
      "stanford": 5453,
      "outsour": 5454,
      "ringly": 5455,
      "patien": 5456,
      "1958": 5457,
      "1959": 5458,
      "truman": 5459,
      "avid": 5460,
      "basse": 5461,
      "vism": 5462,
      "blanc": 5463,
      "philae": 5464,
      "rishna": 5465,
      "guru": 5466,
      "bazaars": 5467,
      "indianapolis": 5468,
      "liveliest": 5469,
      "piedmont": 5470,
      "antoinette": 5471,
      "autoroute": 5472,
      "rapids": 5473,
      "imputed": 5474,
      "cumberland": 5475,
      "mclaughlin": 5476,
      "360": 5477,
      "fet": 5478,
      "femin": 5479,
      "nj": 5480,
      "scuba": 5481,
      "ubi": 5482,
      "unes": 5483,
      "homo": 5484,
      "tability": 5485,
      "ayun": 5486,
      "ames": 5487,
      "onica": 5488,
      "inas": 5489,
      "conver": 5490,
      "xer": 5491,
      "bered": 5492,
      "lize": 5493,
      "rians": 5494,
      "diver": 5495,
      "gand": 5496,
      "monarch": 5497,
      "bonnie": 5498,
      "sax": 5499,
      "nicara": 5500,
      "unlv": 5501,
      "2009": 5502,
      "adena": 5503,
      "parque": 5504,
      "135": 5505,
      "llers": 5506,
      "vicente": 5507,
      "quitous": 5508,
      "richards": 5509,
      "pasadena": 5510,
      "lets": 5511,
      "columnist": 5512,
      "cretan": 5513,
      "lakeside": 5514,
      "vitto": 5515,
      "huntington": 5516,
      "rodri": 5517,
      "cityel": 5518,
      "zys": 5519,
      "prototy": 5520,
      "bullfi": 5521,
      "jacques": 5522,
      "malabar": 5523,
      "wordperfect": 5524,
      "terraced": 5525,
      "brooke": 5526,
      "deauville": 5527,
      "houses": 5528,
      "churchill": 5529,
      "ethnographic": 5530,
      "rhine": 5531,
      "assisi": 5532,
      "junior": 5533,
      "parcells": 5534,
      "dramat": 5535,
      "sepulcher": 5536,
      "masada": 5537,
      "maggiore": 5538,
      "knosses": 5539,
      "ubiquitous": 5540,
      "unesco": 5541,
      "112": 5542,
      "650": 5543,
      "are": 5544,
      "area": 5545,
      "clai": 5546,
      "cruz": 5547,
      "equi": 5548,
      "egus": 5549,
      "fang": 5550,
      "fru": 5551,
      "gies": 5552,
      "jung": 5553,
      "kman": 5554,
      "lsu": 5555,
      "lati": 5556,
      "lations": 5557,
      "como": 5558,
      "hooc": 5559,
      "tak": 5560,
      "acs": 5561,
      "lamud": 5562,
      "malamud": 5563,
      "quar": 5564,
      "legis": 5565,
      "haiti": 5566,
      "dodg": 5567,
      "rolls": 5568,
      "golan": 5569,
      "hoavon": 5570,
      "thatcher": 5571,
      "bath": 5572,
      "maureen": 5573,
      "mill": 5574,
      "wee": 5575,
      "edmund": 5576,
      "raci": 5577,
      "carlo": 5578,
      "person": 5579,
      "cross": 5580,
      "woo": 5581,
      "drey": 5582,
      "jou": 5583,
      "harper": 5584,
      "harrer": 5585,
      "bleau": 5586,
      "workpap": 5587,
      "syner": 5588,
      "1962": 5589,
      "1943": 5590,
      "cummins": 5591,
      "overpayments": 5592,
      "gusta": 5593,
      "simone": 5594,
      "editoria": 5595,
      "moulin": 5596,
      "mamel": 5597,
      "wolff": 5598,
      "handmade": 5599,
      "windsurf": 5600,
      "american": 5601,
      "livingston": 5602,
      "waukee": 5603,
      "picardy": 5604,
      "tcn": 5605,
      "mozart": 5606,
      "hatshepsut": 5607,
      "dodgers": 5608,
      "270": 5609,
      "clan": 5610,
      "clich": 5611,
      "crap": 5612,
      "fes": 5613,
      "gres": 5614,
      "miec": 5615,
      "nye": 5616,
      "ocho": 5617,
      "pis": 5618,
      "scop": 5619,
      "ulls": 5620,
      "xvii": 5621,
      "yers": 5622,
      "yama": 5623,
      "taco": 5624,
      "inflo": 5625,
      "mathe": 5626,
      "mals": 5627,
      "marian": 5628,
      "sopot": 5629,
      "toron": 5630,
      "vius": 5631,
      "bolog": 5632,
      "reclin": 5633,
      "mesopot": 5634,
      "sik": 5635,
      "lenin": 5636,
      "khara": 5637,
      "maui": 5638,
      "mise": 5639,
      "tendo": 5640,
      "nim": 5641,
      "203": 5642,
      "bergen": 5643,
      "carville": 5644,
      "609": 5645,
      "gasped": 5646,
      "colle": 5647,
      "discos": 5648,
      "hargarten": 5649,
      "walcott": 5650,
      "dings": 5651,
      "flex": 5652,
      "falwell": 5653,
      "lynch": 5654,
      "kaiser": 5655,
      "class": 5656,
      "valencia": 5657,
      "milwaukee": 5658,
      "cameron": 5659,
      "arnold": 5660,
      "mortgage": 5661,
      "deregulation": 5662,
      "taliban": 5663,
      "brantley": 5664,
      "benchmar": 5665,
      "ullswater": 5666,
      "toronto": 5667,
      "bologna": 5668,
      "812": 5669,
      "a504": 5670,
      "bber": 5671,
      "club": 5672,
      "dle": 5673,
      "grou": 5674,
      "muong": 5675,
      "twin": 5676,
      "caa": 5677,
      "hosses": 5678,
      "ener": 5679,
      "toire": 5680,
      "actua": 5681,
      "tural": 5682,
      "indo": 5683,
      "madi": 5684,
      "raven": 5685,
      "tosho": 5686,
      "logo": 5687,
      "kech": 5688,
      "cape": 5689,
      "danie": 5690,
      "heiro": 5691,
      "arl": 5692,
      "belly": 5693,
      "ricar": 5694,
      "nege": 5695,
      "bents": 5696,
      "organ": 5697,
      "alpine": 5698,
      "alfonso": 5699,
      "monroe": 5700,
      "safar": 5701,
      "ell": 5702,
      "tocrat": 5703,
      "inglis": 5704,
      "2008": 5705,
      "jupi": 5706,
      "bud": 5707,
      "queen": 5708,
      "commen": 5709,
      "lingly": 5710,
      "angelico": 5711,
      "plath": 5712,
      "1949": 5713,
      "bobby": 5714,
      "letterman": 5715,
      "ibicen": 5716,
      "keyne": 5717,
      "bookshops": 5718,
      "retrofit": 5719,
      "rousse": 5720,
      "kayama": 5721,
      "village": 5722,
      "booth": 5723,
      "brune": 5724,
      "lombar": 5725,
      "birch": 5726,
      "terraces": 5727,
      "beatri": 5728,
      "maurice": 5729,
      "culturebox": 5730,
      "weisberg": 5731,
      "nrcs": 5732,
      "flexibilities": 5733,
      "bohemian": 5734,
      "growers": 5735,
      "rainforest": 5736,
      "conferees": 5737,
      "haussmann": 5738,
      "chrysler": 5739,
      "nicaragua": 5740,
      "zyslaw": 5741,
      "mieczyslaw": 5742,
      "cine": 5743,
      "dh": 5744,
      "ever": 5745,
      "iri": 5746,
      "ils": 5747,
      "icia": 5748,
      "krishna": 5749,
      "nal": 5750,
      "oce": 5751,
      "tier": 5752,
      "cating": 5753,
      "how": 5754,
      "aix": 5755,
      "iner": 5756,
      "maz": 5757,
      "malia": 5758,
      "soci": 5759,
      "rary": 5760,
      "vita": 5761,
      "contrac": 5762,
      "roths": 5763,
      "desh": 5764,
      "dered": 5765,
      "deaux": 5766,
      "real": 5767,
      "resor": 5768,
      "heroi": 5769,
      "thir": 5770,
      "size": 5771,
      "neon": 5772,
      "hipp": 5773,
      "unfiled": 5774,
      "uram": 5775,
      "chapelle": 5776,
      "naxo": 5777,
      "rents": 5778,
      "shap": 5779,
      "kathe": 5780,
      "juliet": 5781,
      "zak": 5782,
      "1400": 5783,
      "1492": 5784,
      "raikes": 5785,
      "sersa": 5786,
      "jeri": 5787,
      "wise": 5788,
      "porter": 5789,
      "corso": 5790,
      "pped": 5791,
      "bordeaux": 5792,
      "north": 5793,
      "graham": 5794,
      "ferti": 5795,
      "quist": 5796,
      "aeo": 5797,
      "charleston": 5798,
      "sari": 5799,
      "orihue": 5800,
      "univer": 5801,
      "hollings": 5802,
      "getty": 5803,
      "dolph": 5804,
      "hacker": 5805,
      "insured": 5806,
      "earl": 5807,
      "minaret": 5808,
      "palladio": 5809,
      "workpapers": 5810,
      "mamelu": 5811,
      "rothschild": 5812,
      "orihuela": 5813,
      "adi": 5814,
      "clau": 5815,
      "dna": 5816,
      "ean": 5817,
      "exu": 5818,
      "jui": 5819,
      "kko": 5820,
      "og": 5821,
      "ous": 5822,
      "skia": 5823,
      "zas": 5824,
      "thri": 5825,
      "cate": 5826,
      "cod": 5827,
      "gino": 5828,
      "gibson": 5829,
      "vea": 5830,
      "vela": 5831,
      "vesu": 5832,
      "socio": 5833,
      "rakia": 5834,
      "vitam": 5835,
      "reas": 5836,
      "liff": 5837,
      "dizing": 5838,
      "ord": 5839,
      "kimono": 5840,
      "powers": 5841,
      "gaza": 5842,
      "bermuda": 5843,
      "1812": 5844,
      "hapsburg": 5845,
      "veronica": 5846,
      "mental": 5847,
      "gency": 5848,
      "compet": 5849,
      "with": 5850,
      "wigand": 5851,
      "newsday": 5852,
      "gaulois": 5853,
      "herbert": 5854,
      "outlet": 5855,
      "sinan": 5856,
      "nasser": 5857,
      "logic": 5858,
      "sharm": 5859,
      "doubt": 5860,
      "spike": 5861,
      "zionism": 5862,
      "wicklow": 5863,
      "mickey": 5864,
      "durbar": 5865,
      "kilgore": 5866,
      "proserous": 5867,
      "fills": 5868,
      "hamilcar": 5869,
      "gnp": 5870,
      "nicholas": 5871,
      "trinfan": 5872,
      "croatia": 5873,
      "croaker": 5874,
      "characte": 5875,
      "ferguson": 5876,
      "jupiter": 5877,
      "heroin": 5878,
      "naxos": 5879,
      "skiathos": 5880,
      "vitamin": 5881,
      "114": 5882,
      "blus": 5883,
      "exe": 5884,
      "flat": 5885,
      "hack": 5886,
      "htm": 5887,
      "ios": 5888,
      "omaha": 5889,
      "ys": 5890,
      "zter": 5891,
      "lah": 5892,
      "acro": 5893,
      "sore": 5894,
      "vid": 5895,
      "boaz": 5896,
      "connor": 5897,
      "biz": 5898,
      "tein": 5899,
      "dui": 5900,
      "matsu": 5901,
      "reg": 5902,
      "heng": 5903,
      "aron": 5904,
      "lantau": 5905,
      "chania": 5906,
      "1914": 5907,
      "1931": 5908,
      "tapas": 5909,
      "tres": 5910,
      "orre": 5911,
      "hilton": 5912,
      "hetel": 5913,
      "eszter": 5914,
      "wether": 5915,
      "sation": 5916,
      "unding": 5917,
      "patra": 5918,
      "edgar": 5919,
      "landfills": 5920,
      "lukas": 5921,
      "kara": 5922,
      "samos": 5923,
      "netany": 5924,
      "hugh": 5925,
      "perkins": 5926,
      "mente": 5927,
      "menes": 5928,
      "compo": 5929,
      "jolanta": 5930,
      "pudding": 5931,
      "discrimin": 5932,
      "harrison": 5933,
      "funi": 5934,
      "kinson": 5935,
      "sions": 5936,
      "palheiro": 5937,
      "stery": 5938,
      "riously": 5939,
      "young": 5940,
      "sings": 5941,
      "shel": 5942,
      "horetz": 5943,
      "united": 5944,
      "friezes": 5945,
      "workshare": 5946,
      "querque": 5947,
      "robinson": 5948,
      "ribeira": 5949,
      "scrip": 5950,
      "psycho": 5951,
      "stacks": 5952,
      "christie": 5953,
      "tarianism": 5954,
      "tiberias": 5955,
      "illus": 5956,
      "fresco": 5957,
      "baptistery": 5958,
      "podhoretz": 5959,
      "cleopatra": 5960,
      "heavywether": 5961,
      "abilene": 5962,
      "netanyahu": 5963,
      "brai": 5964,
      "cpk": 5965,
      "flag": 5966,
      "ipo": 5967,
      "nanh": 5968,
      "ove": 5969,
      "ooh": 5970,
      "swe": 5971,
      "stau": 5972,
      "szary": 5973,
      "yong": 5974,
      "anson": 5975,
      "ote": 5976,
      "nou": 5977,
      "maalo": 5978,
      "villette": 5979,
      "boone": 5980,
      "conde": 5981,
      "trent": 5982,
      "lola": 5983,
      "tropi": 5984,
      "dex": 5985,
      "deir": 5986,
      "heming": 5987,
      "arti": 5988,
      "mex": 5989,
      "menhi": 5990,
      "bedouin": 5991,
      "bayeux": 5992,
      "rivas": 5993,
      "hire": 5994,
      "luation": 5995,
      "astro": 5996,
      "ashi": 5997,
      "bonne": 5998,
      "savoi": 5999,
      "unin": 6000,
      "uninsured": 6001,
      "ahmet": 6002,
      "pola": 6003,
      "newton": 6004,
      "guil": 6005,
      "clini": 6006,
      "103": 6007,
      "shuman": 6008,
      "johns": 6009,
      "pidou": 6010,
      "steam": 6011,
      "kala": 6012,
      "forfei": 6013,
      "parnell": 6014,
      "card": 6015,
      "stalin": 6016,
      "hub": 6017,
      "gents": 6018,
      "francai": 6019,
      "kingly": 6020,
      "syn": 6021,
      "karen": 6022,
      "shei": 6023,
      "keynes": 6024,
      "fleur": 6025,
      "1957": 6026,
      "1905": 6027,
      "bbed": 6028,
      "naray": 6029,
      "pompidou": 6030,
      "perugia": 6031,
      "phoenicia": 6032,
      "epitomi": 6033,
      "mount": 6034,
      "adobe": 6035,
      "sidney": 6036,
      "scalia": 6037,
      "pillar": 6038,
      "caterpillar": 6039,
      "gregory": 6040,
      "albuquerque": 6041,
      "bullfights": 6042,
      "maalok": 6043,
      ".--": 6044,
      "119": 6045,
      "5000": 6046,
      "biem": 6047,
      "crates": 6048,
      "dnc": 6049,
      "kmart": 6050,
      "tler": 6051,
      "won": 6052,
      "ngong": 6053,
      "oig": 6054,
      "vars": 6055,
      "aire": 6056,
      "veri": 6057,
      "conferen": 6058,
      "lynn": 6059,
      "rosa": 6060,
      "romeo": 6061,
      "tamil": 6062,
      "regu": 6063,
      "modi": 6064,
      "arles": 6065,
      "riley": 6066,
      "sitan": 6067,
      "chancel": 6068,
      "ganda": 6069,
      "tyson": 6070,
      "tiepolo": 6071,
      "chech": 6072,
      "milea": 6073,
      "paths": 6074,
      "lacroix": 6075,
      "marais": 6076,
      "pous": 6077,
      "bergh": 6078,
      "berger": 6079,
      "chagal": 6080,
      "106": 6081,
      "pedi": 6082,
      "carne": 6083,
      "queens": 6084,
      "perry": 6085,
      "commission": 6086,
      "mintie": 6087,
      "yahoo": 6088,
      "1961": 6089,
      "leton": 6090,
      "alice": 6091,
      "logist": 6092,
      "determin": 6093,
      "normans": 6094,
      "booksta": 6095,
      "presses": 6096,
      "croseng": 6097,
      "hawks": 6098,
      "isabella": 6099,
      "ritarian": 6100,
      "nintendo": 6101,
      "lombard": 6102,
      "nicolas": 6103,
      "nicotine": 6104,
      "proserity": 6105,
      "friars": 6106,
      "faul": 6107,
      "brahman": 6108,
      "greyfriars": 6109,
      "hercules": 6110,
      "crane": 6111,
      "partisan": 6112,
      "nebbish": 6113,
      "costner": 6114,
      "signoria": 6115,
      "damascus": 6116,
      "mesopotamia": 6117,
      "katherine": 6118,
      "aeo2001": 6119,
      "mileage": 6120,
      "chagall": 6121,
      "bram": 6122,
      "brace": 6123,
      "cit": 6124,
      "cers": 6125,
      "ethio": 6126,
      "gte": 6127,
      "gner": 6128,
      "jah": 6129,
      "m3": 6130,
      "miet": 6131,
      "stat": 6132,
      "sty": 6133,
      "slap": 6134,
      "vd": 6135,
      "ym": 6136,
      "đgh": 6137,
      "taki": 6138,
      "envi": 6139,
      "audi": 6140,
      "indus": 6141,
      "mahat": 6142,
      "rating": 6143,
      "lean": 6144,
      "levi": 6145,
      "lesia": 6146,
      "lous": 6147,
      "team": 6148,
      "dode": 6149,
      "dance": 6150,
      "heston": 6151,
      "nhoang": 6152,
      "bek": 6153,
      "lily": 6154,
      "lido": 6155,
      "lili": 6156,
      "rivi": 6157,
      "dir": 6158,
      "1924": 6159,
      "negara": 6160,
      "bend": 6161,
      "esc": 6162,
      "nur": 6163,
      "wey": 6164,
      "monde": 6165,
      "saff": 6166,
      "unted": 6167,
      "104": 6168,
      "pee": 6169,
      "pisano": 6170,
      "kazan": 6171,
      "carl": 6172,
      "samo": 6173,
      "thorne": 6174,
      "gashi": 6175,
      "braque": 6176,
      "brads": 6177,
      "wagner": 6178,
      "rosema": 6179,
      "malaya": 6180,
      "pping": 6181,
      "borne": 6182,
      "lloyd": 6183,
      "ponta": 6184,
      "izing": 6185,
      "pm10": 6186,
      "whitney": 6187,
      "fannie": 6188,
      "short": 6189,
      "whitebelly": 6190,
      "1951": 6191,
      "trumpet": 6192,
      "erisa": 6193,
      "multiraci": 6194,
      "jeffrey": 6195,
      "uela": 6196,
      "lleschi": 6197,
      "jenkins": 6198,
      "jennifer": 6199,
      "heimer": 6200,
      "methodologists": 6201,
      "gardens": 6202,
      "metabo": 6203,
      "whipmasters": 6204,
      "bryant": 6205,
      "administers": 6206,
      "management": 6207,
      "presidentas": 6208,
      "saxton": 6209,
      "brunelleschi": 6210,
      "slapstick": 6211,
      "mahatma": 6212,
      "bradshaw": 6213,
      "117": 6214,
      "340": 6215,
      "ather": 6216,
      "cis": 6217,
      "csa": 6218,
      "cker": 6219,
      "drap": 6220,
      "jff": 6221,
      "kwan": 6222,
      "know": 6223,
      "mler": 6224,
      "ncaa": 6225,
      "overs": 6226,
      "pjff": 6227,
      "uno": 6228,
      "zl": 6229,
      "zheimer": 6230,
      "nggan": 6231,
      "seleyman": 6232,
      "lakers": 6233,
      "hold": 6234,
      "sudan": 6235,
      "noji": 6236,
      "nghet": 6237,
      "intel": 6238,
      "toster": 6239,
      "viu": 6240,
      "uhar": 6241,
      "lemente": 6242,
      "kell": 6243,
      "depen": 6244,
      "design": 6245,
      "revi": 6246,
      "regis": 6247,
      "gol": 6248,
      "ritomo": 6249,
      "hila": 6250,
      "tenay": 6251,
      "asak": 6252,
      "term": 6253,
      "terra": 6254,
      "padua": 6255,
      "power": 6256,
      "2017": 6257,
      "2016": 6258,
      "luther": 6259,
      "barts": 6260,
      "judah": 6261,
      "carni": 6262,
      "carlton": 6263,
      "ronic": 6264,
      "kow": 6265,
      "chinato": 6266,
      "gugge": 6267,
      "garnier": 6268,
      "masji": 6269,
      "testoster": 6270,
      "analy": 6271,
      "ioc": 6272,
      "kinaba": 6273,
      "801": 6274,
      "ticism": 6275,
      "guada": 6276,
      "vieja": 6277,
      "game": 6278,
      "yoritomo": 6279,
      "south": 6280,
      "soutine": 6281,
      "murcia": 6282,
      "fall": 6283,
      "diclemente": 6284,
      "quintiles": 6285,
      "basque": 6286,
      "rodman": 6287,
      "ectua": 6288,
      "hellen": 6289,
      "guez": 6290,
      "jaisal": 6291,
      "posted": 6292,
      "coleman": 6293,
      "touris": 6294,
      "auguste": 6295,
      "voltaire": 6296,
      "vote": 6297,
      "sabbath": 6298,
      "durham": 6299,
      "castillo": 6300,
      "caddesi": 6301,
      "simova": 6302,
      "limous": 6303,
      "jumbo": 6304,
      "buttermere": 6305,
      "toxicant": 6306,
      "madison": 6307,
      "beatrix": 6308,
      "jericho": 6309,
      "vesuvius": 6310,
      "savoie": 6311,
      "metabolife": 6312,
      "asakusa": 6313,
      "chinatown": 6314,
      "guggenheim": 6315,
      "masjid": 6316,
      "testosterone": 6317,
      "230": 6318,
      "aza": 6319,
      "ctua": 6320,
      "grot": 6321,
      "hri": 6322,
      "jj": 6323,
      "kun": 6324,
      "lling": 6325,
      "mies": 6326,
      "our": 6327,
      "plas": 6328,
      "rlan": 6329,
      "skim": 6330,
      "tse": 6331,
      "anita": 6332,
      "khuat": 6333,
      "lab": 6334,
      "cox": 6335,
      "accu": 6336,
      "infor": 6337,
      "invali": 6338,
      "raja": 6339,
      "vity": 6340,
      "honshu": 6341,
      "consoli": 6342,
      "tinos": 6343,
      "tintor": 6344,
      "goe": 6345,
      "gome": 6346,
      "sir": 6347,
      "sibe": 6348,
      "leness": 6349,
      "ners": 6350,
      "umbria": 6351,
      "voli": 6352,
      "xembourg": 6353,
      "hans": 6354,
      "hanuman": 6355,
      "alzheimer": 6356,
      "usda": 6357,
      "kill": 6358,
      "mile": 6359,
      "daio": 6360,
      "daimler": 6361,
      "savan": 6362,
      "hathor": 6363,
      "paella": 6364,
      "galan": 6365,
      "ghirlan": 6366,
      "navi": 6367,
      "ffy": 6368,
      "kata": 6369,
      "carta": 6370,
      "carlson": 6371,
      "kov": 6372,
      "commons": 6373,
      "kenny": 6374,
      "joao": 6375,
      "gura": 6376,
      "cornell": 6377,
      "excise": 6378,
      "madri": 6379,
      "lieb": 6380,
      "tations": 6381,
      "shea": 6382,
      "ggling": 6383,
      "brando": 6384,
      "rusty": 6385,
      "block": 6386,
      "crosethe": 6387,
      "marion": 6388,
      "clear": 6389,
      "josephine": 6390,
      "reyno": 6391,
      "kashmi": 6392,
      "marketplace": 6393,
      "yellow": 6394,
      "wendy": 6395,
      "titans": 6396,
      "osiris": 6397,
      "highland": 6398,
      "fujiwara": 6399,
      "footpaths": 6400,
      "camacha": 6401,
      "benedictine": 6402,
      "arcaded": 6403,
      "volution": 6404,
      "cluny": 6405,
      "paolo": 6406,
      "ravenna": 6407,
      "francaise": 6408,
      "chechnya": 6409,
      "ethiopia": 6410,
      "tintoretto": 6411,
      "ghirlandaio": 6412,
      "260": 6413,
      "ib": 6414,
      "iyre": 6415,
      "kly": 6416,
      "stam": 6417,
      "sting": 6418,
      "slum": 6419,
      "umeda": 6420,
      "xx": 6421,
      "anc": 6422,
      "camar": 6423,
      "sell": 6424,
      "lak": 6425,
      "enco": 6426,
      "att": 6427,
      "incum": 6428,
      "inapplica": 6429,
      "nhard": 6430,
      "đit": 6431,
      "cusi": 6432,
      "keren": 6433,
      "canton": 6434,
      "tite": 6435,
      "tives": 6436,
      "dog": 6437,
      "rel": 6438,
      "related": 6439,
      "1927": 6440,
      "nel": 6441,
      "xavier": 6442,
      "voc": 6443,
      "alle": 6444,
      "usc": 6445,
      "chechen": 6446,
      "kish": 6447,
      "rance": 6448,
      "url": 6449,
      "geth": 6450,
      "gazi": 6451,
      "berti": 6452,
      "1870": 6453,
      "1889": 6454,
      "nazion": 6455,
      "luxembourg": 6456,
      "peo": 6457,
      "impatien": 6458,
      "coin": 6459,
      "fford": 6460,
      "121": 6461,
      "juno": 6462,
      "parried": 6463,
      "stalag": 6464,
      "jahan": 6465,
      "broad": 6466,
      "putin": 6467,
      "wire": 6468,
      "bya": 6469,
      "presen": 6470,
      "warlock": 6471,
      "abbay": 6472,
      "shaw": 6473,
      "pleasan": 6474,
      "stanis": 6475,
      "whisky": 6476,
      "plato": 6477,
      "1963": 6478,
      "cherpi": 6479,
      "elici": 6480,
      "kastro": 6481,
      "spac": 6482,
      "marketing": 6483,
      "rhodes": 6484,
      "pietro": 6485,
      "brunei": 6486,
      "summari": 6487,
      "solicitation": 6488,
      "friedman": 6489,
      "oakland": 6490,
      "colonnade": 6491,
      "modernization": 6492,
      "authoritarian": 6493,
      "tulare": 6494,
      "vittorio": 6495,
      "lombardy": 6496,
      "mazda": 6497,
      "orrery": 6498,
      "multiracial": 6499,
      "reynolds": 6500,
      "incumbents": 6501,
      "inapplicable": 6502,
      "nazionale": 6503,
      "pleasantly": 6504,
      "4000": 6505,
      "cron": 6506,
      "dwp": 6507,
      "eye": 6508,
      "ili": 6509,
      "ites": 6510,
      "kt": 6511,
      "plac": 6512,
      "pack": 6513,
      "kheu": 6514,
      "lady": 6515,
      "home": 6516,
      "motiva": 6517,
      "phren": 6518,
      "giuc": 6519,
      "iens": 6520,
      "amal": 6521,
      "tulip": 6522,
      "mazz": 6523,
      "rades": 6524,
      "concer": 6525,
      "eum": 6526,
      "kebap": 6527,
      "canese": 6528,
      "titus": 6529,
      "roche": 6530,
      "matic": 6531,
      "deve": 6532,
      "deri": 6533,
      "moma": 6534,
      "armey": 6535,
      "bad": 6536,
      "timbered": 6537,
      "sity": 6538,
      "sible": 6539,
      "didion": 6540,
      "1935": 6541,
      "nero": 6542,
      "tyler": 6543,
      "midi": 6544,
      "champ": 6545,
      "parose": 6546,
      "edge": 6547,
      "marine": 6548,
      "ceci": 6549,
      "barney": 6550,
      "cks": 6551,
      "julie": 6552,
      "busing": 6553,
      "burke": 6554,
      "shing": 6555,
      "403": 6556,
      "scotch": 6557,
      "mcg": 6558,
      "hari": 6559,
      "dsm": 6560,
      "gari": 6561,
      "calm": 6562,
      "wars": 6563,
      "pete": 6564,
      "kari": 6565,
      "sheba": 6566,
      "gget": 6567,
      "perak": 6568,
      "topkap": 6569,
      "waterloo": 6570,
      "zig": 6571,
      "marino": 6572,
      "marigot": 6573,
      "lund": 6574,
      "spec": 6575,
      "paper": 6576,
      "caesarea": 6577,
      "perugino": 6578,
      "schul": 6579,
      "terenggan": 6580,
      "ribera": 6581,
      "scrubber": 6582,
      "dawson": 6583,
      "parody": 6584,
      "foreclosure": 6585,
      "delaware": 6586,
      "jaume": 6587,
      "theresa": 6588,
      "tribune": 6589,
      "rodriguez": 6590,
      "benchmarking": 6591,
      "hemingway": 6592,
      "narayan": 6593,
      "dodecanese": 6594,
      "kinabalu": 6595,
      "cherpitel": 6596,
      "terengganu": 6597,
      "av": 6598,
      "aco": 6599,
      "bhai": 6600,
      "bland": 6601,
      "cb": 6602,
      "egi": 6603,
      "ero": 6604,
      "evo": 6605,
      "grose": 6606,
      "ice": 6607,
      "kot": 6608,
      "kut": 6609,
      "luom": 6610,
      "ml": 6611,
      "plus": 6612,
      "stri": 6613,
      "stuc": 6614,
      "scro": 6615,
      "scow": 6616,
      "swing": 6617,
      "vr": 6618,
      "xar": 6619,
      "chie": 6620,
      "cabar": 6621,
      "taran": 6622,
      "tabu": 6623,
      "tard": 6624,
      "takayama": 6625,
      "gina": 6626,
      "choleste": 6627,
      "suits": 6628,
      "act": 6629,
      "bana": 6630,
      "sole": 6631,
      "appen": 6632,
      "giacom": 6633,
      "contro": 6634,
      "lemann": 6635,
      "lously": 6636,
      "tep": 6637,
      "tropez": 6638,
      "hangir": 6639,
      "tilly": 6640,
      "tization": 6641,
      "demo": 6642,
      "deka": 6643,
      "hear": 6644,
      "gour": 6645,
      "neuf": 6646,
      "dition": 6647,
      "lente": 6648,
      "ery": 6649,
      "orsay": 6650,
      "hil": 6651,
      "hidey": 6652,
      "hirosema": 6653,
      "nueva": 6654,
      "mith": 6655,
      "asa": 6656,
      "empo": 6657,
      "elway": 6658,
      "haven": 6659,
      "108": 6660,
      "statu": 6661,
      "kopf": 6662,
      "gena": 6663,
      "washed": 6664,
      "jesuits": 6665,
      "bromua": 6666,
      "denis": 6667,
      "disbur": 6668,
      "predic": 6669,
      "exley": 6670,
      "peters": 6671,
      "herb": 6672,
      "herzl": 6673,
      "watch": 6674,
      "passe": 6675,
      "pinto": 6676,
      "youel": 6677,
      "wanda": 6678,
      "whitewashed": 6679,
      "trating": 6680,
      "keyes": 6681,
      "lizations": 6682,
      "doug": 6683,
      "1903": 6684,
      "1904": 6685,
      "betsy": 6686,
      "azur": 6687,
      "goldman": 6688,
      "sherry": 6689,
      "populari": 6690,
      "protein": 6691,
      "cademia": 6692,
      "mughals": 6693,
      "gilbert": 6694,
      "lexus": 6695,
      "ellora": 6696,
      "pavilions": 6697,
      "minarets": 6698,
      "bloomberg": 6699,
      "ipoh": 6700,
      "addres": 6701,
      "chowk": 6702,
      "inefficiencies": 6703,
      "baldwin": 6704,
      "grassmarket": 6705,
      "quantitative": 6706,
      "caselas": 6707,
      "trianon": 6708,
      "summerhaye": 6709,
      "prototyping": 6710,
      "scopus": 6711,
      "sociates": 6712,
      "velazquez": 6713,
      "sheikh": 6714,
      "conferencing": 6715,
      "hellenistic": 6716,
      "bhaira": 6717,
      "cholesterol": 6718,
      "hideyoshi": 6719,
      "youells": 6720,
      "9000": 6721,
      "aaron": 6722,
      "emer": 6723,
      "gl": 6724,
      "gm": 6725,
      "hie": 6726,
      "jia": 6727,
      "kdale": 6728,
      "ono": 6729,
      "pang": 6730,
      "sieng": 6731,
      "slot": 6732,
      "tuo": 6733,
      "uele": 6734,
      "zap": 6735,
      "anda": 6736,
      "calla": 6737,
      "sem": 6738,
      "seni": 6739,
      "lators": 6740,
      "copy": 6741,
      "hood": 6742,
      "enta": 6743,
      "encies": 6744,
      "git": 6745,
      "iento": 6746,
      "ambro": 6747,
      "sumi": 6748,
      "accli": 6749,
      "accademia": 6750,
      "nolia": 6751,
      "onsen": 6752,
      "aure": 6753,
      "vest": 6754,
      "mario": 6755,
      "apt": 6756,
      "concep": 6757,
      "eugene": 6758,
      "batu": 6759,
      "dunn": 6760,
      "kera": 6761,
      "doge": 6762,
      "sance": 6763,
      "sandra": 6764,
      "thouse": 6765,
      "demi": 6766,
      "democ": 6767,
      "dering": 6768,
      "thing": 6769,
      "metri": 6770,
      "hockey": 6771,
      "camx": 6772,
      "sikh": 6773,
      "sius": 6774,
      "chantilly": 6775,
      "vogue": 6776,
      "ercise": 6777,
      "mack": 6778,
      "mania": 6779,
      "eskdale": 6780,
      "usness": 6781,
      "mira": 6782,
      "wein": 6783,
      "monsanto": 6784,
      "lshire": 6785,
      "hak": 6786,
      "hare": 6787,
      "doir": 6788,
      "duce": 6789,
      "gedi": 6790,
      "sonny": 6791,
      "cic": 6792,
      "hamas": 6793,
      "1898": 6794,
      "nava": 6795,
      "clintons": 6796,
      "lusitan": 6797,
      "bartho": 6798,
      "164": 6799,
      "samar": 6800,
      "thasos": 6801,
      "rons": 6802,
      "koku": 6803,
      "file": 6804,
      "ostro": 6805,
      "josh": 6806,
      "jodie": 6807,
      "brady": 6808,
      "cypresses": 6809,
      "nyc": 6810,
      "wilshire": 6811,
      "newshour": 6812,
      "iously": 6813,
      "dorothy": 6814,
      "privati": 6815,
      "warhol": 6816,
      "bergman": 6817,
      "guam": 6818,
      "guate": 6819,
      "outcrop": 6820,
      "vincent": 6821,
      "cumbria": 6822,
      "roux": 6823,
      "lippo": 6824,
      "elijah": 6825,
      "reeves": 6826,
      "1902": 6827,
      "magnolia": 6828,
      "boudoir": 6829,
      "ately": 6830,
      "jazzercise": 6831,
      "connery": 6832,
      "augustine": 6833,
      "insurers": 6834,
      "shahjahan": 6835,
      "vosges": 6836,
      "ghada": 6837,
      "commemorated": 6838,
      "folk": 6839,
      "semane": 6840,
      "wellesley": 6841,
      "perennial": 6842,
      "avalon": 6843,
      "feminism": 6844,
      "synergies": 6845,
      "funicular": 6846,
      "bookstaver": 6847,
      "jaisalmer": 6848,
      "cartagena": 6849,
      "gethsemane": 6850,
      "develop": 6851,
      "onofrio": 6852,
      "1100": 6853,
      "bls": 6854,
      "cres": 6855,
      "ckey": 6856,
      "fcic": 6857,
      "ider": 6858,
      "kang": 6859,
      "snor": 6860,
      "skid": 6861,
      "snow": 6862,
      "twis": 6863,
      "ura": 6864,
      "yar": 6865,
      "zin": 6866,
      "ongate": 6867,
      "severa": 6868,
      "lavish": 6869,
      "motion": 6870,
      "enig": 6871,
      "sumo": 6872,
      "vem": 6873,
      "very": 6874,
      "rave": 6875,
      "rasa": 6876,
      "vijay": 6877,
      "rators": 6878,
      "concur": 6879,
      "eul": 6880,
      "eurs": 6881,
      "lothi": 6882,
      "canongate": 6883,
      "dobson": 6884,
      "rop": 6885,
      "rox": 6886,
      "desig": 6887,
      "derah": 6888,
      "hein": 6889,
      "mobi": 6890,
      "most": 6891,
      "god": 6892,
      "gonheim": 6893,
      "rivera": 6894,
      "siveness": 6895,
      "dino": 6896,
      "benedy": 6897,
      "maya": 6898,
      "nhaus": 6899,
      "tani": 6900,
      "tano": 6901,
      "chenh": 6902,
      "ems": 6903,
      "randall": 6904,
      "nitrat": 6905,
      "unvei": 6906,
      "gaya": 6907,
      "gabled": 6908,
      "longa": 6909,
      "luk": 6910,
      "shot": 6911,
      "jura": 6912,
      "carly": 6913,
      "verley": 6914,
      "ionia": 6915,
      "145": 6916,
      "149": 6917,
      "osman": 6918,
      "oswald": 6919,
      "rissa": 6920,
      "wagonheim": 6921,
      "waverley": 6922,
      "jere": 6923,
      "michelle": 6924,
      "denderah": 6925,
      "111": 6926,
      "mcgra": 6927,
      "zzar": 6928,
      "califf": 6929,
      "workfa": 6930,
      "misstate": 6931,
      "ponte": 6932,
      "praha": 6933,
      "lett": 6934,
      "sorbonne": 6935,
      "stern": 6936,
      "sally": 6937,
      "darwin": 6938,
      "nski": 6939,
      "saray": 6940,
      "perakia": 6941,
      "msnbc": 6942,
      "1956": 6943,
      "mossad": 6944,
      "kathar": 6945,
      "kathleen": 6946,
      "ruskin": 6947,
      "magda": 6948,
      "ricks": 6949,
      "zena": 6950,
      "royale": 6951,
      "piccadi": 6952,
      "zynski": 6953,
      "glenn": 6954,
      "histoire": 6955,
      "slide": 6956,
      "pain": 6957,
      "colonnaded": 6958,
      "hurghada": 6959,
      "mmstudio": 6960,
      "spencer": 6961,
      "guinness": 6962,
      "phillips": 6963,
      "continental": 6964,
      "craftsmen": 6965,
      "fontainebleau": 6966,
      "chateaux": 6967,
      "justinian": 6968,
      "ammoniac": 6969,
      "inflows": 6970,
      "toshogu": 6971,
      "liffey": 6972,
      "ymca": 6973,
      "benedykt": 6974,
      "piccadilly": 6975,
      "240": 6976,
      "abo": 6977,
      "bray": 6978,
      "brus": 6979,
      "freu": 6980,
      "gut": 6981,
      "ius": 6982,
      "llos": 6983,
      "pfei": 6984,
      "ruy": 6985,
      "strong": 6986,
      "smy": 6987,
      "snap": 6988,
      "uji": 6989,
      "ngach": 6990,
      "chronic": 6991,
      "annua": 6992,
      "anji": 6993,
      "thot": 6994,
      "iest": 6995,
      "lango": 6996,
      "lator": 6997,
      "enberg": 6998,
      "endow": 6999,
      "phine": 7000,
      "phardt": 7001,
      "ainu": 7002,
      "banks": 7003,
      "oni": 7004,
      "nghin": 7005,
      "inven": 7006,
      "lamma": 7007,
      "quart": 7008,
      "borough": 7009,
      "convey": 7010,
      "leb": 7011,
      "levan": 7012,
      "bibli": 7013,
      "lows": 7014,
      "teca": 7015,
      "teer": 7016,
      "canyon": 7017,
      "degli": 7018,
      "lonian": 7019,
      "hero": 7020,
      "helena": 7021,
      "mour": 7022,
      "metric": 7023,
      "beds": 7024,
      "lid": 7025,
      "lita": 7026,
      "riot": 7027,
      "1925": 7028,
      "1933": 7029,
      "negri": 7030,
      "chev": 7031,
      "mizu": 7032,
      "hag": 7033,
      "unt": 7034,
      "paso": 7035,
      "edfu": 7036,
      "tock": 7037,
      "gephardt": 7038,
      "gain": 7039,
      "rudy": 7040,
      "1885": 7041,
      "musi": 7042,
      "peb": 7043,
      "arden": 7044,
      "donat": 7045,
      "stes": 7046,
      "kazin": 7047,
      "lerie": 7048,
      "kou": 7049,
      "fications": 7050,
      "compen": 7051,
      "croses": 7052,
      "mintz": 7053,
      "jesui": 7054,
      "winston": 7055,
      "raun": 7056,
      "fune": 7057,
      "calvin": 7058,
      "pream": 7059,
      "corpus": 7060,
      "prix": 7061,
      "grave": 7062,
      "louse": 7063,
      "aero": 7064,
      "ledford": 7065,
      "paste": 7066,
      "shore": 7067,
      "miata": 7068,
      "rett": 7069,
      "retiro": 7070,
      "pitti": 7071,
      "boxing": 7072,
      "bowness": 7073,
      "postmoder": 7074,
      "chennai": 7075,
      "valier": 7076,
      "oxford": 7077,
      "jainism": 7078,
      "louisian": 7079,
      "acrosefrom": 7080,
      "blackpool": 7081,
      "bosnia": 7082,
      "posses": 7083,
      "classi": 7084,
      "barak": 7085,
      "sporades": 7086,
      "reuters": 7087,
      "1707": 7088,
      "lc50": 7089,
      "agatha": 7090,
      "heights": 7091,
      "junction": 7092,
      "lehman": 7093,
      "merrion": 7094,
      "amarillo": 7095,
      "yasser": 7096,
      "signposted": 7097,
      "wachter": 7098,
      "eastwood": 7099,
      "forks": 7100,
      "avenue": 7101,
      "kudupi": 7102,
      "sikkim": 7103,
      "keynesian": 7104,
      "resorts": 7105,
      "shapiro": 7106,
      "clinicians": 7107,
      "mcgwire": 7108,
      "chronicle": 7109,
      "conveying": 7110,
      "jesuitical": 7111,
      "225": 7112,
      "275": 7113,
      "alon": 7114,
      "aber": 7115,
      "agon": 7116,
      "agin": 7117,
      "dll": 7118,
      "dations": 7119,
      "fah": 7120,
      "fpas": 7121,
      "gta": 7122,
      "gru": 7123,
      "ply": 7124,
      "spra": 7125,
      "sardin": 7126,
      "yres": 7127,
      "seth": 7128,
      "tax": 7129,
      "ati": 7130,
      "ucester": 7131,
      "amber": 7132,
      "turing": 7133,
      "mada": 7134,
      "mapp": 7135,
      "rab": 7136,
      "raries": 7137,
      "boeing": 7138,
      "legal": 7139,
      "bise": 7140,
      "bangalo": 7141,
      "hopkins": 7142,
      "heads": 7143,
      "movie": 7144,
      "kett": 7145,
      "bein": 7146,
      "baster": 7147,
      "hankinson": 7148,
      "manley": 7149,
      "sawy": 7150,
      "salem": 7151,
      "salinger": 7152,
      "randi": 7153,
      "trois": 7154,
      "palace": 7155,
      "marley": 7156,
      "pope": 7157,
      "geria": 7158,
      "galo": 7159,
      "1850": 7160,
      "1895": 7161,
      "1863": 7162,
      "celeste": 7163,
      "rssi": 7164,
      "107": 7165,
      "156": 7166,
      "shru": 7167,
      "peres": 7168,
      "pio": 7169,
      "rack": 7170,
      "forman": 7171,
      "carson": 7172,
      "procu": 7173,
      "kofukuji": 7174,
      "woman": 7175,
      "ombo": 7176,
      "wadi": 7177,
      "loss": 7178,
      "davidson": 7179,
      "caltech": 7180,
      "extra": 7181,
      "irees": 7182,
      "richland": 7183,
      "ponti": 7184,
      "lough": 7185,
      "plain": 7186,
      "alized": 7187,
      "irre": 7188,
      "stically": 7189,
      "cherry": 7190,
      "arab": 7191,
      "retirees": 7192,
      "brandy": 7193,
      "hawail": 7194,
      "janina": 7195,
      "alabaster": 7196,
      "clive": 7197,
      "clift": 7198,
      "springer": 7199,
      "gloucester": 7200,
      "zercher": 7201,
      "nicola": 7202,
      "brooks": 7203,
      "fitzgerald": 7204,
      "mckay": 7205,
      "fairfax": 7206,
      "fountain": 7207,
      "dustin": 7208,
      "rothko": 7209,
      "emanuele": 7210,
      "oasdi": 7211,
      "practica": 7212,
      "impressionist": 7213,
      "enclave": 7214,
      "pdfa": 7215,
      "editorialists": 7216,
      "rousseau": 7217,
      "discriminat": 7218,
      "stalagmites": 7219,
      "stanislas": 7220,
      "preambles": 7221,
      "spraw": 7222,
      "sardinia": 7223,
      "bangalore": 7224,
      "popeye": 7225,
      "aw": 7226,
      "cini": 7227,
      "eras": 7228,
      "glam": 7229,
      "hds": 7230,
      "llac": 7231,
      "nally": 7232,
      "pung": 7233,
      "prus": 7234,
      "swi": 7235,
      "spur": 7236,
      "twe": 7237,
      "tsui": 7238,
      "anjou": 7239,
      "camara": 7240,
      "self": 7241,
      "ladesh": 7242,
      "colos": 7243,
      "hook": 7244,
      "atlas": 7245,
      "accep": 7246,
      "ete": 7247,
      "into": 7248,
      "insky": 7249,
      "boise": 7250,
      "loy": 7251,
      "loon": 7252,
      "tei": 7253,
      "bangladesh": 7254,
      "timo": 7255,
      "rowe": 7256,
      "taman": 7257,
      "herald": 7258,
      "aren": 7259,
      "dil": 7260,
      "1938": 7261,
      "gano": 7262,
      "tread": 7263,
      "hia": 7264,
      "hiu": 7265,
      "higashi": 7266,
      "haut": 7267,
      "ranos": 7268,
      "quel": 7269,
      "laume": 7270,
      "lauren": 7271,
      "marta": 7272,
      "hyde": 7273,
      "berthe": 7274,
      "1830": 7275,
      "1860": 7276,
      "1880": 7277,
      "1845": 7278,
      "1857": 7279,
      "105": 7280,
      "shie": 7281,
      "173": 7282,
      "303": 7283,
      "pert": 7284,
      "fici": 7285,
      "gating": 7286,
      "jahangir": 7287,
      "jockey": 7288,
      "omni": 7289,
      "wade": 7290,
      "cyc": 7291,
      "jewe": 7292,
      "guen": 7293,
      "publi": 7294,
      "walsh": 7295,
      "fado": 7296,
      "flower": 7297,
      "floyd": 7298,
      "greider": 7299,
      "carolyn": 7300,
      "routha": 7301,
      "soubise": 7302,
      "overhang": 7303,
      "darn": 7304,
      "credi": 7305,
      "kathie": 7306,
      "grill": 7307,
      "1907": 7308,
      "certain": 7309,
      "zenji": 7310,
      "........": 7311,
      "fasb": 7312,
      "patricia": 7313,
      "canoeing": 7314,
      "marathon": 7315,
      "kildare": 7316,
      "katz": 7317,
      "nashville": 7318,
      "republi": 7319,
      "stitution": 7320,
      "cadillac": 7321,
      "slobo": 7322,
      "giorgio": 7323,
      "whee": 7324,
      "macroeconomic": 7325,
      "bolshe": 7326,
      "blooming": 7327,
      "subsidizing": 7328,
      "escorial": 7329,
      "carnival": 7330,
      "motivational": 7331,
      "longabaugh": 7332,
      "220": 7333,
      "abe": 7334,
      "agora": 7335,
      "dly": 7336,
      "evang": 7337,
      "fn": 7338,
      "fret": 7339,
      "kwh": 7340,
      "luo": 7341,
      "mh": 7342,
      "mci": 7343,
      "obama": 7344,
      "qs": 7345,
      "ssa": 7346,
      "struc": 7347,
      "smu": 7348,
      "udai": 7349,
      "uses": 7350,
      "unex": 7351,
      "xui": 7352,
      "zanne": 7353,
      "zheng": 7354,
      "ani": 7355,
      "casey": 7356,
      "seve": 7357,
      "sers": 7358,
      "lax": 7359,
      "hono": 7360,
      "tanh": 7361,
      "gillette": 7362,
      "thea": 7363,
      "amster": 7364,
      "accord": 7365,
      "noah": 7366,
      "tudor": 7367,
      "audley": 7368,
      "mave": 7369,
      "honey": 7370,
      "boat": 7371,
      "conno": 7372,
      "lef": 7373,
      "bic": 7374,
      "kyc": 7375,
      "kyu": 7376,
      "kered": 7377,
      "trophi": 7378,
      "canon": 7379,
      "titu": 7380,
      "deen": 7381,
      "delacroix": 7382,
      "read": 7383,
      "hew": 7384,
      "heater": 7385,
      "goers": 7386,
      "sidy": 7387,
      "1921": 7388,
      "alcazar": 7389,
      "eson": 7390,
      "issu": 7391,
      "randa": 7392,
      "path": 7393,
      "marne": 7394,
      "geng": 7395,
      "newman": 7396,
      "2011": 7397,
      "rupert": 7398,
      "151": 7399,
      "2006": 7400,
      "bart": 7401,
      "impro": 7402,
      "steep": 7403,
      "stereo": 7404,
      "racuse": 7405,
      "gopnik": 7406,
      "kawa": 7407,
      "124": 7408,
      "127": 7409,
      "jules": 7410,
      "1660": 7411,
      "301": 7412,
      "sammy": 7413,
      "proces": 7414,
      "promena": 7415,
      "huff": 7416,
      "redgrave": 7417,
      "134": 7418,
      "colgate": 7419,
      "rutgers": 7420,
      "harland": 7421,
      "cassidy": 7422,
      "byte": 7423,
      "flora": 7424,
      "chartres": 7425,
      "preheater": 7426,
      "corsica": 7427,
      "syracuse": 7428,
      "madras": 7429,
      "izes": 7430,
      "wain": 7431,
      "lette": 7432,
      "cocker": 7433,
      "sheen": 7434,
      "drake": 7435,
      "mitch": 7436,
      "mitter": 7437,
      "clarence": 7438,
      "antilles": 7439,
      "tarn": 7440,
      "carib": 7441,
      "elements": 7442,
      "tracy": 7443,
      "bassen": 7444,
      "royal": 7445,
      "thym": 7446,
      "logne": 7447,
      "edith": 7448,
      "agency": 7449,
      "kaye": 7450,
      "promulgate": 7451,
      "ditka": 7452,
      "albany": 7453,
      "turally": 7454,
      "stallone": 7455,
      "playboy": 7456,
      "hectare": 7457,
      "mounted": 7458,
      "siegel": 7459,
      "elabo": 7460,
      "hydrogen": 7461,
      "hkta": 7462,
      "presorting": 7463,
      "apollon": 7464,
      "viollet": 7465,
      "ricardian": 7466,
      "illustrating": 7467,
      "menhirs": 7468,
      "camargue": 7469,
      "nhardt": 7470,
      "topkape": 7471,
      "stucco": 7472,
      "giacometti": 7473,
      "mcgrath": 7474,
      "donatello": 7475,
      "amsterdam": 7476,
      "08": 7477,
      "716": 7478,
      "aa": 7479,
      "bren": 7480,
      "deu": 7481,
      "eau": 7482,
      "ebook": 7483,
      "faci": 7484,
      "hui": 7485,
      "itine": 7486,
      "kus": 7487,
      "krau": 7488,
      "kate": 7489,
      "npr": 7490,
      "qut": 7491,
      "sw": 7492,
      "squat": 7493,
      "ule": 7494,
      "wren": 7495,
      "yates": 7496,
      "chter": 7497,
      "cava": 7498,
      "cash": 7499,
      "sent": 7500,
      "sears": 7501,
      "taz": 7502,
      "talism": 7503,
      "gid": 7504,
      "gimen": 7505,
      "ain": 7506,
      "nolan": 7507,
      "auer": 7508,
      "etan": 7509,
      "inf": 7510,
      "inqui": 7511,
      "incre": 7512,
      "mass": 7513,
      "bosch": 7514,
      "leland": 7515,
      "levy": 7516,
      "bid": 7517,
      "loet": 7518,
      "capella": 7519,
      "sans": 7520,
      "rob": 7521,
      "robes": 7522,
      "rolex": 7523,
      "dero": 7524,
      "demu": 7525,
      "desta": 7526,
      "reason": 7527,
      "heian": 7528,
      "arbois": 7529,
      "bera": 7530,
      "toner": 7531,
      "baha": 7532,
      "dase": 7533,
      "sight": 7534,
      "digenova": 7535,
      "lennon": 7536,
      "1937": 7537,
      "neuhar": 7538,
      "gant": 7539,
      "umi": 7540,
      "hipaa": 7541,
      "choicers": 7542,
      "welli": 7543,
      "layoff": 7544,
      "bucks": 7545,
      "monas": 7546,
      "issos": 7547,
      "dayak": 7548,
      "elcher": 7549,
      "marlin": 7550,
      "geis": 7551,
      "guille": 7552,
      "204": 7553,
      "cipat": 7554,
      "ryn": 7555,
      "muni": 7556,
      "ghuri": 7557,
      "stead": 7558,
      "hender": 7559,
      "parte": 7560,
      "alec": 7561,
      "ships": 7562,
      "found": 7563,
      "mcteer": 7564,
      "wallis": 7565,
      "dspb": 7566,
      "portion": 7567,
      "anaheim": 7568,
      "gerie": 7569,
      "petite": 7570,
      "cenota": 7571,
      "watt": 7572,
      "sistine": 7573,
      "pinsky": 7574,
      "grunted": 7575,
      "salsa": 7576,
      "saletan": 7577,
      "irving": 7578,
      "irradi": 7579,
      "baltic": 7580,
      "christi": 7581,
      "mittal": 7582,
      "bulbs": 7583,
      "unix": 7584,
      "fonda": 7585,
      "kitchen": 7586,
      "help": 7587,
      "bbc": 7588,
      "lionel": 7589,
      "league": 7590,
      "1874": 7591,
      "maxwell": 7592,
      "caravan": 7593,
      "toulouse": 7594,
      "beaune": 7595,
      "beatles": 7596,
      "schoelcher": 7597,
      "popularly": 7598,
      "quantifying": 7599,
      "schwartzkopf": 7600,
      "portland": 7601,
      "obser": 7602,
      "graphers": 7603,
      "vauban": 7604,
      "architec": 7605,
      "strategi": 7606,
      "catedral": 7607,
      "carthaginian": 7608,
      "outsourcing": 7609,
      "reclining": 7610,
      "negev": 7611,
      "safari": 7612,
      "exube": 7613,
      "impatiently": 7614,
      "abbaye": 7615,
      "elicited": 7616,
      "disbursing": 7617,
      "pfeiffer": 7618,
      "inventories": 7619,
      "sawyer": 7620,
      "practicable": 7621,
      "huffington": 7622,
      "bassenthwaite": 7623,
      "itineraries": 7624,
      "qutb": 7625,
      "robespierre": 7626,
      "neuharth": 7627,
      "wellington": 7628,
      "henderson": 7629,
      "cenotaph": 7630,
      "950": 7631,
      "blois": 7632,
      "dr": 7633,
      "fong": 7634,
      "frey": 7635,
      "ird": 7636,
      "pcs": 7637,
      "sway": 7638,
      "udi": 7639,
      "xat": 7640,
      "zur": 7641,
      "zko": 7642,
      "anca": 7643,
      "seus": 7644,
      "selana": 7645,
      "laden": 7646,
      "codification": 7647,
      "vam": 7648,
      "hoe": 7649,
      "taver": 7650,
      "amor": 7651,
      "ony": 7652,
      "malo": 7653,
      "mast": 7654,
      "chino": 7655,
      "rables": 7656,
      "tower": 7657,
      "durai": 7658,
      "ducal": 7659,
      "naomi": 7660,
      "tigon": 7661,
      "roa": 7662,
      "deva": 7663,
      "devi": 7664,
      "phur": 7665,
      "repor": 7666,
      "recal": 7667,
      "dano": 7668,
      "bak": 7669,
      "base": 7670,
      "ridi": 7671,
      "rista": 7672,
      "dity": 7673,
      "tych": 7674,
      "vor": 7675,
      "hank": 7676,
      "alki": 7677,
      "chee": 7678,
      "tuyt": 7679,
      "gangster": 7680,
      "emp": 7681,
      "bonnard": 7682,
      "uncom": 7683,
      "unaddres": 7684,
      "marvel": 7685,
      "poon": 7686,
      "polls": 7687,
      "longterm": 7688,
      "1897": 7689,
      "landmark": 7690,
      "musings": 7691,
      "pec": 7692,
      "pean": 7693,
      "steff": 7694,
      "kaku": 7695,
      "formi": 7696,
      "force": 7697,
      "parvati": 7698,
      "cardo": 7699,
      "stag": 7700,
      "kom": 7701,
      "pergam": 7702,
      "fidel": 7703,
      "crochet": 7704,
      "bottic": 7705,
      "respa": 7706,
      "colmar": 7707,
      "oku": 7708,
      "serted": 7709,
      "pub": 7710,
      "zedale": 7711,
      "byron": 7712,
      "portu": 7713,
      "fusion": 7714,
      "gauguin": 7715,
      "torum": 7716,
      "shalit": 7717,
      "madrasa": 7718,
      "worker": 7719,
      "paugh": 7720,
      "niski": 7721,
      "centri": 7722,
      "hind": 7723,
      "reali": 7724,
      "watteau": 7725,
      "plant": 7726,
      "baldi": 7727,
      "stig": 7728,
      "cherno": 7729,
      "soufri": 7730,
      "wanniski": 7731,
      "kirts": 7732,
      "eileen": 7733,
      "sulphur": 7734,
      "celt": 7735,
      "ccc": 7736,
      "normandie": 7737,
      "topless": 7738,
      "grizedale": 7739,
      "talbot": 7740,
      "brewer": 7741,
      "magni": 7742,
      "muncaster": 7743,
      "veneto": 7744,
      "valley": 7745,
      "pierce": 7746,
      "scrs": 7747,
      "midland": 7748,
      "fati": 7749,
      "populist": 7750,
      "ppers": 7751,
      "olathe": 7752,
      "hardknott": 7753,
      "merrill": 7754,
      "lindsey": 7755,
      "sopranos": 7756,
      "macroeconomics": 7757,
      "kkr": 7758,
      "edifices": 7759,
      "revaluation": 7760,
      "speculators": 7761,
      "snider": 7762,
      "talmudic": 7763,
      "mixte": 7764,
      "correggio": 7765,
      "mercado": 7766,
      "crammond": 7767,
      "bournemouth": 7768,
      "actuarial": 7769,
      "powerscourt": 7770,
      "doubtfully": 7771,
      "carnegie": 7772,
      "bracero": 7773,
      "hilary": 7774,
      "invalides": 7775,
      "madrile": 7776,
      "kerensky": 7777,
      "rochelle": 7778,
      "garibaldi": 7779,
      "bhairav": 7780,
      "katharine": 7781,
      "slobodan": 7782,
      "bolshevi": 7783,
      "geisha": 7784,
      "alkimia": 7785,
      "unaddressed": 7786,
      "botticelli": 7787,
      "soufriyre": 7788,
      "212": 7789,
      "dges": 7790,
      "exam": 7791,
      "flop": 7792,
      "hg": 7793,
      "ici": 7794,
      "jap": 7795,
      "lur": 7796,
      "mb": 7797,
      "piec": 7798,
      "paci": 7799,
      "rph": 7800,
      "str": 7801,
      "scar": 7802,
      "tney": 7803,
      "vuoc": 7804,
      "zane": 7805,
      "nhong": 7806,
      "chard": 7807,
      "aned": 7808,
      "three": 7809,
      "lath": 7810,
      "lash": 7811,
      "coa": 7812,
      "coch": 7813,
      "colin": 7814,
      "coles": 7815,
      "coven": 7816,
      "coali": 7817,
      "varot": 7818,
      "tars": 7819,
      "ented": 7820,
      "thele": 7821,
      "acz": 7822,
      "acti": 7823,
      "banning": 7824,
      "tured": 7825,
      "etna": 7826,
      "rachel": 7827,
      "tops": 7828,
      "appointe": 7829,
      "vian": 7830,
      "boon": 7831,
      "bows": 7832,
      "lobos": 7833,
      "tics": 7834,
      "domi": 7835,
      "rohan": 7836,
      "depreci": 7837,
      "rehas": 7838,
      "represen": 7839,
      "rethym": 7840,
      "mom": 7841,
      "arp": 7842,
      "lancaster": 7843,
      "beta": 7844,
      "dalai": 7845,
      "dior": 7846,
      "diwan": 7847,
      "1910": 7848,
      "neander": 7849,
      "orthodo": 7850,
      "altea": 7851,
      "mysore": 7852,
      "manet": 7853,
      "usat": 7854,
      "chekho": 7855,
      "saxon": 7856,
      "lsnj": 7857,
      "padi": 7858,
      "marin": 7859,
      "gez": 7860,
      "hatfield": 7861,
      "gazu": 7862,
      "1814": 7863,
      "1894": 7864,
      "nagoya": 7865,
      "pedes": 7866,
      "pil": 7867,
      "1793": 7868,
      "ffles": 7869,
      "166": 7870,
      "1650": 7871,
      "1688": 7872,
      "carr": 7873,
      "vernon": 7874,
      "ional": 7875,
      "dyson": 7876,
      "kooning": 7877,
      "fill": 7878,
      "gonza": 7879,
      "fee": 7880,
      "jodh": 7881,
      "ramsey": 7882,
      "jec": 7883,
      "guja": 7884,
      "lethorpe": 7885,
      "naple": 7886,
      "kuching": 7887,
      "roseanne": 7888,
      "gerry": 7889,
      "corse": 7890,
      "build": 7891,
      "morro": 7892,
      "jackie": 7893,
      "galve": 7894,
      "grum": 7895,
      "little": 7896,
      "332": 7897,
      "bourgo": 7898,
      "lutter": 7899,
      "aragon": 7900,
      "kasich": 7901,
      "kosovars": 7902,
      "boulogne": 7903,
      "ceracz": 7904,
      "tpc": 7905,
      "jacopo": 7906,
      "iglesia": 7907,
      "fashi": 7908,
      "rahman": 7909,
      "lationist": 7910,
      "genous": 7911,
      "acrosethe": 7912,
      "1805": 7913,
      "conservatively": 7914,
      "writers": 7915,
      "cincin": 7916,
      "oldsmo": 7917,
      "mosaic": 7918,
      "minneapolis": 7919,
      "reconci": 7920,
      "deacon": 7921,
      "miniskirts": 7922,
      "cirque": 7923,
      "cookie": 7924,
      "mccartney": 7925,
      "scrutin": 7926,
      "dawkins": 7927,
      "scala": 7928,
      "villena": 7929,
      "deccan": 7930,
      "edifice": 7931,
      "carthaginians": 7932,
      "colombia": 7933,
      "oilskin": 7934,
      "dreyfus": 7935,
      "windsurfing": 7936,
      "claude": 7937,
      "acrobat": 7938,
      "eszterhas": 7939,
      "skimming": 7940,
      "yellowstone": 7941,
      "ibn": 7942,
      "negril": 7943,
      "mapplethorpe": 7944,
      "timothy": 7945,
      "berthelot": 7946,
      "darnley": 7947,
      "evangeli": 7948,
      "promenades": 7949,
      "examines": 7950,
      "rethymnon": 7951,
      "orthodoxy": 7952,
      "590": 7953,
      "587": 7954,
      "6000": 7955,
      "640": 7956,
      "agh": 7957,
      "akin": 7958,
      "bree": 7959,
      "echo": 7960,
      "ecs": 7961,
      "fluc": 7962,
      "flin": 7963,
      "fate": 7964,
      "guoc": 7965,
      "ggi": 7966,
      "gny": 7967,
      "hp": 7968,
      "igre": 7969,
      "icono": 7970,
      "knum": 7971,
      "kusa": 7972,
      "pl": 7973,
      "ples": 7974,
      "plat": 7975,
      "spin": 7976,
      "station": 7977,
      "wong": 7978,
      "zeus": 7979,
      "truat": 7980,
      "lating": 7981,
      "vaca": 7982,
      "atm": 7983,
      "atir": 7984,
      "thex": 7985,
      "theban": 7986,
      "nomics": 7987,
      "ones": 7988,
      "vero": 7989,
      "mahon": 7990,
      "mago": 7991,
      "conti": 7992,
      "conju": 7993,
      "conner": 7994,
      "lez": 7995,
      "logue": 7996,
      "kedah": 7997,
      "canary": 7998,
      "doria": 7999,
      "doric": 8000,
      "xed": 8001,
      "triang": 8002,
      "rehn": 8003,
      "relati": 8004,
      "mola": 8005,
      "beye": 8006,
      "tonic": 8007,
      "basili": 8008,
      "chandra": 8009,
      "lenos": 8010,
      "benny": 8011,
      "itc": 8012,
      "ords": 8013,
      "hilli": 8014,
      "macdonald": 8015,
      "mandir": 8016,
      "usd": 8017,
      "chez": 8018,
      "kita": 8019,
      "aspen": 8020,
      "ellis": 8021,
      "nigeria": 8022,
      "edwin": 8023,
      "yehu": 8024,
      "posed": 8025,
      "gains": 8026,
      "lest": 8027,
      "ghiberti": 8028,
      "bertha": 8029,
      "182": 8030,
      "1875": 8031,
      "1869": 8032,
      "peck": 8033,
      "ghting": 8034,
      "kaki": 8035,
      "167": 8036,
      "parker": 8037,
      "stad": 8038,
      "prous": 8039,
      "program": 8040,
      "1490": 8041,
      "1453": 8042,
      "rond": 8043,
      "commit": 8044,
      "franche": 8045,
      "intervention": 8046,
      "risco": 8047,
      "137": 8048,
      "fec": 8049,
      "window": 8050,
      "cassette": 8051,
      "charle": 8052,
      "hittite": 8053,
      "rosewindow": 8054,
      "gree": 8055,
      "buick": 8056,
      "priva": 8057,
      "angelenos": 8058,
      "gieo": 8059,
      "luis": 8060,
      "quita": 8061,
      "stand": 8062,
      "reagents": 8063,
      "palmer": 8064,
      "alizing": 8065,
      "patna": 8066,
      "schie": 8067,
      "yoga": 8068,
      "irca": 8069,
      "temps": 8070,
      "shee": 8071,
      "anticipat": 8072,
      "quintile": 8073,
      "cmws": 8074,
      "zily": 8075,
      "magne": 8076,
      "azule": 8077,
      "logy": 8078,
      "viscusi": 8079,
      "rations": 8080,
      "jeffords": 8081,
      "spikes": 8082,
      "narthex": 8083,
      "flynn": 8084,
      "dolma": 8085,
      "dickens": 8086,
      "papering": 8087,
      "broncons": 8088,
      "ratemaking": 8089,
      "frieze": 8090,
      "tiered": 8091,
      "histori": 8092,
      "fulness": 8093,
      "kidron": 8094,
      "pell": 8095,
      "streamline": 8096,
      "bazaar": 8097,
      "desira": 8098,
      "fayette": 8099,
      "gnano": 8100,
      "mgm": 8101,
      "ariello": 8102,
      "sulfates": 8103,
      "bolstered": 8104,
      "computer": 8105,
      "sandstone": 8106,
      "characteri": 8107,
      "guadalest": 8108,
      "tourisme": 8109,
      "packard": 8110,
      "mazzariello": 8111,
      "predictably": 8112,
      "guatemala": 8113,
      "concurred": 8114,
      "unveiled": 8115,
      "jeremi": 8116,
      "ardennes": 8117,
      "funerary": 8118,
      "connolly": 8119,
      "cockermouth": 8120,
      "irradiation": 8121,
      "swayam": 8122,
      "covenan": 8123,
      "igreja": 8124,
      "hilliker": 8125,
      "yehuda": 8126,
      "anticipates": 8127,
      "05": 8128,
      "320": 8129,
      "717": 8130,
      "btu": 8131,
      "dka": 8132,
      "dcs": 8133,
      "era": 8134,
      "exem": 8135,
      "eia": 8136,
      "fta": 8137,
      "fli": 8138,
      "foils": 8139,
      "glia": 8140,
      "gwen": 8141,
      "grange": 8142,
      "jos": 8143,
      "kane": 8144,
      "kana": 8145,
      "knight": 8146,
      "orio": 8147,
      "ovitz": 8148,
      "puc": 8149,
      "prai": 8150,
      "ruoc": 8151,
      "schi": 8152,
      "sham": 8153,
      "sper": 8154,
      "strom": 8155,
      "tlieb": 8156,
      "uda": 8157,
      "wry": 8158,
      "xien": 8159,
      "yle": 8160,
      "zona": 8161,
      "điec": 8162,
      "nguu": 8163,
      "oim": 8164,
      "uard": 8165,
      "khuong": 8166,
      "season": 8167,
      "cochin": 8168,
      "comedi": 8169,
      "gifford": 8170,
      "chom": 8171,
      "tore": 8172,
      "vip": 8173,
      "bolt": 8174,
      "levada": 8175,
      "bites": 8176,
      "lowin": 8177,
      "tegna": 8178,
      "tros": 8179,
      "tatively": 8180,
      "tish": 8181,
      "tiff": 8182,
      "dogne": 8183,
      "santana": 8184,
      "santorum": 8185,
      "tamiento": 8186,
      "rera": 8187,
      "relli": 8188,
      "morant": 8189,
      "gianino": 8190,
      "arman": 8191,
      "medina": 8192,
      "trasteve": 8193,
      "lific": 8194,
      "ligget": 8195,
      "lucca": 8196,
      "dali": 8197,
      "riva": 8198,
      "sif": 8199,
      "1918": 8200,
      "neal": 8201,
      "bena": 8202,
      "vodka": 8203,
      "khalili": 8204,
      "hibi": 8205,
      "alta": 8206,
      "alpaugh": 8207,
      "langka": 8208,
      "mantegna": 8209,
      "backs": 8210,
      "esthe": 8211,
      "mains": 8212,
      "kiah": 8213,
      "kiyo": 8214,
      "migianino": 8215,
      "mony": 8216,
      "sauc": 8217,
      "elvis": 8218,
      "webster": 8219,
      "pataki": 8220,
      "baum": 8221,
      "baux": 8222,
      "geot": 8223,
      "rup": 8224,
      "1865": 8225,
      "nafta": 8226,
      "xoai": 8227,
      "1763": 8228,
      "parmigianino": 8229,
      "verona": 8230,
      "bukit": 8231,
      "zaa": 8232,
      "profusion": 8233,
      "prolific": 8234,
      "ngakuji": 8235,
      "fili": 8236,
      "croce": 8237,
      "mina": 8238,
      "shir": 8239,
      "watr": 8240,
      "folia": 8241,
      "foals": 8242,
      "denby": 8243,
      "garuda": 8244,
      "porches": 8245,
      "ppon": 8246,
      "thornton": 8247,
      "iznik": 8248,
      "wsj": 8249,
      "waivers": 8250,
      "dordogne": 8251,
      "lete": 8252,
      "sink": 8253,
      "subprime": 8254,
      "mpg": 8255,
      "smiths": 8256,
      "stupas": 8257,
      "roulette": 8258,
      "horloge": 8259,
      "plug": 8260,
      "crepe": 8261,
      "palawatr": 8262,
      "clara": 8263,
      "sarnath": 8264,
      "cello": 8265,
      "retor": 8266,
      "turk": 8267,
      "1906": 8268,
      "1909": 8269,
      "gottlieb": 8270,
      "faludi": 8271,
      "unimp": 8272,
      "mingly": 8273,
      "zene": 8274,
      "bbie": 8275,
      "stonework": 8276,
      "1872": 8277,
      "rossa": 8278,
      "emile": 8279,
      "archie": 8280,
      "artemis": 8281,
      "edokko": 8282,
      "proto": 8283,
      "teleconferencing": 8284,
      "dulce": 8285,
      "yupp": 8286,
      "kleinman": 8287,
      "scafel": 8288,
      "bodh": 8289,
      "triptych": 8290,
      "oasis": 8291,
      "brisbane": 8292,
      "presorted": 8293,
      "deflation": 8294,
      "grimly": 8295,
      "mandrakes": 8296,
      "ayuntamiento": 8297,
      "hippie": 8298,
      "execu": 8299,
      "dexter": 8300,
      "guillaume": 8301,
      "hawkshead": 8302,
      "samoth": 8303,
      "kwanzaa": 8304,
      "kowloon": 8305,
      "limousine": 8306,
      "scowled": 8307,
      "appendi": 8308,
      "skiddaw": 8309,
      "carlyle": 8310,
      "misstatements": 8311,
      "freud": 8312,
      "compensat": 8313,
      "flowerbeds": 8314,
      "hewlett": 8315,
      "exuberant": 8316,
      "fluctua": 8317,
      "rehnquist": 8318,
      "exemp": 8319,
      "lowincome": 8320,
      "tiffany": 8321,
      "liggett": 8322,
      "langkawi": 8323,
      "866": 8324,
      "bj": 8325,
      "bret": 8326,
      "cfos": 8327,
      "diem": 8328,
      "dkey": 8329,
      "eas": 8330,
      "gv": 8331,
      "gum": 8332,
      "hach": 8333,
      "jeu": 8334,
      "kno": 8335,
      "orange": 8336,
      "panh": 8337,
      "rx": 8338,
      "rna": 8339,
      "rier": 8340,
      "sr": 8341,
      "sby": 8342,
      "tt": 8343,
      "twain": 8344,
      "tgv": 8345,
      "uly": 8346,
      "whar": 8347,
      "cala": 8348,
      "cave": 8349,
      "cabo": 8350,
      "khieng": 8351,
      "seri": 8352,
      "lasa": 8353,
      "cove": 8354,
      "comart": 8355,
      "cosimo": 8356,
      "vasari": 8357,
      "tario": 8358,
      "mote": 8359,
      "chor": 8360,
      "suff": 8361,
      "suwak": 8362,
      "acy": 8363,
      "nomin": 8364,
      "inca": 8365,
      "inari": 8366,
      "vega": 8367,
      "chianti": 8368,
      "tome": 8369,
      "appea": 8370,
      "iecki": 8371,
      "bose": 8372,
      "bome": 8373,
      "levit": 8374,
      "bipartisan": 8375,
      "lowell": 8376,
      "phillies": 8377,
      "til": 8378,
      "dock": 8379,
      "xeo": 8380,
      "root": 8381,
      "mates": 8382,
      "dee": 8383,
      "dez": 8384,
      "detrac": 8385,
      "trippers": 8386,
      "phuot": 8387,
      "rei": 8388,
      "remo": 8389,
      "rell": 8390,
      "renhe": 8391,
      "mok": 8392,
      "moor": 8393,
      "gord": 8394,
      "mean": 8395,
      "mera": 8396,
      "meji": 8397,
      "beam": 8398,
      "lille": 8399,
      "liano": 8400,
      "rival": 8401,
      "rivoli": 8402,
      "dike": 8403,
      "benig": 8404,
      "treks": 8405,
      "volta": 8406,
      "hanni": 8407,
      "hannah": 8408,
      "erie": 8409,
      "orni": 8410,
      "nubian": 8411,
      "maid": 8412,
      "maidan": 8413,
      "mical": 8414,
      "wea": 8415,
      "asts": 8416,
      "assyria": 8417,
      "sado": 8418,
      "nil": 8419,
      "nity": 8420,
      "nippon": 8421,
      "chiave": 8422,
      "havel": 8423,
      "lacquer": 8424,
      "poro": 8425,
      "popp": 8426,
      "polli": 8427,
      "2075": 8428,
      "1821": 8429,
      "rena": 8430,
      "1540": 8431,
      "1715": 8432,
      "1755": 8433,
      "donnell": 8434,
      "stere": 8435,
      "racy": 8436,
      "tsche": 8437,
      "xamin": 8438,
      "botan": 8439,
      "shiki": 8440,
      "wasdale": 8441,
      "teddy": 8442,
      "tedness": 8443,
      "merdeka": 8444,
      "brodkey": 8445,
      "dissen": 8446,
      "tingly": 8447,
      "fabri": 8448,
      "llah": 8449,
      "crus": 8450,
      "primer": 8451,
      "mismanagement": 8452,
      "franks": 8453,
      "skyline": 8454,
      "ponciano": 8455,
      "quil": 8456,
      "sett": 8457,
      "watend": 8458,
      "pasta": 8459,
      "views": 8460,
      "frances": 8461,
      "whitman": 8462,
      "yoda": 8463,
      "smithson": 8464,
      "scanf": 8465,
      "tuech": 8466,
      "overcrow": 8467,
      "zola": 8468,
      "347": 8469,
      "westin": 8470,
      "russell": 8471,
      "385": 8472,
      "bettel": 8473,
      "annecy": 8474,
      "mundell": 8475,
      "updike": 8476,
      "cityhall": 8477,
      "scien": 8478,
      "goldwater": 8479,
      "genoese": 8480,
      "pace": 8481,
      "acrosea": 8482,
      "midway": 8483,
      "melrose": 8484,
      "torii": 8485,
      "applebome": 8486,
      "schwarzene": 8487,
      "worldclass": 8488,
      "bahce": 8489,
      "baccarat": 8490,
      "mambo": 8491,
      "paradi": 8492,
      "contrasting": 8493,
      "mastercard": 8494,
      "schor": 8495,
      "milken": 8496,
      "farmworker": 8497,
      "adsl": 8498,
      "metropolis": 8499,
      "castilian": 8500,
      "----------------": 8501,
      "earnhardt": 8502,
      "locks": 8503,
      "browning": 8504,
      "emery": 8505,
      "etrusca": 8506,
      "slova": 8507,
      "ateness": 8508,
      "franaois": 8509,
      "frugal": 8510,
      "clancy": 8511,
      "syndi": 8512,
      "regula": 8513,
      "shearer": 8514,
      "gourmet": 8515,
      "twist": 8516,
      "endowment": 8517,
      "fahrenhe": 8518,
      "discriminatory": 8519,
      "wheeler": 8520,
      "mavericks": 8521,
      "reportable": 8522,
      "pergamum": 8523,
      "cochran": 8524,
      "coalitions": 8525,
      "cincinnati": 8526,
      "oldsmobi": 8527,
      "interventionist": 8528,
      "ulysses": 8529,
      "ornitho": 8530,
      "pollitt": 8531,
      "watendlath": 8532,
      "bettelheim": 8533,
      "fahrenheit": 8534,
      "215": 8535,
      "410": 8536,
      "aling": 8537,
      "acade": 8538,
      "braun": 8539,
      "equa": 8540,
      "epo": 8541,
      "frai": 8542,
      "gliani": 8543,
      "lri": 8544,
      "muop": 8545,
      "mtv": 8546,
      "nl": 8547,
      "nuo": 8548,
      "ode": 8549,
      "rv": 8550,
      "sle": 8551,
      "scre": 8552,
      "spark": 8553,
      "strau": 8554,
      "strip": 8555,
      "vres": 8556,
      "chas": 8557,
      "thas": 8558,
      "caly": 8559,
      "cage": 8560,
      "senho": 8561,
      "segre": 8562,
      "segal": 8563,
      "selango": 8564,
      "varian": 8565,
      "hoku": 8566,
      "encom": 8567,
      "gimi": 8568,
      "chola": 8569,
      "nov": 8570,
      "noec": 8571,
      "tune": 8572,
      "incourt": 8573,
      "inferen": 8574,
      "make": 8575,
      "magaz": 8576,
      "soder": 8577,
      "soders": 8578,
      "socola": 8579,
      "chian": 8580,
      "rasta": 8581,
      "tohoku": 8582,
      "appala": 8583,
      "vira": 8584,
      "bok": 8585,
      "boli": 8586,
      "lovingly": 8587,
      "keats": 8588,
      "canche": 8589,
      "canico": 8590,
      "capi": 8591,
      "tima": 8592,
      "tily": 8593,
      "tici": 8594,
      "doe": 8595,
      "domino": 8596,
      "dobrava": 8597,
      "totaling": 8598,
      "debo": 8599,
      "aries": 8600,
      "laneum": 8601,
      "tradition": 8602,
      "baba": 8603,
      "balls": 8604,
      "libera": 8605,
      "rimini": 8606,
      "sio": 8607,
      "nec": 8608,
      "nese": 8609,
      "nepan": 8610,
      "vour": 8611,
      "handi": 8612,
      "khas": 8613,
      "alterman": 8614,
      "allah": 8615,
      "sati": 8616,
      "emmet": 8617,
      "tern": 8618,
      "nii": 8619,
      "haggling": 8620,
      "marty": 8621,
      "civi": 8622,
      "gae": 8623,
      "berly": 8624,
      "1822": 8625,
      "1866": 8626,
      "1066": 8627,
      "lup": 8628,
      "1566": 8629,
      "barker": 8630,
      "barbie": 8631,
      "pelee": 8632,
      "quentin": 8633,
      "171": 8634,
      "stem": 8635,
      "carre": 8636,
      "carmel": 8637,
      "141": 8638,
      "1450": 8639,
      "kent": 8640,
      "mint": 8641,
      "ressive": 8642,
      "risk": 8643,
      "merci": 8644,
      "cycle": 8645,
      "rambo": 8646,
      "jedi": 8647,
      "broderick": 8648,
      "mcmahon": 8649,
      "bomber": 8650,
      "ickes": 8651,
      "media": 8652,
      "fuk": 8653,
      "fuller": 8654,
      "gertis": 8655,
      "bric": 8656,
      "latter": 8657,
      "shales": 8658,
      "madden": 8659,
      "hallowe": 8660,
      "ferry": 8661,
      "giel": 8662,
      "plex": 8663,
      "quite": 8664,
      "outs": 8665,
      "leuchter": 8666,
      "vester": 8667,
      "ocg": 8668,
      "sters": 8669,
      "seymour": 8670,
      "bessette": 8671,
      "333": 8672,
      "fleming": 8673,
      "craf": 8674,
      "craggy": 8675,
      "versace": 8676,
      "romana": 8677,
      "grizz": 8678,
      "elephan": 8679,
      "1901": 8680,
      "annex": 8681,
      "bougain": 8682,
      "rumin": 8683,
      "close": 8684,
      "azincourt": 8685,
      "saladin": 8686,
      "afri": 8687,
      "jaipur": 8688,
      "emilia": 8689,
      "posner": 8690,
      "spokes": 8691,
      "brute": 8692,
      "bellagio": 8693,
      "unabomber": 8694,
      "elaine": 8695,
      "tunku": 8696,
      "herculaneum": 8697,
      "google": 8698,
      "bodrum": 8699,
      "simpsons": 8700,
      "jasper": 8701,
      "perenni": 8702,
      "expensed": 8703,
      "boards": 8704,
      "pointcast": 8705,
      "central": 8706,
      "ibicenco": 8707,
      "tropicana": 8708,
      "forfeiture": 8709,
      "modigliani": 8710,
      "summarizing": 8711,
      "hakone": 8712,
      "lusitania": 8713,
      "joshua": 8714,
      "lavishly": 8715,
      "juraho": 8716,
      "lebuh": 8717,
      "herodian": 8718,
      "jeweled": 8719,
      "galveston": 8720,
      "fateh": 8721,
      "atircm": 8722,
      "gainsborough": 8723,
      "desirade": 8724,
      "retorted": 8725,
      "strauss": 8726,
      "selangor": 8727,
      "gimignano": 8728,
      "soderbergh": 8729,
      "rastafar": 8730,
      "appalachian": 8731,
      "traditionalists": 8732,
      "halloween": 8733,
      "323": 8734,
      "440": 8735,
      "ador": 8736,
      "bhar": 8737,
      "croix": 8738,
      "dier": 8739,
      "fies": 8740,
      "hqua": 8741,
      "ivan": 8742,
      "idas": 8743,
      "joi": 8744,
      "jason": 8745,
      "oo": 8746,
      "ow": 8747,
      "oma": 8748,
      "olim": 8749,
      "plin": 8750,
      "pfitz": 8751,
      "rdo": 8752,
      "schong": 8753,
      "stic": 8754,
      "snar": 8755,
      "vn": 8756,
      "wah": 8757,
      "wale": 8758,
      "xap": 8759,
      "yin": 8760,
      "chs": 8761,
      "annui": 8762,
      "ance": 8763,
      "ied": 8764,
      "trla": 8765,
      "cahill": 8766,
      "hos": 8767,
      "taste": 8768,
      "atlan": 8769,
      "aiguille": 8770,
      "inath": 8771,
      "inaccu": 8772,
      "noir": 8773,
      "ichi": 8774,
      "malone": 8775,
      "sof": 8776,
      "somalia": 8777,
      "quad": 8778,
      "congres": 8779,
      "giata": 8780,
      "rative": 8781,
      "confoun": 8782,
      "leve": 8783,
      "lega": 8784,
      "bino": 8785,
      "taipa": 8786,
      "vani": 8787,
      "loec": 8788,
      "duff": 8789,
      "kemal": 8790,
      "tiveness": 8791,
      "sanchez": 8792,
      "dead": 8793,
      "tami": 8794,
      "recoun": 8795,
      "dani": 8796,
      "hef": 8797,
      "hebron": 8798,
      "arcade": 8799,
      "best": 8800,
      "trafal": 8801,
      "trajan": 8802,
      "basi": 8803,
      "babur": 8804,
      "cambio": 8805,
      "libya": 8806,
      "192": 8807,
      "1913": 8808,
      "vocal": 8809,
      "errol": 8810,
      "tans": 8811,
      "tanah": 8812,
      "alto": 8813,
      "althea": 8814,
      "kilo": 8815,
      "kilim": 8816,
      "miss": 8817,
      "emen": 8818,
      "rani": 8819,
      "geek": 8820,
      "newport": 8821,
      "newark": 8822,
      "sailing": 8823,
      "ciu": 8824,
      "1824": 8825,
      "dual": 8826,
      "peda": 8827,
      "pixar": 8828,
      "172": 8829,
      "katha": 8830,
      "paramo": 8831,
      "illa": 8832,
      "305": 8833,
      "buds": 8834,
      "prop": 8835,
      "burlington": 8836,
      "kooley": 8837,
      "woj": 8838,
      "139": 8839,
      "jerome": 8840,
      "oden": 8841,
      "404": 8842,
      "winn": 8843,
      "puri": 8844,
      "dend": 8845,
      "wards": 8846,
      "disinte": 8847,
      "258": 8848,
      "zzzz": 8849,
      "hepburn": 8850,
      "corp": 8851,
      "borlange": 8852,
      "ableness": 8853,
      "sym": 8854,
      "shady": 8855,
      "tzer": 8856,
      "akko": 8857,
      "ality": 8858,
      "schle": 8859,
      "irfa": 8860,
      "stiffen": 8861,
      "scandina": 8862,
      "logique": 8863,
      "clare": 8864,
      "ccls": 8865,
      "lumiyre": 8866,
      "rush": 8867,
      "museu": 8868,
      "edwards": 8869,
      "curzon": 8870,
      "lyndon": 8871,
      "962": 8872,
      "fisher": 8873,
      "multisite": 8874,
      "liant": 8875,
      "coppola": 8876,
      "sunni": 8877,
      "przy": 8878,
      "blackjack": 8879,
      "boomer": 8880,
      "ived": 8881,
      "deciview": 8882,
      "dassa": 8883,
      "ltcm": 8884,
      "gypsy": 8885,
      "yardley": 8886,
      "catalina": 8887,
      "school": 8888,
      "bartolo": 8889,
      "circum": 8890,
      "oaks": 8891,
      "marshland": 8892,
      "pulpit": 8893,
      "gallery": 8894,
      "brownell": 8895,
      "construc": 8896,
      "stack": 8897,
      "affor": 8898,
      "nicholson": 8899,
      "canaan": 8900,
      "rajputs": 8901,
      "modernizing": 8902,
      "shepard": 8903,
      "foreclosed": 8904,
      "miyajima": 8905,
      "nebbishes": 8906,
      "apollin": 8907,
      "pearinsky": 8908,
      "bellows": 8909,
      "orientalism": 8910,
      "dolorose": 8911,
      "oasdhi": 8912,
      "meadows": 8913,
      "commuting": 8914,
      "cornwallis": 8915,
      "madeirans": 8916,
      "predominant": 8917,
      "converse": 8918,
      "cliches": 8919,
      "mathews": 8920,
      "group": 8921,
      "mameluke": 8922,
      "matsuri": 8923,
      "statisti": 8924,
      "saffron": 8925,
      "navigat": 8926,
      "people": 8927,
      "groseor": 8928,
      "pangkor": 8929,
      "filegate": 8930,
      "procure": 8931,
      "severin": 8932,
      "issuers": 8933,
      "reasonableness": 8934,
      "bowsher": 8935,
      "gezira": 8936,
      "bourgogne": 8937,
      "lutterfield": 8938,
      "basilique": 8939,
      "characterizes": 8940,
      "foliage": 8941,
      "encompas": 8942,
      "soderstrom": 8943,
      "spokeswoman": 8944,
      "pfitzner": 8945,
      "walesa": 8946,
      "trafalgar": 8947,
      "scandinavia": 8948,
      "przyro": 8949,
      "630": 8950,
      "796": 8951,
      "atri": 8952,
      "afici": 8953,
      "bbon": 8954,
      "bier": 8955,
      "bhun": 8956,
      "clap": 8957,
      "clut": 8958,
      "czes": 8959,
      "drac": 8960,
      "echi": 8961,
      "eis": 8962,
      "foi": 8963,
      "frau": 8964,
      "fdr": 8965,
      "ias": 8966,
      "ize": 8967,
      "ifill": 8968,
      "orang": 8969,
      "ope": 8970,
      "pich": 8971,
      "sko": 8972,
      "teu": 8973,
      "uto": 8974,
      "whoa": 8975,
      "whin": 8976,
      "zni": 8977,
      "annu": 8978,
      "sexua": 8979,
      "seville": 8980,
      "lain": 8981,
      "coman": 8982,
      "cors": 8983,
      "vauc": 8984,
      "hof": 8985,
      "hog": 8986,
      "homes": 8987,
      "hospi": 8988,
      "tale": 8989,
      "amen": 8990,
      "nghen": 8991,
      "ettes": 8992,
      "lambert": 8993,
      "apen": 8994,
      "vivero": 8995,
      "boh": 8996,
      "boasts": 8997,
      "eugen": 8998,
      "bite": 8999,
      "bingo": 9000,
      "lope": 9001,
      "cauca": 9002,
      "cann": 9003,
      "tick": 9004,
      "timate": 9005,
      "saul": 9006,
      "tinat": 9007,
      "dome": 9008,
      "resul": 9009,
      "reina": 9010,
      "reanaly": 9011,
      "remake": 9012,
      "moon": 9013,
      "neur": 9014,
      "roid": 9015,
      "travolta": 9016,
      "tones": 9017,
      "toned": 9018,
      "balla": 9019,
      "lite": 9020,
      "liver": 9021,
      "libre": 9022,
      "lucian": 9023,
      "rique": 9024,
      "rization": 9025,
      "umberto": 9026,
      "handel": 9027,
      "itan": 9028,
      "hira": 9029,
      "hick": 9030,
      "tand": 9031,
      "langdale": 9032,
      "mandar": 9033,
      "esses": 9034,
      "kite": 9035,
      "mangu": 9036,
      "ningham": 9037,
      "hase": 9038,
      "hazzzz": 9039,
      "palis": 9040,
      "marc": 9041,
      "pokhara": 9042,
      "geo": 9043,
      "hype": 9044,
      "207": 9045,
      "gare": 9046,
      "gality": 9047,
      "1840": 9048,
      "1848": 9049,
      "1888": 9050,
      "1893": 9051,
      "1886": 9052,
      "cele": 9053,
      "rya": 9054,
      "rysia": 9055,
      "luxu": 9056,
      "barthele": 9057,
      "pew": 9058,
      "adjudi": 9059,
      "kadem": 9060,
      "1279": 9061,
      "form": 9062,
      "forces": 9063,
      "parle": 9064,
      "parsis": 9065,
      "carlis": 9066,
      "buen": 9067,
      "sapporo": 9068,
      "zawa": 9069,
      "quered": 9070,
      "hume": 9071,
      "roton": 9072,
      "croft": 9073,
      "mine": 9074,
      "interven": 9075,
      "niak": 9076,
      "fero": 9077,
      "joyo": 9078,
      "waal": 9079,
      "serve": 9080,
      "zewski": 9081,
      "denise": 9082,
      "mccann": 9083,
      "wiley": 9084,
      "penny": 9085,
      "psc": 9086,
      "greg": 9087,
      "porta": 9088,
      "porphy": 9089,
      "georgebush": 9090,
      "kinsey": 9091,
      "mesquite": 9092,
      "corniche": 9093,
      "liath": 9094,
      "exot": 9095,
      "shawn": 9096,
      "golfers": 9097,
      "ponce": 9098,
      "paume": 9099,
      "rdin": 9100,
      "aean": 9101,
      "lockhe": 9102,
      "266": 9103,
      "stur": 9104,
      "souqs": 9105,
      "oversi": 9106,
      "horn": 9107,
      "kanchi": 9108,
      "creation": 9109,
      "mitsu": 9110,
      "bmw": 9111,
      "rowboats": 9112,
      "988": 9113,
      "break": 9114,
      "fontana": 9115,
      "agde": 9116,
      "jessica": 9117,
      "houseboats": 9118,
      "specti": 9119,
      "prze": 9120,
      "hotline": 9121,
      "acroseto": 9122,
      "dolce": 9123,
      "wynn": 9124,
      "villajoyo": 9125,
      "ditch": 9126,
      "deciviews": 9127,
      "simbel": 9128,
      "bionomics": 9129,
      "cunningham": 9130,
      "rities": 9131,
      "dahmer": 9132,
      "catalonian": 9133,
      "becker": 9134,
      "beckett": 9135,
      "piazz": 9136,
      "playa": 9137,
      "weights": 9138,
      "portela": 9139,
      "couver": 9140,
      "circu": 9141,
      "crawford": 9142,
      "whipmaster": 9143,
      "weiss": 9144,
      "fluffy": 9145,
      "phone": 9146,
      "quantitatively": 9147,
      "paneled": 9148,
      "matalin": 9149,
      "appropriateness": 9150,
      "yamuna": 9151,
      "taksim": 9152,
      "pousada": 9153,
      "revises": 9154,
      "slumped": 9155,
      "teppi": 9156,
      "agonized": 9157,
      "tweak": 9158,
      "intosh": 9159,
      "fretwork": 9160,
      "mitterrand": 9161,
      "madrilellos": 9162,
      "domingo": 9163,
      "vacaville": 9164,
      "swayambhun": 9165,
      "kanazawa": 9166,
      "mainstay": 9167,
      "86696": 9168,
      "wharton": 9169,
      "lacquerware": 9170,
      "schwarzenegger": 9171,
      "oldsmobile": 9172,
      "closeout": 9173,
      "schongauer": 9174,
      "aficiona": 9175,
      "echizen": 9176,
      "pichkari": 9177,
      "mandarin": 9178,
      "barthelemy": 9179,
      "carlisle": 9180,
      "villajoyosa": 9181,
      "swayambhunath": 9182,
      "015": 9183,
      "480": 9184,
      "695": 9185,
      "aka": 9186,
      "ajam": 9187,
      "asano": 9188,
      "hdz": 9189,
      "imax": 9190,
      "kuan": 9191,
      "kli": 9192,
      "mchu": 9193,
      "nach": 9194,
      "nine": 9195,
      "ora": 9196,
      "odi": 9197,
      "rn": 9198,
      "scu": 9199,
      "stap": 9200,
      "sten": 9201,
      "sci": 9202,
      "sfor": 9203,
      "srina": 9204,
      "tles": 9205,
      "ufc": 9206,
      "wie": 9207,
      "xtap": 9208,
      "yak": 9209,
      "cht": 9210,
      "chy": 9211,
      "thvi": 9212,
      "thres": 9213,
      "calais": 9214,
      "cagli": 9215,
      "serai": 9216,
      "laine": 9217,
      "lafayette": 9218,
      "cous": 9219,
      "vable": 9220,
      "sepa": 9221,
      "tag": 9222,
      "tage": 9223,
      "taker": 9224,
      "ently": 9225,
      "gir": 9226,
      "aise": 9227,
      "aikman": 9228,
      "nose": 9229,
      "band": 9230,
      "auxer": 9231,
      "etc": 9232,
      "eto": 9233,
      "veden": 9234,
      "mazar": 9235,
      "sols": 9236,
      "chile": 9237,
      "raffles": 9238,
      "tobe": 9239,
      "toll": 9240,
      "todd": 9241,
      "honfleur": 9242,
      "conven": 9243,
      "connau": 9244,
      "levard": 9245,
      "eure": 9246,
      "baton": 9247,
      "lord": 9248,
      "cans": 9249,
      "tito": 9250,
      "tice": 9251,
      "dover": 9252,
      "domini": 9253,
      "demon": 9254,
      "debut": 9255,
      "triz": 9256,
      "trium": 9257,
      "refu": 9258,
      "moda": 9259,
      "aran": 9260,
      "mero": 9261,
      "megas": 9262,
      "mess": 9263,
      "toni": 9264,
      "bagg": 9265,
      "dala": 9266,
      "rion": 9267,
      "differ": 9268,
      "1912": 9269,
      "benz": 9270,
      "tucson": 9271,
      "khajuraho": 9272,
      "ornam": 9273,
      "hic": 9274,
      "himeji": 9275,
      "alt": 9276,
      "alco": 9277,
      "myrdin": 9278,
      "manjus": 9279,
      "estori": 9280,
      "usace": 9281,
      "haus": 9282,
      "trun": 9283,
      "wered": 9284,
      "ascet": 9285,
      "associates": 9286,
      "satu": 9287,
      "isla": 9288,
      "sagar": 9289,
      "savon": 9290,
      "sabina": 9291,
      "quiet": 9292,
      "habana": 9293,
      "unzen": 9294,
      "pare": 9295,
      "marks": 9296,
      "llot": 9297,
      "geveden": 9298,
      "cima": 9299,
      "ruer": 9300,
      "1815": 9301,
      "1899": 9302,
      "landin": 9303,
      "sacre": 9304,
      "mug": 9305,
      "155": 9306,
      "1519": 9307,
      "1538": 9308,
      "barth": 9309,
      "barco": 9310,
      "barro": 9311,
      "barrow": 9312,
      "lass": 9313,
      "pick": 9314,
      "ffe": 9315,
      "judg": 9316,
      "juxtap": 9317,
      "jamie": 9318,
      "yorkshire": 9319,
      "granada": 9320,
      "probono": 9321,
      "promp": 9322,
      "prostag": 9323,
      "hupat": 9324,
      "javea": 9325,
      "shimoda": 9326,
      "collin": 9327,
      "dalt": 9328,
      "joel": 9329,
      "rami": 9330,
      "winz": 9331,
      "mcvei": 9332,
      "harley": 9333,
      "penney": 9334,
      "walnut": 9335,
      "kule": 9336,
      "greed": 9337,
      "brist": 9338,
      "prithvi": 9339,
      "amachi": 9340,
      "norton": 9341,
      "torna": 9342,
      "grab": 9343,
      "ponso": 9344,
      "herrera": 9345,
      "plazas": 9346,
      "bini": 9347,
      "pashupat": 9348,
      "leto": 9349,
      "napoli": 9350,
      "subver": 9351,
      "pinaco": 9352,
      "552": 9353,
      "jorge": 9354,
      "arava": 9355,
      "lumet": 9356,
      "lumbini": 9357,
      "country": 9358,
      "bunker": 9359,
      "origi": 9360,
      "carica": 9361,
      "kathy": 9362,
      "remnick": 9363,
      "gorges": 9364,
      "pyt": 9365,
      "boulevard": 9366,
      "cervan": 9367,
      "pundi": 9368,
      "ecp": 9369,
      "clock": 9370,
      "sylvester": 9371,
      "groaned": 9372,
      "afl": 9373,
      "maples": 9374,
      "goldsmiths": 9375,
      "question": 9376,
      "1803": 9377,
      "seinfeld": 9378,
      "spaghet": 9379,
      "augusta": 9380,
      "beaubourg": 9381,
      "provencal": 9382,
      "lyons": 9383,
      "neptune": 9384,
      "millan": 9385,
      "jacu": 9386,
      "garage": 9387,
      "cookbook": 9388,
      "cookbooks": 9389,
      "theodosius": 9390,
      "pamela": 9391,
      "brookings": 9392,
      "parochi": 9393,
      "ethnography": 9394,
      "mations": 9395,
      "cranach": 9396,
      "chlorin": 9397,
      "mauricio": 9398,
      "babwe": 9399,
      "position": 9400,
      "wachtler": 9401,
      "philipsburg": 9402,
      "idealists": 9403,
      "kohler": 9404,
      "zimbabwe": 9405,
      "arola": 9406,
      "talmud": 9407,
      "venezia": 9408,
      "venezuela": 9409,
      "franaaise": 9410,
      "danielle": 9411,
      "amalfi": 9412,
      "specter": 9413,
      "blandy": 9414,
      "zapruer": 9415,
      "ambrose": 9416,
      "aurelius": 9417,
      "magdalene": 9418,
      "smyrna": 9419,
      "quartier": 9420,
      "aerosols": 9421,
      "overhanging": 9422,
      "incredu": 9423,
      "caravanserai": 9424,
      "chernomyrdin": 9425,
      "chekhov": 9426,
      "triangu": 9427,
      "proust": 9428,
      "schiele": 9429,
      "historique": 9430,
      "smithsonian": 9431,
      "calyp": 9432,
      "segregation": 9433,
      "variances": 9434,
      "eisner": 9435,
      "lockheed": 9436,
      "ajami": 9437,
      "mchugh": 9438,
      "srinagar": 9439,
      "connaught": 9440,
      "baggot": 9441,
      "manjushri": 9442,
      "estoril": 9443,
      "savonarola": 9444,
      "prostaglandin": 9445,
      "mcveigh": 9446,
      "pinacoteca": 9447,
      "211": 9448,
      "712": 9449,
      "aly": 9450,
      "agri": 9451,
      "bside": 9452,
      "dney": 9453,
      "ddin": 9454,
      "drum": 9455,
      "dthri": 9456,
      "eira": 9457,
      "evita": 9458,
      "fpa": 9459,
      "fine": 9460,
      "fiel": 9461,
      "kner": 9462,
      "lp": 9463,
      "lkill": 9464,
      "mba": 9465,
      "mbun": 9466,
      "nch": 9467,
      "qq": 9468,
      "s4": 9469,
      "tsu": 9470,
      "unen": 9471,
      "usepa": 9472,
      "whel": 9473,
      "yl": 9474,
      "ngine": 9475,
      "nhim": 9476,
      "cald": 9477,
      "khel": 9478,
      "sesam": 9479,
      "coff": 9480,
      "tama": 9481,
      "endo": 9482,
      "ening": 9483,
      "ensing": 9484,
      "phlogi": 9485,
      "uylkill": 9486,
      "amboise": 9487,
      "chopin": 9488,
      "suji": 9489,
      "acqui": 9490,
      "nobun": 9491,
      "male": 9492,
      "thus": 9493,
      "rag": 9494,
      "tously": 9495,
      "bold": 9496,
      "leng": 9497,
      "lein": 9498,
      "batik": 9499,
      "duch": 9500,
      "dudley": 9501,
      "trova": 9502,
      "cand": 9503,
      "cannes": 9504,
      "tating": 9505,
      "tizing": 9506,
      "dour": 9507,
      "domen": 9508,
      "doyle": 9509,
      "dodend": 9510,
      "rog": 9511,
      "rodi": 9512,
      "rover": 9513,
      "romul": 9514,
      "totali": 9515,
      "mats": 9516,
      "deb": 9517,
      "residen": 9518,
      "reliant": 9519,
      "dane": 9520,
      "molly": 9521,
      "this": 9522,
      "ardino": 9523,
      "lant": 9524,
      "belie": 9525,
      "hock": 9526,
      "baylis": 9527,
      "giusep": 9528,
      "liken": 9529,
      "lipp": 9530,
      "lillian": 9531,
      "sition": 9532,
      "sibility": 9533,
      "siberia": 9534,
      "dians": 9535,
      "diaz": 9536,
      "dized": 9537,
      "chanel": 9538,
      "need": 9539,
      "tyco": 9540,
      "bain": 9541,
      "orbi": 9542,
      "orhan": 9543,
      "himi": 9544,
      "pheric": 9545,
      "esse": 9546,
      "liners": 9547,
      "ements": 9548,
      "rants": 9549,
      "lstre": 9550,
      "gayer": 9551,
      "dauphine": 9552,
      "poo": 9553,
      "guild": 9554,
      "2012": 9555,
      "hamon": 9556,
      "1820": 9557,
      "1861": 9558,
      "nablus": 9559,
      "nandy": 9560,
      "ryo": 9561,
      "lutions": 9562,
      "1565": 9563,
[...]
