<pad>	0
<unk>	0
<s>	0
</s>	0
[SEP]	0
▁t	-0
he	-1
▁a	-2
in	-3
re	-4
▁the	-5
▁o	-6
▁.	-7
▁s	-8
▁w	-9
er	-10
at	-11
on	-12
▁i	-13
en	-14
▁c	-15
ou	-16
▁b	-17
an	-18
es	-19
or	-20
▁,	-21
ed	-22
▁p	-23
▁f	-24
▁an	-25
ing	-26
▁m	-27
▁to	-28
al	-29
▁d	-30
▁of	-31
▁h	-32
it	-33
▁in	-34
▁th	-35
ar	-36
▁and	-37
▁'	-38
as	-39
is	-40
▁T	-41
le	-42
ic	-43
▁n	-44
om	-45
ion	-46
▁l	-47
ent	-48
▁g	-49
ll	-50
ve	-51
▁re	-52
▁y	-53
▁The	-54
▁be	-55
▁e	-56
st	-57
ot	-58
▁I	-59
▁u	-60
ly	-61
▁is	-62
ow	-63
▁that	-64
▁it	-65
ut	-66
ro	-67
id	-68
se	-69
ct	-70
▁on	-71
▁you	-72
ver	-73
et	-74
ld	-75
ad	-76
ay	-77
▁for	-78
▁we	-79
▁st	-80
▁S	-81
ur	-82
ce	-83
▁A	-84
ig	-85
▁was	-86
▁he	-87
im	-88
ch	-89
ation	-90
am	-91
▁C	-92
▁are	-93
ir	-94
▁k	-95
▁ha	-96
▁wh	-97
ith	-98
▁r	-99
il	-100
ol	-101
▁M	-102
▁as	-103
▁with	-104
▁not	-105
ke	-106
ment	-107
ter	-108
ill	-109
nd	-110
▁pro	-111
▁have	-112
ul	-113
▁H	-114
her	-115
and	-116
▁de	-117
op	-118
▁se	-119
▁P	-120
od	-121
▁B	-122
▁do	-123
▁at	-124
ould	-125
ers	-126
▁con	-127
▁they	-128
ate	-129
▁ne	-130
est	-131
ant	-132
ht	-133
ge	-134
ain	-135
ore	-136
th	-137
▁go	-138
▁W	-139
ac	-140
ri	-141
▁or	-142
ess	-143
▁li	-144
qu	-145
▁kn	-146
▁com	-147
us	-148
▁fr	-149
▁ex	-150
pp	-151
▁su	-152
ist	-153
▁know	-154
nt	-155
ust	-156
ort	-157
ab	-158
ity	-159
res	-160
▁sh	-161
▁v	-162
▁1	-163
▁ye	-164
▁by	-165
ies	-166
mp	-167
▁uh	-168
▁from	-169
▁D	-170
▁ab	-171
ome	-172
out	-173
ff	-174
ight	-175
▁F	-176
▁but	-177
▁R	-178
ra	-179
▁j	-180
ost	-181
ive	-182
ally	-183
ard	-184
▁N	-185
▁so	-186
▁G	-187
red	-188
▁le	-189
▁al	-190
▁ch	-191
all	-192
▁me	-193
▁L	-194
▁wor	-195
os	-196
▁can	-197
ud	-198
▁E	-199
ie	-200
ect	-201
end	-202
▁all	-203
art	-204
el	-205
um	-206
▁J	-207
oug	-208
▁whe	-209
un	-210
▁has	-211
our	-212
ap	-213
▁had	-214
very	-215
au	-216
▁were	-217
iv	-218
▁)	-219
▁(	-220
▁his	-221
ast	-222
one	-223
▁pl	-224
em	-225
▁out	-226
▁like	-227
▁this	-228
ci	-229
▁man	-230
▁It	-231
▁one	-232
ong	-233
▁about	-234
▁sp	-235
▁O	-236
ak	-237
ok	-238
▁tr	-239
▁?	-240
▁there	-241
ous	-242
▁lo	-243
ice	-244
▁no	-245
▁will	-246
▁sa	-247
ink	-248
▁int	-249
▁would	-250
ther	-251
ound	-252
▁their	-253
ind	-254
▁bec	-255
▁ar	-256
▁up	-257
▁any	-258
ah	-259
ions	-260
ated	-261
▁pe	-262
ure	-263
▁more	-264
if	-265
ack	-266
ime	-267
▁just	-268
ake	-269
▁them	-270
▁don	-271
ag	-272
ide	-273
iz	-274
ople	-275
▁comp	-276
▁ag	-277
ance	-278
ough	-279
are	-280
▁what	-281
orm	-282
ause	-283
ine	-284
▁He	-285
▁Th	-286
▁us	-287
▁work	-288
▁ad	-289
▁get	-290
▁In	-291
▁my	-292
ans	-293
cc	-294
ep	-295
ven	-296
▁some	-297
▁think	-298
age	-299
▁en	-300
▁yeah	-301
▁who	-302
▁people	-303
▁Y	-304
▁if	-305
▁There	-306
▁been	-307
▁year	-308
▁did	-309
ew	-310
ings	-311
ount	-312
▁te	-313
00	-314
▁per	-315
ble	-316
▁cl	-317
▁other	-318
▁well	-319
▁imp	-320
▁res	-321
ame	-322
▁because	-323
ays	-324
ere	-325
ue	-326
ich	-327
ite	-328
▁inc	-329
able	-330
▁gr	-331
ations	-332
ish	-333
▁un	-334
▁exp	-335
▁time	-336
▁than	-337
▁when	-338
ck	-339
▁di	-340
form	-341
erv	-342
ry	-343
▁qu	-344
ace	-345
▁K	-346
▁cont	-347
ub	-348
▁off	-349
▁over	-350
act	-351
▁St	-352
ose	-353
▁pr	-354
itt	-355
▁2	-356
hing	-357
▁its	-358
ress	-359
▁dis	-360
ree	-361
own	-362
▁her	-363
▁rep	-364
ult	-365
ors	-366
ary	-367
▁"	-368
ber	-369
▁co	-370
ence	-371
ign	-372
so	-373
ip	-374
lo	-375
ach	-376
▁could	-377
wn	-378
▁him	-379
▁19	-380
▁V	-381
ade	-382
▁tw	-383
lic	-384
▁ro	-385
▁she	-386
ail	-387
▁They	-388
▁good	-389
▁only	-390
▁mu	-391
▁U	-392
av	-393
mer	-394
▁app	-395
▁We	-396
▁which	-397
uct	-398
reat	-399
hed	-400
ments	-401
▁said	-402
ical	-403
ass	-404
pt	-405
▁bu	-406
gr	-407
▁pre	-408
og	-409
ire	-410
ase	-411
ild	-412
int	-413
▁part	-414
▁your	-415
▁see	-416
ia	-417
enc	-418
▁want	-419
▁very	-420
▁right	-421
▁new	-422
▁most	-423
ark	-424
vel	-425
ens	-426
▁fe	-427
ates	-428
▁need	-429
ang	-430
▁how	-431
▁really	-432
▁into	-433
cent	-434
▁bo	-435
▁every	-436
ory	-437
▁Ch	-438
▁now	-439
ond	-440
▁You	-441
▁po	-442
▁should	-443
▁sc	-444
ial	-445
ition	-446
aw	-447
ile	-448
▁gu	-449
nder	-450
ved	-451
▁lot	-452
ty	-453
▁act	-454
▁acc	-455
ord	-456
▁fo	-457
▁des	-458
▁am	-459
▁um	-460
▁much	-461
omet	-462
▁bet	-463
fter	-464
▁never	-465
ian	-466
▁two	-467
ving	-468
lect	-469
▁does	-470
iss	-471
▁here	-472
▁years	-473
▁br	-474
▁many	-475
▁cr	-476
▁sm	-477
li	-478
ons	-479
ices	-480
ick	-481
les	-482
ater	-483
▁also	-484
▁att	-485
ict	-486
▁look	-487
▁under	-488
ities	-489
eral	-490
▁back	-491
▁going	-492
ert	-493
gram	-494
▁where	-495
▁then	-496
amp	-497
▁thr	-498
▁may	-499
igh	-500
alk	-501
▁cons	-502
▁somet	-503
ces	-504
ents	-505
▁way	-506
cial	-507
▁fir	-508
sel	-509
ft	-510
ren	-511
▁even	-512
vern	-513
▁Wh	-514
▁our	-515
▁dec	-516
▁got	-517
▁inv	-518
und	-519
ious	-520
its	-521
▁This	-522
▁make	-523
▁diff	-524
ual	-525
ought	-526
▁serv	-527
ning	-528
▁cent	-529
▁too	-530
ys	-531
ec	-532
▁mo	-533
land	-534
▁ind	-535
▁long	-536
▁sy	-537
we	-538
iew	-539
formation	-540
▁col	-541
fore	-542
▁fin	-543
thing	-544
▁after	-545
--	-546
▁program	-547
▁down	-548
▁eff	-549
tern	-550
▁rec	-551
gal	-552
ury	-553
ouse	-554
▁comm	-555
gan	-556
omm	-557
▁rem	-558
▁prov	-559
per	-560
ne	-561
▁ent	-562
lud	-563
ful	-564
ib	-565
ublic	-566
▁cost	-567
way	-568
pe	-569
▁requ	-570
▁car	-571
other	-572
lp	-573
▁through	-574
▁str	-575
▁these	-576
ational	-577
▁made	-578
ract	-579
ily	-580
te	-581
▁;	-582
fe	-583
▁first	-584
▁reg	-585
▁spe	-586
▁used	-587
▁didn	-588
▁take	-589
urn	-590
ull	-591
▁still	-592
ittle	-593
▁old	-594
▁help	-595
ise	-596
ular	-597
▁information	-598
ility	-599
▁mon	-600
oth	-601
ange	-602
ject	-603
stem	-604
▁great	-605
▁rel	-606
▁things	-607
ting	-608
ative	-609
▁say	-610
als	-611
▁something	-612
get	-613
ating	-614
▁little	-615
▁those	-616
ug	-617
vernment	-618
ob	-619
▁pol	-620
▁ass	-621
ather	-622
▁supp	-623
ms	-624
▁count	-625
▁An	-626
▁before	-627
▁3	-628
ually	-629
▁bel	-630
▁includ	-631
▁ev	-632
▁use	-633
▁mean	-634
duct	-635
▁add	-636
▁find	-637
uring	-638
ited	-639
▁system	-640
▁stud	-641
▁own	-642
imes	-643
▁id	-644
ards	-645
hes	-646
ible	-647
ave	-648
ars	-649
▁She	-650
ures	-651
▁bl	-652
ways	-653
▁ac	-654
cess	-655
▁pres	-656
old	-657
erest	-658
▁state	-659
▁being	-660
vers	-661
ax	-662
▁sub	-663
aking	-664
▁fam	-665
▁report	-666
ef	-667
▁call	-668
▁sec	-669
▁As	-670
ts	-671
oss	-672
▁again	-673
▁around	-674
▁wr	-675
ek	-676
▁ob	-677
▁But	-678
▁differe	-679
con	-680
▁oh	-681
ath	-682
▁kind	-683
▁show	-684
olog	-685
▁pay	-686
ood	-687
ork	-688
▁sur	-689
▁small	-690
▁law	-691
▁!	-692
▁pers	-693
▁hand	-694
ics	-695
▁high	-696
ix	-697
oney	-698
▁vis	-699
oh	-700
▁interest	-701
▁such	-702
ues	-703
ced	-704
▁disc	-705
▁New	-706
oc	-707
▁real	-708
▁always	-709
▁place	-710
▁199	-711
▁cour	-712
str	-713
ower	-714
▁inter	-715
self	-716
be	-717
ederal	-718
▁day	-719
led	-720
oup	-721
air	-722
ves	-723
meric	-724
ants	-725
ng	-726
ied	-727
ule	-728
▁city	-729
▁government	-730
▁emp	-731
▁end	-732
oy	-733
erm	-734
▁home	-735
ganiz	-736
ives	-737
▁bus	-738
▁loc	-739
▁same	-740
▁ke	-741
▁found	-742
▁last	-743
▁proble	-744
aint	-745
▁cap	-746
▁set	-747
ased	-748
▁lar	-749
▁Americ	-750
▁gen	-751
▁resp	-752
▁money	-753
▁public	-754
▁mod	-755
▁agenc	-756
cho	-757
▁fl	-758
▁Al	-759
▁import	-760
ident	-761
mb	-762
▁pop	-763
akes	-764
any	-765
▁start	-766
▁dr	-767
▁If	-768
ists	-769
az	-770
▁stand	-771
▁happ	-772
ince	-773
pl	-774
▁thing	-775
▁ret	-776
ines	-777
ific	-778
ody	-779
ying	-780
▁Br	-781
atch	-782
▁care	-783
▁Un	-784
▁three	-785
▁town	-786
▁op	-787
▁seem	-788
000	-789
▁dep	-790
▁plan	-791
▁talk	-792
▁thought	-793
▁Cl	-794
osed	-795
▁organiz	-796
rect	-797
▁def	-798
▁person	-799
ye	-800
ably	-801
▁That	-802
ank	-803
chool	-804
▁ear	-805
▁5	-806
▁Fr	-807
day	-808
▁num	-809
▁best	-810
▁appro	-811
▁Re	-812
▁est	-813
du	-814
▁art	-815
▁big	-816
▁child	-817
hen	-818
▁house	-819
ern	-820
▁Le	-821
iness	-822
▁anything	-823
▁belie	-824
▁tri	-825
▁ins	-826
▁el	-827
▁sl	-828
ains	-829
▁world	-830
ex	-831
▁put	-832
▁$	-833
▁few	-834
▁fact	-835
▁read	-836
▁play	-837
ween	-838
chn	-839
▁might	-840
▁ref	-841
llow	-842
▁better	-843
orn	-844
▁legal	-845
conom	-846
▁come	-847
▁val	-848
▁ph	-849
▁build	-850
▁No	-851
▁effect	-852
▁war	-853
▁different	-854
▁pri	-855
▁life	-856
▁hard	-857
▁met	-858
ered	-859
▁less	-860
ired	-861
▁ask	-862
▁tra	-863
▁between	-864
ution	-865
▁far	-866
velop	-867
▁4	-868
▁rule	-869
reet	-870
▁che	-871
▁while	-872
▁point	-873
▁both	-874
▁comple	-875
▁For	-876
ph	-877
vent	-878
▁must	-879
▁school	-880
▁lead	-881
ever	-882
ont	-883
aj	-884
▁eas	-885
ros	-886
▁important	-887
▁incre	-888
▁perform	-889
▁And	-890
rib	-891
▁sure	-892
▁week	-893
ters	-894
▁av	-895
ared	-896
ically	-897
▁rev	-898
▁contro	-899
ertain	-900
▁case	-901
ided	-902
▁min	-903
▁country	-904
▁iss	-905
ized	-906
▁percent	-907
▁rest	-908
▁ben	-909
▁chang	-910
cept	-911
▁away	-912
hip	-913
▁mark	-914
▁let	-915
ished	-916
▁cur	-917
▁sign	-918
▁det	-919
ins	-920
▁inst	-921
▁feel	-922
▁econom	-923
ilt	-924
agement	-925
▁sim	-926
▁went	-927
▁each	-928
ids	-929
▁wom	-930
▁char	-931
ute	-932
▁result	-933
▁book	-934
▁fund	-935
▁area	-936
▁conf	-937
▁during	-938
ism	-939
▁tax	-940
up	-941
▁doesn	-942
ata	-943
uss	-944
▁develop	-945
ten	-946
▁design	-947
▁Ar	-948
ale	-949
▁Ad	-950
▁ext	-951
▁Is	-952
▁conc	-953
▁aut	-954
ason	-955
ital	-956
alth	-957
▁dem	-958
▁guess	-959
▁ide	-960
▁business	-961
urch	-962
rew	-963
▁view	-964
▁Sh	-965
der	-966
man	-967
▁sit	-968
▁keep	-969
▁techn	-970
xt	-971
▁partic	-972
▁im	-973
ling	-974
▁product	-975
▁sk	-976
arch	-977
▁run	-978
▁aud	-979
▁quest	-980
▁benef	-981
▁aff	-982
▁another	-983
▁GA	-984
orts	-985
ward	-986
gest	-987
▁Mr	-988
▁services	-989
▁turn	-990
▁dist	-991
▁open	-992
▁ter	-993
orp	-994
▁tour	-995
que	-996
ross	-997
▁since	-998
▁cle	-999
ained	-1000
▁federal	-1001
▁visit	-1002
outh	-1003
▁process	-1004
ize	-1005
ient	-1006
▁Jon	-1007
▁hist	-1008
▁though	-1009
▁mil	-1010
ission	-1011
here	-1012
ense	-1013
▁prob	-1014
▁6	-1015
▁fun	-1016
▁head	-1017
seum	-1018
ural	-1019
ined	-1020
▁So	-1021
▁allow	-1022
less	-1023
▁On	-1024
▁ty	-1025
▁At	-1026
ock	-1027
▁done	-1028
ately	-1029
▁left	-1030
orth	-1031
riend	-1032
▁large	-1033
read	-1034
▁number	-1035
ats	-1036
▁control	-1037
ides	-1038
▁ever	-1039
ected	-1040
▁Ind	-1041
▁emplo	-1042
illion	-1043
▁trans	-1044
▁island	-1045
▁doing	-1046
▁pret	-1047
▁How	-1048
ted	-1049
▁What	-1050
▁month	-1051
stand	-1052
▁enough	-1053
▁bad	-1054
▁near	-1055
▁four	-1056
ians	-1057
▁data	-1058
ner	-1059
ajor	-1060
ric	-1061
ality	-1062
ash	-1063
ness	-1064
▁probably	-1065
▁Be	-1066
io	-1067
▁GAO	-1068
,000	-1069
ology	-1070
▁ed	-1071
▁LS	-1072
▁room	-1073
▁tell	-1074
▁invest	-1075
▁poss	-1076
▁test	-1077
▁mat	-1078
▁sw	-1079
▁Clint	-1080
▁unt	-1081
▁follow	-1082
uck	-1083
ley	-1084
▁water	-1085
ote	-1086
▁job	-1087
▁prop	-1088
uh	-1089
▁require	-1090
emp	-1091
▁once	-1092
anc	-1093
▁adv	-1094
ases	-1095
▁children	-1096
▁nothing	-1097
rent	-1098
side	-1099
▁Sp	-1100
▁programs	-1101
▁Clinton	-1102
▁direct	-1103
▁century	-1104
▁night	-1105
▁built	-1106
ier	-1107
▁med	-1108
▁took	-1109
▁without	-1110
▁Pro	-1111
▁hot	-1112
▁came	-1113
▁give	-1114
▁tre	-1115
aug	-1116
▁Some	-1117
▁seen	-1118
urity	-1119
▁able	-1120
ral	-1121
▁mar	-1122
ged	-1123
▁market	-1124
▁five	-1125
upp	-1126
▁My	-1127
▁group	-1128
ret	-1129
▁anal	-1130
▁along	-1131
ger	-1132
▁land	-1133
▁18	-1134
▁commun	-1135
▁men	-1136
▁walk	-1137
▁camp	-1138
▁20	-1139
▁watch	-1140
▁enj	-1141
▁prof	-1142
▁next	-1143
uff	-1144
▁hour	-1145
▁major	-1146
▁bas	-1147
▁pretty	-1148
▁against	-1149
▁kids	-1150
ancial	-1151
▁change	-1152
ider	-1153
▁friend	-1154
ior	-1155
▁collect	-1156
body	-1157
ks	-1158
▁why	-1159
iet	-1160
ump	-1161
▁support	-1162
▁LSC	-1163
ee	-1164
▁polit	-1165
▁impro	-1166
▁ser	-1167
▁temp	-1168
oun	-1169
▁grow	-1170
els	-1171
▁called	-1172
ell	-1173
▁young	-1174
▁until	-1175
ional	-1176
▁rece	-1177
▁name	-1178
▁expl	-1179
ned	-1180
▁elect	-1181
ages	-1182
ision	-1183
ames	-1184
gy	-1185
▁fac	-1186
▁form	-1187
aring	-1188
▁happen	-1189
▁wanted	-1190
▁top	-1191
▁stat	-1192
▁Serv	-1193
▁fore	-1194
▁priv	-1195
aper	-1196
▁adm	-1197
▁inf	-1198
▁full	-1199
▁prot	-1200
▁certain	-1201
▁pat	-1202
▁account	-1203
▁power	-1204
▁cre	-1205
▁Comm	-1206
ither	-1207
▁pass	-1208
▁management	-1209
ccess	-1210
▁dri	-1211
▁opp	-1212
▁ris	-1213
▁enjoy	-1214
br	-1215
▁mail	-1216
▁gl	-1217
▁equ	-1218
lement	-1219
▁Joh	-1220
▁shop	-1221
▁contin	-1222
▁sever	-1223
most	-1224
▁pract	-1225
▁service	-1226
▁family	-1227
ove	-1228
aining	-1229
▁times	-1230
ron	-1231
▁All	-1232
▁course	-1233
▁sum	-1234
iven	-1235
▁believe	-1236
▁problem	-1237
▁costs	-1238
▁John	-1239
▁American	-1240
▁invol	-1241
▁meet	-1242
▁else	-1243
▁understand	-1244
▁var	-1245
▁everything	-1246
▁gener	-1247
▁several	-1248
▁Rep	-1249
▁mov	-1250
▁air	-1251
aut	-1252
arr	-1253
▁known	-1254
▁beh	-1255
▁often	-1256
ised	-1257
▁stay	-1258
▁Ca	-1259
▁national	-1260
▁agencies	-1261
ton	-1262
alf	-1263
▁To	-1264
▁main	-1265
▁Act	-1266
iting	-1267
▁past	-1268
used	-1269
▁polic	-1270
▁popular	-1271
ature	-1272
uc	-1273
▁avail	-1274
ency	-1275
▁7	-1276
reen	-1277
ivid	-1278
lish	-1279
udget	-1280
▁review	-1281
ured	-1282
ients	-1283
▁live	-1284
idd	-1285
▁spend	-1286
arent	-1287
▁local	-1288
pr	-1289
inal	-1290
ances	-1291
resent	-1292
ife	-1293
▁Pe	-1294
▁crit	-1295
▁won	-1296
pped	-1297
▁days	-1298
▁provide	-1299
▁stop	-1300
ds	-1301
▁news	-1302
▁These	-1303
aster	-1304
▁least	-1305
▁Po	-1306
▁second	-1307
ched	-1308
ified	-1309
aid	-1310
▁problems	-1311
▁trad	-1312
▁:	-1313
▁Cong	-1314
ention	-1315
▁sect	-1316
▁hum	-1317
▁level	-1318
▁examp	-1319
ering	-1320
▁agency	-1321
▁Do	-1322
nce	-1323
▁When	-1324
▁One	-1325
▁getting	-1326
▁oper	-1327
ument	-1328
▁says	-1329
hor	-1330
ulation	-1331
▁/	-1332
▁side	-1333
ried	-1334
aff	-1335
ibility	-1336
▁ago	-1337
ush	-1338
▁exper	-1339
▁Congress	-1340
▁His	-1341
▁financial	-1342
▁doll	-1343
ability	-1344
▁current	-1345
▁isn	-1346
▁asked	-1347
ysis	-1348
▁es	-1349
▁wasn	-1350
▁whole	-1351
▁reason	-1352
▁success	-1353
▁looked	-1354
▁Ex	-1355
▁post	-1356
▁performance	-1357
omp	-1358
▁having	-1359
▁quite	-1360
ina	-1361
▁million	-1362
med	-1363
▁list	-1364
▁low	-1365
▁street	-1366
▁recent	-1367
▁offic	-1368
▁10	-1369
▁activ	-1370
▁class	-1371
▁available	-1372
▁almost	-1373
ember	-1374
▁told	-1375
ored	-1376
▁dra	-1377
istr	-1378
▁project	-1379
▁story	-1380
▁rul	-1381
▁saw	-1382
sh	-1383
aken	-1384
▁appe	-1385
▁study	-1386
▁try	-1387
▁United	-1388
▁makes	-1389
▁capital	-1390
struct	-1391
▁exc	-1392
▁idea	-1393
▁cut	-1394
rist	-1395
▁free	-1396
▁nice	-1397
▁ca	-1398
▁site	-1399
▁leg	-1400
artment	-1401
▁actually	-1402
▁15	-1403
▁six	-1404
▁discuss	-1405
▁occ	-1406
▁deli	-1407
ook	-1408
▁Tupp	-1409
▁yes	-1410
ources	-1411
▁lim	-1412
aces	-1413
ommy	-1414
▁Tuppence	-1415
▁beg	-1416
ges	-1417
▁em	-1418
ensive	-1419
▁orig	-1420
ries	-1421
▁Tommy	-1422
▁200	-1423
na	-1424
▁mus	-1425
urs	-1426
itional	-1427
apan	-1428
▁cho	-1429
huh	-1430
idence	-1431
ived	-1432
att	-1433
▁estim	-1434
line	-1435
ecut	-1436
▁Pr	-1437
▁8	-1438
ividual	-1439
pect	-1440
▁Car	-1441
▁States	-1442
▁Japan	-1443
acy	-1444
▁bro	-1445
hod	-1446
▁trying	-1447
▁aw	-1448
▁respons	-1449
▁saving	-1450
▁vol	-1451
ets	-1452
▁prom	-1453
unt	-1454
▁ok	-1455
▁cor	-1456
ended	-1457
▁deal	-1458
▁including	-1459
▁Pl	-1460
▁cult	-1461
uation	-1462
▁love	-1463
▁question	-1464
aim	-1465
▁women	-1466
▁bar	-1467
▁pie	-1468
▁hous	-1469
▁sug	-1470
▁pos	-1471
rop	-1472
▁ann	-1473
▁present	-1474
▁vill	-1475
▁complete	-1476
lf	-1477
▁half	-1478
hold	-1479
▁ident	-1480
▁mor	-1481
▁building	-1482
▁represent	-1483
▁hop	-1484
▁ste	-1485
▁changes	-1486
ane	-1487
ott	-1488
▁food	-1489
▁eng	-1490
use	-1491
▁company	-1492
▁9	-1493
ese	-1494
▁whether	-1495
ully	-1496
▁audit	-1497
▁rather	-1498
▁needed	-1499
▁win	-1500
▁true	-1501
▁museum	-1502
▁Or	-1503
▁making	-1504
cif	-1505
▁history	-1506
uture	-1507
▁today	-1508
ield	-1509
▁Sc	-1510
work	-1511
▁bit	-1512
▁employe	-1513
ience	-1514
▁York	-1515
▁stuff	-1516
▁health	-1517
▁okay	-1518
▁working	-1519
▁individual	-1520
alls	-1521
ery	-1522
▁De	-1523
▁heard	-1524
ison	-1525
▁Tex	-1526
da	-1527
▁order	-1528
▁hold	-1529
▁sound	-1530
▁author	-1531
▁comput	-1532
▁tot	-1533
ination	-1534
▁black	-1535
▁benefits	-1536
▁usually	-1537
▁arch	-1538
▁cover	-1539
▁non	-1540
▁Brit	-1541
val	-1542
▁church	-1543
▁beaut	-1544
enn	-1545
▁17	-1546
▁within	-1547
ik	-1548
▁seems	-1549
▁bre	-1550
▁Con	-1551
▁mag	-1552
lev	-1553
▁Not	-1554
▁example	-1555
▁center	-1556
▁buy	-1557
▁either	-1558
▁organizations	-1559
ept	-1560
▁agree	-1561
▁thir	-1562
ortun	-1563
▁desc	-1564
▁wind	-1565
century	-1566
illed	-1567
▁sing	-1568
lished	-1569
▁fil	-1570
▁consider	-1571
utes	-1572
▁Post	-1573
▁clear	-1574
▁Eng	-1575
▁Man	-1576
▁port	-1577
undred	-1578
▁amount	-1579
icult	-1580
▁later	-1581
by	-1582
▁lawy	-1583
▁road	-1584
▁interesting	-1585
▁Christ	-1586
ories	-1587
▁early	-1588
▁yet	-1589
▁issues	-1590
▁become	-1591
▁wa	-1592
▁Ro	-1593
▁needs	-1594
ued	-1595
▁signific	-1596
▁include	-1597
▁wond	-1598
▁future	-1599
▁south	-1600
▁rese	-1601
▁private	-1602
▁possible	-1603
▁talking	-1604
▁Most	-1605
▁lear	-1606
▁budget	-1607
atic	-1608
ivers	-1609
▁par	-1610
▁easy	-1611
▁among	-1612
▁ra	-1613
▁travel	-1614
▁north	-1615
iod	-1616
▁short	-1617
PA	-1618
raph	-1619
▁redu	-1620
▁sal	-1621
cient	-1622
▁manag	-1623
▁estab	-1624
▁address	-1625
ording	-1626
oman	-1627
not	-1628
iver	-1629
▁hundred	-1630
▁indust	-1631
▁Mar	-1632
▁close	-1633
▁Legal	-1634
▁outside	-1635
▁analysis	-1636
ills	-1637
▁coup	-1638
enty	-1639
ows	-1640
ateg	-1641
aps	-1642
▁face	-1643
▁miles	-1644
ready	-1645
▁knew	-1646
rench	-1647
soci	-1648
isc	-1649
▁attract	-1650
elt	-1651
▁across	-1652
though	-1653
▁intern	-1654
▁fav	-1655
▁fig	-1656
no	-1657
cip	-1658
▁worth	-1659
▁matter	-1660
▁San	-1661
▁method	-1662
▁12	-1663
▁blo	-1664
▁final	-1665
atory	-1666
▁suggest	-1667
▁meas	-1668
▁already	-1669
▁held	-1670
iron	-1671
▁started	-1672
▁gard	-1673
▁office	-1674
▁Sec	-1675
itions	-1676
band	-1677
ising	-1678
▁access	-1679
▁systems	-1680
▁hor	-1681
▁others	-1682
daan	-1683
▁particular	-1684
abor	-1685
▁Par	-1686
▁someone	-1687
▁16	-1688
▁poor	-1689
irl	-1690
▁difficult	-1691
aur	-1692
sc	-1693
cially	-1694
▁given	-1695
▁using	-1696
where	-1697
▁toget	-1698
▁together	-1699
rin	-1700
▁taken	-1701
▁value	-1702
▁Q	-1703
▁team	-1704
▁drug	-1705
▁flo	-1706
▁period	-1707
uro	-1708
ape	-1709
▁staff	-1710
▁bur	-1711
ilities	-1712
iding	-1713
▁French	-1714
viron	-1715
fer	-1716
▁sol	-1717
me	-1718
▁ple	-1719
ocr	-1720
▁dest	-1721
vious	-1722
ety	-1723
▁foc	-1724
▁door	-1725
▁results	-1726
▁cat	-1727
▁effective	-1728
▁move	-1729
▁maybe	-1730
▁rate	-1731
ilar	-1732
▁couldn	-1733
▁significant	-1734
oke	-1735
▁months	-1736
▁Gr	-1737
ream	-1738
gle	-1739
▁hus	-1740
▁mom	-1741
▁ten	-1742
▁Every	-1743
▁enc	-1744
▁Go	-1745
▁special	-1746
ney	-1747
▁shows	-1748
▁la	-1749
▁With	-1750
▁ground	-1751
▁abs	-1752
▁sun	-1753
▁typ	-1754
▁compet	-1755
▁modern	-1756
▁technology	-1757
▁president	-1758
▁security	-1759
▁quality	-1760
▁hours	-1761
▁himself	-1762
idered	-1763
▁death	-1764
▁specif	-1765
▁looking	-1766
ming	-1767
▁music	-1768
▁execut	-1769
▁simp	-1770
ume	-1771
▁dollars	-1772
▁National	-1773
▁husband	-1774
▁fail	-1775
ru	-1776
▁due	-1777
itting	-1778
▁general	-1779
to	-1780
▁sent	-1781
▁ap	-1782
iter	-1783
▁based	-1784
orpor	-1785
▁Se	-1786
▁mind	-1787
▁del	-1788
chie	-1789
▁hig	-1790
vironment	-1791
▁sort	-1792
selves	-1793
uge	-1794
▁compan	-1795
▁eight	-1796
▁official	-1797
▁increase	-1798
▁tow	-1799
iving	-1800
▁necess	-1801
▁Per	-1802
inistr	-1803
ousand	-1804
▁paint	-1805
ze	-1806
▁pal	-1807
▁improve	-1808
▁Euro	-1809
▁Federal	-1810
▁Col	-1811
ivil	-1812
▁exist	-1813
▁areas	-1814
▁ce	-1815
▁Many	-1816
▁coast	-1817
ister	-1818
▁fine	-1819
yes	-1820
▁cases	-1821
▁required	-1822
▁..	-1823
▁everyone	-1824
▁considered	-1825
inc	-1826
▁Bar	-1827
app	-1828
▁became	-1829
mbers	-1830
▁claim	-1831
itive	-1832
omes	-1833
▁fish	-1834
▁deb	-1835
▁infl	-1836
▁park	-1837
▁ans	-1838
▁standards	-1839
▁ones	-1840
▁Europe	-1841
ius	-1842
▁paper	-1843
▁woman	-1844
▁People	-1845
▁pot	-1846
▁beautif	-1847
▁members	-1848
▁profess	-1849
fully	-1850
erc	-1851
▁After	-1852
▁concern	-1853
▁ve	-1854
bor	-1855
▁mount	-1856
▁regul	-1857
hum	-1858
▁requirements	-1859
▁cannot	-1860
▁summer	-1861
ohol	-1862
ection	-1863
▁movie	-1864
irc	-1865
cohol	-1866
osp	-1867
ches	-1868
▁Don	-1869
▁return	-1870
hern	-1871
▁Just	-1872
▁policy	-1873
▁remember	-1874
ole	-1875
▁gave	-1876
▁wouldn	-1877
▁organization	-1878
▁US	-1879
gress	-1880
▁model	-1881
▁colle	-1882
▁girl	-1883
▁lost	-1884
ny	-1885
▁pub	-1886
▁Texas	-1887
▁Ne	-1888
▁parent	-1889
bo	-1890
▁sometimes	-1891
▁produ	-1892
reed	-1893
▁famous	-1894
▁determ	-1895
par	-1896
▁Tr	-1897
▁haven	-1898
▁-	-1899
itted	-1900
▁economic	-1901
atives	-1902
▁er	-1903
aches	-1904
▁Pres	-1905
ama	-1906
ony	-1907
unch	-1908
▁sell	-1909
▁felt	-1910
▁jud	-1911
▁cond	-1912
set	-1913
▁init	-1914
▁light	-1915
▁record	-1916
▁risk	-1917
▁object	-1918
lin	-1919
▁political	-1920
▁implement	-1921
▁British	-1922
▁bring	-1923
ator	-1924
▁House	-1925
▁computer	-1926
▁red	-1927
of	-1928
ica	-1929
ffic	-1930
▁thousand	-1931
▁behind	-1932
yn	-1933
allen	-1934
▁favor	-1935
▁fight	-1936
▁line	-1937
▁Street	-1938
▁Acc	-1939
yle	-1940
▁strong	-1941
aves	-1942
pecially	-1943
▁Ital	-1944
▁couple	-1945
▁rules	-1946
▁impact	-1947
▁turned	-1948
▁companies	-1949
▁Service	-1950
ogn	-1951
▁foot	-1952
▁assist	-1953
▁Republic	-1954
▁pick	-1955
▁white	-1956
▁anyone	-1957
bs	-1958
▁studies	-1959
▁eyes	-1960
▁exact	-1961
▁demand	-1962
ires	-1963
▁ant	-1964
▁accept	-1965
▁works	-1966
▁Pal	-1967
▁takes	-1968
▁defin	-1969
▁wrong	-1970
▁achie	-1971
▁single	-1972
▁collection	-1973
stit	-1974
▁Drew	-1975
▁miss	-1976
▁doc	-1977
▁leave	-1978
▁subject	-1979
▁Was	-1980
ead	-1981
▁entire	-1982
▁employees	-1983
▁scen	-1984
edic	-1985
▁regard	-1986
▁White	-1987
▁arg	-1988
▁wife	-1989
▁cred	-1990
▁dou	-1991
▁goes	-1992
▁restaur	-1993
▁resources	-1994
▁particip	-1995
yc	-1996
▁especially	-1997
▁pur	-1998
▁quick	-1999
▁...	-2000
▁Ed	-2001
▁Adrin	-2002
▁rout	-2003
iol	-2004
▁expect	-2005
▁begin	-2006
▁workers	-2007
▁type	-2008
▁total	-2009
▁construct	-2010
ium	-2011
ify	-2012
iddle	-2013
umb	-2014
asing	-2015
▁sil	-2016
▁grant	-2017
▁comes	-2018
ball	-2019
▁likely	-2020
▁dev	-2021
▁involved	-2022
▁community	-2023
▁sat	-2024
ends	-2025
▁Jew	-2026
▁court	-2027
ently	-2028
▁hear	-2029
▁began	-2030
lex	-2031
ging	-2032
▁wonder	-2033
▁activities	-2034
▁educ	-2035
co	-2036
▁har	-2037
ators	-2038
▁Mu	-2039
▁human	-2040
▁themselves	-2041
▁offer	-2042
▁longer	-2043
▁houses	-2044
den	-2045
▁30	-2046
▁Am	-2047
▁Gen	-2048
▁recogn	-2049
son	-2050
▁delivery	-2051
▁provided	-2052
▁­	-2053
oint	-2054
▁development	-2055
▁America	-2056
▁arm	-2057
amed	-2058
▁Sl	-2059
ots	-2060
uses	-2061
▁environment	-2062
▁II	-2063
▁step	-2064
▁income	-2065
stant	-2066
▁cra	-2067
▁14	-2068
▁alcohol	-2069
▁worked	-2070
aving	-2071
▁beautiful	-2072
▁issue	-2073
▁famil	-2074
▁Jul	-2075
▁research	-2076
▁states	-2077
▁President	-2078
▁similar	-2079
▁ele	-2080
pri	-2081
▁sn	-2082
epend	-2083
hib	-2084
▁comments	-2085
▁War	-2086
ees	-2087
ping	-2088
▁population	-2089
▁huge	-2090
ential	-2091
aced	-2092
▁TV	-2093
ique	-2094
▁Cent	-2095
▁sense	-2096
▁198	-2097
▁Poir	-2098
view	-2099
▁planning	-2100
▁dom	-2101
▁Poirot	-2102
▁price	-2103
▁tried	-2104
bert	-2105
▁charact	-2106
amb	-2107
▁drink	-2108
▁However	-2109
▁soon	-2110
▁self	-2111
▁however	-2112
ai	-2113
fact	-2114
▁rock	-2115
istic	-2116
isions	-2117
▁Roman	-2118
▁proposed	-2119
itor	-2120
urther	-2121
▁eval	-2122
▁civil	-2123
▁means	-2124
▁personal	-2125
▁parents	-2126
itect	-2127
▁press	-2128
▁Commission	-2129
▁prin	-2130
▁mem	-2131
▁taking	-2132
▁expensive	-2133
▁coming	-2134
fect	-2135
▁treat	-2136
▁answ	-2137
ung	-2138
▁maint	-2139
▁appropri	-2140
▁Fin	-2141
▁Mon	-2142
▁industry	-2143
▁proper	-2144
▁emer	-2145
augh	-2146
▁Mrs	-2147
▁squ	-2148
haps	-2149
▁brought	-2150
▁speak	-2151
▁cal	-2152
go	-2153
ledge	-2154
▁above	-2155
yed	-2156
▁Law	-2157
▁friends	-2158
let	-2159
itary	-2160
▁relig	-2161
▁intervent	-2162
▁Ge	-2163
▁minutes	-2164
▁received	-2165
aign	-2166
oura	-2167
▁aren	-2168
▁pain	-2169
▁France	-2170
▁questions	-2171
▁detail	-2172
▁morning	-2173
▁evidence	-2174
head	-2175
rible	-2176
▁histor	-2177
▁mult	-2178
▁nation	-2179
▁reports	-2180
▁net	-2181
rit	-2182
ending	-2183
▁economy	-2184
ols	-2185
▁hands	-2186
▁architect	-2187
▁experience	-2188
▁struct	-2189
for	-2190
▁sett	-2191
▁recomm	-2192
ike	-2193
▁living	-2194
reme	-2195
▁Z	-2196
▁changed	-2197
airs	-2198
▁Off	-2199
ival	-2200
▁wat	-2201
ler	-2202
orr	-2203
▁News	-2204
▁State	-2205
▁Cal	-2206
▁purp	-2207
▁check	-2208
▁front	-2209
▁age	-2210
▁obs	-2211
ring	-2212
▁King	-2213
▁places	-2214
▁village	-2215
▁contract	-2216
▁sold	-2217
▁late	-2218
▁store	-2219
▁By	-2220
▁temple	-2221
▁May	-2222
▁influ	-2223
gypt	-2224
▁happened	-2225
▁allowed	-2226
▁contrib	-2227
gency	-2228
▁surpr	-2229
ann	-2230
▁ens	-2231
▁opt	-2232
▁campaign	-2233
▁heart	-2234
▁gets	-2235
▁avo	-2236
ograph	-2237
▁completely	-2238
▁Ph	-2239
ened	-2240
▁reporting	-2241
▁viol	-2242
ustom	-2243
▁Intern	-2244
▁exactly	-2245
▁Egypt	-2246
▁Bo	-2247
▁common	-2248
ades	-2249
▁moment	-2250
▁13	-2251
▁circ	-2252
▁assess	-2253
▁11	-2254
▁base	-2255
▁gone	-2256
▁college	-2257
▁lived	-2258
▁opportun	-2259
▁kept	-2260
▁funding	-2261
▁trou	-2262
gn	-2263
▁Yes	-2264
uments	-2265
oud	-2266
▁mother	-2267
▁Julius	-2268
round	-2269
▁displ	-2270
▁Ho	-2271
▁lik	-2272
iqu	-2273
▁associ	-2274
▁itself	-2275
▁James	-2276
▁Museum	-2277
▁Te	-2278
ites	-2279
▁approach	-2280
▁dead	-2281
▁weather	-2282
▁attor	-2283
▁vo	-2284
imin	-2285
ences	-2286
wh	-2287
▁fall	-2288
▁original	-2289
▁div	-2290
▁pict	-2291
orld	-2292
▁happy	-2293
▁rates	-2294
▁Pol	-2295
▁leaders	-2296
▁decided	-2297
▁EPA	-2298
▁attention	-2299
ceed	-2300
▁cop	-2301
inese	-2302
▁sex	-2303
▁bank	-2304
urance	-2305
▁expected	-2306
▁bed	-2307
▁Postal	-2308
▁Even	-2309
▁break	-2310
▁buildings	-2311
ining	-2312
▁saying	-2313
iled	-2314
▁pen	-2315
ction	-2316
▁fif	-2317
▁neigh	-2318
▁Services	-2319
▁neg	-2320
▁challen	-2321
isl	-2322
▁Gu	-2323
▁key	-2324
the	-2325
▁Dep	-2326
▁plans	-2327
▁books	-2328
▁Red	-2329
▁poll	-2330
hington	-2331
▁necessary	-2332
▁Port	-2333
▁Chinese	-2334
▁Washington	-2335
▁paid	-2336
issions	-2337
▁ways	-2338
▁located	-2339
▁ill	-2340
▁fort	-2341
▁created	-2342
▁decision	-2343
like	-2344
▁piece	-2345
▁anim	-2346
estern	-2347
lied	-2348
▁Comp	-2349
port	-2350
osing	-2351
▁designed	-2352
ped	-2353
▁addition	-2354
▁field	-2355
acks	-2356
▁hur	-2357
▁bal	-2358
▁Fl	-2359
▁moved	-2360
▁request	-2361
erence	-2362
▁fair	-2363
▁prep	-2364
▁twenty	-2365
▁event	-2366
▁ancient	-2367
▁trees	-2368
▁Jer	-2369
ached	-2370
attle	-2371
▁visitors	-2372
▁Bush	-2373
▁knowledge	-2374
▁higher	-2375
oph	-2376
▁applic	-2377
▁seemed	-2378
venue	-2379
▁Geor	-2380
▁arri	-2381
▁Office	-2382
ief	-2383
▁shr	-2384
urg	-2385
aught	-2386
▁situation	-2387
▁foreign	-2388
vert	-2389
erous	-2390
atever	-2391
▁2000	-2392
▁west	-2393
▁Her	-2394
▁unc	-2395
▁Germ	-2396
▁groups	-2397
▁100	-2398
ization	-2399
▁hope	-2400
▁standard	-2401
olution	-2402
▁English	-2403
▁funds	-2404
▁chance	-2405
▁drive	-2406
▁words	-2407
▁social	-2408
▁perfect	-2409
▁Co	-2410
▁game	-2411
ights	-2412
▁term	-2413
▁lawyers	-2414
▁related	-2415
▁recently	-2416
▁investment	-2417
umpt	-2418
iff	-2419
▁govern	-2420
▁World	-2421
▁Bl	-2422
cl	-2423
▁bir	-2424
▁wide	-2425
▁artic	-2426
ena	-2427
itely	-2428
ana	-2429
▁Mc	-2430
▁spent	-2431
▁mot	-2432
▁plant	-2433
▁acqu	-2434
ronic	-2435
▁Gree	-2436
▁east	-2437
▁%	-2438
▁nat	-2439
▁fire	-2440
ript	-2441
udd	-2442
▁sen	-2443
▁effic	-2444
▁action	-2445
cell	-2446
▁instead	-2447
▁princip	-2448
itten	-2449
irt	-2450
▁Our	-2451
▁river	-2452
▁surround	-2453
ressed	-2454
▁taxes	-2455
▁views	-2456
▁relations	-2457
▁included	-2458
▁military	-2459
▁item	-2460
omb	-2461
▁grand	-2462
▁countries	-2463
▁select	-2464
▁serious	-2465
zz	-2466
ification	-2467
▁eat	-2468
rel	-2469
▁inside	-2470
▁section	-2471
ude	-2472
▁spending	-2473
▁Reg	-2474
▁independ	-2475
▁dog	-2476
▁From	-2477
▁sho	-2478
▁mur	-2479
▁wood	-2480
▁separ	-2481
▁clients	-2482
▁Security	-2483
izing	-2484
▁son	-2485
▁Can	-2486
▁Cour	-2487
▁coun	-2488
iversity	-2489
▁complex	-2490
rap	-2491
uries	-2492
▁mess	-2493
ially	-2494
▁specific	-2495
▁Mary	-2496
▁Ingle	-2497
▁vot	-2498
thorp	-2499
▁lower	-2500
▁culture	-2501
oring	-2502
▁beach	-2503
▁shops	-2504
▁streets	-2505
▁Tw	-2506
rael	-2507
pite	-2508
▁focus	-2509
lebr	-2510
▁provides	-2511
▁reported	-2512
▁soft	-2513
▁supposed	-2514
▁died	-2515
vered	-2516
ource	-2517
▁guy	-2518
ises	-2519
▁Mal	-2520
▁character	-2521
owd	-2522
ament	-2523
▁cast	-2524
yond	-2525
▁trip	-2526
uly	-2527
▁administr	-2528
▁following	-2529
▁Inglethorp	-2530
ulpt	-2531
itors	-2532
lus	-2533
hood	-2534
▁draw	-2535
ims	-2536
de	-2537
▁wants	-2538
▁Other	-2539
▁El	-2540
▁Will	-2541
▁kill	-2542
▁strateg	-2543
angu	-2544
▁Now	-2545
▁comb	-2546
▁fell	-2547
▁seven	-2548
oming	-2549
▁Israel	-2550
▁Part	-2551
▁efforts	-2552
▁Sant	-2553
▁mass	-2554
ipment	-2555
▁gold	-2556
▁practices	-2557
aries	-2558
▁Lou	-2559
▁except	-2560
ino	-2561
IO	-2562
▁reach	-2563
▁conduct	-2564
▁50	-2565
▁Paris	-2566
une	-2567
▁sea	-2568
▁Span	-2569
▁labor	-2570
▁mater	-2571
▁Miss	-2572
▁exam	-2573
▁stri	-2574
▁Although	-2575
▁En	-2576
▁body	-2577
▁legisl	-2578
apers	-2579
▁growth	-2580
▁Ab	-2581
uary	-2582
▁describ	-2583
▁City	-2584
▁deep	-2585
▁protect	-2586
▁da	-2587
▁gun	-2588
▁hon	-2589
idents	-2590
ware	-2591
▁dam	-2592
▁position	-2593
▁slow	-2594
hers	-2595
▁laws	-2596
▁TI	-2597
▁Then	-2598
room	-2599
▁trade	-2600
▁remains	-2601
▁Russ	-2602
arily	-2603
▁Saint	-2604
▁feat	-2605
▁Dav	-2606
▁imm	-2607
ciety	-2608
ufact	-2609
▁creat	-2610
▁father	-2611
▁mer	-2612
vings	-2613
▁Well	-2614
▁boy	-2615
▁share	-2616
▁word	-2617
▁celebr	-2618
▁sculpt	-2619
▁cause	-2620
ourn	-2621
igr	-2622
allas	-2623
▁garden	-2624
uth	-2625
▁sand	-2626
▁prices	-2627
▁whatever	-2628
more	-2629
▁save	-2630
▁Sen	-2631
▁narr	-2632
verage	-2633
bers	-2634
▁stock	-2635
▁fre	-2636
ha	-2637
▁Old	-2638
▁further	-2639
▁custom	-2640
▁former	-2641
▁God	-2642
▁Dallas	-2643
▁respect	-2644
ara	-2645
▁reflect	-2646
▁third	-2647
▁pred	-2648
▁myself	-2649
▁screen	-2650
▁clot	-2651
▁prim	-2652
rupt	-2653
▁Social	-2654
▁ord	-2655
▁West	-2656
▁credit	-2657
▁thinking	-2658
▁vict	-2659
ological	-2660
▁phys	-2661
▁pack	-2662
▁engine	-2663
▁benefit	-2664
▁interested	-2665
▁various	-2666
▁correct	-2667
▁document	-2668
over	-2669
▁repl	-2670
▁trust	-2671
▁traditional	-2672
▁Qu	-2673
▁older	-2674
▁role	-2675
▁doub	-2676
▁annual	-2677
▁middle	-2678
▁broad	-2679
▁vote	-2680
▁cold	-2681
cing	-2682
▁Dem	-2683
▁link	-2684
▁training	-2685
▁voice	-2686
sy	-2687
▁Emp	-2688
▁Res	-2689
▁Tur	-2690
▁education	-2691
▁heav	-2692
iction	-2693
▁Government	-2694
ctor	-2695
▁answer	-2696
▁anyway	-2697
▁quickly	-2698
▁rid	-2699
▁increased	-2700
ster	-2701
▁destro	-2702
▁household	-2703
▁lack	-2704
▁demon	-2705
lly	-2706
come	-2707
▁region	-2708
▁additional	-2709
▁Me	-2710
▁sus	-2711
▁figure	-2712
▁season	-2713
▁Spanish	-2714
▁material	-2715
▁published	-2716
▁throughout	-2717
▁lives	-2718
▁super	-2719
▁written	-2720
roll	-2721
just	-2722
▁developed	-2723
▁App	-2724
▁peace	-2725
▁sites	-2726
▁Mad	-2727
umn	-2728
▁unf	-2729
▁prefer	-2730
▁Japanese	-2731
▁indic	-2732
▁Times	-2733
▁entities	-2734
▁stone	-2735
egr	-2736
▁party	-2737
▁attemp	-2738
▁movies	-2739
men	-2740
ror	-2741
▁bill	-2742
▁langu	-2743
▁weeks	-2744
▁running	-2745
▁dark	-2746
ones	-2747
▁prior	-2748
▁norm	-2749
▁tend	-2750
▁covered	-2751
▁equipment	-2752
▁learn	-2753
▁pleas	-2754
▁quiet	-2755
▁palace	-2756
▁critical	-2757
ask	-2758
▁central	-2759
▁includes	-2760
ipp	-2761
▁named	-2762
▁General	-2763
▁install	-2764
imate	-2765
▁China	-2766
▁comment	-2767
▁encoura	-2768
asons	-2769
estic	-2770
oses	-2771
ivity	-2772
▁km	-2773
▁hit	-2774
▁executive	-2775
▁imag	-2776
▁Val	-2777
▁surv	-2778
▁notice	-2779
▁quar	-2780
▁altern	-2781
▁manufact	-2782
▁definitely	-2783
▁bought	-2784
▁mach	-2785
▁crime	-2786
▁goals	-2787
▁stra	-2788
▁toward	-2789
▁table	-2790
▁emissions	-2791
▁sle	-2792
▁cook	-2793
▁alone	-2794
▁Americans	-2795
▁assistance	-2796
▁South	-2797
▁swe	-2798
▁proced	-2799
ittee	-2800
olute	-2801
▁conn	-2802
▁pull	-2803
▁cand	-2804
eter	-2805
▁green	-2806
▁Jes	-2807
yp	-2808
▁below	-2809
▁retire	-2810
medi	-2811
wide	-2812
▁range	-2813
olf	-2814
▁wealth	-2815
▁largest	-2816
▁difference	-2817
▁North	-2818
▁fix	-2819
owers	-2820
▁train	-2821
▁continue	-2822
▁construction	-2823
che	-2824
▁More	-2825
▁wish	-2826
50	-2827
pro	-2828
▁Sir	-2829
▁nort	-2830
▁opin	-2831
▁according	-2832
idge	-2833
▁emb	-2834
ux	-2835
▁sky	-2836
iques	-2837
▁established	-2838
yer	-2839
▁trouble	-2840
▁basis	-2841
▁looks	-2842
▁reduct	-2843
▁islands	-2844
▁Mus	-2845
▁floor	-2846
▁listen	-2847
▁Only	-2848
▁upon	-2849
▁fres	-2850
▁natural	-2851
▁favorite	-2852
asc	-2853
ady	-2854
▁Cle	-2855
▁Time	-2856
▁reduce	-2857
▁patients	-2858
▁size	-2859
▁afford	-2860
▁choice	-2861
▁relationship	-2862
burg	-2863
▁beyond	-2864
▁tourists	-2865
▁60	-2866
▁appropriate	-2867
▁Ben	-2868
▁carry	-2869
▁Indian	-2870
▁Fir	-2871
▁style	-2872
uch	-2873
▁gra	-2874
▁terrible	-2875
▁terms	-2876
▁walls	-2877
uted	-2878
▁consist	-2879
▁offers	-2880
▁effects	-2881
▁Oh	-2882
nces	-2883
▁phot	-2884
▁threat	-2885
▁generally	-2886
▁reform	-2887
▁While	-2888
ression	-2889
▁easily	-2890
▁Tod	-2891
iling	-2892
▁department	-2893
usal	-2894
▁practice	-2895
▁Mic	-2896
time	-2897
▁led	-2898
▁affect	-2899
ico	-2900
ables	-2901
owing	-2902
▁recommend	-2903
▁card	-2904
▁occur	-2905
▁wrote	-2906
rest	-2907
▁Its	-2908
▁pan	-2909
▁beaches	-2910
▁197	-2911
utions	-2912
▁average	-2913
▁z	-2914
-2	-2915
erved	-2916
▁capt	-2917
▁hill	-2918
▁serve	-2919
▁establish	-2920
▁evalu	-2921
▁clean	-2922
▁spot	-2923
ift	-2924
▁events	-2925
▁hotels	-2926
▁fa	-2927
astic	-2928
▁corn	-2929
▁feet	-2930
ky	-2931
▁Sm	-2932
▁rights	-2933
▁certainly	-2934
▁restaurants	-2935
iety	-2936
▁origin	-2937
▁neighbor	-2938
▁officials	-2939
eng	-2940
▁film	-2941
▁everybody	-2942
▁Ir	-2943
▁fast	-2944
▁drugs	-2945
hel	-2946
ively	-2947
▁tomb	-2948
sequ	-2949
rance	-2950
▁wall	-2951
▁helped	-2952
▁meeting	-2953
▁perhaps	-2954
▁increasing	-2955
▁ign	-2956
▁Temp	-2957
▁Slate	-2958
▁whose	-2959
▁force	-2960
▁schools	-2961
aded	-2962
▁king	-2963
▁justice	-2964
▁previous	-2965
▁vers	-2966
▁Today	-2967
▁nature	-2968
ashion	-2969
▁horse	-2970
anced	-2971
▁Democr	-2972
iced	-2973
▁sched	-2974
▁pieces	-2975
▁achieve	-2976
▁watching	-2977
▁restr	-2978
▁Department	-2979
▁exhib	-2980
▁ensure	-2981
▁1996	-2982
▁Dave	-2983
▁round	-2984
▁Mo	-2985
▁attack	-2986
▁dang	-2987
▁excell	-2988
▁ut	-2989
enced	-2990
▁distr	-2991
▁absolute	-2992
▁authority	-2993
mon	-2994
▁stood	-2995
▁killed	-2996
▁square	-2997
▁types	-2998
aughter	-2999
▁students	-3000
▁ran	-3001
▁volume	-3002
ban	-3003
▁guid	-3004
yal	-3005
▁jo	-3006
▁corpor	-3007
▁regular	-3008
▁purch	-3009
▁Why	-3010
▁deg	-3011
▁page	-3012
▁sounds	-3013
▁dro	-3014
making	-3015
▁commer	-3016
▁tourist	-3017
▁initi	-3018
▁Louis	-3019
▁extra	-3020
▁products	-3021
onse	-3022
▁cit	-3023
▁aware	-3024
▁measure	-3025
▁insurance	-3026
▁Des	-3027
▁investig	-3028
▁hosp	-3029
▁lots	-3030
▁safe	-3031
▁Park	-3032
▁particularly	-3033
▁levels	-3034
▁extreme	-3035
ournal	-3036
iny	-3037
▁growing	-3038
▁mention	-3039
reg	-3040
▁board	-3041
▁cities	-3042
▁leading	-3043
▁Ye	-3044
▁Min	-3045
▁sens	-3046
▁blood	-3047
▁individuals	-3048
▁spl	-3049
▁families	-3050
▁conv	-3051
▁perm	-3052
▁rent	-3053
▁multip	-3054
▁Har	-3055
ios	-3056
erve	-3057
▁knows	-3058
▁effort	-3059
▁lawyer	-3060
▁shopping	-3061
▁Ag	-3062
▁2001	-3063
▁wild	-3064
▁hotel	-3065
▁closed	-3066
bed	-3067
oro	-3068
▁frequ	-3069
-1	-3070
▁payments	-3071
▁emergency	-3072
▁196	-3073
▁Christian	-3074
▁phone	-3075
▁letter	-3076
ips	-3077
gas	-3078
reci	-3079
▁Medic	-3080
uel	-3081
▁added	-3082
▁rich	-3083
▁India	-3084
▁cross	-3085
term	-3086
year	-3087
▁ess	-3088
▁respond	-3089
▁David	-3090
▁First	-3091
▁Since	-3092
▁Kong	-3093
▁winter	-3094
▁production	-3095
ope	-3096
▁space	-3097
▁postal	-3098
▁weap	-3099
▁Jewish	-3100
▁gardens	-3101
▁communic	-3102
ano	-3103
aud	-3104
unk	-3105
▁items	-3106
▁station	-3107
▁40	-3108
▁simple	-3109
▁simply	-3110
▁somebody	-3111
▁color	-3112
▁decor	-3113
▁secret	-3114
▁Ser	-3115
▁mist	-3116
▁district	-3117
▁Hong	-3118
▁Kal	-3119
usalem	-3120
▁Jerusalem	-3121
▁excellent	-3122
▁Court	-3123
▁George	-3124
▁centuries	-3125
ops	-3126
house	-3127
hedral	-3128
▁structure	-3129
▁successful	-3130
anson	-3131
▁Program	-3132
▁payment	-3133
▁display	-3134
ancing	-3135
outhern	-3136
▁language	-3137
AS	-3138
▁battle	-3139
▁passed	-3140
▁playing	-3141
▁mostly	-3142
▁actions	-3143
▁prevent	-3144
▁savings	-3145
▁yourself	-3146
uit	-3147
teen	-3148
▁mos	-3149
▁obt	-3150
▁policies	-3151
▁arr	-3152
▁integr	-3153
▁medical	-3154
▁requires	-3155
▁operations	-3156
ille	-3157
▁Char	-3158
▁ability	-3159
MB	-3160
het	-3161
▁chap	-3162
▁accur	-3163
▁smaller	-3164
iscal	-3165
iar	-3166
▁nearly	-3167
▁receive	-3168
▁spoke	-3169
▁subm	-3170
▁wait	-3171
liance	-3172
▁asse	-3173
▁decl	-3174
ground	-3175
▁religious	-3176
▁anymore	-3177
▁managers	-3178
▁limited	-3179
ono	-3180
ulf	-3181
▁Cr	-3182
aged	-3183
▁believed	-3184
▁According	-3185
ental	-3186
▁East	-3187
▁gives	-3188
▁immedi	-3189
▁Budd	-3190
▁steps	-3191
▁served	-3192
▁aid	-3193
lying	-3194
▁reasons	-3195
▁din	-3196
iring	-3197
mark	-3198
▁Bec	-3199
▁Management	-3200
▁Imp	-3201
▁farm	-3202
▁prison	-3203
▁Ve	-3204
▁luck	-3205
atively	-3206
▁OMB	-3207
▁Internet	-3208
rief	-3209
▁host	-3210
aul	-3211
wise	-3212
atter	-3213
▁crowd	-3214
▁Temple	-3215
▁Everyone	-3216
▁senior	-3217
▁although	-3218
▁Greek	-3219
▁column	-3220
▁internal	-3221
ado	-3222
ously	-3223
▁Their	-3224
▁response	-3225
yr	-3226
▁La	-3227
fort	-3228
change	-3229
▁contains	-3230
▁discount	-3231
▁25	-3232
▁rad	-3233
RA	-3234
▁ali	-3235
▁article	-3236
▁Calif	-3237
▁avoid	-3238
▁truth	-3239
▁responsible	-3240
▁ur	-3241
▁seek	-3242
▁CIO	-3243
ornia	-3244
overed	-3245
▁glass	-3246
add	-3247
erts	-3248
back	-3249
▁lay	-3250
▁summ	-3251
▁points	-3252
▁raised	-3253
▁estimates	-3254
erry	-3255
lt	-3256
▁teach	-3257
▁watched	-3258
lock	-3259
▁mis	-3260
▁Mich	-3261
▁mort	-3262
▁refer	-3263
▁methods	-3264
▁obvious	-3265
▁retirement	-3266
▁potential	-3267
ams	-3268
▁thirty	-3269
▁society	-3270
uk	-3271
▁cars	-3272
▁Two	-3273
▁rap	-3274
▁und	-3275
▁revenue	-3276
lier	-3277
▁beginning	-3278
▁ready	-3279
▁charge	-3280
▁experi	-3281
▁giving	-3282
▁god	-3283
▁propos	-3284
▁finally	-3285
▁adop	-3286
▁goods	-3287
▁useful	-3288
neys	-3289
▁setting	-3290
▁tar	-3291
▁appear	-3292
▁Because	-3293
asion	-3294
▁path	-3295
cience	-3296
▁married	-3297
▁demonstr	-3298
icians	-3299
▁tur	-3300
▁Both	-3301
▁sword	-3302
▁purpose	-3303
put	-3304
eed	-3305
ira	-3306
icip	-3307
▁media	-3308
▁rooms	-3309
▁stories	-3310
▁bab	-3311
▁Hanson	-3312
▁agreed	-3313
▁larger	-3314
▁Ste	-3315
▁mand	-3316
▁brother	-3317
▁hate	-3318
▁narrow	-3319
▁stopped	-3320
imb	-3321
ird	-3322
▁Com	-3323
▁mission	-3324
▁auditors	-3325
oted	-3326
▁vac	-3327
▁entertain	-3328
▁influence	-3329
gin	-3330
▁Republicans	-3331
▁suff	-3332
▁entrance	-3333
iant	-3334
tered	-3335
▁tou	-3336
▁worse	-3337
▁exerc	-3338
▁expand	-3339
▁bott	-3340
▁Italian	-3341
▁forward	-3342
week	-3343
▁debt	-3344
▁parts	-3345
▁decisions	-3346
▁newsp	-3347
▁Af	-3348
▁den	-3349
▁candid	-3350
ils	-3351
▁paying	-3352
▁magaz	-3353
wood	-3354
▁tast	-3355
▁Spain	-3356
▁variety	-3357
vey	-3358
ustr	-3359
nov	-3360
olid	-3361
▁mix	-3362
▁spir	-3363
imately	-3364
▁interview	-3365
▁box	-3366
▁remark	-3367
▁continued	-3368
▁Information	-3369
ov	-3370
▁hair	-3371
▁rele	-3372
▁Justice	-3373
▁pun	-3374
icted	-3375
▁gall	-3376
▁reli	-3377
▁billion	-3378
▁convers	-3379
fr	-3380
▁Sal	-3381
▁talked	-3382
▁create	-3383
▁magn	-3384
▁advert	-3385
▁absolutely	-3386
▁bi	-3387
ners	-3388
▁Aud	-3389
▁towards	-3390
▁independent	-3391
▁reading	-3392
▁associated	-3393
▁1999	-3394
▁disp	-3395
▁block	-3396
▁Dr	-3397
▁Ven	-3398
umption	-3399
▁followed	-3400
▁wonderful	-3401
yment	-3402
▁Lake	-3403
▁Are	-3404
iers	-3405
▁destroyed	-3406
▁mountains	-3407
▁Sy	-3408
▁Bill	-3409
▁offered	-3410
▁intervention	-3411
▁Sim	-3412
▁grad	-3413
▁features	-3414
ma	-3415
itz	-3416
▁discussed	-3417
▁fem	-3418
▁coff	-3419
▁mill	-3420
▁compl	-3421
eth	-3422
▁remain	-3423
▁conserv	-3424
nown	-3425
cil	-3426
▁Adm	-3427
▁earth	-3428
▁regulations	-3429
▁meant	-3430
▁animals	-3431
▁Ac	-3432
▁contr	-3433
▁currently	-3434
▁coll	-3435
▁property	-3436
▁Bay	-3437
▁date	-3438
▁opportunity	-3439
AT	-3440
▁source	-3441
hens	-3442
lled	-3443
▁funny	-3444
▁worry	-3445
▁caught	-3446
▁1990	-3447
▁band	-3448
▁sports	-3449
▁tick	-3450
▁wear	-3451
▁fishing	-3452
▁oppos	-3453
▁sector	-3454
key	-3455
▁enjoyed	-3456
▁politics	-3457
▁Ant	-3458
▁Mount	-3459
▁catch	-3460
▁liter	-3461
ode	-3462
rif	-3463
▁behav	-3464
▁California	-3465
force	-3466
▁Franc	-3467
▁European	-3468
ossible	-3469
ae	-3470
▁basic	-3471
▁equal	-3472
▁commercial	-3473
▁Jama	-3474
▁Jesus	-3475
▁England	-3476
▁X	-3477
▁swim	-3478
▁existing	-3479
▁international	-3480
▁qual	-3481
▁dress	-3482
▁providing	-3483
▁rain	-3484
▁adjust	-3485
▁factors	-3486
▁mountain	-3487
▁progress	-3488
▁cathedral	-3489
▁professional	-3490
▁Of	-3491
▁lit	-3492
▁choose	-3493
▁greater	-3494
▁paintings	-3495
▁[	-3496
arc	-3497
hest	-3498
▁resort	-3499
ibilities	-3500
iles	-3501
▁Air	-3502
▁disapp	-3503
▁Roy	-3504
▁1998	-3505
▁opened	-3506
▁activity	-3507
▁”	-3508
▁straight	-3509
▁ended	-3510
▁played	-3511
▁directly	-3512
▁esc	-3513
▁club	-3514
▁lose	-3515
▁mid	-3516
ulated	-3517
▁Your	-3518
▁flex	-3519
inct	-3520
itable	-3521
▁Brown	-3522
▁cheap	-3523
▁entity	-3524
light	-3525
▁sight	-3526
▁affected	-3527
▁multiple	-3528
lling	-3529
▁jobs	-3530
erson	-3531
▁categ	-3532
▁intro	-3533
▁willing	-3534
do	-3535
▁Ange	-3536
akers	-3537
▁ideas	-3538
▁mine	-3539
uction	-3540
▁estimated	-3541
▁representation	-3542
dom	-3543
▁21	-3544
uing	-3545
▁liked	-3546
▁grew	-3547
▁guide	-3548
▁oil	-3549
▁Stand	-3550
▁master	-3551
▁reached	-3552
ox	-3553
▁ge	-3554
▁rare	-3555
▁citiz	-3556
▁gas	-3557
▁opinion	-3558
▁statements	-3559
off	-3560
▁ahead	-3561
▁separate	-3562
▁af	-3563
▁hall	-3564
▁loss	-3565
▁Jan	-3566
▁treatment	-3567
▁]	-3568
ague	-3569
▁autom	-3570
▁claims	-3571
azz	-3572
▁ru	-3573
▁noted	-3574
ago	-3575
▁cash	-3576
▁remained	-3577
▁appreci	-3578
ada	-3579
ander	-3580
▁procedures	-3581
▁shot	-3582
antage	-3583
▁domestic	-3584
▁efficient	-3585
▁Mex	-3586
▁amaz	-3587
▁University	-3588
▁meaning	-3589
▁Cont	-3590
▁firm	-3591
▁hang	-3592
▁Church	-3593
▁Robert	-3594
▁landsc	-3595
▁starting	-3596
doro	-3597
oking	-3598
encies	-3599
rial	-3600
ibly	-3601
▁games	-3602
▁series	-3603
▁Italy	-3604
▁daughter	-3605
af	-3606
ults	-3607
▁shown	-3608
▁Count	-3609
▁fiscal	-3610
▁distrib	-3611
▁Web	-3612
▁royal	-3613
rose	-3614
▁eye	-3615
▁nine	-3616
▁doubt	-3617
levision	-3618
com	-3619
eror	-3620
▁Mart	-3621
▁susp	-3622
▁sleep	-3623
▁shouldn	-3624
▁electric	-3625
▁Cap	-3626
inated	-3627
inating	-3628
▁blue	-3629
▁volunt	-3630
artments	-3631
▁Ass	-3632
▁Those	-3633
▁Vegas	-3634
▁location	-3635
▁cas	-3636
▁kid	-3637
▁fashion	-3638
ests	-3639
▁ban	-3640
▁Here	-3641
▁During	-3642
▁instit	-3643
based	-3644
▁Grand	-3645
▁network	-3646
▁compared	-3647
▁architecture	-3648
iest	-3649
▁Hall	-3650
▁consum	-3651
▁estimate	-3652
▁Del	-3653
▁Che	-3654
verse	-3655
▁stores	-3656
▁evening	-3657
▁Arab	-3658
▁Gore	-3659
▁towns	-3660
▁despite	-3661
▁ir	-3662
▁beat	-3663
▁decre	-3664
▁easier	-3665
▁regulatory	-3666
ald	-3667
▁ener	-3668
▁Frank	-3669
▁analy	-3670
▁impossible	-3671
▁feeling	-3672
▁fully	-3673
▁hurt	-3674
▁Pri	-3675
▁seeing	-3676
▁thinks	-3677
▁assets	-3678
▁Sus	-3679
itude	-3680
▁identified	-3681
▁ft	-3682
itch	-3683
▁Ann	-3684
▁spect	-3685
▁majority	-3686
▁Lew	-3687
▁target	-3688
▁parties	-3689
▁heavy	-3690
▁positive	-3691
ares	-3692
▁teac	-3693
▁waiting	-3694
dden	-3695
▁reb	-3696
▁Somet	-3697
▁risks	-3698
▁oldest	-3699
onna	-3700
▁Gre	-3701
▁boat	-3702
▁thousands	-3703
mber	-3704
▁calls	-3705
▁inj	-3706
▁temples	-3707
stitution	-3708
riage	-3709
▁Rich	-3710
▁write	-3711
▁failed	-3712
▁testing	-3713
▁fresh	-3714
▁minim	-3715
▁dram	-3716
▁brief	-3717
▁route	-3718
▁identify	-3719
▁attorneys	-3720
een	-3721
▁ep	-3722
▁sitting	-3723
▁Newsweek	-3724
▁lake	-3725
▁impress	-3726
▁function	-3727
nes	-3728
ugust	-3729
▁prem	-3730
levant	-3731
▁sales	-3732
rs	-3733
has	-3734
iam	-3735
osure	-3736
▁homes	-3737
▁German	-3738
▁forced	-3739
▁objectives	-3740
▁Susan	-3741
▁numbers	-3742
▁regarding	-3743
ula	-3744
▁Las	-3745
▁sudden	-3746
▁walking	-3747
▁intended	-3748
▁Sk	-3749
▁extremely	-3750
▁DO	-3751
pper	-3752
▁nearby	-3753
rid	-3754
▁Made	-3755
▁Associ	-3756
▁transport	-3757
acity	-3758
▁insp	-3759
▁warm	-3760
▁valley	-3761
aza	-3762
▁judge	-3763
▁satis	-3764
iveness	-3765
▁condition	-3766
izes	-3767
▁ball	-3768
▁caused	-3769
▁earlier	-3770
▁statement	-3771
▁conditions	-3772
▁tele	-3773
istics	-3774
isition	-3775
▁clearly	-3776
▁July	-3777
▁send	-3778
▁wine	-3779
▁coffee	-3780
▁camping	-3781
▁pros	-3782
▁Coun	-3783
▁jury	-3784
▁northern	-3785
▁fle	-3786
▁relax	-3787
▁corner	-3788
▁stayed	-3789
gu	-3790
atal	-3791
▁breat	-3792
berg	-3793
▁repe	-3794
▁quarter	-3795
▁none	-3796
▁uses	-3797
▁liber	-3798
▁Let	-3799
burgh	-3800
▁daily	-3801
▁plants	-3802
▁suggested	-3803
ray	-3804
▁1997	-3805
▁symb	-3806
▁Great	-3807
antic	-3808
▁controls	-3809
▁sou	-3810
▁completed	-3811
▁sources	-3812
▁Each	-3813
▁weren	-3814
▁accounting	-3815
ston	-3816
ycle	-3817
▁weak	-3818
▁concerned	-3819
▁interventions	-3820
ato	-3821
▁Nap	-3822
▁sac	-3823
▁restaurant	-3824
10	-3825
orc	-3826
▁Nob	-3827
▁rural	-3828
▁statue	-3829
▁picture	-3830
▁electronic	-3831
zen	-3832
▁stands	-3833
▁comfort	-3834
aped	-3835
▁Cons	-3836
▁ride	-3837
▁performed	-3838
▁assum	-3839
▁moving	-3840
▁biggest	-3841
EC	-3842
▁ver	-3843
▁Sch	-3844
▁cry	-3845
▁Board	-3846
▁generation	-3847
ael	-3848
soft	-3849
▁tall	-3850
▁vide	-3851
▁values	-3852
▁offices	-3853
▁Cav	-3854
▁Sund	-3855
▁army	-3856
▁IR	-3857
orrow	-3858
▁Under	-3859
▁attorney	-3860
▁dedic	-3861
▁police	-3862
▁routes	-3863
▁Account	-3864
▁projects	-3865
▁cru	-3866
▁software	-3867
▁television	-3868
my	-3869
action	-3870
rosoft	-3871
▁matters	-3872
gg	-3873
vest	-3874
▁August	-3875
▁clothes	-3876
▁greatest	-3877
▁Administr	-3878
▁eventually	-3879
▁alternative	-3880
lass	-3881
▁Med	-3882
▁Pat	-3883
SA	-3884
▁Dan	-3885
centr	-3886
ancy	-3887
▁doctor	-3888
▁processes	-3889
odd	-3890
▁bord	-3891
▁limit	-3892
▁interior	-3893
▁cool	-3894
▁note	-3895
▁Starr	-3896
▁determine	-3897
▁immediately	-3898
▁craft	-3899
▁Commun	-3900
▁Island	-3901
▁unless	-3902
▁sad	-3903
▁career	-3904
arant	-3905
▁highly	-3906
▁strange	-3907
adem	-3908
raid	-3909
▁Did	-3910
▁fol	-3911
▁unit	-3912
▁painted	-3913
sec	-3914
▁lab	-3915
▁uns	-3916
▁stren	-3917
▁commit	-3918
▁southern	-3919
▁violence	-3920
▁Ke	-3921
ushed	-3922
▁race	-3923
▁Afric	-3924
▁shall	-3925
▁fest	-3926
▁recognized	-3927
▁Aid	-3928
▁anywhere	-3929
▁prepared	-3930
▁Vis	-3931
▁cultural	-3932
▁drop	-3933
▁dollar	-3934
▁pictures	-3935
road	-3936
ieval	-3937
▁kinds	-3938
▁Western	-3939
▁hospital	-3940
ech	-3941
▁1995	-3942
▁actual	-3943
▁fifty	-3944
▁strategic	-3945
▁Vir	-3946
▁guys	-3947
▁nobody	-3948
▁powerful	-3949
▁importance	-3950
▁Hot	-3951
▁responsibility	-3952
asts	-3953
inary	-3954
▁forg	-3955
▁behavior	-3956
▁Jud	-3957
place	-3958
▁Dire	-3959
▁enter	-3960
▁learned	-3961
ji	-3962
bal	-3963
ett	-3964
fit	-3965
raw	-3966
▁Michael	-3967
▁happens	-3968
▁Mark	-3969
▁bono	-3970
▁slight	-3971
▁grantees	-3972
▁residents	-3973
olic	-3974
ores	-3975
▁track	-3976
▁showed	-3977
▁spread	-3978
▁discussion	-3979
▁tit	-3980
▁goal	-3981
▁draft	-3982
▁novel	-3983
▁employee	-3984
▁neighborhood	-3985
leg	-3986
▁194	-3987
cious	-3988
▁samp	-3989
▁Republican	-3990
▁originally	-3991
▁Another	-3992
▁involve	-3993
▁machine	-3994
▁prec	-3995
▁forest	-3996
▁constant	-3997
▁interp	-3998
▁normal	-3999
▁executives	-4000
▁Dub	-4001
▁birth	-4002
▁Microsoft	-4003
iation	-4004
▁assessment	-4005
west	-4006
▁eth	-4007
▁born	-4008
▁unique	-4009
▁feed	-4010
▁ult	-4011
▁Valley	-4012
▁substant	-4013
▁busy	-4014
▁depend	-4015
fficient	-4016
▁Cor	-4017
▁Los	-4018
ented	-4019
using	-4020
▁fasc	-4021
▁surpl	-4022
▁weight	-4023
ctions	-4024
▁advice	-4025
▁capacity	-4026
lies	-4027
▁Tour	-4028
▁rail	-4029
▁familiar	-4030
DA	-4031
▁purs	-4032
▁compliance	-4033
zy	-4034
ken	-4035
▁Also	-4036
▁colon	-4037
▁client	-4038
▁dinner	-4039
▁environmental	-4040
ls	-4041
▁grass	-4042
▁Budget	-4043
acing	-4044
▁findings	-4045
orses	-4046
▁concentr	-4047
▁exercise	-4048
▁described	-4049
ini	-4050
▁tro	-4051
▁apply	-4052
▁plenty	-4053
▁Musl	-4054
▁cards	-4055
▁strug	-4056
▁gotten	-4057
▁incent	-4058
▁concerns	-4059
ste	-4060
▁ho	-4061
▁appeal	-4062
ps	-4063
▁June	-4064
▁overall	-4065
▁congress	-4066
▁participants	-4067
▁castle	-4068
▁spring	-4069
▁contact	-4070
eme	-4071
equ	-4072
otic	-4073
▁conclus	-4074
▁guarant	-4075
GD	-4076
lig	-4077
eries	-4078
▁Jane	-4079
▁anti	-4080
▁trial	-4081
▁alt	-4082
▁Thorn	-4083
▁pleasant	-4084
▁huh	-4085
▁lunch	-4086
▁afraid	-4087
▁forces	-4088
▁implementation	-4089
▁Cub	-4090
lfare	-4091
▁worst	-4092
▁records	-4093
▁welfare	-4094
▁writing	-4095
▁du	-4096
▁sir	-4097
▁reduced	-4098
▁profession	-4099
▁Dis	-4100
▁bag	-4101
ipped	-4102
▁citizens	-4103
sych	-4104
▁pil	-4105
▁manufacturing	-4106
▁Fe	-4107
▁Sat	-4108
▁Art	-4109
▁Angeles	-4110
▁medieval	-4111
▁understanding	-4112
ext	-4113
▁bye	-4114
▁clos	-4115
▁reve	-4116
endish	-4117
▁filled	-4118
▁screening	-4119
▁hadn	-4120
▁defic	-4121
ictions	-4122
▁burden	-4123
▁degree	-4124
▁relevant	-4125
▁competition	-4126
▁veget	-4127
▁Senate	-4128
▁tough	-4129
▁director	-4130
▁pollution	-4131
▁Any	-4132
iders	-4133
▁circum	-4134
▁pattern	-4135
ulate	-4136
▁fear	-4137
▁democr	-4138
▁players	-4139
▁monument	-4140
lam	-4141
anks	-4142
▁glo	-4143
▁print	-4144
▁businesses	-4145
▁Phil	-4146
▁immigr	-4147
▁streng	-4148
▁theory	-4149
▁traffic	-4150
▁version	-4151
ortunately	-4152
hic	-4153
▁defe	-4154
▁accom	-4155
▁topic	-4156
▁handle	-4157
▁determined	-4158
uty	-4159
▁Good	-4160
▁Vand	-4161
▁names	-4162
▁stick	-4163
▁Dublin	-4164
▁critic	-4165
▁produced	-4166
▁Cavendish	-4167
▁historical	-4168
▁Hind	-4169
▁factor	-4170
▁advantage	-4171
arp	-4172
▁Ken	-4173
▁situ	-4174
▁energy	-4175
▁initial	-4176
▁produce	-4177
▁Mod	-4178
ading	-4179
▁helps	-4180
▁accompl	-4181
onom	-4182
▁lies	-4183
▁conflic	-4184
idden	-4185
▁desert	-4186
▁legislation	-4187
tt	-4188
▁treas	-4189
▁il	-4190
▁Mont	-4191
▁Irish	-4192
▁younger	-4193
oles	-4194
race	-4195
inger	-4196
▁earn	-4197
▁tiny	-4198
ologies	-4199
▁arrived	-4200
yers	-4201
▁nin	-4202
▁bare	-4203
▁totally	-4204
▁standing	-4205
▁recommendations	-4206
▁sup	-4207
▁minor	-4208
▁twice	-4209
▁aspect	-4210
▁bes	-4211
iro	-4212
rence	-4213
orters	-4214
▁deliver	-4215
▁student	-4216
▁drinking	-4217
ctors	-4218
▁finished	-4219
20	-4220
rees	-4221
ifying	-4222
▁units	-4223
▁concept	-4224
aks	-4225
▁trend	-4226
▁editor	-4227
▁presented	-4228
▁technical	-4229
CR	-4230
DP	-4231
▁sevent	-4232
▁spirit	-4233
▁status	-4234
mas	-4235
mosp	-4236
▁Mil	-4237
ortion	-4238
▁amazing	-4239
▁believes	-4240
▁acquisition	-4241
▁papers	-4242
ulations	-4243
▁hundreds	-4244
▁Fig	-4245
▁gain	-4246
itness	-4247
▁speech	-4248
▁Anal	-4249
▁western	-4250
▁transfer	-4251
▁dangerous	-4252
▁pool	-4253
▁rise	-4254
▁observ	-4255
▁golf	-4256
▁walked	-4257
▁theater	-4258
▁tradition	-4259
▁Over	-4260
▁advoc	-4261
▁finance	-4262
▁highest	-4263
▁lie	-4264
▁heat	-4265
▁tower	-4266
arm	-4267
▁od	-4268
▁changing	-4269
▁painting	-4270
▁decide	-4271
▁County	-4272
▁requirement	-4273
▁Ear	-4274
▁Santa	-4275
cy	-4276
bit	-4277
▁shoot	-4278
▁compar	-4279
▁schedule	-4280
▁McC	-4281
▁baby	-4282
▁announ	-4283
▁search	-4284
▁boil	-4285
▁Virgin	-4286
▁imagine	-4287
▁facilities	-4288
alt	-4289
omen	-4290
othic	-4291
▁Jews	-4292
emeyer	-4293
▁leads	-4294
▁Report	-4295
▁fairly	-4296
▁horses	-4297
▁skills	-4298
▁window	-4299
▁refused	-4300
▁mortality	-4301
▁otherwise	-4302
oms	-4303
▁et	-4304
▁Out	-4305
▁Tok	-4306
▁fan	-4307
ession	-4308
▁abuse	-4309
▁journal	-4310
▁surprised	-4311
▁differences	-4312
▁Hill	-4313
inburgh	-4314
▁Ib	-4315
ales	-4316
▁flat	-4317
ension	-4318
erly	-4319
oned	-4320
▁amp	-4321
▁Jamaica	-4322
▁depends	-4323
IC	-4324
▁jew	-4325
▁leaving	-4326
▁Vandemeyer	-4327
hi	-4328
ais	-4329
eria	-4330
▁tom	-4331
▁explain	-4332
▁figures	-4333
▁opposite	-4334
▁nor	-4335
income	-4336
▁bother	-4337
▁artists	-4338
▁magazine	-4339
▁administration	-4340
▁nodd	-4341
▁forget	-4342
▁planned	-4343
▁apparent	-4344
▁fighting	-4345
▁measures	-4346
▁Edinburgh	-4347
ita	-4348
▁sor	-4349
▁spec	-4350
▁atmosp	-4351
▁reviews	-4352
▁opportunities	-4353
▁roof	-4354
▁options	-4355
▁Democrats	-4356
▁Association	-4357
ords	-4358
▁dream	-4359
▁waste	-4360
▁stated	-4361
▁resorts	-4362
isk	-4363
adel	-4364
▁subs	-4365
▁massive	-4366
▁conversation	-4367
▁High	-4368
iminal	-4369
▁inform	-4370
▁member	-4371
▁Medicare	-4372
nel	-4373
oln	-4374
▁Hen	-4375
wards	-4376
bes	-4377
▁GDP	-4378
hered	-4379
▁merc	-4380
▁vast	-4381
issance	-4382
▁leadership	-4383
▁1,	-4384
▁eld	-4385
▁Royal	-4386
▁accounts	-4387
▁gar	-4388
▁gate	-4389
▁loved	-4390
▁touch	-4391
▁restored	-4392
▁Inc	-4393
▁wel	-4394
▁Where	-4395
▁quant	-4396
▁Martin	-4397
idential	-4398
▁housing	-4399
▁Spe	-4400
▁scr	-4401
▁cert	-4402
incoln	-4403
▁conducted	-4404
▁dedicated	-4405
eff	-4406
▁Su	-4407
▁consult	-4408
bb	-4409
▁loan	-4410
▁Techn	-4411
stitute	-4412
▁compon	-4413
▁smiled	-4414
min	-4415
rep	-4416
▁Rue	-4417
enses	-4418
▁chem	-4419
▁helping	-4420
▁herself	-4421
▁Vict	-4422
▁enem	-4423
▁radio	-4424
▁guidance	-4425
BA	-4426
aker	-4427
▁impressive	-4428
met	-4429
▁Bob	-4430
▁FGD	-4431
▁mere	-4432
▁stret	-4433
▁coverage	-4434
▁--	-4435
▁die	-4436
▁san	-4437
known	-4438
▁Muse	-4439
▁burn	-4440
▁calc	-4441
▁explore	-4442
▁weekend	-4443
gen	-4444
owed	-4445
▁firms	-4446
▁hills	-4447
▁occup	-4448
oo	-4449
what	-4450
▁Who	-4451
▁brand	-4452
▁ton	-4453
▁founded	-4454
ida	-4455
▁marble	-4456
▁visited	-4457
▁Bu	-4458
chan	-4459
arian	-4460
ength	-4461
▁Wall	-4462
▁murder	-4463
▁entirely	-4464
▁surrounding	-4465
▁AC	-4466
▁Int	-4467
▁lif	-4468
▁bomb	-4469
▁faith	-4470
▁match	-4471
▁Look	-4472
▁tests	-4473
▁returned	-4474
▁song	-4475
▁Scott	-4476
stances	-4477
▁double	-4478
▁Town	-4479
▁Buddh	-4480
▁lines	-4481
▁afterno	-4482
▁rulemaking	-4483
▁80	-4484
▁unp	-4485
ishing	-4486
▁models	-4487
▁noticed	-4488
▁weapons	-4489
▁NO	-4490
ounds	-4491
▁Sept	-4492
▁lock	-4493
▁raise	-4494
▁Execut	-4495
▁extent	-4496
▁perman	-4497
▁primary	-4498
▁hasn	-4499
▁virt	-4500
▁keeping	-4501
▁relatively	-4502
▁organizational	-4503
ses	-4504
▁Apr	-4505
▁users	-4506
▁minute	-4507
▁Lincoln	-4508
▁eastern	-4509
▁numerous	-4510
▁developing	-4511
now	-4512
▁Aust	-4513
▁jump	-4514
▁supply	-4515
▁accepted	-4516
▁tree	-4517
▁psych	-4518
▁Sunday	-4519
▁buying	-4520
▁confir	-4521
▁suppose	-4522
▁Committee	-4523
bon	-4524
erial	-4525
▁remo	-4526
▁rough	-4527
▁football	-4528
▁Plan	-4529
▁fill	-4530
▁Madeira	-4531
▁maintain	-4532
ES	-4533
ulous	-4534
▁furn	-4535
▁meat	-4536
▁gradu	-4537
▁election	-4538
▁hero	-4539
▁carri	-4540
▁decline	-4541
▁IRS	-4542
▁Paul	-4543
▁yard	-4544
▁apartment	-4545
▁Holly	-4546
▁chair	-4547
▁freed	-4548
▁conclud	-4549
▁evaluation	-4550
iazz	-4551
▁Cath	-4552
▁William	-4553
▁corporate	-4554
▁reasonable	-4555
era	-4556
▁Tre	-4557
▁Rome	-4558
▁forms	-4559
▁hearing	-4560
▁realize	-4561
▁worried	-4562
ening	-4563
▁Work	-4564
▁manner	-4565
▁dropped	-4566
▁&	-4567
vere	-4568
insky	-4569
▁eleg	-4570
▁Clear	-4571
▁broke	-4572
▁statues	-4573
▁households	-4574
▁protection	-4575
ureau	-4576
▁Econom	-4577
▁slowly	-4578
▁documents	-4579
▁Mag	-4580
▁glad	-4581
▁March	-4582
▁Malays	-4583
hem	-4584
law	-4585
▁Lond	-4586
▁carved	-4587
▁markets	-4588
▁science	-4589
▁windows	-4590
▁exchange	-4591
▁entertainment	-4592
igned	-4593
ishes	-4594
▁Cast	-4595
▁tools	-4596
▁asking	-4597
▁award	-4598
▁slaves	-4599
▁conference	-4600
cript	-4601
legal	-4602
▁star	-4603
▁April	-4604
▁speaking	-4605
▁vacation	-4606
▁addressed	-4607
▁governments	-4608
ship	-4609
ught	-4610
▁Stud	-4611
▁shut	-4612
▁pra	-4613
ategy	-4614
iture	-4615
▁Long	-4616
rehens	-4617
▁Maybe	-4618
▁grown	-4619
▁guard	-4620
▁medic	-4621
▁nodded	-4622
▁holding	-4623
han	-4624
▁compr	-4625
ificent	-4626
related	-4627
▁scenar	-4628
▁selection	-4629
roc	-4630
▁1.	-4631
▁Str	-4632
▁tea	-4633
▁Rese	-4634
istrict	-4635
▁online	-4636
▁stream	-4637
▁ang	-4638
ashed	-4639
bered	-4640
▁Mond	-4641
▁forth	-4642
▁vehic	-4643
▁Carter	-4644
▁scient	-4645
▁managed	-4646
stein	-4647
▁mechan	-4648
▁approved	-4649
▁instance	-4650
▁reductions	-4651
▁accountability	-4652
uous	-4653
▁saf	-4654
▁London	-4655
▁fellow	-4656
▁introdu	-4657
enaissance	-4658
oon	-4659
▁Renn	-4660
▁saved	-4661
▁Nobody	-4662
▁defend	-4663
▁selling	-4664
▁challenge	-4665
▁attractions	-4666
▁nurs	-4667
▁Hotel	-4668
▁challenges	-4669
▁inqu	-4670
▁runs	-4671
▁moral	-4672
holders	-4673
▁Monica	-4674
▁courts	-4675
▁leader	-4676
apt	-4677
amble	-4678
▁cuts	-4679
▁whom	-4680
▁IT	-4681
aked	-4682
▁scene	-4683
▁engineering	-4684
▁ED	-4685
▁Once	-4686
▁steel	-4687
▁criminal	-4688
▁facility	-4689
▁movement	-4690
▁attractive	-4691
urd	-4692
axim	-4693
ribe	-4694
▁damage	-4695
▁reduction	-4696
▁70	-4697
▁tim	-4698
▁gent	-4699
▁neat	-4700
▁skin	-4701
▁recip	-4702
▁message	-4703
▁spectac	-4704
iel	-4705
▁Est	-4706
iency	-4707
▁details	-4708
▁argument	-4709
▁girls	-4710
atically	-4711
▁becoming	-4712
▁somewhere	-4713
▁Scot	-4714
▁stake	-4715
▁bul	-4716
▁Prot	-4717
pective	-4718
▁elimin	-4719
▁District	-4720
▁consistent	-4721
itc	-4722
oper	-4723
▁Mac	-4724
▁Gard	-4725
▁None	-4726
▁Figure	-4727
▁therefore	-4728
ari	-4729
▁90	-4730
ilit	-4731
▁Corp	-4732
▁elig	-4733
ishment	-4734
▁critics	-4735
▁distance	-4736
▁negative	-4737
▁attempt	-4738
▁defense	-4739
▁strategy	-4740
▁interests	-4741
pie	-4742
▁Exp	-4743
ardship	-4744
▁Center	-4745
▁driving	-4746
▁Day	-4747
▁dry	-4748
pping	-4749
▁physical	-4750
▁principles	-4751
▁effectively	-4752
cr	-4753
▁enh	-4754
▁suc	-4755
verty	-4756
▁outc	-4757
▁boring	-4758
▁193	-4759
▁Rennie	-4760
▁2002	-4761
▁lawn	-4762
▁volunte	-4763
ham	-4764
isted	-4765
▁Water	-4766
▁owner	-4767
▁finding	-4768
▁22	-4769
▁counsel	-4770
▁patient	-4771
▁Renaissance	-4772
life	-4773
▁Sur	-4774
▁Brad	-4775
▁lady	-4776
▁emphas	-4777
▁issued	-4778
▁January	-4779
▁illustr	-4780
iza	-4781
lls	-4782
▁500	-4783
▁carp	-4784
▁libr	-4785
▁owned	-4786
▁length	-4787
▁flowers	-4788
▁basically	-4789
hab	-4790
▁Gothic	-4791
▁improved	-4792
▁Hollywood	-4793
▁24	-4794
▁Oct	-4795
▁Place	-4796
▁picked	-4797
▁explained	-4798
▁productivity	-4799
nam	-4800
▁cam	-4801
▁Holy	-4802
▁task	-4803
▁oblig	-4804
▁Case	-4805
▁River	-4806
▁pointed	-4807
▁succeed	-4808
▁techniques	-4809
▁CE	-4810
▁Before	-4811
▁surrounded	-4812
▁Rec	-4813
ville	-4814
▁proceed	-4815
▁proposal	-4816
raft	-4817
▁Squ	-4818
▁alive	-4819
▁thank	-4820
▁Alex	-4821
▁cell	-4822
▁swimming	-4823
yl	-4824
anch	-4825
▁stup	-4826
▁smart	-4827
▁Despite	-4828
ford	-4829
▁era	-4830
▁Cost	-4831
▁dism	-4832
▁encourage	-4833
ette	-4834
class	-4835
▁contain	-4836
ero	-4837
aging	-4838
▁rose	-4839
▁bridge	-4840
▁bright	-4841
▁Russian	-4842
▁carried	-4843
▁counter	-4844
oti	-4845
▁pray	-4846
▁replace	-4847
▁Rom	-4848
▁lat	-4849
▁Howard	-4850
▁likes	-4851
▁shock	-4852
▁Russia	-4853
▁explan	-4854
▁telling	-4855
▁flexibility	-4856
▁reput	-4857
ican	-4858
▁pet	-4859
orter	-4860
▁Table	-4861
▁belong	-4862
▁afternoon	-4863
▁discovered	-4864
▁aband	-4865
▁Council	-4866
▁Ap	-4867
▁Gold	-4868
▁hunt	-4869
▁stage	-4870
▁tours	-4871
▁audits	-4872
▁illegal	-4873
yo	-4874
▁Ira	-4875
▁overs	-4876
▁Victor	-4877
▁placed	-4878
▁sufficient	-4879
▁communities	-4880
nic	-4881
▁PM	-4882
aine	-4883
iazza	-4884
▁fixed	-4885
▁upset	-4886
▁Sather	-4887
▁female	-4888
▁agreement	-4889
pay	-4890
tery	-4891
▁Cyn	-4892
heast	-4893
orary	-4894
▁bron	-4895
▁decades	-4896
▁museums	-4897
▁historic	-4898
▁somewhat	-4899
▁increases	-4900
▁provisions	-4901
▁marriage	-4902
aled	-4903
▁Men	-4904
▁text	-4905
▁Madrid	-4906
▁subsid	-4907
▁Financial	-4908
▁Dole	-4909
▁chur	-4910
▁shook	-4911
▁pressure	-4912
▁customers	-4913
▁direction	-4914
▁cafe	-4915
▁snow	-4916
▁climb	-4917
▁putting	-4918
see	-4919
anged	-4920
gment	-4921
▁Chap	-4922
▁Islam	-4923
▁ought	-4924
▁newspaper	-4925
▁SCR	-4926
iment	-4927
▁September	-4928
rian	-4929
▁Que	-4930
▁Gall	-4931
▁Order	-4932
▁manage	-4933
imp	-4934
▁fly	-4935
▁Anse	-4936
ivered	-4937
▁gonna	-4938
▁innov	-4939
▁video	-4940
▁Middle	-4941
▁entered	-4942
▁border	-4943
▁territ	-4944
ography	-4945
▁consequ	-4946
▁religion	-4947
▁examples	-4948
▁presence	-4949
▁landscape	-4950
exp	-4951
well	-4952
▁Sam	-4953
▁Sub	-4954
▁iron	-4955
▁boats	-4956
▁centers	-4957
▁appeared	-4958
agon	-4959
▁hyp	-4960
▁bath	-4961
▁onto	-4962
▁merch	-4963
▁focused	-4964
▁leather	-4965
▁Take	-4966
elines	-4967
▁survey	-4968
▁elements	-4969
▁Executive	-4970
▁DOD	-4971
▁log	-4972
▁conqu	-4973
▁unable	-4974
▁contributions	-4975
ois	-4976
▁Cur	-4977
▁cup	-4978
▁harm	-4979
▁eighty	-4980
▁roads	-4981
▁detailed	-4982
▁thanks	-4983
▁Central	-4984
ober	-4985
water	-4986
▁Perhaps	-4987
▁realized	-4988
▁rac	-4989
right	-4990
▁loans	-4991
▁Nothing	-4992
▁millions	-4993
▁experienced	-4994
bye	-4995
heim	-4996
thia	-4997
▁fit	-4998
▁Kent	-4999
▁sick	-5000
▁balance	-5001
▁monitor	-5002
▁atmosphere	-5003
apes	-5004
▁fees	-5005
▁adequ	-5006
▁awful	-5007
▁obtain	-5008
▁sister	-5009
▁Christmas	-5010
ilty	-5011
uman	-5012
▁fee	-5013
aints	-5014
▁disag	-5015
▁scand	-5016
▁shape	-5017
▁Corpor	-5018
▁approx	-5019
llo	-5020
▁Chic	-5021
▁Napole	-5022
▁fascinating	-5023
IT	-5024
▁Ev	-5025
▁sch	-5026
▁tun	-5027
▁chief	-5028
▁October	-5029
▁manager	-5030
▁descript	-5031
NT	-5032
enance	-5033
▁Square	-5034
▁hy	-5035
aven	-5036
▁plain	-5037
▁missed	-5038
▁unlike	-5039
▁computers	-5040
▁happening	-5041
▁mad	-5042
▁cable	-5043
▁wooden	-5044
▁Chicago	-5045
agan	-5046
▁Bra	-5047
ender	-5048
overy	-5049
▁Four	-5050
▁artist	-5051
▁Research	-5052
▁churches	-5053
▁monaster	-5054
▁mentioned	-5055
▁background	-5056
▁thus	-5057
▁Sever	-5058
▁proud	-5059
standing	-5060
▁Cynthia	-5061
▁reviewed	-5062
▁sections	-5063
▁bra	-5064
▁mob	-5065
andom	-5066
▁teams	-5067
▁broken	-5068
▁pulled	-5069
▁strict	-5070
▁defined	-5071
▁wearing	-5072
▁Us	-5073
▁sharp	-5074
▁debate	-5075
umptions	-5076
▁underst	-5077
▁accident	-5078
▁supported	-5079
▁university	-5080
▁anybody	-5081
▁letters	-5082
arn	-5083
▁webs	-5084
▁fraud	-5085
▁guilty	-5086
▁purposes	-5087
▁Du	-5088
front	-5089
▁Gate	-5090
▁Mail	-5091
▁phil	-5092
▁tired	-5093
▁belief	-5094
rete	-5095
aders	-5096
▁Jack	-5097
▁mouth	-5098
▁splend	-5099
▁poverty	-5100
▁villages	-5101
elve	-5102
▁ice	-5103
▁tal	-5104
▁sorry	-5105
▁adopted	-5106
▁Scotland	-5107
ager	-5108
iously	-5109
▁owners	-5110
▁safety	-5111
▁carefully	-5112
king	-5113
lers	-5114
▁Bel	-5115
▁Like	-5116
▁boys	-5117
▁Public	-5118
▁Sw	-5119
▁plus	-5120
▁holid	-5121
osition	-5122
▁symbol	-5123
▁contemp	-5124
▁processing	-5125
▁magnificent	-5126
▁0	-5127
hand	-5128
▁Wil	-5129
▁Found	-5130
▁fought	-5131
▁advertising	-5132
arts	-5133
▁Crit	-5134
▁courty	-5135
▁perfectly	-5136
▁Mor	-5137
▁Rev	-5138
▁Sup	-5139
▁Project	-5140
▁grounds	-5141
▁circumstances	-5142
II	-5143
amm	-5144
zant	-5145
▁rat	-5146
▁thick	-5147
▁forgot	-5148
▁Charles	-5149
▁content	-5150
▁clothing	-5151
▁occasion	-5152
▁interpret	-5153
erg	-5154
umes	-5155
▁harbor	-5156
▁silver	-5157
▁waters	-5158
▁distinct	-5159
▁decorated	-5160
▁extensive	-5161
▁materials	-5162
ER	-5163
oe	-5164
mail	-5165
▁alloc	-5166
▁taste	-5167
▁bigger	-5168
▁industrial	-5169
▁jour	-5170
terday	-5171
▁recyc	-5172
istance	-5173
▁Several	-5174
▁audience	-5175
uts	-5176
▁hat	-5177
▁lic	-5178
▁loud	-5179
insula	-5180
▁honor	-5181
▁magic	-5182
▁Richard	-5183
▁predict	-5184
▁Analysis	-5185
▁technologies	-5186
ora	-5187
▁Sea	-5188
▁penal	-5189
▁speed	-5190
erences	-5191
▁conven	-5192
▁delight	-5193
▁elegant	-5194
▁initiatives	-5195
ria	-5196
▁amb	-5197
▁Road	-5198
ointed	-5199
▁sides	-5200
▁Monday	-5201
▁Review	-5202
▁aliens	-5203
▁columns	-5204
▁Atl	-5205
aling	-5206
▁1994	-5207
▁remem	-5208
▁offering	-5209
rol	-5210
cont	-5211
▁copy	-5212
▁Hindu	-5213
▁divers	-5214
▁witness	-5215
▁spectacular	-5216
lets	-5217
night	-5218
▁edge	-5219
▁empire	-5220
▁consumption	-5221
▁bars	-5222
▁incorpor	-5223
▁recognize	-5224
iber	-5225
▁der	-5226
▁cere	-5227
▁emot	-5228
▁maxim	-5229
▁buried	-5230
▁expert	-5231
▁typically	-5232
oto	-5233
rant	-5234
▁Met	-5235
▁jun	-5236
▁Three	-5237
▁storm	-5238
▁decade	-5239
▁depict	-5240
onds	-5241
▁Union	-5242
▁allows	-5243
▁honest	-5244
▁sexual	-5245
▁enforce	-5246
▁strategies	-5247
▁Att	-5248
▁dance	-5249
itation	-5250
▁arrest	-5251
▁portion	-5252
▁employment	-5253
▁Last	-5254
▁male	-5255
▁Skies	-5256
▁facts	-5257
▁suddenly	-5258
▁implemented	-5259
▁Bus	-5260
▁Ibiza	-5261
▁ideal	-5262
▁closer	-5263
▁reject	-5264
▁teleph	-5265
▁preamble	-5266
▁vari	-5267
▁delic	-5268
▁Napoleon	-5269
▁application	-5270
▁comfortable	-5271
can	-5272
cks	-5273
▁SO	-5274
▁unus	-5275
▁empty	-5276
▁advent	-5277
▁bottom	-5278
▁privacy	-5279
▁Bau	-5280
▁recon	-5281
▁active	-5282
▁formal	-5283
▁advance	-5284
▁sculpture	-5285
acts	-5286
cket	-5287
▁guns	-5288
ellect	-5289
▁meetings	-5290
▁appreciate	-5291
▁electricity	-5292
▁TH	-5293
oked	-5294
▁seat	-5295
▁primarily	-5296
renna	-5297
▁calm	-5298
▁fool	-5299
▁Black	-5300
▁Vrenna	-5301
▁hardly	-5302
▁limits	-5303
▁horrible	-5304
▁slightly	-5305
▁reputation	-5306
edd	-5307
vis	-5308
▁absor	-5309
rehensive	-5310
cean	-5311
▁lux	-5312
icial	-5313
itals	-5314
▁1980	-5315
▁Flor	-5316
▁plays	-5317
ulatory	-5318
▁Perform	-5319
▁connection	-5320
▁conservative	-5321
how	-5322
▁CO	-5323
▁mir	-5324
▁bust	-5325
▁ship	-5326
▁covers	-5327
▁Egyptian	-5328
▁assumptions	-5329
▁congressional	-5330
za	-5331
aters	-5332
▁applied	-5333
▁library	-5334
▁permanent	-5335
ateau	-5336
▁discl	-5337
▁image	-5338
▁Byzant	-5339
▁leaves	-5340
▁package	-5341
▁Lewinsky	-5342
▁functions	-5343
▁collections	-5344
illy	-5345
▁Mexico	-5346
▁assume	-5347
▁Kentuck	-5348
-9	-5349
aka	-5350
lem	-5351
▁Hist	-5352
▁truly	-5353
▁conver	-5354
▁expend	-5355
xic	-5356
▁Em	-5357
▁Norm	-5358
▁apart	-5359
▁experts	-5360
12	-5361
We	-5362
urb	-5363
wing	-5364
▁ven	-5365
uable	-5366
▁instr	-5367
▁retro	-5368
ewardship	-5369
▁Pre	-5370
▁hung	-5371
▁Health	-5372
▁Though	-5373
▁option	-5374
▁profit	-5375
▁trading	-5376
▁improvement	-5377
▁reliability	-5378
rig	-5379
▁Sum	-5380
▁Frid	-5381
▁hire	-5382
▁shel	-5383
▁criteria	-5384
azar	-5385
greg	-5386
▁Mur	-5387
▁Smith	-5388
▁devoted	-5389
▁Lawrence	-5390
▁committed	-5391
book	-5392
▁Haw	-5393
ellig	-5394
▁symp	-5395
▁Britain	-5396
▁reality	-5397
▁teacher	-5398
▁percentage	-5399
case	-5400
▁Def	-5401
▁notes	-5402
▁valid	-5403
▁attend	-5404
▁convent	-5405
▁feature	-5406
▁univers	-5407
▁Catholic	-5408
▁displays	-5409
▁yesterday	-5410
clock	-5411
▁Carol	-5412
▁holds	-5413
▁School	-5414
▁beauty	-5415
▁solution	-5416
▁egg	-5417
▁drew	-5418
▁motiv	-5419
▁worksh	-5420
▁learning	-5421
▁soldiers	-5422
isis	-5423
outs	-5424
ultan	-5425
▁Empire	-5426
▁System	-5427
▁freedom	-5428
▁neither	-5429
▁accurate	-5430
▁instruct	-5431
▁purchase	-5432
▁visiting	-5433
bell	-5434
▁everywhere	-5435
▁Ky	-5436
ixon	-5437
▁Have	-5438
▁join	-5439
▁vary	-5440
▁alien	-5441
▁cliff	-5442
▁vision	-5443
▁dramatic	-5444
▁Step	-5445
uration	-5446
▁calling	-5447
IS	-5448
irts	-5449
▁Mos	-5450
ingly	-5451
▁cats	-5452
▁chose	-5453
▁fewer	-5454
▁negoti	-5455
▁regardless	-5456
▁Administration	-5457
▁Net	-5458
▁Tom	-5459
▁Color	-5460
▁bound	-5461
▁operating	-5462
▁frequently	-5463
ait	-5464
▁shad	-5465
▁golden	-5466
▁outcomes	-5467
▁possibly	-5468
viet	-5469
▁Hel	-5470
▁Mer	-5471
▁superv	-5472
▁Finally	-5473
▁baseball	-5474
▁contained	-5475
itative	-5476
▁express	-5477
▁selected	-5478
▁Cam	-5479
usion	-5480
▁Supp	-5481
▁bask	-5482
▁urban	-5483
entially	-5484
▁released	-5485
▁Es	-5486
orce	-5487
▁clin	-5488
▁gamb	-5489
▁Palace	-5490
▁gentle	-5491
▁scared	-5492
▁replaced	-5493
▁commission	-5494
ola	-5495
▁fab	-5496
▁surf	-5497
▁tons	-5498
▁phase	-5499
▁stars	-5500
▁Bradley	-5501
▁Supreme	-5502
▁showing	-5503
▁essential	-5504
▁Accounting	-5505
▁dogs	-5506
▁compens	-5507
▁Franklin	-5508
▁submitted	-5509
▁incentives	-5510
ugged	-5511
▁dise	-5512
▁Jones	-5513
▁crazy	-5514
▁crimes	-5515
▁remind	-5516
aus	-5517
▁Peter	-5518
▁Satur	-5519
▁agric	-5520
▁facade	-5521
▁committee	-5522
▁apparently	-5523
arf	-5524
resp	-5525
▁Inst	-5526
▁agricult	-5527
▁Technology	-5528
utch	-5529
▁arms	-5530
▁gift	-5531
▁surprise	-5532
▁Among	-5533
▁Henry	-5534
▁twelve	-5535
▁achieved	-5536
▁approximately	-5537
▁Os	-5538
point	-5539
▁Beach	-5540
▁pages	-5541
▁intellect	-5542
▁Fo	-5543
▁Bor	-5544
▁Jim	-5545
▁SEC	-5546
▁amounts	-5547
▁continues	-5548
▁significantly	-5549
going	-5550
icked	-5551
▁Iraq	-5552
▁stuck	-5553
▁latest	-5554
▁schedul	-5555
▁barg	-5556
▁coal	-5557
▁Poland	-5558
▁elderly	-5559
▁protected	-5560
▁readers	-5561
▁friendly	-5562
▁cart	-5563
orough	-5564
▁litig	-5565
▁schol	-5566
▁signs	-5567
▁smell	-5568
▁grants	-5569
▁troops	-5570
▁appears	-5571
▁victims	-5572
▁delivered	-5573
▁expectations	-5574
▁specifically	-5575
BC	-5576
▁Bas	-5577
▁Bet	-5578
anges	-5579
▁chapel	-5580
▁temper	-5581
▁Florida	-5582
▁previously	-5583
zed	-5584
▁III	-5585
▁Near	-5586
▁Viet	-5587
▁pill	-5588
▁Nixon	-5589
▁revol	-5590
▁tells	-5591
▁throw	-5592
actions	-5593
▁eating	-5594
▁connect	-5595
▁inspect	-5596
▁replied	-5597
▁describes	-5598
▁controvers	-5599
▁improvements	-5600
▁diss	-5601
▁aside	-5602
▁fourth	-5603
▁creating	-5604
▁possibility	-5605
IA	-5606
ao	-5607
▁Lar	-5608
eping	-5609
ivals	-5610
▁cried	-5611
▁Soviet	-5612
▁overlo	-5613
▁poison	-5614
▁ordered	-5615
▁scandal	-5616
▁subsequ	-5617
▁approval	-5618
ifications	-5619
▁statewide	-5620
pm	-5621
okes	-5622
▁Unf	-5623
endix	-5624
while	-5625
▁arts	-5626
▁jail	-5627
▁jewel	-5628
▁shrine	-5629
▁Virginia	-5630
▁eligible	-5631
▁27	-5632
▁lucky	-5633
▁satisf	-5634
▁journey	-5635
▁typical	-5636
cast	-5637
kish	-5638
▁sem	-5639
▁truck	-5640
▁becomes	-5641
▁Whitting	-5642
▁allowances	-5643
urse	-5644
▁Alf	-5645
▁cab	-5646
▁Book	-5647
▁murd	-5648
▁Child	-5649
▁brill	-5650
▁implic	-5651
▁Auditors	-5652
▁Saturday	-5653
omas	-5654
▁Kenned	-5655
▁careful	-5656
▁command	-5657
▁ignored	-5658
▁chemical	-5659
▁courtyard	-5660
ij	-5661
box	-5662
ota	-5663
▁aim	-5664
▁artif	-5665
▁Secret	-5666
▁turning	-5667
▁organized	-5668
▁candidates	-5669
arsh	-5670
▁hik	-5671
▁duty	-5672
▁angry	-5673
▁coord	-5674
▁Columb	-5675
▁tested	-5676
▁helpful	-5677
15	-5678
asty	-5679
▁Lat	-5680
▁complic	-5681
▁doctors	-5682
▁Whittington	-5683
itan	-5684
osen	-5685
▁reducing	-5686
ona	-5687
▁Ins	-5688
▁rebu	-5689
astern	-5690
▁trail	-5691
▁fields	-5692
▁fifteen	-5693
▁guidelines	-5694
OP	-5695
ruct	-5696
▁teen	-5697
cember	-5698
▁upper	-5699
▁forever	-5700
▁penalty	-5701
▁tickets	-5702
▁customer	-5703
▁classical	-5704
▁expression	-5705
▁surprising	-5706
▁PC	-5707
▁dad	-5708
agger	-5709
▁Such	-5710
▁hide	-5711
▁peninsula	-5712
eds	-5713
▁crafts	-5714
▁suspic	-5715
▁Further	-5716
iy	-5717
rad	-5718
emor	-5719
antly	-5720
▁ends	-5721
▁gather	-5722
▁greatly	-5723
▁sentence	-5724
▁confidence	-5725
▁nom	-5726
▁bull	-5727
▁salt	-5728
ective	-5729
▁cheaper	-5730
▁studied	-5731
▁comprehensive	-5732
ev	-5733
ete	-5734
▁Gi	-5735
rors	-5736
style	-5737
▁1993	-5738
▁Pers	-5739
▁bout	-5740
stairs	-5741
▁Tokyo	-5742
▁parks	-5743
▁mosque	-5744
▁assumed	-5745
cher	-5746
▁FDA	-5747
▁Rel	-5748
agers	-5749
inent	-5750
▁laid	-5751
▁December	-5752
▁Corporation	-5753
yles	-5754
odies	-5755
▁sale	-5756
▁title	-5757
▁Colorado	-5758
▁obviously	-5759
▁punishment	-5760
AC	-5761
ias	-5762
ennis	-5763
▁crop	-5764
▁lift	-5765
▁keeps	-5766
▁opening	-5767
▁treated	-5768
▁transportation	-5769
▁Tra	-5770
▁fant	-5771
▁Treas	-5772
▁bunch	-5773
▁Albert	-5774
▁accomp	-5775
▁recommended	-5776
amber	-5777
▁Wood	-5778
▁tent	-5779
▁Germany	-5780
▁mistake	-5781
▁splendid	-5782
▁Tri	-5783
▁doors	-5784
▁exclus	-5785
▁corrupt	-5786
▁Pen	-5787
▁row	-5788
▁dating	-5789
▁scenes	-5790
▁Scottish	-5791
▁effectiveness	-5792
.2	-5793
eder	-5794
▁Queen	-5795
▁fired	-5796
▁resol	-5797
▁engage	-5798
▁contrast	-5799
▁expressed	-5800
▁oversight	-5801
▁supporting	-5802
yram	-5803
imony	-5804
▁argue	-5805
▁hated	-5806
▁rapid	-5807
▁turns	-5808
▁stared	-5809
▁weapon	-5810
▁avoided	-5811
▁Gl	-5812
icks	-5813
▁Ott	-5814
▁Call	-5815
▁Friday	-5816
▁falling	-5817
▁positions	-5818
▁Regulatory	-5819
▁efficiency	-5820
▁26	-5821
ingu	-5822
▁banks	-5823
▁scale	-5824
▁shore	-5825
▁random	-5826
▁conflict	-5827
▁medicine	-5828
▁territory	-5829
▁understood	-5830
▁195	-5831
▁Gal	-5832
▁fat	-5833
ework	-5834
▁ruins	-5835
▁smoke	-5836
▁excess	-5837
▁joined	-5838
▁Johnson	-5839
▁failure	-5840
▁occurred	-5841
bac	-5842
▁23	-5843
▁ug	-5844
▁Kir	-5845
rough	-5846
▁Init	-5847
▁losing	-5848
▁philos	-5849
▁severe	-5850
▁signed	-5851
▁attraction	-5852
▁participate	-5853
▁substantial	-5854
ema	-5855
wan	-5856
unded	-5857
▁Arch	-5858
▁Bauer	-5859
amework	-5860
▁aspects	-5861
▁largely	-5862
▁mercury	-5863
▁intellig	-5864
▁surpluses	-5865
▁communication	-5866
icy	-5867
▁300	-5868
▁Daniel	-5869
▁arrange	-5870
abilities	-5871
▁valuable	-5872
owl	-5873
▁laug	-5874
▁giant	-5875
▁animal	-5876
▁escape	-5877
▁hidden	-5878
▁frequent	-5879
▁suggests	-5880
▁candidate	-5881
▁collected	-5882
▁providers	-5883
illa	-5884
▁gay	-5885
ushing	-5886
▁Still	-5887
▁scream	-5888
▁silent	-5889
▁stupid	-5890
▁Turkish	-5891
▁observed	-5892
▁thorough	-5893
▁remaining	-5894
▁definition	-5895
IN	-5896
▁shoes	-5897
▁Saving	-5898
▁memory	-5899
▁neighb	-5900
▁admitted	-5901
▁constructed	-5902
▁192	-5903
▁cig	-5904
ugues	-5905
▁Fort	-5906
▁harder	-5907
▁serves	-5908
▁cutting	-5909
▁wealthy	-5910
▁regional	-5911
aret	-5912
rane	-5913
▁Hunt	-5914
▁fans	-5915
loyment	-5916
▁destination	-5917
NN	-5918
pan	-5919
▁Im	-5920
▁rum	-5921
▁Inter	-5922
▁clock	-5923
▁sport	-5924
▁orders	-5925
▁Journal	-5926
▁institution	-5927
▁ridic	-5928
▁Piazza	-5929
▁peaceful	-5930
▁thoughts	-5931
▁Performance	-5932
zone	-5933
▁van	-5934
oulev	-5935
▁blade	-5936
▁lakes	-5937
▁Johnny	-5938
sey	-5939
▁Ire	-5940
▁Star	-5941
▁mile	-5942
▁chest	-5943
▁flood	-5944
▁breath	-5945
▁crisis	-5946
▁maintenance	-5947
ubs	-5948
▁forty	-5949
▁funded	-5950
▁native	-5951
▁voters	-5952
▁Ireland	-5953
▁literature	-5954
▁structures	-5955
tion	-5956
▁Nile	-5957
▁feels	-5958
▁invent	-5959
▁Indians	-5960
▁necessarily	-5961
rim	-5962
isms	-5963
▁rom	-5964
▁prove	-5965
▁academ	-5966
▁sensitive	-5967
▁Pu	-5968
ogue	-5969
▁upd	-5970
ommod	-5971
▁bear	-5972
▁dust	-5973
▁ceiling	-5974
kes	-5975
▁Bro	-5976
▁Sun	-5977
under	-5978
▁knock	-5979
▁stroll	-5980
▁prepare	-5981
board	-5982
▁Bork	-5983
▁Someone	-5984
▁artifacts	-5985
▁projected	-5986
fl	-5987
irty	-5988
ties	-5989
▁pilgr	-5990
▁mainly	-5991
▁nursing	-5992
aly	-5993
bar	-5994
▁Cow	-5995
▁Ret	-5996
▁caves	-5997
▁crack	-5998
▁basket	-5999
▁tomorrow	-6000
▁politicians	-6001
▁folks	-6002
▁attrib	-6003
▁visits	-6004
▁minimum	-6005
▁survive	-6006
▁stations	-6007
▁settlement	-6008
kl	-6009
vy	-6010
▁Cat	-6011
▁Via	-6012
▁1960	-6013
▁chann	-6014
▁Reform	-6015
▁Thomas	-6016
▁finish	-6017
▁voting	-6018
▁tonight	-6019
▁Ill	-6020
▁fro	-6021
▁Wind	-6022
▁Flore	-6023
▁occas	-6024
▁taught	-6025
▁dyn	-6026
icing	-6027
▁Green	-6028
▁dates	-6029
▁Centre	-6030
▁finest	-6031
▁liberal	-6032
▁Kos	-6033
▁rob	-6034
wered	-6035
▁Rock	-6036
uguese	-6037
▁admit	-6038
▁brings	-6039
▁fortress	-6040
▁Foundation	-6041
▁distribution	-6042
▁orn	-6043
piece	-6044
▁poet	-6045
▁tight	-6046
▁exhibits	-6047
▁administrative	-6048
▁GP	-6049
▁je	-6050
iform	-6051
▁myst	-6052
uality	-6053
▁films	-6054
▁terror	-6055
▁auditor	-6056
▁decrease	-6057
▁combination	-6058
▁investments	-6059
sp	-6060
▁vul	-6061
ranean	-6062
▁brain	-6063
▁barely	-6064
▁exceed	-6065
▁player	-6066
inations	-6067
▁sharing	-6068
▁Maryland	-6069
▁improper	-6070
▁Something	-6071
▁competitive	-6072
cipl	-6073
fits	-6074
aming	-6075
▁2010	-6076
▁Hers	-6077
▁sweet	-6078
▁facilit	-6079
▁celebrated	-6080
▁intellectual	-6081
edy	-6082
fast	-6083
▁Tit	-6084
▁Cuba	-6085
▁Kath	-6086
▁suit	-6087
▁Asian	-6088
▁seriously	-6089
▁residential	-6090
ww	-6091
ura	-6092
▁Morr	-6093
▁cave	-6094
▁incred	-6095
▁claimed	-6096
▁principle	-6097
anging	-6098
stance	-6099
oration	-6100
▁Romans	-6101
▁examined	-6102
▁reference	-6103
▁Big	-6104
▁dig	-6105
▁web	-6106
▁Asia	-6107
▁quit	-6108
▁usual	-6109
▁prosec	-6110
▁writer	-6111
▁constitution	-6112
▁CEO	-6113
ulfur	-6114
▁Anton	-6115
▁Tower	-6116
▁lately	-6117
▁protest	-6118
▁repeated	-6119
▁Portuguese	-6120
▁ble	-6121
▁via	-6122
▁advis	-6123
▁dozen	-6124
▁heads	-6125
▁accommod	-6126
▁carrying	-6127
▁hom	-6128
▁Week	-6129
▁Section	-6130
▁newspapers	-6131
FA	-6132
▁Get	-6133
orted	-6134
▁bills	-6135
▁chain	-6136
▁flower	-6137
▁indeed	-6138
▁relief	-6139
▁Carolina	-6140
▁Malaysia	-6141
▁articles	-6142
▁elsewhere	-6143
uan	-6144
▁odd	-6145
▁Bank	-6146
▁code	-6147
▁Derry	-6148
▁steep	-6149
▁accord	-6150
▁rarely	-6151
▁expanded	-6152
▁elections	-6153
▁categories	-6154
▁commitment	-6155
▁colors	-6156
▁stable	-6157
▁furniture	-6158
▁telephone	-6159
gs	-6160
ubb	-6161
▁wore	-6162
profit	-6163
▁solid	-6164
▁archae	-6165
▁intent	-6166
▁please	-6167
▁Kennedy	-6168
▁unusual	-6169
▁attitude	-6170
▁exciting	-6171
▁pleasure	-6172
▁abandoned	-6173
▁listening	-6174
▁represented	-6175
UD	-6176
ownt	-6177
▁writ	-6178
estone	-6179
ference	-6180
▁riding	-6181
▁Instead	-6182
▁welcome	-6183
▁shoulder	-6184
▁framework	-6185
▁monuments	-6186
▁ren	-6187
▁begins	-6188
▁Without	-6189
▁normally	-6190
▁restrictions	-6191
EM	-6192
▁31	-6193
▁Kore	-6194
▁enth	-6195
▁shif	-6196
▁Cazar	-6197
▁memor	-6198
▁analys	-6199
▁lovely	-6200
▁emperor	-6201
▁Treasury	-6202
▁involving	-6203
LS	-6204
hal	-6205
▁pa	-6206
▁Bur	-6207
▁Fam	-6208
▁pure	-6209
▁Natal	-6210
▁entry	-6211
▁Invest	-6212
▁seeking	-6213
▁Particip	-6214
▁reliable	-6215
▁remarkable	-6216
▁successfully	-6217
sk	-6218
▁Tel	-6219
▁bat	-6220
▁Finn	-6221
▁input	-6222
▁sample	-6223
▁classes	-6224
▁excited	-6225
▁expenses	-6226
▁Sometimes	-6227
▁depending	-6228
▁increasingly	-6229
uis	-6230
anta	-6231
ller	-6232
▁Does	-6233
▁Sing	-6234
▁pride	-6235
▁promote	-6236
▁tourism	-6237
▁measured	-6238
▁teaching	-6239
▁characters	-6240
▁www	-6241
iance	-6242
▁unre	-6243
ensity	-6244
▁drawn	-6245
▁organ	-6246
▁Muslim	-6247
▁marked	-6248
▁proved	-6249
▁choices	-6250
▁strength	-6251
▁International	-6252
gent	-6253
owned	-6254
▁Yeah	-6255
▁sets	-6256
▁Venet	-6257
liament	-6258
▁Palest	-6259
▁listed	-6260
uze	-6261
▁Bes	-6262
▁Pass	-6263
▁birds	-6264
▁weird	-6265
▁earthqu	-6266
▁victory	-6267
▁Everything	-6268
amps	-6269
ault	-6270
lines	-6271
▁faces	-6272
▁merely	-6273
▁promot	-6274
▁writes	-6275
ographic	-6276
▁settled	-6277
▁approaches	-6278
▁remembered	-6279
▁stewardship	-6280
▁Lo	-6281
▁desk	-6282
bruary	-6283
▁gross	-6284
▁scary	-6285
ulating	-6286
▁gallery	-6287
▁outcome	-6288
▁Economic	-6289
▁exposure	-6290
▁improving	-6291
▁investors	-6292
▁Rem	-6293
▁clo	-6294
ensus	-6295
ternal	-6296
duction	-6297
▁affair	-6298
▁latter	-6299
▁output	-6300
▁disappe	-6301
▁partners	-6302
▁resource	-6303
acc	-6304
▁Sil	-6305
annon	-6306
oster	-6307
▁Land	-6308
▁Tues	-6309
arther	-6310
erning	-6311
▁fruit	-6312
istered	-6313
▁assass	-6314
▁facing	-6315
▁context	-6316
▁element	-6317
▁representatives	-6318
TA	-6319
hy	-6320
gers	-6321
hour	-6322
oral	-6323
▁gods	-6324
▁Kyoto	-6325
▁begun	-6326
▁worship	-6327
▁accuracy	-6328
▁category	-6329
▁applicable	-6330
▁publication	-6331
quar	-6332
▁ACI	-6333
ecess	-6334
▁rocks	-6335
▁unemp	-6336
archers	-6337
▁Little	-6338
▁Reagan	-6339
▁chateau	-6340
▁interim	-6341
▁disagree	-6342
▁accomplish	-6343
▁revolution	-6344
▁35	-6345
▁Er	-6346
▁Ma	-6347
essed	-6348
▁troub	-6349
▁Mediter	-6350
▁Buddhist	-6351
▁Business	-6352
▁Register	-6353
▁uncertain	-6354
▁sculptures	-6355
but	-6356
▁boss	-6357
▁tail	-6358
▁overse	-6359
▁stress	-6360
▁residence	-6361
▁foundation	-6362
▁investigation	-6363
▁Equ	-6364
▁1970	-6365
▁fuel	-6366
▁sole	-6367
▁sust	-6368
▁terr	-6369
▁enorm	-6370
▁inner	-6371
▁Indust	-6372
▁Critics	-6373
▁uniform	-6374
▁violent	-6375
▁Institute	-6376
▁Standards	-6377
▁presidential	-6378
▁Mediterranean	-6379
▁33	-6380
▁Yet	-6381
▁McCain	-6382
▁worker	-6383
ologists	-6384
▁heavily	-6385
▁knowing	-6386
▁February	-6387
▁whenever	-6388
▁Therefore	-6389
▁regularly	-6390
uns	-6391
▁WT	-6392
▁Six	-6393
▁Thus	-6394
▁alle	-6395
▁mans	-6396
▁Human	-6397
▁equally	-6398
▁imperial	-6399
▁consideration	-6400
tr	-6401
▁Dec	-6402
▁bay	-6403
▁mosa	-6404
▁ugly	-6405
▁whis	-6406
stream	-6407
▁Musee	-6408
▁desire	-6409
▁hoping	-6410
▁reward	-6411
▁anticip	-6412
▁charged	-6413
▁manufacture	-6414
▁Add	-6415
▁Mah	-6416
▁Ter	-6417
▁fert	-6418
▁hell	-6419
▁kitc	-6420
▁outdo	-6421
▁Alfred	-6422
▁Person	-6423
▁shared	-6424
▁chronic	-6425
▁considering	-6426
▁28	-6427
▁Av	-6428
hent	-6429
▁Cas	-6430
▁Raj	-6431
eless	-6432
ician	-6433
▁Carib	-6434
▁metal	-6435
▁Disney	-6436
▁disease	-6437
▁handsome	-6438
▁visibility	-6439
▁explanation	-6440
▁documentation	-6441
gl	-6442
▁Kr	-6443
▁Prin	-6444
▁crowded	-6445
▁healthy	-6446
▁opposed	-6447
FO	-6448
▁hole	-6449
▁Party	-6450
▁Small	-6451
▁spons	-6452
▁Africa	-6453
▁Second	-6454
▁bronze	-6455
estation	-6456
▁bringing	-6457
▁requests	-6458
▁testimony	-6459
ads	-6460
inos	-6461
▁finds	-6462
▁split	-6463
▁earned	-6464
▁charges	-6465
▁galleries	-6466
IV	-6467
illes	-6468
ittees	-6469
venues	-6470
▁Civil	-6471
▁sacred	-6472
▁Natalia	-6473
▁removed	-6474
OL	-6475
po	-6476
lla	-6477
rey	-6478
anan	-6479
▁1992	-6480
▁dish	-6481
▁Clean	-6482
▁clubs	-6483
▁pyram	-6484
▁mental	-6485
▁modest	-6486
▁expense	-6487
▁answered	-6488
▁charming	-6489
▁applications	-6490
▁hey	-6491
ouses	-6492
▁nerv	-6493
itures	-6494
▁Hawai	-6495
▁wages	-6496
▁formed	-6497
▁global	-6498
▁combined	-6499
▁scholars	-6500
lear	-6501
stone	-6502
venir	-6503
▁Fund	-6504
▁ferry	-6505
ception	-6506
▁causes	-6507
▁Emperor	-6508
▁suffered	-6509
▁weakness	-6510
▁evolution	-6511
▁perspective	-6512
▁stakeholders	-6513
zes	-6514
comm	-6515
▁CIOs	-6516
▁ring	-6517
▁champ	-6518
▁coach	-6519
▁superb	-6520
▁attacks	-6521
oupe	-6522
▁mel	-6523
ograp	-6524
▁graph	-6525
▁scope	-6526
▁serving	-6527
▁properly	-6528
▁survived	-6529
van	-6530
educt	-6531
▁subt	-6532
▁Chief	-6533
▁Greuze	-6534
▁arrive	-6535
▁Ottoman	-6536
▁precise	-6537
▁unknown	-6538
▁governor	-6539
▁encouraged	-6540
▁ultimately	-6541
▁countryside	-6542
▁legislative	-6543
▁independence	-6544
▁tip	-6545
▁fing	-6546
▁chick	-6547
▁ozone	-6548
▁bodies	-6549
BM	-6550
▁mut	-6551
lined	-6552
▁cous	-6553
▁rein	-6554
▁Women	-6555
▁tombs	-6556
ensions	-6557
▁assert	-6558
▁depart	-6559
▁sacrif	-6560
▁festival	-6561
▁ordinary	-6562
▁relative	-6563
▁announced	-6564
▁implementing	-6565
▁Mel	-6566
cknow	-6567
▁Never	-6568
▁Trust	-6569
▁noise	-6570
▁sought	-6571
▁29	-6572
▁fal	-6573
▁ours	-6574
▁inhab	-6575
▁links	-6576
▁youth	-6577
amental	-6578
istical	-6579
▁faster	-6580
▁contracts	-6581
▁recycling	-6582
▁Revolution	-6583
▁comparison	-6584
AR	-6585
oul	-6586
ching	-6587
▁push	-6588
▁strugg	-6589
oulevard	-6590
▁authent	-6591
▁species	-6592
▁website	-6593
▁struggle	-6594
▁addresses	-6595
▁situations	-6596
▁generations	-6597
avy	-6598
▁Loc	-6599
aimed	-6600
umber	-6601
▁meal	-6602
▁soph	-6603
▁user	-6604
▁delay	-6605
▁shift	-6606
▁warri	-6607
▁Agency	-6608
▁Venice	-6609
▁recipients	-6610
▁consequences	-6611
whel	-6612
▁lad	-6613
ansas	-6614
▁hired	-6615
▁roles	-6616
▁adults	-6617
▁silence	-6618
▁responses	-6619
▁transition	-6620
▁Nep	-6621
▁Roc	-6622
▁Tax	-6623
▁GPRA	-6624
▁brown	-6625
▁depos	-6626
▁lying	-6627
▁ships	-6628
▁beside	-6629
▁fresco	-6630
▁settle	-6631
▁Society	-6632
▁suspect	-6633
▁introduced	-6634
ss	-6635
ta	-6636
anes	-6637
▁CNN	-6638
▁Home	-6639
▁moon	-6640
▁staying	-6641
▁souvenir	-6642
▁requested	-6643
ima	-6644
ante	-6645
lick	-6646
▁Age	-6647
▁hob	-6648
▁spr	-6649
▁drag	-6650
▁ramp	-6651
▁disaster	-6652
▁patterns	-6653
▁personnel	-6654
jo	-6655
made	-6656
▁150	-6657
▁renov	-6658
▁Vietnam	-6659
▁cooking	-6660
▁degrees	-6661
▁publish	-6662
▁analyses	-6663
▁creation	-6664
▁appearance	-6665
▁components	-6666
▁conclusion	-6667
▁ske	-6668
▁puts	-6669
▁sits	-6670
▁withd	-6671
▁prohib	-6672
▁rising	-6673
▁democracy	-6674
oir	-6675
fare	-6676
▁asset	-6677
▁cooper	-6678
▁judges	-6679
▁demands	-6680
▁concerning	-6681
atre	-6682
aved	-6683
▁Sel	-6684
▁Poll	-6685
▁Nepal	-6686
▁smile	-6687
▁stair	-6688
▁towers	-6689
▁accused	-6690
▁dismiss	-6691
▁annually	-6692
▁Byzantine	-6693
▁practical	-6694
gar	-6695
ques	-6696
adium	-6697
▁Jord	-6698
▁copies	-6699
▁crimin	-6700
▁portra	-6701
▁chapter	-6702
▁persons	-6703
▁resulting	-6704
▁satisfact	-6705
orse	-6706
▁Wed	-6707
▁Lind	-6708
▁scar	-6709
▁winds	-6710
▁acknow	-6711
▁plastic	-6712
▁Francisc	-6713
▁adequate	-6714
▁enforcement	-6715
ems	-6716
▁Up	-6717
hetic	-6718
▁Super	-6719
▁explo	-6720
▁faced	-6721
astruct	-6722
▁dining	-6723
▁Organiz	-6724
ene	-6725
▁Ah	-6726
▁tone	-6727
▁vent	-6728
urally	-6729
▁Tuesday	-6730
bre	-6731
▁Jac	-6732
resents	-6733
▁summary	-6734
▁gambling	-6735
▁monastery	-6736
aze	-6737
▁cin	-6738
▁nic	-6739
alled	-6740
eling	-6741
esque	-6742
▁Buch	-6743
▁Slim	-6744
▁Elect	-6745
▁Gates	-6746
▁blame	-6747
▁error	-6748
▁ruled	-6749
▁stepped	-6750
iguration	-6751
▁describe	-6752
▁directors	-6753
▁principal	-6754
▁complicated	-6755
▁participation	-6756
IP	-6757
athered	-6758
▁vulner	-6759
▁divided	-6760
▁quietly	-6761
▁imposing	-6762
▁involves	-6763
▁authentic	-6764
▁existence	-6765
▁interrupt	-6766
▁departments	-6767
abb	-6768
▁phr	-6769
▁Year	-6770
▁neck	-6771
▁grace	-6772
▁capture	-6773
▁invasion	-6774
▁Environment	-6775
ko	-6776
▁smo	-6777
ighter	-6778
ilding	-6779
▁danger	-6780
▁elabor	-6781
▁extended	-6782
▁reporters	-6783
duc	-6784
rie	-6785
hips	-6786
rich	-6787
▁Vol	-6788
inate	-6789
▁Back	-6790
▁pace	-6791
asters	-6792
▁sandy	-6793
▁Buddha	-6794
▁ticket	-6795
▁retired	-6796
500	-6797
▁Hol	-6798
▁unw	-6799
▁batt	-6800
▁About	-6801
▁Dutch	-6802
▁breed	-6803
▁Market	-6804
▁starts	-6805
▁capable	-6806
▁relationships	-6807
▁Ber	-6808
adays	-6809
▁Eval	-6810
▁bags	-6811
▁enthus	-6812
▁legend	-6813
▁aggress	-6814
▁classic	-6815
▁inspired	-6816
▁Participants	-6817
ipe	-6818
▁FC	-6819
▁Aut	-6820
▁GAG	-6821
▁Crus	-6822
▁Priv	-6823
▁impe	-6824
▁ment	-6825
▁peak	-6826
▁sanct	-6827
▁height	-6828
▁captured	-6829
▁resulted	-6830
▁installed	-6831
▁preserved	-6832
▁represents	-6833
▁scientific	-6834
iana	-6835
oque	-6836
uits	-6837
▁Major	-6838
▁moder	-6839
owntown	-6840
▁defeat	-6841
▁driven	-6842
▁prompt	-6843
▁enemies	-6844
▁Planning	-6845
▁internet	-6846
▁transform	-6847
ey	-6848
ns	-6849
ION	-6850
▁75	-6851
▁Mall	-6852
▁frag	-6853
▁hook	-6854
coming	-6855
▁climate	-6856
▁periods	-6857
▁railway	-6858
▁Standard	-6859
▁abortion	-6860
▁scenario	-6861
▁vegetables	-6862
▁Les	-6863
▁thin	-6864
▁cheer	-6865
▁erect	-6866
▁motor	-6867
urities	-6868
▁Wednes	-6869
▁triump	-6870
▁raising	-6871
▁allowing	-6872
▁officers	-6873
▁contribute	-6874
▁characteristics	-6875
▁map	-6876
▁mic	-6877
▁Vice	-6878
▁crow	-6879
▁soci	-6880
encing	-6881
▁desper	-6882
▁reserv	-6883
▁consumer	-6884
▁emission	-6885
▁engagement	-6886
ader	-6887
bacco	-6888
▁Kosov	-6889
▁African	-6890
▁tobacco	-6891
▁declined	-6892
▁installation	-6893
irm	-6894
uzz	-6895
▁Pic	-6896
isher	-6897
▁Puert	-6898
▁estate	-6899
▁tennis	-6900
▁killing	-6901
▁privile	-6902
▁opinions	-6903
▁expenditures	-6904
-3	-6905
40	-6906
70	-6907
free	-6908
gate	-6909
▁Rub	-6910
▁Colle	-6911
▁Thurs	-6912
▁ocean	-6913
▁recru	-6914
▁burned	-6915
▁exists	-6916
▁discipl	-6917
▁everyday	-6918
▁machines	-6919
▁overwhel	-6920
▁initiative	-6921
▁regulation	-6922
▁conclusions	-6923
▁description	-6924
▁See	-6925
abbed	-6926
▁Nove	-6927
orious	-6928
▁GAGAS	-6929
▁Peace	-6930
▁locals	-6931
▁courses	-6932
▁ongoing	-6933
▁alternatives	-6934
AN	-6935
amic	-6936
▁Bos	-6937
iable	-6938
▁plat	-6939
▁thri	-6940
▁conce	-6941
endment	-6942
▁guided	-6943
▁Eastern	-6944
▁Muslims	-6945
▁examine	-6946
▁winning	-6947
▁judgment	-6948
▁preferred	-6949
▁professor	-6950
zing	-6951
▁Pan	-6952
▁Guadel	-6953
▁fortun	-6954
▁widely	-6955
▁photograph	-6956
▁experiences	-6957
▁Wal	-6958
▁file	-6959
▁fount	-6960
▁Jordan	-6961
▁stairs	-6962
▁sulfur	-6963
▁partner	-6964
▁operation	-6965
bey	-6966
uma	-6967
uter	-6968
▁ski	-6969
▁Fena	-6970
▁acid	-6971
▁taxi	-6972
▁Islamic	-6973
▁mailers	-6974
ege	-6975
ici	-6976
▁Ob	-6977
▁Op	-6978
that	-6979
level	-6980
▁dial	-6981
makers	-6982
▁Cairo	-6983
▁swung	-6984
▁curious	-6985
▁enhance	-6986
▁Visitors	-6987
▁sophistic	-6988
▁Guadeloupe	-6989
va	-6990
▁Sar	-6991
eness	-6992
▁Leon	-6993
▁acts	-6994
▁tool	-6995
▁Latin	-6996
▁drove	-6997
▁trips	-6998
attered	-6999
stronom	-7000
▁shadow	-7001
▁Through	-7002
▁Buchanan	-7003
▁declared	-7004
▁Hit	-7005
▁IBM	-7006
ammed	-7007
▁Policy	-7008
▁eleven	-7009
▁receip	-7010
▁explains	-7011
▁traveling	-7012
ugal	-7013
Class	-7014
orcas	-7015
▁Disc	-7016
▁blank	-7017
▁bread	-7018
▁exemp	-7019
▁excuse	-7020
▁images	-7021
▁permit	-7022
▁colonial	-7023
▁colorful	-7024
▁diversity	-7025
▁Unfortunately	-7026
kins	-7027
▁Karf	-7028
istent	-7029
opping	-7030
▁admin	-7031
▁strike	-7032
▁monarch	-7033
▁Children	-7034
▁teachers	-7035
-19	-7036
ean	-7037
▁Hug	-7038
▁Plaza	-7039
▁lively	-7040
▁bedroom	-7041
▁boilerm	-7042
▁musical	-7043
▁electron	-7044
▁Alexander	-7045
▁criminals	-7046
▁basketball	-7047
▁architectural	-7048
▁IV	-7049
▁190	-7050
▁Bab	-7051
▁Nat	-7052
▁arc	-7053
▁bol	-7054
▁tor	-7055
▁ages	-7056
▁flag	-7057
▁isol	-7058
▁migr	-7059
▁pair	-7060
illing	-7061
lining	-7062
▁Dorcas	-7063
▁constr	-7064
▁waited	-7065
▁designs	-7066
▁hunting	-7067
▁smoking	-7068
▁referred	-7069
▁assumption	-7070
agn	-7071
ien	-7072
▁pir	-7073
▁gang	-7074
▁shout	-7075
▁Morris	-7076
▁Indiana	-7077
▁Station	-7078
▁elected	-7079
▁receiving	-7080
▁Democratic	-7081
▁accessible	-7082
▁constantly	-7083
▁establishing	-7084
▁pig	-7085
inian	-7086
▁wise	-7087
idding	-7088
▁Plano	-7089
▁sixty	-7090
▁vital	-7091
▁powers	-7092
▁jewelry	-7093
▁kingdom	-7094
▁missing	-7095
▁visible	-7096
▁weekends	-7097
cer	-7098
▁2,	-7099
▁Lee	-7100
▁NOx	-7101
▁pit	-7102
▁Jose	-7103
▁Penn	-7104
▁core	-7105
▁rode	-7106
▁Right	-7107
▁gains	-7108
▁sights	-7109
▁kitchen	-7110
▁objects	-7111
▁officer	-7112
▁compensation	-7113
60	-7114
iot	-7115
▁Non	-7116
▁Sav	-7117
▁cow	-7118
▁cro	-7119
uting	-7120
▁Data	-7121
▁Expl	-7122
▁cuis	-7123
▁wedd	-7124
▁cents	-7125
▁click	-7126
▁compare	-7127
▁passing	-7128
▁Director	-7129
▁enormous	-7130
astructure	-7131
▁agricultural	-7132
oken	-7133
▁bird	-7134
▁thro	-7135
▁Castle	-7136
▁Palais	-7137
▁transl	-7138
▁ridiculous	-7139
ked	-7140
oly	-7141
pir	-7142
anda	-7143
rove	-7144
▁Van	-7145
▁tap	-7146
etary	-7147
▁flow	-7148
▁gosh	-7149
seless	-7150
▁Georg	-7151
▁denied	-7152
▁metric	-7153
▁taxpay	-7154
▁Gallery	-7155
▁portray	-7156
▁obtained	-7157
▁concluded	-7158
▁economics	-7159
▁accordance	-7160
▁occasionally	-7161
rip	-7162
▁32	-7163
andy	-7164
▁Ver	-7165
▁Oper	-7166
▁Rule	-7167
angers	-7168
▁solic	-7169
▁crowds	-7170
▁expans	-7171
▁handed	-7172
▁identity	-7173
IM	-7174
▁aer	-7175
atoes	-7176
▁torn	-7177
▁Charl	-7178
▁enact	-7179
▁simpl	-7180
▁branch	-7181
▁myster	-7182
▁struck	-7183
▁answers	-7184
▁achieving	-7185
ua	-7186
▁kil	-7187
▁rig	-7188
utory	-7189
▁Club	-7190
▁sugar	-7191
▁yield	-7192
▁county	-7193
▁dealing	-7194
▁brilliant	-7195
▁instances	-7196
▁_	-7197
rem	-7198
oric	-7199
▁Aege	-7200
▁Lord	-7201
▁Prud	-7202
nocent	-7203
▁stops	-7204
▁regions	-7205
▁interpretation	-7206
cons	-7207
▁alb	-7208
▁boom	-7209
▁encl	-7210
▁Funch	-7211
▁Would	-7212
▁Canada	-7213
▁bureau	-7214
▁pleased	-7215
▁November	-7216
▁directed	-7217
▁supports	-7218
▁Wednesday	-7219
▁neighbors	-7220
awa	-7221
his	-7222
alle	-7223
▁Far	-7224
abled	-7225
itage	-7226
▁Mill	-7227
▁evil	-7228
▁groc	-7229
▁Trans	-7230
▁Aegean	-7231
▁returns	-7232
▁treasures	-7233
▁professionals	-7234
uls	-7235
▁GOP	-7236
▁Win	-7237
▁ate	-7238
ether	-7239
rogen	-7240
▁nose	-7241
acious	-7242
ipping	-7243
▁Young	-7244
▁fault	-7245
▁Bridge	-7246
▁remote	-7247
▁undert	-7248
▁viewed	-7249
▁Funchal	-7250
▁fingers	-7251
▁operate	-7252
▁trained	-7253
▁Kentucky	-7254
▁highlight	-7255
▁locations	-7256
▁committees	-7257
▁litigation	-7258
▁ox	-7259
ache	-7260
▁ing	-7261
▁release	-7262
▁Agencies	-7263
▁festivals	-7264
▁acceptable	-7265
oys	-7266
bour	-7267
▁Fore	-7268
▁eleph	-7269
▁kings	-7270
▁rival	-7271
▁Having	-7272
▁pushed	-7273
▁closely	-7274
▁feelings	-7275
▁convenient	-7276
▁performances	-7277
orer	-7278
▁Dom	-7279
▁caf	-7280
▁hes	-7281
ifies	-7282
▁Camp	-7283
▁Sure	-7284
▁cream	-7285
▁prime	-7286
▁yours	-7287
▁employers	-7288
▁researchers	-7289
▁contribution	-7290
wr	-7291
down	-7292
▁hun	-7293
oured	-7294
▁Nort	-7295
▁dict	-7296
▁Lewis	-7297
▁topics	-7298
▁Israeli	-7299
▁figured	-7300
▁philosoph	-7301
▁premature	-7302
▁Christians	-7303
▁considerable	-7304
oes	-7305
oma	-7306
▁Eff	-7307
▁ped	-7308
▁unn	-7309
▁wet	-7310
▁nonf	-7311
ruction	-7312
▁Golden	-7313
▁Others	-7314
▁boards	-7315
▁holiday	-7316
▁confident	-7317
▁hospitals	-7318
▁volunteer	-7319
▁physicians	-7320
ym	-7321
▁CB	-7322
▁dull	-7323
▁Class	-7324
▁altar	-7325
▁blind	-7326
▁Modern	-7327
▁detect	-7328
▁frustr	-7329
▁linked	-7330
▁CA	-7331
asks	-7332
aust	-7333
cked	-7334
agues	-7335
▁1950	-7336
▁wage	-7337
ambers	-7338
▁Offic	-7339
▁mixed	-7340
▁skill	-7341
▁surely	-7342
▁Jackson	-7343
▁somehow	-7344
▁distingu	-7345
▁gathered	-7346
▁proposals	-7347
bean	-7348
▁NAT	-7349
▁lob	-7350
usted	-7351
▁Kell	-7352
▁Force	-7353
▁lined	-7354
▁loves	-7355
▁Turkey	-7356
▁exclud	-7357
▁gained	-7358
▁league	-7359
▁pocket	-7360
▁vehicle	-7361
▁forgotten	-7362
▁integrity	-7363
ja	-7364
▁Aff	-7365
▁Bureau	-7366
▁Develop	-7367
▁nations	-7368
▁employer	-7369
▁platform	-7370
▁financing	-7371
▁mandatory	-7372
▁involvement	-7373
▁projections	-7374
▁Environmental	-7375
ii	-7376
ester	-7377
▁Rams	-7378
▁Shil	-7379
▁rely	-7380
▁rice	-7381
▁seas	-7382
itated	-7383
▁hoped	-7384
▁Edward	-7385
▁laughed	-7386
▁seconds	-7387
▁situated	-7388
▁maintained	-7389
bul	-7390
ardo	-7391
▁189	-7392
▁por	-7393
▁myth	-7394
lessly	-7395
▁monop	-7396
▁walks	-7397
▁diverse	-7398
▁writers	-7399
▁converted	-7400
▁controlled	-7401
▁subsequent	-7402
▁OP	-7403
orca	-7404
▁sau	-7405
onald	-7406
ropri	-7407
▁Blue	-7408
▁Fest	-7409
▁laun	-7410
inking	-7411
▁Malay	-7412
▁marks	-7413
organiz	-7414
▁statute	-7415
AL	-7416
aux	-7417
▁NY	-7418
enda	-7419
▁Den	-7420
▁Pet	-7421
▁epis	-7422
▁jack	-7423
▁barri	-7424
▁cycle	-7425
▁repro	-7426
heimmer	-7427
▁cousin	-7428
▁pottery	-7429
▁surface	-7430
▁purchased	-7431
▁earthquake	-7432
aval	-7433
tain	-7434
▁Mat	-7435
▁Educ	-7436
▁Mand	-7437
▁toxic	-7438
▁riders	-7439
▁terrif	-7440
▁Baroque	-7441
▁chicken	-7442
▁surplus	-7443
▁Constant	-7444
▁discover	-7445
▁evaluate	-7446
▁priority	-7447
▁rational	-7448
▁breakfast	-7449
▁consumers	-7450
▁editorial	-7451
▁Hersheimmer	-7452
▁authorities	-7453
▁implications	-7454
osh	-7455
ugs	-7456
▁Hou	-7457
inced	-7458
▁tape	-7459
▁tran	-7460
▁oppon	-7461
▁veter	-7462
▁carpet	-7463
▁ethnic	-7464
▁Antonio	-7465
▁Houston	-7466
▁coastal	-7467
▁passion	-7468
▁traveled	-7469
▁magazines	-7470
▁requiring	-7471
▁popularity	-7472
▁Christianity	-7473
▁Kn	-7474
unning	-7475
▁blocks	-7476
▁pounds	-7477
▁salary	-7478
▁dancing	-7479
▁lessons	-7480
▁monitoring	-7481
OR	-7482
▁dil	-7483
▁dome	-7484
▁Kirby	-7485
▁brick	-7486
▁filed	-7487
▁union	-7488
▁reforms	-7489
▁division	-7490
▁handling	-7491
▁recorded	-7492
kin	-7493
upt	-7494
▁ax	-7495
▁unh	-7496
inois	-7497
▁pink	-7498
▁wars	-7499
▁enemy	-7500
achment	-7501
ropical	-7502
▁flight	-7503
▁carrier	-7504
▁highway	-7505
▁consolid	-7506
▁unlikely	-7507
sts	-7508
host	-7509
▁Very	-7510
▁sequ	-7511
orient	-7512
▁Shiloh	-7513
▁Current	-7514
▁comprom	-7515
▁promise	-7516
▁Caribbean	-7517
azzo	-7518
ocol	-7519
▁Whe	-7520
▁Prof	-7521
▁Emplo	-7522
▁joint	-7523
▁trails	-7524
▁Hillary	-7525
▁Shannon	-7526
▁deficits	-7527
lor	-7528
ums	-7529
part	-7530
▁Ham	-7531
▁Ren	-7532
▁ham	-7533
worth	-7534
▁Cete	-7535
▁bell	-7536
▁fifth	-7537
▁relaxed	-7538
▁vehicles	-7539
▁boutiques	-7540
ili	-7541
▁45	-7542
▁Nor	-7543
▁Room	-7544
▁Stat	-7545
▁gray	-7546
essions	-7547
▁Results	-7548
▁corresp	-7549
▁deficit	-7550
▁upstairs	-7551
▁limestone	-7552
▁Martinique	-7553
▁adjustment	-7554
▁economists	-7555
▁beautifully	-7556
DS	-7557
hat	-7558
oli	-7559
▁Ha	-7560
omach	-7561
▁Test	-7562
▁blow	-7563
▁clar	-7564
▁Being	-7565
▁annoy	-7566
▁Steven	-7567
▁ignore	-7568
▁luxury	-7569
▁confirmed	-7570
▁continuing	-7571
▁unemployment	-7572
17	-7573
▁Glo	-7574
▁ads	-7575
▁argued	-7576
▁driver	-7577
▁component	-7578
▁statistics	-7579
▁immigration	-7580
eath	-7581
uine	-7582
▁Bon	-7583
ilica	-7584
itual	-7585
▁Iran	-7586
▁mini	-7587
isters	-7588
▁Earth	-7589
▁Govern	-7590
▁exotic	-7591
▁Austral	-7592
▁license	-7593
▁Southern	-7594
▁advanced	-7595
▁rejected	-7596
▁striking	-7597
▁statutory	-7598
▁apartments	-7599
fall	-7600
▁tab	-7601
rychn	-7602
▁Juan	-7603
▁exec	-7604
▁adult	-7605
▁dirty	-7606
▁panel	-7607
▁swing	-7608
▁Mosque	-7609
▁blacks	-7610
▁chosen	-7611
▁fright	-7612
▁pollut	-7613
▁profits	-7614
▁Thursday	-7615
▁romantic	-7616
▁immigrants	-7617
The	-7618
oda	-7619
▁FCC	-7620
▁Naz	-7621
▁Circ	-7622
▁buff	-7623
▁pays	-7624
▁summar	-7625
▁talent	-7626
▁unfair	-7627
▁Lawyers	-7628
▁deliber	-7629
▁drawing	-7630
▁dressed	-7631
▁Illinois	-7632
▁innocent	-7633
▁coastline	-7634
▁indicated	-7635
▁destruction	-7636
▁recognition	-7637
▁4.	-7638
boys	-7639
▁Gau	-7640
▁Pot	-7641
▁nuc	-7642
▁false	-7643
▁pools	-7644
▁threw	-7645
▁granted	-7646
hors	-7647
iner	-7648
oxide	-7649
▁Bell	-7650
▁NATO	-7651
▁Toph	-7652
▁lean	-7653
▁pond	-7654
ourage	-7655
▁Paper	-7656
▁badly	-7657
▁drunk	-7658
▁flour	-7659
▁casual	-7660
▁decent	-7661
▁inquir	-7662
▁secure	-7663
rychnine	-7664
▁Mexican	-7665
▁presents	-7666
▁discounts	-7667
odes	-7668
▁Ple	-7669
isons	-7670
▁Labor	-7671
▁voted	-7672
▁Topham	-7673
▁apolog	-7674
▁locked	-7675
▁nowhere	-7676
▁passage	-7677
▁agreements	-7678
▁determining	-7679
▁unfortunately	-7680
▁2.	-7681
load	-7682
▁Lib	-7683
▁gro	-7684
bound	-7685
▁Bern	-7686
▁sees	-7687
▁Monte	-7688
▁optim	-7689
▁Kosovo	-7690
▁aggreg	-7691
▁Science	-7692
▁handled	-7693
▁shrines	-7694
▁Venetian	-7695
▁auditing	-7696
▁frescoes	-7697
▁convinced	-7698
▁exception	-7699
▁personally	-7700
HS	-7701
hew	-7702
ails	-7703
rary	-7704
▁rub	-7705
▁till	-7706
▁1,000	-7707
▁newly	-7708
iration	-7709
▁recall	-7710
▁affairs	-7711
▁Boulevard	-7712
▁elaborate	-7713
▁demonstration	-7714
col	-7715
acle	-7716
▁Ist	-7717
▁Rob	-7718
▁gif	-7719
▁Next	-7720
▁Press	-7721
▁theme	-7722
▁Hitler	-7723
▁Michel	-7724
▁Kingdom	-7725
▁besides	-7726
▁hanging	-7727
▁employed	-7728
▁authorized	-7729
▁innovative	-7730
ED	-7731
ENT	-7732
uce	-7733
▁55	-7734
▁Gar	-7735
▁Sol	-7736
▁rot	-7737
▁wing	-7738
▁wound	-7739
▁Ramses	-7740
▁housed	-7741
▁victim	-7742
▁drawings	-7743
▁settings	-7744
▁addressing	-7745
▁corporations	-7746
avor	-7747
iors	-7748
▁ain	-7749
▁vir	-7750
▁Life	-7751
▁Thanks	-7752
▁cruise	-7753
▁finger	-7754
▁Portugal	-7755
▁provision	-7756
aki	-7757
odox	-7758
umer	-7759
▁Set	-7760
▁WTP	-7761
▁inn	-7762
▁Emer	-7763
▁Thank	-7764
▁deals	-7765
▁deter	-7766
▁appoint	-7767
▁prosper	-7768
▁covering	-7769
▁external	-7770
rimination	-7771
▁secretary	-7772
66	-7773
zo	-7774
uji	-7775
omed	-7776
▁Cop	-7777
▁Fly	-7778
▁beer	-7779
▁forb	-7780
▁vine	-7781
▁entit	-7782
▁habit	-7783
ications	-7784
▁College	-7785
▁divorce	-7786
▁nervous	-7787
▁defeated	-7788
▁impressed	-7789
▁responded	-7790
PS	-7791
mand	-7792
▁MWe	-7793
▁Prop	-7794
▁dear	-7795
▁rank	-7796
▁ninet	-7797
▁solve	-7798
▁Special	-7799
▁routine	-7800
▁stadium	-7801
▁objective	-7802
▁qualified	-7803
ashing	-7804
atures	-7805
▁errors	-7806
▁farmers	-7807
▁useless	-7808
▁accountable	-7809
▁attestation	-7810
-0	-7811
etic	-7812
lete	-7813
▁Mir	-7814
▁desp	-7815
▁mall	-7816
▁acting	-7817
▁retain	-7818
▁ritual	-7819
▁injured	-7820
▁maximum	-7821
rene	-7822
▁Greece	-7823
▁fallen	-7824
▁retail	-7825
▁mainland	-7826
ka	-7827
▁Had	-7828
▁cer	-7829
orous	-7830
▁Bible	-7831
▁Coast	-7832
▁hypot	-7833
▁Puerto	-7834
▁Sultan	-7835
▁proven	-7836
▁rivers	-7837
▁guarantee	-7838
row	-7839
▁nit	-7840
▁sli	-7841
aying	-7842
sters	-7843
▁liqu	-7844
▁Delhi	-7845
▁remove	-7846
▁History	-7847
▁sculpted	-7848
▁3.	-7849
▁cans	-7850
▁joke	-7851
▁sail	-7852
tering	-7853
▁dying	-7854
▁plane	-7855
▁yellow	-7856
▁airport	-7857
▁damaged	-7858
▁density	-7859
▁drivers	-7860
▁erected	-7861
▁exposed	-7862
▁arrested	-7863
▁ensuring	-7864
▁indicate	-7865
▁managing	-7866
▁delightful	-7867
▁picturesque	-7868
▁controversial	-7869
▁PP	-7870
▁UN	-7871
▁HUD	-7872
▁Mid	-7873
▁jur	-7874
ropol	-7875
▁gran	-7876
▁infr	-7877
▁trick	-7878
▁farther	-7879
▁letting	-7880
▁rebuilt	-7881
▁ultimate	-7882
▁scenarios	-7883
Ar	-7884
BI	-7885
asy	-7886
ava	-7887
ool	-7888
ture	-7889
▁Arts	-7890
▁Bost	-7891
▁Mean	-7892
▁clim	-7893
▁roll	-7894
▁opera	-7895
▁Access	-7896
▁awards	-7897
▁smooth	-7898
▁palaces	-7899
▁ourselves	-7900
▁designated	-7901
▁instrument	-7902
mir	-7903
▁AIC	-7904
▁Lis	-7905
▁anx	-7906
▁bow	-7907
▁sla	-7908
▁suic	-7909
▁Point	-7910
▁cares	-7911
▁grade	-7912
▁Boston	-7913
▁ninety	-7914
oriented	-7915
▁equival	-7916
▁Florence	-7917
▁demanded	-7918
▁Industrial	-7919
vin	-7920
▁Da	-7921
atab	-7922
care	-7923
orge	-7924
▁400	-7925
urred	-7926
▁Mass	-7927
arrass	-7928
▁Boris	-7929
▁excav	-7930
▁hopes	-7931
▁lifet	-7932
▁noble	-7933
▁subur	-7934
▁talks	-7935
▁nights	-7936
▁seventy	-7937
▁assigned	-7938
▁carriers	-7939
▁studying	-7940
▁correspond	-7941
▁difficulty	-7942
▁satisfaction	-7943
▁significance	-7944
IPA	-7945
▁Alp	-7946
▁bot	-7947
▁Army	-7948
▁Carl	-7949
▁Five	-7950
▁Less	-7951
agraph	-7952
▁Polit	-7953
▁domin	-7954
▁Chapel	-7955
▁focuses	-7956
▁entering	-7957
▁sleeping	-7958
LA	-7959
mony	-7960
▁wow	-7961
▁elev	-7962
▁soul	-7963
▁Notre	-7964
▁frame	-7965
▁sheep	-7966
▁Inside	-7967
▁define	-7968
▁guests	-7969
▁Tourist	-7970
▁imposed	-7971
▁Festival	-7972
▁breaking	-7973
▁collabor	-7974
▁maintaining	-7975
appy	-7976
gage	-7977
quis	-7978
▁Leg	-7979
▁asc	-7980
arter	-7981
▁Come	-7982
▁pump	-7983
▁slop	-7984
active	-7985
▁Using	-7986
▁aerob	-7987
▁fancy	-7988
▁legit	-7989
▁subsc	-7990
▁offset	-7991
▁genuine	-7992
▁retreat	-7993
▁wondered	-7994
▁substance	-7995
▁Bauerstein	-7996
▁facilitate	-7997
▁tub	-7998
▁Nema	-7999
▁AICPA	-8000
▁grave	-8001
▁songs	-8002
▁rapier	-8003
▁speaker	-8004
▁warning	-8005
▁fundamental	-8006
▁representative	-8007
bl	-8008
fo	-8009
omo	-8010
ules	-8011
▁Lux	-8012
▁syn	-8013
▁wid	-8014
▁Duke	-8015
▁util	-8016
▁reluct	-8017
▁crucial	-8018
▁dealers	-8019
▁bathroom	-8020
▁landmark	-8021
▁subjects	-8022
▁Secretary	-8023
▁discovery	-8024
▁embarrass	-8025
mar	-8026
dess	-8027
▁Det	-8028
▁bon	-8029
arded	-8030
field	-8031
▁Vers	-8032
▁obsc	-8033
Americ	-8034
▁monks	-8035
▁dioxide	-8036
▁attacked	-8037
▁attempts	-8038
▁earnings	-8039
▁emphasis	-8040
▁supplies	-8041
▁donations	-8042
zens	-8043
state	-8044
▁surve	-8045
▁curren	-8046
outheast	-8047
▁Alcohol	-8048
▁confirm	-8049
▁cuisine	-8050
▁outdoor	-8051
▁acquired	-8052
▁creative	-8053
▁discusses	-8054
▁impression	-8055
▁Ly	-8056
eline	-8057
▁Exhib	-8058
▁Perth	-8059
▁Simon	-8060
▁trials	-8061
▁checked	-8062
▁informed	-8063
▁reaction	-8064
▁interviews	-8065
▁recommendation	-8066
ala	-8067
iva	-8068
▁Jr	-8069
then	-8070
▁Vin	-8071
▁etc	-8072
amics	-8073
ocols	-8074
▁proof	-8075
▁cliffs	-8076
▁inland	-8077
▁lasted	-8078
▁confused	-8079
▁immediate	-8080
alo	-8081
udes	-8082
otton	-8083
▁Jeff	-8084
▁gest	-8085
urning	-8086
▁sauce	-8087
▁deaths	-8088
▁deserve	-8089
▁permitted	-8090
▁communications	-8091
iano	-8092
▁Cro	-8093
▁ric	-8094
opher	-8095
▁fulf	-8096
▁hint	-8097
▁zero	-8098
▁Jacob	-8099
▁Steve	-8100
▁10,000	-8101
▁swords	-8102
▁roughly	-8103
▁revenues	-8104
▁spiritual	-8105
▁influenced	-8106
▁productive	-8107
▁statistical	-8108
▁economically	-8109
30	-8110
▁ju	-8111
eled	-8112
oled	-8113
▁sin	-8114
▁Food	-8115
▁Form	-8116
▁holy	-8117
▁alleg	-8118
▁guides	-8119
▁lifest	-8120
▁transp	-8121
▁Capital	-8122
▁Gardens	-8123
▁burning	-8124
▁Personal	-8125
▁relating	-8126
▁advertise	-8127
▁advocates	-8128
▁connected	-8129
▁supplement	-8130
bu	-8131
▁187	-8132
▁Bron	-8133
▁evol	-8134
lights	-8135
▁toler	-8136
▁Follow	-8137
▁hiking	-8138
▁submit	-8139
quarters	-8140
▁Besides	-8141
▁monthly	-8142
▁rapidly	-8143
▁Computer	-8144
▁travelers	-8145
▁occasional	-8146
▁association	-8147
izza	-8148
▁ath	-8149
▁Mons	-8150
▁disg	-8151
▁pine	-8152
angelo	-8153
▁multi	-8154
▁recre	-8155
▁Altern	-8156
▁horror	-8157
▁refers	-8158
▁Atlanta	-8159
▁neglect	-8160
▁stomach	-8161
▁pilgrims	-8162
▁strongly	-8163
▁conscious	-8164
▁displayed	-8165
▁integrated	-8166
▁methodology	-8167
▁installations	-8168
▁PR	-8169
▁ec	-8170
orus	-8171
ouri	-8172
▁Tim	-8173
reens	-8174
▁Base	-8175
▁Flex	-8176
▁Vill	-8177
▁erupt	-8178
▁laugh	-8179
▁reign	-8180
▁beneath	-8181
▁fiction	-8182
▁Programs	-8183
▁attended	-8184
▁launched	-8185
▁adventure	-8186
▁reflected	-8187
▁36	-8188
oded	-8189
chant	-8190
▁flaw	-8191
▁Again	-8192
▁Should	-8193
▁assign	-8194
▁enjoys	-8195
▁excurs	-8196
▁hiring	-8197
▁broadcast	-8198
▁transactions	-8199
▁IN	-8200
yard	-8201
anger	-8202
araoh	-8203
rical	-8204
▁Walk	-8205
▁pist	-8206
▁adopt	-8207
▁alike	-8208
▁inexp	-8209
▁unexp	-8210
▁Conrad	-8211
▁chamber	-8212
▁concerts	-8213
▁injuries	-8214
▁observation	-8215
▁contemporary	-8216
spe	-8217
▁Bal	-8218
▁Tor	-8219
▁Way	-8220
▁spin	-8221
funded	-8222
▁accum	-8223
▁Assess	-8224
▁abroad	-8225
▁constit	-8226
▁premium	-8227
▁Columbus	-8228
▁resistance	-8229
▁outstanding	-8230
▁availability	-8231
▁institutions	-8232
▁concentration	-8233
oub	-8234
▁Ut	-8235
nell	-8236
▁Incre	-8237
▁shell	-8238
▁fisher	-8239
▁spoken	-8240
▁switch	-8241
▁trends	-8242
▁invited	-8243
▁ceremony	-8244
▁downtown	-8245
▁incident	-8246
▁expertise	-8247
▁exhibition	-8248
▁priorities	-8249
etr	-8250
har	-8251
▁Pac	-8252
▁Pop	-8253
irect	-8254
licit	-8255
▁pupp	-8256
▁Corps	-8257
▁actor	-8258
▁nurse	-8259
▁Things	-8260
▁agents	-8261
▁mothers	-8262
▁wedding	-8263
▁treasure	-8264
▁fantastic	-8265
▁inflation	-8266
▁experiment	-8267
bel	-8268
cel	-8269
och	-8270
▁LA	-8271
gery	-8272
ront	-8273
▁ast	-8274
mother	-8275
▁marvel	-8276
▁patron	-8277
▁poorly	-8278
▁auction	-8279
▁enthusi	-8280
▁terrace	-8281
▁regarded	-8282
▁performing	-8283
▁educational	-8284
▁examination	-8285
▁transaction	-8286
▁archaeological	-8287
aire	-8288
▁Wol	-8289
erent	-8290
▁Bale	-8291
▁Sign	-8292
herent	-8293
market	-8294
▁2,000	-8295
▁crash	-8296
▁deeply	-8297
▁device	-8298
▁Protest	-8299
▁expansion	-8300
▁strychnine	-8301
▁HC	-8302
▁legs	-8303
ocaust	-8304
▁Macau	-8305
▁boxes	-8306
▁renew	-8307
ogether	-8308
▁Spring	-8309
▁Unlike	-8310
▁adding	-8311
▁sunset	-8312
▁transm	-8313
▁trauma	-8314
▁compete	-8315
▁illness	-8316
▁carvings	-8317
▁virtually	-8318
▁wondering	-8319
▁transferred	-8320
▁37	-8321
▁Pa	-8322
▁Hav	-8323
▁Pont	-8324
▁mild	-8325
▁datab	-8326
▁falls	-8327
▁seats	-8328
▁refuge	-8329
▁Medicaid	-8330
▁extraord	-8331
▁initially	-8332
▁Flexibility	-8333
ccer	-8334
char	-8335
▁Adv	-8336
▁Moh	-8337
▁Tar	-8338
canic	-8339
▁Conf	-8340
▁Rain	-8341
▁Sadd	-8342
▁conj	-8343
▁lips	-8344
thodox	-8345
▁Which	-8346
▁paths	-8347
▁suits	-8348
▁Prince	-8349
▁Prudie	-8350
▁behalf	-8351
▁clever	-8352
▁repair	-8353
▁suffer	-8354
▁absence	-8355
▁lifetime	-8356
▁nineteen	-8357
▁guaranteed	-8358
▁infrastructure	-8359
ials	-8360
look	-8361
▁Fer	-8362
▁ash	-8363
▁exha	-8364
▁cabin	-8365
▁react	-8366
▁Indeed	-8367
▁fabric	-8368
▁ornate	-8369
▁planet	-8370
▁protot	-8371
▁renown	-8372
▁treaty	-8373
▁derived	-8374
▁feedback	-8375
▁listened	-8376
▁nowadays	-8377
▁promised	-8378
▁indicates	-8379
▁weaknesses	-8380
▁populations	-8381
apse	-8382
istry	-8383
oning	-8384
▁Wolf	-8385
▁Third	-8386
▁acres	-8387
▁greet	-8388
▁strip	-8389
ologist	-8390
▁injury	-8391
▁jumped	-8392
▁phrase	-8393
▁throat	-8394
▁Palazzo	-8395
▁authors	-8396
▁cultures	-8397
▁enjoyable	-8398
▁Michelangelo	-8399
80	-8400
des	-8401
top	-8402
▁AN	-8403
▁VA	-8404
▁gap	-8405
scale	-8406
▁outs	-8407
▁vice	-8408
ceived	-8409
▁Ceter	-8410
▁crown	-8411
▁Garden	-8412
▁banned	-8413
▁recycle	-8414
▁academic	-8415
▁concrete	-8416
▁tropical	-8417
▁staircase	-8418
▁establishment	-8419
jac	-8420
lim	-8421
▁Ra	-8422
onym	-8423
▁Nic	-8424
▁wire	-8425
friend	-8426
▁indig	-8427
▁score	-8428
▁cataly	-8429
▁refres	-8430
▁stretch	-8431
▁visitor	-8432
▁aerobics	-8433
▁reporter	-8434
▁acknowled	-8435
▁personality	-8436
▁dramatically	-8437
▁conservatives	-8438
▁0.	-8439
▁Di	-8440
cest	-8441
▁Ten	-8442
ierre	-8443
▁Care	-8444
▁Much	-8445
▁inev	-8446
▁pref	-8447
▁Istan	-8448
▁Osaka	-8449
▁anger	-8450
▁lobby	-8451
▁shade	-8452
itivity	-8453
▁Master	-8454
▁humans	-8455
▁manual	-8456
▁praise	-8457
▁reader	-8458
▁prosecut	-8459
▁expecting	-8460
▁incentive	-8461
▁temporary	-8462
ING	-8463
▁186	-8464
▁Lam	-8465
▁Ori	-8466
▁USA	-8467
raham	-8468
▁Ohio	-8469
▁kick	-8470
iverse	-8471
minute	-8472
▁Stone	-8473
▁files	-8474
▁photo	-8475
▁flying	-8476
▁throne	-8477
▁Profess	-8478
▁engaged	-8479
▁pushing	-8480
▁commemor	-8481
▁merchants	-8482
▁paragraph	-8483
89	-8484
ki	-8485
agh	-8486
▁95	-8487
long	-8488
▁800	-8489
▁Ell	-8490
▁haz	-8491
mandu	-8492
rimin	-8493
▁jazz	-8494
▁peas	-8495
irable	-8496
resses	-8497
▁Crete	-8498
▁pregn	-8499
▁surre	-8500
▁inject	-8501
▁steady	-8502
▁timely	-8503
▁Independ	-8504
▁unexpected	-8505
▁39	-8506
oons	-8507
otal	-8508
▁cyn	-8509
▁Rate	-8510
▁craw	-8511
▁grin	-8512
▁quot	-8513
efully	-8514
urious	-8515
▁femin	-8516
▁Commer	-8517
▁heaven	-8518
▁preced	-8519
▁identifying	-8520
▁certification	-8521
▁constitutional	-8522
▁Amb	-8523
▁Rap	-8524
▁lod	-8525
chell	-8526
shire	-8527
▁Cult	-8528
▁Real	-8529
▁dipl	-8530
▁dirt	-8531
▁Pract	-8532
▁loyal	-8533
▁utter	-8534
itchell	-8535
▁colony	-8536
▁tables	-8537
▁announce	-8538
▁bureaucr	-8539
▁distract	-8540
▁supervis	-8541
▁awareness	-8542
▁marketing	-8543
la	-8544
syl	-8545
war	-8546
ieur	-8547
isan	-8548
umin	-8549
▁Dri	-8550
▁Fed	-8551
▁bic	-8552
▁gir	-8553
▁laz	-8554
▁Pitt	-8555
▁bike	-8556
▁caps	-8557
anches	-8558
sylvan	-8559
▁aimed	-8560
▁rides	-8561
▁trash	-8562
▁uncon	-8563
▁agenda	-8564
▁Defense	-8565
▁Minister	-8566
▁volcanic	-8567
▁Kathmandu	-8568
▁scheduled	-8569
▁Romanesque	-8570
▁simulation	-8571
▁00	-8572
▁600	-8573
▁Blo	-8574
▁Low	-8575
craft	-8576
lands	-8577
quire	-8578
▁1989	-8579
▁NIPA	-8580
▁Serb	-8581
▁fier	-8582
▁tied	-8583
▁tort	-8584
▁panor	-8585
▁dozens	-8586
▁mobile	-8587
▁Similar	-8588
▁descend	-8589
▁destroy	-8590
▁unnecess	-8591
▁dominated	-8592
▁nonprofit	-8593
▁fashionable	-8594
vre	-8595
ycl	-8596
▁OK	-8597
igan	-8598
▁Luc	-8599
istan	-8600
▁HCFA	-8601
erable	-8602
▁Canal	-8603
▁Initi	-8604
▁Range	-8605
▁mines	-8606
▁racial	-8607
▁channel	-8608
▁Appendix	-8609
▁confront	-8610
▁Holocaust	-8611
▁celebrate	-8612
▁sophisticated	-8613
16	-8614
umm	-8615
▁65	-8616
fish	-8617
▁Cre	-8618
obile	-8619
▁Best	-8620
▁cann	-8621
idable	-8622
▁Prior	-8623
▁harsh	-8624
▁sixth	-8625
▁Hawaii	-8626
▁nuclear	-8627
▁generate	-8628
▁hardware	-8629
▁succeeded	-8630
▁universal	-8631
▁Evaluation	-8632
▁Pennsylvan	-8633
▁philosophy	-8634
▁strengthen	-8635
bec	-8636
▁CD	-8637
▁om	-8638
asso	-8639
▁tack	-8640
▁Chair	-8641
▁Texan	-8642
▁Turks	-8643
▁Please	-8644
▁centre	-8645
▁wanting	-8646
effective	-8647
▁reaching	-8648
▁revealed	-8649
▁Francisco	-8650
▁Meanwhile	-8651
▁eliminate	-8652
▁northwest	-8653
▁threatened	-8654
asse	-8655
▁Beh	-8656
▁phen	-8657
▁trem	-8658
▁Night	-8659
▁marry	-8660
▁shirt	-8661
inction	-8662
▁comply	-8663
▁drinks	-8664
▁ruined	-8665
▁Company	-8666
▁battles	-8667
▁accompan	-8668
▁withdraw	-8669
▁Victorian	-8670
▁districts	-8671
▁prominent	-8672
anas	-8673
oret	-8674
thur	-8675
▁cha	-8676
▁Wars	-8677
▁tact	-8678
▁lands	-8679
▁wheel	-8680
▁Nearby	-8681
▁bottle	-8682
▁crossed	-8683
▁exhibit	-8684
▁subsidy	-8685
▁graduate	-8686
▁overseas	-8687
▁protocols	-8688
▁opposition	-8689
MO	-8690
osa	-8691
ris	-8692
▁Joe	-8693
▁Rest	-8694
▁belt	-8695
▁wake	-8696
▁persu	-8697
▁Academ	-8698
▁breaks	-8699
▁comedy	-8700
▁tribes	-8701
▁enterpr	-8702
▁invaded	-8703
▁suicide	-8704
▁touched	-8705
▁updated	-8706
▁automated	-8707
▁valuation	-8708
vas	-8709
wed	-8710
rets	-8711
▁Eve	-8712
▁Unt	-8713
chers	-8714
uties	-8715
▁Hast	-8716
▁soil	-8717
▁boost	-8718
▁outra	-8719
▁rocky	-8720
▁saint	-8721
▁Havana	-8722
▁Mother	-8723
▁arches	-8724
▁camera	-8725
▁varied	-8726
▁Chapter	-8727
▁factory	-8728
▁hearings	-8729
▁publicly	-8730
▁colleagues	-8731
▁interrupted	-8732
▁Pennsylvania	-8733
▁demonstrated	-8734
isp	-8735
▁Him	-8736
▁Try	-8737
▁gig	-8738
▁pin	-8739
▁Tell	-8740
▁eager	-8741
▁Argent	-8742
▁devast	-8743
▁Germans	-8744
▁alleged	-8745
▁bargain	-8746
struction	-8747
▁arranged	-8748
▁networks	-8749
▁prospect	-8750
▁attempted	-8751
▁solutions	-8752
▁suffering	-8753
▁discussions	-8754
▁DC	-8755
vard	-8756
▁ABC	-8757
▁Due	-8758
child	-8759
▁Dead	-8760
roller	-8761
▁Naples	-8762
▁Saddam	-8763
▁stones	-8764
▁thrown	-8765
▁shelter	-8766
▁superior	-8767
▁assurance	-8768
▁exploring	-8769
▁retrofits	-8770
▁securities	-8771
▁supposedly	-8772
▁civilization	-8773
▁discrimination	-8774
14	-8775
ati	-8776
deem	-8777
inai	-8778
stal	-8779
▁CFO	-8780
▁dup	-8781
uster	-8782
▁fled	-8783
▁ties	-8784
engers	-8785
▁Sinai	-8786
▁cited	-8787
▁loose	-8788
▁prest	-8789
▁campus	-8790
▁promul	-8791
▁winner	-8792
▁bombing	-8793
▁contest	-8794
▁council	-8795
▁planted	-8796
▁unified	-8797
▁appendix	-8798
▁strictly	-8799
▁dependent	-8800
▁shoulders	-8801
▁southwest	-8802
▁beneficial	-8803
▁industries	-8804
▁profitable	-8805
▁instruments	-8806
19	-8807
erk	-8808
gov	-8809
lymp	-8810
▁yep	-8811
▁Rico	-8812
▁milk	-8813
▁pound	-8814
▁diving	-8815
▁impose	-8816
▁Istanbul	-8817
▁nitrogen	-8818
▁neighborhoods	-8819
pit	-8820
usc	-8821
vic	-8822
▁AP	-8823
▁2020	-8824
▁Cale	-8825
▁borr	-8826
▁bree	-8827
▁brut	-8828
▁cust	-8829
▁mood	-8830
▁Benef	-8831
▁Compt	-8832
▁cloth	-8833
▁lists	-8834
▁costly	-8835
▁intake	-8836
▁losses	-8837
▁Chatter	-8838
▁affects	-8839
▁beliefs	-8840
▁granite	-8841
▁profile	-8842
▁sending	-8843
▁stained	-8844
▁currency	-8845
▁produces	-8846
▁resident	-8847
▁theaters	-8848
▁lifestyle	-8849
▁challenging	-8850
▁journalists	-8851
▁Congressional	-8852
▁Ze	-8853
ouch	-8854
atell	-8855
▁1991	-8856
▁asks	-8857
rapped	-8858
▁Prime	-8859
▁crops	-8860
▁naked	-8861
▁diplom	-8862
▁notion	-8863
▁passes	-8864
▁forests	-8865
▁convince	-8866
▁admission	-8867
▁presentation	-8868
AA	-8869
▁42	-8870
arth	-8871
osex	-8872
▁VBA	-8873
▁pic	-8874
pread	-8875
▁Fred	-8876
▁owns	-8877
▁worn	-8878
itants	-8879
▁Helms	-8880
▁bench	-8881
▁scrut	-8882
▁tries	-8883
itarian	-8884
▁Barnes	-8885
▁Joseph	-8886
▁lowest	-8887
▁ruling	-8888
▁Stephen	-8889
▁triumph	-8890
▁bankrupt	-8891
▁reflects	-8892
▁satisfied	-8893
▁meaningful	-8894
▁demonstrate	-8895
18	-8896
food	-8897
▁Kle	-8898
holds	-8899
▁flee	-8900
▁Cross	-8901
▁bonds	-8902
▁fleet	-8903
▁rider	-8904
endments	-8905
▁Cowboys	-8906
▁Islands	-8907
▁couples	-8908
▁mystery	-8909
▁prisoner	-8910
▁assessing	-8911
▁Chatterbox	-8912
▁credibility	-8913
▁integration	-8914
▁suggestions	-8915
▁disappointed	-8916
▁overwhelming	-8917
▁institutional	-8918
enny	-8919
▁Show	-8920
▁exit	-8921
▁wave	-8922
▁straw	-8923
▁tapes	-8924
ication	-8925
▁capita	-8926
▁floors	-8927
▁traged	-8928
▁warned	-8929
▁holidays	-8930
▁restrict	-8931
▁warriors	-8932
▁contractor	-8933
▁membership	-8934
run	-8935
▁ol	-8936
aste	-8937
▁XIV	-8938
arted	-8939
▁embr	-8940
▁Given	-8941
▁Judge	-8942
▁tends	-8943
▁uncle	-8944
▁Method	-8945
▁rulers	-8946
▁arrival	-8947
▁sounded	-8948
▁monopoly	-8949
ito	-8950
▁Ol	-8951
otto	-8952
roph	-8953
▁180	-8954
▁GSA	-8955
▁Rod	-8956
adise	-8957
▁Quiz	-8958
▁Tomb	-8959
▁silk	-8960
father	-8961
▁Liber	-8962
▁album	-8963
▁honey	-8964
▁pilot	-8965
▁relic	-8966
▁Recent	-8967
▁exquis	-8968
▁headed	-8969
▁hiding	-8970
▁repeat	-8971
▁mosaics	-8972
▁Moreover	-8973
▁occupied	-8974
▁receives	-8975
▁renowned	-8976
▁conquered	-8977
ikh	-8978
rog	-8979
izab	-8980
▁Hon	-8981
orish	-8982
ribly	-8983
▁Turn	-8984
▁fond	-8985
ounced	-8986
▁Stark	-8987
izabeth	-8988
▁Express	-8989
▁targets	-8990
▁stronger	-8991
▁decreased	-8992
▁intention	-8993
▁Protection	-8994
▁Comptroller	-8995
You	-8996
pers	-8997
post	-8998
▁Lim	-8999
▁maj	-9000
▁vig	-9001
hesis	-9002
orage	-9003
▁Mult	-9004
▁cant	-9005
▁fake	-9006
▁garb	-9007
▁sons	-9008
▁Davis	-9009
▁guest	-9010
▁procl	-9011
▁slave	-9012
▁spots	-9013
▁teeth	-9014
▁Family	-9015
▁admire	-9016
▁checks	-9017
▁jungle	-9018
▁partly	-9019
▁tracks	-9020
▁wished	-9021
▁fortune	-9022
▁pension	-9023
▁Hastings	-9024
▁antiques	-9025
▁commonly	-9026
▁universe	-9027
▁Elizabeth	-9028
▁campaigns	-9029
▁naturally	-9030
▁essentially	-9031
oll	-9032
Dame	-9033
arse	-9034
osis	-9035
▁Advis	-9036
▁Lower	-9037
▁Olymp	-9038
▁balcon	-9039
▁launch	-9040
▁medium	-9041
▁paused	-9042
▁yelled	-9043
▁Harvard	-9044
▁collaps	-9045
▁tremend	-9046
▁explicit	-9047
▁instinct	-9048
▁moderate	-9049
▁Represent	-9050
▁producing	-9051
▁introduction	-9052
FF	-9053
aco	-9054
car	-9055
hou	-9056
olo	-9057
rals	-9058
▁Boy	-9059
▁Cru	-9060
▁Nov	-9061
anted	-9062
▁Gulf	-9063
▁Note	-9064
▁feas	-9065
▁folk	-9066
▁hates	-9067
▁athlet	-9068
▁prepar	-9069
▁styles	-9070
▁Control	-9071
▁Madonna	-9072
▁Quality	-9073
▁grocery	-9074
▁prestig	-9075
▁Missouri	-9076
▁attached	-9077
▁workforce	-9078
▁classified	-9079
▁parliament	-9080
▁competitors	-9081
▁measurement	-9082
▁intelligence	-9083
EN	-9084
ga	-9085
enth	-9086
oner	-9087
▁120	-9088
▁Fal	-9089
▁Var	-9090
▁mal	-9091
erves	-9092
▁Ging	-9093
▁bias	-9094
▁Porto	-9095
▁charm	-9096
iencies	-9097
▁boiler	-9098
▁cotton	-9099
▁lights	-9100
▁orange	-9101
▁weekly	-9102
▁Theatre	-9103
▁planets	-9104
idespread	-9105
▁Shopping	-9106
▁engineer	-9107
▁impeachment	-9108
▁uncertainty	-9109
SP	-9110
cle	-9111
ras	-9112
ador	-9113
usse	-9114
▁Bre	-9115
▁Okl	-9116
▁tie	-9117
▁une	-9118
▁vic	-9119
▁sche	-9120
▁stro	-9121
▁skull	-9122
▁Custom	-9123
▁actors	-9124
▁prayer	-9125
▁rating	-9126
▁replic	-9127
▁resemb	-9128
▁Employe	-9129
▁Neither	-9130
▁ceremon	-9131
▁concert	-9132
▁pyramid	-9133
▁surgery	-9134
▁utility	-9135
▁Consider	-9136
▁bustling	-9137
▁assistant	-9138
▁suspected	-9139
▁distributed	-9140
▁proceedings	-9141
rum	-9142
ando	-9143
▁ori	-9144
story	-9145
yards	-9146
▁Click	-9147
▁meals	-9148
▁dishes	-9149
▁script	-9150
▁causing	-9151
▁revised	-9152
▁whereas	-9153
▁balanced	-9154
▁featured	-9155
▁overcome	-9156
▁republic	-9157
▁attracted	-9158
▁generated	-9159
▁northeast	-9160
▁precisely	-9161
▁acceptance	-9162
▁references	-9163
ran	-9164
win	-9165
▁Ak	-9166
▁FY	-9167
apore	-9168
falls	-9169
liers	-9170
pered	-9171
▁Trad	-9172
▁pork	-9173
▁span	-9174
▁warn	-9175
idency	-9176
▁Museo	-9177
▁flyer	-9178
▁Balear	-9179
▁Beyond	-9180
▁Jersey	-9181
▁Yorker	-9182
▁accent	-9183
▁photos	-9184
▁evident	-9185
▁heritage	-9186
▁photograp	-9187
▁recording	-9188
▁sacrifice	-9189
▁engagements	-9190
▁headquarters	-9191
▁Lu	-9192
ypes	-9193
▁Dam	-9194
▁Ele	-9195
▁fed	-9196
▁rue	-9197
▁Gang	-9198
▁appl	-9199
▁ease	-9200
▁whip	-9201
▁dense	-9202
▁hurry	-9203
▁ratio	-9204
▁sorts	-9205
▁steal	-9206
▁Arthur	-9207
▁ancest	-9208
▁argues	-9209
▁string	-9210
▁themes	-9211
▁100,000	-9212
▁editors	-9213
▁payroll	-9214
▁Atlantic	-9215
▁Explorer	-9216
▁consists	-9217
▁quarters	-9218
▁masterpiece	-9219
▁incorporated	-9220
▁publications	-9221
▁NE	-9222
amin	-9223
rome	-9224
▁Fox	-9225
▁Son	-9226
leans	-9227
nergy	-9228
▁Beat	-9229
▁Stan	-9230
▁rush	-9231
seeing	-9232
▁Luxor	-9233
▁email	-9234
▁screw	-9235
▁extrav	-9236
▁format	-9237
▁soccer	-9238
▁sultan	-9239
cription	-9240
▁warrant	-9241
▁monetary	-9242
▁smallest	-9243
▁arguments	-9244
▁souvenirs	-9245
▁democratic	-9246
▁Development	-9247
born	-9248
itty	-9249
mind	-9250
ouds	-9251
▁Nye	-9252
▁THE	-9253
▁lav	-9254
▁sne	-9255
▁Kash	-9256
▁Pope	-9257
▁Wild	-9258
▁brid	-9259
acking	-9260
osures	-9261
▁alley	-9262
▁bears	-9263
▁pitch	-9264
▁wines	-9265
▁wrest	-9266
atching	-9267
▁chocol	-9268
▁encoun	-9269
▁incomp	-9270
▁legacy	-9271
▁lesson	-9272
▁posted	-9273
▁satell	-9274
▁Certain	-9275
▁Moorish	-9276
▁follows	-9277
▁Interest	-9278
▁barriers	-9279
▁contrary	-9280
▁depicting	-9281
▁resolution	-9282
▁imagination	-9283
ST	-9284
▁59	-9285
cano	-9286
ikes	-9287
liss	-9288
riel	-9289
tech	-9290
▁McD	-9291
▁dim	-9292
aping	-9293
▁Pent	-9294
▁fate	-9295
▁Study	-9296
▁abund	-9297
▁cruel	-9298
▁stiff	-9299
lfriend	-9300
▁Product	-9301
▁awarded	-9302
▁mandate	-9303
▁notable	-9304
▁printed	-9305
▁referral	-9306
▁engineers	-9307
▁corruption	-9308
▁quarterback	-9309
comp	-9310
oped	-9311
orke	-9312
▁Ark	-9313
▁HMO	-9314
▁Mot	-9315
▁Nag	-9316
▁tin	-9317
▁palm	-9318
▁faint	-9319
▁forum	-9320
▁Histor	-9321
▁dynasty	-9322
▁kilomet	-9323
▁recover	-9324
▁accompany	-9325
▁intelligent	-9326
▁extraordinary	-9327
eded	-9328
eren	-9329
▁Ali	-9330
▁cobb	-9331
▁eggs	-9332
istocr	-9333
▁Mayor	-9334
▁armed	-9335
▁essay	-9336
▁pizza	-9337
▁votes	-9338
▁refuse	-9339
▁resist	-9340
▁applies	-9341
▁session	-9342
▁staring	-9343
▁Gingrich	-9344
▁adjusted	-9345
▁collapse	-9346
▁delicious	-9347
▁aggressive	-9348
▁eliminated	-9349
▁questioned	-9350
▁disappeared	-9351
▁concentrations	-9352
step	-9353
▁joy	-9354
▁Hard	-9355
terior	-9356
▁Attor	-9357
▁Oklah	-9358
▁Shiva	-9359
▁cloak	-9360
▁hosts	-9361
▁moves	-9362
▁Forbes	-9363
▁betray	-9364
▁circle	-9365
▁interf	-9366
▁kicked	-9367
▁rugged	-9368
▁Kashmir	-9369
▁inquiry	-9370
▁intense	-9371
▁shocked	-9372
▁clinical	-9373
▁corporation	-9374
▁inexpensive	-9375
acre	-9376
▁Gab	-9377
▁Pay	-9378
ugawa	-9379
▁Alab	-9380
▁Prov	-9381
▁corp	-9382
▁murm	-9383
▁puzz	-9384
▁horiz	-9385
▁knife	-9386
▁spear	-9387
▁pedest	-9388
▁solely	-9389
▁stalls	-9390
▁Counsel	-9391
▁Library	-9392
▁receipt	-9393
▁shifted	-9394
▁shouted	-9395
▁Internal	-9396
▁analyzed	-9397
▁suitable	-9398
▁Education	-9399
▁identical	-9400
▁girlfriend	-9401
▁representing	-9402
▁surprisingly	-9403
▁Administrator	-9404
imm	-9405
riz	-9406
tic	-9407
cure	-9408
omer	-9409
idity	-9410
atient	-9411
laimed	-9412
▁Memor	-9413
▁brows	-9414
▁haunt	-9415
▁spare	-9416
vention	-9417
▁Grande	-9418
▁cancer	-9419
▁Picasso	-9420
▁antique	-9421
▁chances	-9422
▁skilled	-9423
▁creatures	-9424
vi	-9425
ila	-9426
▁Id	-9427
▁RE	-9428
rake	-9429
▁Saf	-9430
inity	-9431
▁2005	-9432
theless	-9433
▁absurd	-9434
▁motion	-9435
▁failing	-9436
▁pulling	-9437
▁Reduction	-9438
▁reasonably	-9439
▁traditions	-9440
▁widespread	-9441
▁inhabitants	-9442
▁conventional	-9443
75	-9444
ASA	-9445
eem	-9446
ups	-9447
itis	-9448
rine	-9449
▁Cab	-9450
▁Riv	-9451
ighed	-9452
▁Meet	-9453
▁plot	-9454
▁Final	-9455
▁Tripp	-9456
▁boots	-9457
▁pants	-9458
▁Twenty	-9459
▁extend	-9460
▁lifted	-9461
▁mathem	-9462
▁shaped	-9463
irmative	-9464
▁envelop	-9465
▁insight	-9466
stronomer	-9467
▁Mohammed	-9468
▁Tokugawa	-9469
▁fountain	-9470
▁homeland	-9471
▁minority	-9472
▁relaxing	-9473
▁theories	-9474
▁appointed	-9475
▁purchases	-9476
▁Assistance	-9477
▁approached	-9478
▁anticipated	-9479
jud	-9480
ambo	-9481
▁FBI	-9482
▁Sud	-9483
▁Gand	-9484
▁Sher	-9485
▁dies	-9486
▁leaf	-9487
▁verd	-9488
▁Gauve	-9489
▁Moors	-9490
▁Santo	-9491
▁della	-9492
▁races	-9493
▁Norman	-9494
▁burial	-9495
▁regret	-9496
▁Alabama	-9497
▁hillside	-9498
▁Singapore	-9499
▁chemicals	-9500
▁disclosure	-9501
▁passengers	-9502
▁contributed	-9503
▁potentially	-9504
▁technological	-9505
mat	-9506
▁Ash	-9507
▁cem	-9508
▁Bowl	-9509
▁Down	-9510
▁dumb	-9511
▁armor	-9512
▁polls	-9513
▁Francis	-9514
▁formula	-9515
▁aristocr	-9516
▁ceramics	-9517
▁complain	-9518
▁terminal	-9519
▁expanding	-9520
▁fishermen	-9521
▁Initiative	-9522
▁physically	-9523
▁supporters	-9524
SI	-9525
bits	-9526
rics	-9527
▁flu	-9528
liest	-9529
▁mart	-9530
anking	-9531
gments	-9532
houses	-9533
orrect	-9534
▁grate	-9535
▁hobby	-9536
▁reass	-9537
▁slept	-9538
▁Behind	-9539
▁assemb	-9540
▁hungry	-9541
▁inches	-9542
▁Pacific	-9543
▁farming	-9544
▁paralle	-9545
▁slavery	-9546
▁populated	-9547
▁mysterious	-9548
▁vulnerable	-9549
▁waterfront	-9550
▁underground	-9551
▁unnecessary	-9552
▁boilermakers	-9553
▁consistently	-9554
abil	-9555
away	-9556
into	-9557
olph	-9558
▁oak	-9559
▁Utah	-9560
▁deer	-9561
▁nave	-9562
osevic	-9563
retion	-9564
▁Apple	-9565
▁Stein	-9566
▁stamp	-9567
imental	-9568
ortions	-9569
▁Senior	-9570
▁Styles	-9571
▁cheese	-9572
▁drives	-9573
▁rushed	-9574
▁approve	-9575
▁gateway	-9576
▁pirates	-9577
▁seaside	-9578
▁homeless	-9579
▁Community	-9580
▁evaluated	-9581
▁protecting	-9582
▁Bh	-9583
iful	-9584
with	-9585
▁Ang	-9586
▁CBO	-9587
▁Top	-9588
glass	-9589
▁Conn	-9590
▁Left	-9591
▁dump	-9592
▁irre	-9593
▁Could	-9594
▁Equal	-9595
▁Globe	-9596
▁crose	-9597
▁sunny	-9598
▁vivid	-9599
▁Private	-9600
▁goddess	-9601
▁threats	-9602
▁volcano	-9603
▁chairman	-9604
▁modified	-9605
▁exclusive	-9606
▁sanctuary	-9607
▁discussing	-9608
▁underlying	-9609
▁sensitivity	-9610
gic	-9611
isy	-9612
ayed	-9613
hist	-9614
isse	-9615
▁Sic	-9616
apped	-9617
arten	-9618
ivery	-9619
▁Corn	-9620
▁adds	-9621
▁mask	-9622
▁sadd	-9623
▁5,000	-9624
▁gifts	-9625
▁humor	-9626
▁skept	-9627
▁Income	-9628
▁deduct	-9629
▁panels	-9630
▁Inspect	-9631
▁Studies	-9632
▁edition	-9633
▁sailing	-9634
▁focusing	-9635
▁formerly	-9636
▁shooting	-9637
▁emotional	-9638
▁conducting	-9639
▁incredible	-9640
▁monumental	-9641
▁Alternative	-9642
▁evaluations	-9643
▁restoration	-9644
▁configuration	-9645
13	-9646
88	-9647
Con	-9648
eer	-9649
▁NH	-9650
ethe	-9651
▁coat	-9652
▁vend	-9653
itudes	-9654
lishes	-9655
▁Linda	-9656
▁Scots	-9657
▁gates	-9658
▁spite	-9659
▁tasks	-9660
▁locally	-9661
▁eighteen	-9662
▁Milosevic	-9663
▁competing	-9664
▁taxpayers	-9665
▁pollutants	-9666
iat	-9667
izz	-9668
▁43	-9669
▁44	-9670
illo	-9671
▁Dim	-9672
▁Mun	-9673
▁zoo	-9674
acles	-9675
▁Acid	-9676
▁Card	-9677
napped	-9678
▁Based	-9679
▁Milan	-9680
▁Title	-9681
▁buses	-9682
▁porch	-9683
▁shame	-9684
▁Polish	-9685
▁condem	-9686
▁landed	-9687
▁tastes	-9688
▁therap	-9689
▁trains	-9690
▁Alexand	-9691
▁assumes	-9692
▁episode	-9693
▁heading	-9694
▁costumes	-9695
▁missions	-9696
▁vineyards	-9697
▁prosperity	-9698
▁replacement	-9699
▁temperature	-9700
asp	-9701
cut	-9702
▁Sor	-9703
▁fer	-9704
▁fet	-9705
▁Caes	-9706
▁hike	-9707
▁Kings	-9708
▁prize	-9709
▁reply	-9710
▁scout	-9711
▁occurs	-9712
▁stocks	-9713
▁lacking	-9714
▁screens	-9715
▁soldier	-9716
▁failures	-9717
▁aggregate	-9718
▁allowance	-9719
▁execution	-9720
▁equivalent	-9721
▁influences	-9722
▁achievement	-9723
▁assessments	-9724
▁connections	-9725
▁substantially	-9726
▁49	-9727
iley	-9728
uant	-9729
udge	-9730
▁gle	-9731
▁Bart	-9732
▁Fair	-9733
▁Merc	-9734
▁pron	-9735
▁rust	-9736
headed	-9737
▁stays	-9738
▁steam	-9739
▁Across	-9740
▁Avenue	-9741
▁Easter	-9742
▁Rather	-9743
▁Summer	-9744
▁dagger	-9745
▁glance	-9746
▁reveal	-9747
▁tranqu	-9748
▁Abraham	-9749
▁Affairs	-9750
▁Bayliss	-9751
▁Persian	-9752
▁artific	-9753
▁catalyst	-9754
▁flexible	-9755
▁Egyptians	-9756
▁technique	-9757
▁calculated	-9758
▁guarantees	-9759
▁exclusively	-9760
▁associations	-9761
▁traditionally	-9762
abs	-9763
lyn	-9764
tha	-9765
▁SA	-9766
keep	-9767
▁Dod	-9768
▁Fel	-9769
▁sav	-9770
icism	-9771
▁beds	-9772
▁diam	-9773
▁lets	-9774
▁neut	-9775
ailles	-9776
minded	-9777
▁cheek	-9778
▁Within	-9779
▁backed	-9780
▁carbon	-9781
▁duties	-9782
▁emotion	-9783
▁enacted	-9784
▁existed	-9785
▁mansion	-9786
▁parking	-9787
▁postage	-9788
▁shorter	-9789
▁salaries	-9790
▁procedure	-9791
▁voluntary	-9792
▁allocation	-9793
▁photographs	-9794
ya	-9795
aye	-9796
lar	-9797
▁Jo	-9798
iger	-9799
izer	-9800
works	-9801
▁caut	-9802
▁fame	-9803
▁indo	-9804
arents	-9805
▁Along	-9806
▁Money	-9807
▁abbey	-9808
▁exped	-9809
▁sells	-9810
▁spell	-9811
▁Design	-9812
▁Melaka	-9813
▁bitter	-9814
▁pursue	-9815
aughters	-9816
▁Theater	-9817
▁advised	-9818
▁painter	-9819
▁rolling	-9820
▁literary	-9821
▁settlers	-9822
▁exquisite	-9823
▁incidents	-9824
▁registered	-9825
▁accompanied	-9826
▁differently	-9827
ags	-9828
▁Ba	-9829
aver	-9830
days	-9831
mart	-9832
▁rhy	-9833
ensed	-9834
quest	-9835
reach	-9836
▁Balt	-9837
▁grim	-9838
▁leis	-9839
▁prev	-9840
achuse	-9841
▁outer	-9842
eration	-9843
▁	-9844
e	-9845
t	-9846
a	-9847
o	-9848
i	-9849
n	-9850
s	-9851
r	-9852
h	-9853
l	-9854
d	-9855
u	-9856
c	-9857
m	-9858
y	-9859
f	-9860
g	-9861
p	-9862
w	-9863
b	-9864
.	-9865
v	-9866
k	-9867
,	-9868
'	-9869
T	-9870
I	-9871
S	-9872
A	-9873
-	-9874
C	-9875
x	-9876
M	-9877
P	-9878
j	-9879
H	-9880
B	-9881
0	-9882
1	-9883
W	-9884
q	-9885
D	-9886
z	-9887
R	-9888
F	-9889
N	-9890
E	-9891
O	-9892
L	-9893
G	-9894
J	-9895
9	-9896
)	-9897
(	-9898
2	-9899
?	-9900
Y	-9901
K	-9902
5	-9903
V	-9904
U	-9905
3	-9906
"	-9907
8	-9908
6	-9909
4	-9910
7	-9911
;	-9912
!	-9913
$	-9914
:	-9915
/	-9916
Q	-9917
­	-9918
Z	-9919
%	-9920
X	-9921
[	-9922
”	-9923
]	-9924
&	-9925
_	-9926
é	-9927
¡	-9928
*	-9929
@	-9930
=	-9931
®	-9932
ó	-9933
#	-9934
+	-9935
í	-9936
«	-9937
`	-9938
¦	-9939
̄	-9940
έ	-9941
“	-9942
Ϳ	-9943
Υ	-9944
δ	-9945
£	-9946
Τ	-9947
Ω	-9948
ζ	-9949
>	-9950
’	-9951
\	-9952
°	-9953
â	-9954
̈	-9955
̡	-9956
Ρ	-9957
ά	-9958
ί	-9959
ΰ	-9960
γ	-9961
ñ	-9962
{	-9963
~	-9964
à	-9965
ȡ	-9966
ȥ	-9967
Σ	-9968
‰	-9969
ç	-9970
—	-9971
<	-9972
É	-9973
œ	-9974
ȩ	-9975
ɣ	-9976
̭	-9977
̲	-9978
͠	-9979
Χ	-9980
ή	-9981
α	-9982
β	-9983
κ	-9984
Х	-9985
׺	-9986
ݳ	-9987
‡	-9988
′	-9989
€	-9990
ô	-9991
^	-9992
Ý	-9993
î	-9994
