<pad>	0
<unk>	0
<s>	0
</s>	0
[SEP]	0
▁	-2.66463
▁.	-3.42045
▁,	-3.87435
▁của	-4.04316
▁một	-4.17419
▁và	-4.27318
▁là	-4.35206
▁có	-4.41714
▁đã	-4.51856
ng	-4.52112
▁tôi	-4.65166
▁không	-4.65695
▁được	-4.6902
▁các	-4.80889
▁trong	-4.87454
i	-4.89331
▁những	-4.89806
▁cho	-4.99511
▁người	-4.99711
▁để	-5.15167
▁đó	-5.21427
▁ta	-5.21887
▁anh	-5.23684
▁họ	-5.28602
n	-5.29958
▁nó	-5.30158
▁với	-5.30425
▁thể	-5.33054
▁sự	-5.33401
▁sẽ	-5.50499
▁b	-5.50535
▁ở	-5.51813
a	-5.52632
▁làm	-5.60903
▁như	-5.62419
m	-5.67631
▁đến	-5.67947
▁bạn	-5.69007
▁rằng	-5.7273
▁khi	-5.72875
▁chúng	-5.80631
▁cả	-5.81087
▁ra	-5.83659
▁về	-5.85244
▁này	-5.86329
▁mà	-5.86894
▁công	-5.87854
▁gì	-5.88917
▁ấy	-5.89325
▁phải	-5.90856
▁từ	-5.90985
▁nhiều	-5.91174
▁nhà	-5.91571
▁rất	-5.91807
▁biết	-5.9219
▁t	-5.9324
▁việc	-5.93328
▁hơn	-5.93618
▁vào	-5.93662
▁trên	-5.94057
▁Tôi	-5.94118
▁nói	-5.97072
▁điều	-5.98162
▁đa	-5.98993
▁ch	-5.99321
t	-5.99337
▁uh	-6.078
ất	-6.07973
▁quan	-6.08677
▁năm	-6.11766
▁số	-6.11911
▁chính	-6.14316
▁bởi	-6.15118
▁bị	-6.17826
▁đi	-6.17948
▁thực	-6.21642
▁thấy	-6.22983
▁nhất	-6.24364
▁nhưng	-6.25233
▁thành	-6.25456
▁khác	-6.25574
▁lại	-6.28098
▁cô	-6.28571
▁nào	-6.28706
▁đầu	-6.28757
▁chỉ	-6.28971
c	-6.34565
▁lý	-6.36735
y	-6.37119
▁N	-6.3725
▁cái	-6.37797
▁vì	-6.39145
▁hàng	-6.41071
(	-6.41529
▁thế	-6.43066
▁giờ	-6.4387
▁Anh	-6.44613
s	-6.4486
-	-6.45832
▁tốt	-6.46627
▁động	-6.49243
▁cách	-6.4934
▁nghĩ	-6.49962
▁gia	-6.50405
ây	-6.51072
▁phí	-6.53199
▁hiện	-6.53353
▁cũ	-6.53623
▁con	-6.54115
▁tất	-6.54454
▁thời	-6.54671
▁dụng	-6.55296
▁hoặc	-6.55466
▁bao	-6.55562
▁ông	-6.56468
▁nhận	-6.57408
▁Các	-6.57715
▁cuộc	-6.57786
▁tin	-6.58863
▁lớn	-6.5977
▁T	-6.59804
▁hợp	-6.60475
▁thứ	-6.62853
o	-6.63342
▁nhân	-6.64132
▁đề	-6.64202
▁cấp	-6.65313
▁liên	-6.655
▁qua	-6.65759
▁giá	-6.66504
▁tại	-6.6826
▁vậy	-6.69332
▁bộ	-6.69471
▁hai	-6.69812
▁sau	-6.70117
▁định	-6.70481
▁sử	-6.71055
▁vụ	-6.71845
▁trường	-6.73498
▁trình	-6.7373
▁viên	-6.75703
▁kỳ	-6.76001
▁Một	-6.76855
▁ý	-6.77353
▁nên	-6.77909
▁pháp	-6.78139
▁thông	-6.78555
▁học	-6.79744
▁gian	-6.79835
hững	-6.82385
▁cầu	-6.82522
▁đây	-6.82693
▁kết	-6.82759
▁muốn	-6.83901
▁hành	-6.84454
▁khu	-6.85361
▁bản	-6.8632
▁c	-6.8684
▁cơ	-6.88257
▁quốc	-6.88566
▁cần	-6.8985
▁theo	-6.90575
▁ngày	-6.90614
▁thích	-6.9068
▁Có	-6.90897
▁phần	-6.91391
p	-6.92023
▁thống	-6.92549
▁Không	-6.92833
▁s	-6.93171
▁đường	-6.9345
▁tự	-6.93828
▁quả	-6.94391
▁trước	-6.95038
▁cung	-6.95292
▁tâm	-6.95322
▁nếu	-6.95367
▁đại	-6.96523
▁trở	-6.96975
▁cùng	-6.97403
▁tài	-6.98736
▁trung	-6.98858
nh	-6.98975
▁tiền	-6.99129
▁bảo	-7.00174
▁nơi	-7.0099
▁tìm	-7.01028
▁yêu	-7.01801
▁tổ	-7.02423
▁hình	-7.02477
▁hội	-7.02651
▁dịch	-7.03266
▁bắt	-7.03361
▁mình	-7.03426
▁cao	-7.04473
▁Nó	-7.05917
▁Họ	-7.06203
▁bằng	-7.0634
▁tr	-7.06381
▁vấn	-7.06609
▁báo	-7.06744
▁chiến	-7.07486
ương	-7.07794
▁thường	-7.07801
▁quá	-7.07908
▁mọ	-7.0808
▁Và	-7.08279
▁còn	-7.08368
▁đổi	-7.08559
▁thiết	-7.08609
▁Chú	-7.08757
▁sách	-7.09015
▁nhìn	-7.09272
▁đồng	-7.09379
▁B	-7.09825
▁thay	-7.11002
▁chuyện	-7.11941
▁lên	-7.11951
▁năng	-7.12197
u	-7.12286
▁sống	-7.15129
▁tạo	-7.15467
▁tiếp	-7.16882
▁phát	-7.17451
▁trị	-7.17497
▁trọng	-7.17934
▁phố	-7.17984
▁tiêu	-7.18571
▁phòng	-7.18619
▁kế	-7.187
▁biệt	-7.19297
▁nước	-7.19363
▁ai	-7.19394
▁điểm	-7.1969
▁n	-7.19859
▁nhỏ	-7.20004
▁giới	-7.20083
▁S	-7.20197
▁tế	-7.20468
▁lịch	-7.20977
▁toàn	-7.21207
▁do	-7.21333
▁hiệu	-7.21872
▁xem	-7.22664
▁xuất	-7.23244
▁d	-7.23501
▁thị	-7.23591
▁nhiên	-7.23626
▁Đ	-7.23699
▁mới	-7.23731
▁kiểm	-7.24492
▁cứ	-7.25171
▁trả	-7.25519
▁chi	-7.25798
▁ngoài	-7.27162
▁nhau	-7.27641
ắc	-7.27729
▁bang	-7.28228
▁kinh	-7.28374
▁tính	-7.28454
▁đối	-7.28704
▁chức	-7.29113
▁xe	-7.29601
g	-7.29707
▁tư	-7.29882
▁đánh	-7.30023
▁gần	-7.30548
▁vực	-7.30789
▁vị	-7.30792
▁dân	-7.31744
▁vẫ	-7.31921
▁xác	-7.31963
▁câu	-7.32465
▁cáo	-7.32804
▁ph	-7.3287
▁rồi	-7.33528
▁thu	-7.34101
▁hệ	-7.34118
▁Như	-7.34533
▁chương	-7.34538
▁sản	-7.3471
▁thật	-7.35182
▁hoàn	-7.3552
▁mặt	-7.3554
▁trợ	-7.356
▁đặt	-7.35923
▁cảm	-7.36527
▁bên	-7.36581
▁bình	-7.36806
▁thủ	-7.37197
Trong	-7.37462
▁độ	-7.37592
▁trẻ	-7.38472
▁loại	-7.38716
▁quy	-7.38796
▁Cô	-7.38912
▁sao	-7.38947
▁tập	-7.39666
▁thức	-7.40297
▁m	-7.40715
▁ơ	-7.40965
▁g	-7.41437
▁quản	-7.41518
▁l	-7.41974
▁lời	-7.42176
▁tranh	-7.42494
▁tiên	-7.43125
▁kỷ	-7.43383
▁khách	-7.43953
▁trang	-7.44018
▁tuyệt	-7.44446
▁lực	-7.44462
ức	-7.44758
▁gi	-7.45705
▁dẫn	-7.4583
▁ăn	-7.45833
▁lượng	-7.45896
▁ngô	-7.45947
▁lập	-7.46359
▁th	-7.46427
h	-7.46491
▁nữa	-7.46726
▁nghiệp	-7.46775
▁chủ	-7.46923
▁du	-7.47081
▁cuối	-7.47147
▁phân	-7.47606
▁tháng	-7.48201
▁giáo	-7.48265
▁ba	-7.49108
▁luật	-7.49184
▁tăng	-7.49244
▁luận	-7.49255
▁cá	-7.49649
▁bỏ	-7.49793
▁cửa	-7.49992
▁cứu	-7.49996
▁la	-7.50039
▁đàn	-7.50313
▁địa	-7.50532
▁hay	-7.51246
▁ban	-7.51261
ống	-7.51401
▁chiế	-7.51439
▁giải	-7.51663
▁cố	-7.52525
Người	-7.52587
▁phủ	-7.52842
▁H	-7.52951
▁giúp	-7.53626
▁dù	-7.53627
▁lần	-7.54082
▁v	-7.54199
▁khỏi	-7.54562
▁xu	-7.55582
▁lợi	-7.56069
▁liệu	-7.56373
▁tình	-7.56663
▁trí	-7.57156
▁tiếng	-7.57307
▁hỏi	-7.57393
▁Đó	-7.57491
uyên	-7.577
▁điện	-7.57896
▁khó	-7.58119
▁vời	-7.58201
▁triển	-7.59357
ít	-7.59514
▁C	-7.59677
▁tượng	-7.59807
▁đất	-7.59871
▁đều	-7.60171
▁đặc	-7.60179
▁đư	-7.60764
▁hoạt	-7.60955
▁--	-7.61157
▁giữ	-7.61449
▁gồm	-7.61497
e	-7.61645
▁V	-7.61727
▁quyền	-7.61866
▁cộng	-7.62032
▁sư	-7.62288
▁vẻ	-7.62476
▁văn	-7.62653
▁M	-7.63651
▁toán	-7.64036
ân	-7.6442
▁mỗi	-7.64672
▁sáng	-7.6578
▁nghệ	-7.66102
▁phục	-7.66195
▁mô	-7.66473
▁máy	-7.66626
.	-7.6686
▁biển	-7.67026
▁chắn	-7.67806
âu	-7.68164
▁đủ	-7.68165
▁đô	-7.68403
▁ngay	-7.6857
▁ảnh	-7.68824
▁tác	-7.69013
▁tưởng	-7.69152
▁phá	-7.69388
▁phụ	-7.70052
▁đáng	-7.70826
▁chưa	-7.70833
▁thờ	-7.70881
▁tắc	-7.70945
▁nghĩa	-7.71279
▁chuyển	-7.71842
▁dự	-7.72072
▁gọi	-7.72166
▁tham	-7.7278
▁án	-7.72914
▁đúng	-7.72934
▁sinh	-7.73095
▁hết	-7.73581
▁hóa	-7.73871
▁L	-7.73999
▁khả	-7.74031
▁chí	-7.74393
▁tra	-7.74424
▁lệ	-7.74903
▁dưới	-7.756
▁ứng	-7.75624
▁thuật	-7.75696
▁sĩ	-7.75819
▁ty	-7.75918
▁dài	-7.76269
▁mất	-7.76462
▁chơi	-7.77051
▁nghiên	-7.77339
▁tục	-7.77537
▁mục	-7.77611
▁đẹp	-7.77643
▁nổ	-7.77713
▁kiến	-7.77734
▁quyết	-7.77831
▁mua	-7.77903
▁khí	-7.78128
ận	-7.78155
▁tòa	-7.78309
▁dựng	-7.78693
▁phương	-7.78745
▁nữ	-7.79428
ự	-7.79895
▁tay	-7.80085
▁luôn	-7.80118
▁giảm	-7.80654
▁đ	-7.8124
▁đơn	-7.81613
▁chọn	-7.81921
▁hoạch	-7.82238
▁cổ	-7.82375
▁giữa	-7.82599
▁tích	-7.83102
▁tên	-7.83292
▁đá	-7.83473
▁nghe	-7.83848
▁r	-7.83999
ánh	-7.84048
▁nhiệm	-7.84613
▁thư	-7.84619
▁truyền	-7.85076
▁gắng	-7.85605
▁khoản	-7.8596
▁hạn	-7.86453
ưu	-7.8677
▁nhập	-7.86814
▁mặc	-7.87185
▁tiết	-7.8873
▁khoảng	-7.8875
▁thương	-7.89007
Nếu	-7.90042
▁giao	-7.90114
▁hoa	-7.90204
▁đông	-7.90243
▁chết	-7.90334
▁biến	-7.90956
▁xuống	-7.91047
▁mở	-7.91162
▁phép	-7.91756
▁sở	-7.91876
ngân	-7.91972
▁nghị	-7.92148
▁um	-7.92194
▁sát	-7.92443
▁cập	-7.92511
▁kiếm	-7.92579
▁chứng	-7.92714
▁D	-7.93321
▁bài	-7.93347
▁Ô	-7.93421
▁quanh	-7.93677
ễ	-7.93932
▁thanh	-7.9397
▁khá	-7.94442
ấn	-7.94588
▁viết	-7.94655
▁Ch	-7.94709
▁nguyên	-7.94884
ấp	-7.9518
▁xa	-7.95543
▁tuổi	-7.96037
▁đình	-7.96184
▁duy	-7.96292
▁cây	-7.97706
▁tội	-7.9777
▁phim	-7.9803
▁rõ	-7.98214
▁em	-7.98573
▁chuẩn	-7.98682
▁hỗ	-7.9874
▁tây	-7.99149
▁tối	-7.9982
▁R	-7.99914
▁lấy	-8.00015
▁hướng	-8.00321
d	-8.00505
▁minh	-8.00687
▁nghiệm	-8.00801
▁mạnh	-8.00822
▁trăm	-8.01183
▁khăn	-8.01198
▁vệ	-8.01973
▁vật	-8.01981
▁đoán	-8.02012
▁giả	-8.02087
Điều	-8.02304
▁mùa	-8.02493
▁thêm	-8.0266
▁an	-8.02931
▁ích	-8.03164
▁đảo	-8.03447
▁x	-8.03605
▁bố	-8.03682
▁cảnh	-8.04056
▁xảy	-8.05435
▁lẽ	-8.05503
uổi	-8.05669
▁thú	-8.05731
▁web	-8.06741
▁hưởng	-8.06851
▁trá	-8.069
▁di	-8.07304
ed	-8.07732
▁bán	-8.07838
▁phả	-8.08179
▁tuần	-8.08538
▁xét	-8.08876
▁màu	-8.08918
▁rộng	-8.09434
▁vài	-8.09535
iểu	-8.09621
▁nay	-8.09662
▁ràng	-8.09702
▁trò	-8.09964
▁hô	-8.10201
▁viện	-8.10648
hầu	-8.11311
▁cà	-8.11578
▁nộ	-8.11772
uyến	-8.12025
▁tả	-8.1234
▁thân	-8.12351
▁phẩm	-8.12366
▁đứ	-8.12384
▁đồ	-8.12432
▁chất	-8.12947
▁đội	-8.13132
▁kể	-8.13428
▁căn	-8.13472
▁doanh	-8.1369
▁thúc	-8.14313
▁lúc	-8.14515
▁kiện	-8.1526
▁đấu	-8.15438
▁mỹ	-8.15529
▁de	-8.15744
▁Bạ	-8.15795
ãi	-8.16115
▁riêng	-8.16224
▁độc	-8.1623
▁hiểu	-8.16388
ực	-8.16401
▁đạo	-8.17249
▁nam	-8.17559
ù	-8.18556
▁chạy	-8.19042
ắp	-8.19464
▁mang	-8.20214
ằm	-8.21107
▁sức	-8.21588
▁chút	-8.21604
▁đâu	-8.22056
▁bệnh	-8.22076
▁da	-8.22328
▁trấn	-8.22355
▁lá	-8.22398
▁tử	-8.22483
▁diễn	-8.23099
▁dữ	-8.23311
▁âm	-8.23413
▁vô	-8.23944
▁Cái	-8.24292
▁dục	-8.24425
▁dàng	-8.24948
▁tiến	-8.25572
▁vui	-8.25588
▁chống	-8.25605
▁đôi	-8.26469
▁xã	-8.26501
▁diện	-8.26673
▁hồ	-8.26802
▁tức	-8.27561
▁lâu	-8.27578
▁hồi	-8.27588
▁kh	-8.27779
▁thuế	-8.28387
▁áp	-8.2869
▁K	-8.28787
▁yếu	-8.28798
guồn	-8.2885
▁xâ	-8.29212
▁rượu	-8.29285
hậm	-8.29457
▁hiểm	-8.295
▁trời	-8.29608
▁tệ	-8.29828
▁nghỉ	-8.30088
▁sẵn	-8.30126
▁quân	-8.30538
▁hôn	-8.30606
▁lưu	-8.30612
▁thấp	-8.30689
▁gái	-8.30845
▁kẻ	-8.31197
ược	-8.31774
▁nhật	-8.31982
▁thì	-8.32158
▁xuyên	-8.32306
▁bóng	-8.32489
▁hòa	-8.32579
▁từng	-8.32667
▁tỷ	-8.32806
▁phạm	-8.33042
▁chịu	-8.33106
▁soát	-8.33324
▁gặp	-8.33345
▁thử	-8.33979
▁nhạc	-8.34299
▁đầy	-8.34489
▁Uh	-8.35216
▁mối	-8.35333
▁hy	-8.35505
▁dành	-8.35989
▁vọng	-8.36022
▁ma	-8.36129
▁trách	-8.36461
▁phê	-8.3661
ầu	-8.36698
▁áo	-8.36786
▁tinh	-8.36906
▁chế	-8.37219
▁trưởng	-8.37246
▁đấy	-8.37277
▁Ph	-8.37778
▁1	-8.38027
▁kỹ	-8.38111
▁nền	-8.38117
▁chú	-8.38171
▁ký	-8.38368
▁Đú	-8.38428
er	-8.385
▁đạ	-8.38719
▁Th	-8.39405
▁hữu	-8.3944
▁mẹ	-8.39699
▁ghi	-8.39888
ạm	-8.4015
▁khai	-8.40376
▁xử	-8.40816
▁hộ	-8.41423
▁cư	-8.41446
▁mức	-8.41827
▁bầu	-8.41919
▁truy	-8.41988
▁danh	-8.42623
▁trai	-8.42987
▁Khi	-8.43203
▁triệu	-8.43276
▁chia	-8.43326
▁tàng	-8.43549
▁nhóm	-8.43616
ì	-8.43652
▁mong	-8.43912
▁gửi	-8.4395
▁buộc	-8.43981
▁nhanh	-8.4402
▁so	-8.44102
▁khổ	-8.44332
▁bại	-8.44565
▁quay	-8.44628
▁nhớ	-8.44947
▁cạnh	-8.45176
▁sớm	-8.45291
▁dụ	-8.45608
▁núi	-8.46051
▁lo	-8.46076
▁h	-8.46178
▁thần	-8.4623
ên	-8.46261
▁mươi	-8.46301
▁cụ	-8.46338
▁đọc	-8.46525
▁2	-8.46661
▁dõi	-8.46856
▁dấu	-8.4708
▁cử	-8.47187
▁đóng	-8.47458
▁thảo	-8.47689
Thật	-8.47762
▁tôn	-8.48181
▁thuộc	-8.4829
▁vượ	-8.48355
Ở	-8.49281
▁ngồi	-8.49472
▁sợ	-8.49615
▁trắng	-8.49687
▁bắc	-8.50035
▁lạc	-8.50126
▁trừ	-8.50338
▁lã	-8.50494
▁k	-8.5065
▁đảm	-8.50941
▁khủng	-8.51
▁thăm	-8.51303
▁tá	-8.51367
▁hoàng	-8.5175
▁thập	-8.52502
▁đứng	-8.52651
▁trữ	-8.52666
▁cắt	-8.52748
▁nghi	-8.52779
▁đợi	-8.52872
▁ngoại	-8.53126
▁đền	-8.53193
▁cuố	-8.53265
ông	-8.53489
▁lạ	-8.53768
▁đài	-8.53999
▁thái	-8.54048
▁mắt	-8.54139
▁nỗ	-8.54558
▁Nhà	-8.54767
▁19	-8.54853
▁giết	-8.5527
▁cánh	-8.55297
hẩm	-8.55391
▁vi	-8.55911
▁thuyết	-8.55993
ch	-8.56099
▁sắc	-8.56196
ữa	-8.56259
▁đỡ	-8.56684
▁đêm	-8.56972
▁nha	-8.57176
▁thuốc	-8.5793
▁tù	-8.57937
▁thiếu	-8.58177
▁bước	-8.5821
▁chung	-8.58529
▁mã	-8.58557
ờ	-8.58728
▁Tuy	-8.59216
▁đen	-8.59522
▁ấn	-8.59625
▁cận	-8.60071
▁ước	-8.60137
▁suy	-8.60178
▁cha	-8.60353
▁trại	-8.61012
▁Sau	-8.61906
▁chối	-8.62034
▁bốn	-8.62131
▁18	-8.6223
▁lự	-8.6224
▁rơi	-8.62298
r	-8.62309
▁xấu	-8.62461
▁tạp	-8.62566
▁lửa	-8.62728
hiển	-8.62991
▁phong	-8.62996
▁lỗi	-8.63256
ủy	-8.63288
▁Chỉ	-8.63711
▁ngựa	-8.63725
▁bờ	-8.63981
es	-8.64283
▁thuận	-8.64697
Để	-8.64832
▁ghé	-8.64922
ật	-8.65123
▁hủy	-8.65227
▁lai	-8.6524
hắn	-8.65254
▁mười	-8.65947
▁bàn	-8.66506
▁phổ	-8.6664
▁clinton	-8.66903
▁sáu	-8.6734
▁vườn	-8.6734
▁giấy	-8.67681
▁đoàn	-8.67793
▁mộ	-8.67974
▁trúc	-8.68005
▁biểu	-8.68059
▁phận	-8.68094
▁3	-8.68583
▁bay	-8.68704
▁tố	-8.68726
▁vù	-8.68828
▁dựa	-8.68872
▁Tr	-8.69539
ấu	-8.69711
▁nông	-8.69755
ến	-8.69773
▁sân	-8.6993
▁trạng	-8.70205
▁mái	-8.70256
▁Phải	-8.70614
▁nguy	-8.7075
▁thiện	-8.71145
▁thắng	-8.71559
iễn	-8.72131
▁hòn	-8.72133
▁Mặ	-8.72454
▁cực	-8.72461
▁vòng	-8.72465
▁khắc	-8.72562
▁quán	-8.72564
▁ngàn	-8.73035
▁bé	-8.73094
▁sạn	-8.73488
▁vũ	-8.74357
on	-8.74761
▁lộ	-8.75694
▁già	-8.75713
▁gó	-8.75988
ôn	-8.76068
▁ké	-8.76437
▁hấp	-8.76572
▁lao	-8.76676
▁lược	-8.76754
▁lắng	-8.76939
▁tín	-8.76948
▁thoại	-8.77034
▁G	-8.77293
▁New	-8.77409
▁Hai	-8.77562
▁ngắn	-8.77601
▁khỏe	-8.77728
▁quần	-8.7795
▁sai	-8.78043
▁ca	-8.78747
▁thôi	-8.78771
▁đỏ	-8.7902
▁ngờ	-8.7903
▁Tommy	-8.79262
▁dùng	-8.79674
▁thưởng	-8.7975
▁hãy	-8.79884
▁cười	-8.79889
▁dòng	-8.79912
▁Vâng	-8.80524
▁5	-8.80856
iền	-8.80996
▁ninh	-8.81159
▁giản	-8.81232
▁mẫu	-8.81535
▁nặng	-8.81701
▁sửa	-8.81716
▁rối	-8.81781
▁sông	-8.81805
▁chặn	-8.81833
▁sóc	-8.82018
▁ro	-8.82062
▁phút	-8.8208
▁bảy	-8.82244
▁à	-8.82707
▁khóa	-8.82816
▁suất	-8.83017
▁tờ	-8.83124
▁lsc	-8.83367
▁phiếu	-8.83779
▁bổ	-8.8399
▁The	-8.8405
▁bà	-8.84132
▁chúa	-8.84179
▁thẳng	-8.84271
▁dạng	-8.8433
▁kích	-8.84348
le	-8.84737
▁nửa	-8.84848
▁Con	-8.85033
▁Ừ	-8.85079
▁tầm	-8.85155
▁ngọn	-8.85291
▁hè	-8.85309
▁suốt	-8.85336
▁yeah	-8.85394
▁may	-8.85733
▁hút	-8.85886
l	-8.8628
▁vĩ	-8.86686
▁gao	-8.86878
▁ví	-8.8718
inh	-8.87476
▁tường	-8.8751
▁20	-8.87703
▁đốc	-8.87776
▁khoa	-8.87786
▁giàu	-8.87807
▁Um	-8.87822
▁10	-8.88134
▁ngữ	-8.88258
▁tu	-8.88331
▁can	-8.88357
▁hà	-8.89163
▁lồ	-8.89311
▁Oh	-8.89462
▁đà	-8.89906
▁nghiêm	-8.90127
▁Vớ	-8.90151
▁che	-8.90219
▁mật	-8.90662
Năm	-8.90876
▁phúc	-8.90938
▁lòng	-8.91067
▁York	-8.91274
ừng	-8.91523
rời	-8.91675
▁ô	-8.91808
▁tàu	-8.91887
▁dưỡng	-8.91947
▁trì	-8.92087
▁tới	-8.92162
▁sẻ	-8.9236
▁đổ	-8.92504
▁thiệu	-8.92594
▁xếp	-8.92836
▁gốc	-8.93184
Đã	-8.93557
▁17	-8.93669
▁15	-8.93887
▁lễ	-8.94312
▁thuê	-8.94637
▁chỗ	-8.94933
▁bác	-8.95031
hỏa	-8.95147
▁mẽ	-8.95396
▁nuôi	-8.9558
ôi	-8.95777
ởi	-8.95849
▁dây	-8.96141
▁A	-8.9618
▁Quốc	-8.96256
▁mạng	-8.96488
▁Mỹ	-8.96505
▁uống	-8.96508
k	-8.9653
▁hát	-8.96561
▁kia	-8.9674
▁đức	-8.96885
▁À	-8.97215
▁khích	-8.97286
▁xanh	-8.97504
▁Đố	-8.97836
▁vẽ	-8.97863
hách	-8.97881
▁tấ	-8.98287
▁bày	-8.98355
▁thoá	-8.98375
▁niệm	-8.98466
▁nghèo	-8.98686
▁tàn	-8.98716
▁nhắc	-8.98874
▁vua	-8.99209
▁vai	-8.99265
▁món	-8.99401
▁Cả	-8.99637
al	-8.99647
▁thả	-8.99764
▁mảnh	-8.99876
▁duyệt	-8.99969
▁phán	-9.00006
▁kiệm	-9.00223
▁thuyền	-9.00428
▁Texas	-9.00744
▁daan	-9.01478
▁Cuộ	-9.01705
▁phối	-9.01925
ám	-9.02097
▁Hã	-9.02132
▁thiên	-9.0231
huh	-9.02369
▁khám	-9.0256
ình	-9.02692
ọi	-9.0299
▁chứa	-9.03247
▁Là	-9.03379
▁băng	-9.03938
▁Jon	-9.03942
▁sàng	-9.04045
▁4	-9.04365
▁John	-9.04712
▁cường	-9.04731
▁tiện	-9.04746
▁16	-9.05365
▁bạc	-9.05478
▁đột	-9.05609
▁khuyế	-9.05754
▁ngủ	-9.05862
▁Khu	-9.05902
▁chồng	-9.06059
▁lố	-9.0663
b	-9.06717
▁phiê	-9.07282
▁dừng	-9.07544
▁coi	-9.07635
▁thổ	-9.0767
▁chóng	-9.07779
▁vợ	-9.07797
▁vỡ	-9.07952
▁tộc	-9.08227
▁hơi	-9.08503
▁đăng	-9.0896
▁túy	-9.09039
▁hạ	-9.09148
▁hạnh	-9.0916
▁vết	-9.09363
▁tám	-9.09484
▁bọ	-9.09876
v	-9.09945
▁lớp	-9.10223
▁ẩn	-9.10267
▁bạo	-9.10749
ing	-9.10769
▁khảo	-9.11026
or	-9.1132
▁hưu	-9.11654
ảo	-9.11821
hiệp	-9.11836
▁súng	-9.11902
▁đoạn	-9.12266
la	-9.12316
▁biên	-9.1233
▁kịch	-9.12773
▁bí	-9.12804
▁Việ	-9.13048
▁thánh	-9.13055
▁phóng	-9.13179
▁giác	-9.13316
▁ngạc	-9.13433
▁lương	-9.1387
▁f	-9.1387
▁khẩu	-9.13883
▁thù	-9.14244
▁dung	-9.14308
ừa	-9.14981
▁thiệp	-9.15062
▁nhuận	-9.15482
▁chó	-9.15565
▁nạn	-9.15745
▁Yea	-9.15858
▁dọc	-9.15872
▁đe	-9.16041
▁đỉnh	-9.16057
▁đế	-9.16081
▁sa	-9.16155
▁cấ	-9.16458
ly	-9.16581
▁6	-9.16734
▁nhu	-9.16858
▁loạn	-9.16893
▁hu	-9.17328
▁phi	-9.17414
▁lạnh	-9.17476
Chính	-9.17739
▁quý	-9.18159
▁tiệc	-9.18393
▁niề	-9.19004
ịch	-9.19016
▁Tại	-9.19536
▁cổng	-9.19648
▁lặng	-9.19664
▁tổn	-9.1974
▁chữa	-9.20183
▁im	-9.21009
goài	-9.21039
▁kho	-9.21051
▁Vậ	-9.21084
▁san	-9.21128
▁dạy	-9.21201
▁Ca	-9.21233
▁12	-9.2146
▁quen	-9.2175
▁Tru	-9.22372
▁buồn	-9.22432
ấy	-9.22535
▁xúc	-9.22847
▁thao	-9.22893
▁thi	-9.23225
▁dặm	-9.23617
▁nhiêu	-9.23677
▁Theo	-9.23842
▁khiển	-9.24041
▁thải	-9.24146
▁bắn	-9.24169
háp	-9.24245
ủng	-9.25033
▁luyện	-9.253
▁tướng	-9.25365
▁bánh	-9.25406
▁tim	-9.25418
▁jon	-9.25655
▁thừa	-9.25706
iện	-9.25778
▁né	-9.25849
▁dã	-9.25985
▁...	-9.26012
▁khứ	-9.2636
▁đo	-9.26657
▁loạt	-9.26673
▁ổn	-9.2675
▁30	-9.26816
▁mắn	-9.26965
hạt	-9.27044
▁đám	-9.27216
▁li	-9.27223
▁qu	-9.2725
ỏng	-9.2747
▁hại	-9.27621
▁tốc	-9.2822
▁sạch	-9.28339
▁st	-9.28515
ền	-9.28949
▁điển	-9.29006
▁mại	-9.29217
▁Quy	-9.29271
as	-9.29364
▁bơi	-9.29392
▁đau	-9.29495
▁tuy	-9.29647
▁đích	-9.29899
ie	-9.30043
▁thịt	-9.30045
▁hào	-9.30089
▁ơn	-9.30163
▁giọ	-9.30198
f	-9.30573
▁đắt	-9.31052
▁chiều	-9.31151
▁14	-9.31202
▁Đô	-9.31433
▁lầm	-9.31757
▁Giá	-9.31759
ường	-9.31905
ài	-9.31995
▁họp	-9.32121
▁nợ	-9.32193
▁phạt	-9.32212
man	-9.32363
ệt	-9.32467
▁nguyện	-9.32487
▁sơ	-9.32723
▁lục	-9.32963
▁Gi	-9.33272
▁lũng	-9.33395
▁oh	-9.33436
gay	-9.335
▁rủ	-9.3362
ớt	-9.33621
▁thoả	-9.3365
▁Ngô	-9.34035
▁km	-9.34169
▁Nh	-9.34248
▁sắm	-9.34289
ể	-9.34461
▁Kế	-9.34546
▁2000	-9.34583
▁khố	-9.34804
▁Từ	-9.3488
is	-9.35073
▁thượng	-9.35095
▁chì	-9.35365
▁vừ	-9.354
▁xin	-9.35448
▁bật	-9.35502
▁Thờ	-9.35575
▁Pháp	-9.35598
▁hoang	-9.35844
ước	-9.35858
▁cam	-9.36165
ọc	-9.36491
en	-9.36736
▁Hoà	-9.36742
▁đồi	-9.368
▁Bộ	-9.36998
▁dọa	-9.37059
▁P	-9.37091
▁gỗ	-9.3719
▁w	-9.37323
▁Đả	-9.37449
us	-9.37733
▁Qu	-9.38253
▁hiến	-9.3828
▁E	-9.38343
os	-9.38432
▁dối	-9.38664
te	-9.38843
▁sung	-9.39112
▁rừng	-9.39269
ở	-9.39352
▁hậu	-9.39398
▁bồi	-9.39496
▁Cuố	-9.39553
ỗi	-9.39657
ệ	-9.3975
úc	-9.40241
ục	-9.40385
ers	-9.40476
▁lan	-9.40758
êu	-9.40796
ơi	-9.40973
▁thang	-9.40992
▁in	-9.41258
▁giấu	-9.41427
▁sang	-9.41494
▁thụ	-9.415
▁e	-9.41523
ra	-9.41858
▁vay	-9.41902
▁cỏ	-9.4193
w	-9.42025
▁khởi	-9.42095
▁lang	-9.42225
▁rẻ	-9.42293
Ý	-9.42417
▁tầng	-9.42726
▁sổ	-9.42743
▁Trên	-9.42824
▁mờ	-9.42829
▁nhiệ	-9.42994
▁sót	-9.43005
▁yên	-9.4342
▁Thị	-9.43514
▁dị	-9.43584
▁nhảy	-9.43644
▁tốn	-9.43706
▁lắm	-9.44125
▁thẻ	-9.4415
▁huống	-9.44197
ành	-9.44237
▁gói	-9.4432
▁trư	-9.44492
ột	-9.4464
▁niên	-9.44908
▁chà	-9.44941
▁lạp	-9.44968
▁đẩy	-9.44989
▁máu	-9.45065
▁kê	-9.45326
▁nga	-9.45634
▁the	-9.45877
▁ác	-9.46226
▁7	-9.46286
▁chậm	-9.46435
▁đu	-9.46471
▁cậy	-9.46679
ẽ	-9.46857
▁hẹn	-9.4687
▁dậy	-9.47059
òng	-9.47098
▁mềm	-9.47203
▁13	-9.47585
ro	-9.47812
▁F	-9.47862
uân	-9.47923
▁ngốc	-9.48346
ur	-9.48436
▁binh	-9.48588
hở	-9.48764
iêu	-9.48847
ão	-9.4887
Nhiều	-9.48875
▁thước	-9.48979
▁lường	-9.49508
▁Bà	-9.49815
son	-9.49821
trao	-9.49909
▁rú	-9.49991
▁trốn	-9.50145
▁Bắc	-9.5039
▁quỹ	-9.50476
▁khô	-9.51039
▁Gao	-9.51157
ba	-9.51513
el	-9.5157
▁sánh	-9.51583
▁Tổ	-9.5176
▁cú	-9.51954
▁bar	-9.52035
▁thỏ	-9.52244
▁hương	-9.52343
ine	-9.52973
hải	-9.53124
▁hộp	-9.53163
th	-9.532
▁Tò	-9.53214
▁11	-9.5341
▁Hà	-9.53738
▁chào	-9.54002
▁ngu	-9.54066
▁lãng	-9.54095
▁họa	-9.54339
▁quên	-9.54348
▁thận	-9.54708
▁hảo	-9.54747
▁2001	-9.553
▁bò	-9.55562
Không	-9.55604
▁màn	-9.55706
▁Jame	-9.55932
▁tĩnh	-9.55941
hâm	-9.56289
▁nhiễm	-9.56346
▁gọn	-9.56416
▁inglethorp	-9.56694
▁1996	-9.56767
ào	-9.57175
2	-9.57293
▁quận	-9.57311
▁khẩn	-9.57535
▁chín	-9.57988
▁kiểu	-9.58833
▁Paris	-9.59025
ách	-9.59457
▁Thô	-9.59551
▁kim	-9.5963
▁giận	-9.59812
▁8	-9.60263
▁tắt	-9.60389
▁xứ	-9.60391
▁Cho	-9.60481
▁chẳng	-9.60522
M	-9.60533
▁Tra	-9.6055
ép	-9.6058
▁mèo	-9.60765
▁nhẹ	-9.60841
▁100	-9.61154
▁lỗ	-9.61188
▁ii	-9.61499
▁nâ	-9.61541
▁hãi	-9.6163
▁thơ	-9.61731
▁kính	-9.62239
na	-9.62309
Ví	-9.6254
▁Đại	-9.62542
ụ	-9.63271
▁ghế	-9.63402
ảy	-9.63444
▁Dallas	-9.63554
▁Chi	-9.63559
▁Ng	-9.63627
▁trống	-9.63674
▁Bả	-9.63783
▁góc	-9.63795
▁hồng	-9.64125
▁tóc	-9.64138
▁phó	-9.64363
Văn	-9.64376
▁nô	-9.64531
▁âu	-9.64549
▁al	-9.64681
▁cướp	-9.64775
▁túi	-9.64851
Báo	-9.65118
T	-9.65139
▁phiền	-9.6553
ỏ	-9.65682
▁đảng	-9.65742
▁nối	-9.65752
il	-9.65832
ậu	-9.67075
▁50	-9.6712
ri	-9.6769
▁đẳng	-9.67903
▁điên	-9.6792
▁nhấ	-9.67939
▁mát	-9.68098
an	-9.68347
▁hứng	-9.68372
▁gió	-9.68392
▁mưa	-9.68526
▁ngoái	-9.69001
ka	-9.69279
▁Chiế	-9.69308
uyển	-9.69633
ic	-9.69755
un	-9.69995
Thành	-9.70217
hân	-9.70241
▁ly	-9.70303
▁tuyến	-9.70324
▁nh	-9.70408
▁khóc	-9.7079
▁môn	-9.70868
▁9	-9.71392
▁tải	-9.71491
▁vong	-9.71652
▁to	-9.71671
▁chim	-9.71684
▁un	-9.71764
Hum	-9.71848
áu	-9.71866
re	-9.72007
▁tri	-9.72092
▁internet	-9.72208
▁tỉnh	-9.72241
▁thôn	-9.72251
▁Gia	-9.72349
ne	-9.72385
▁mãi	-9.72509
▁cháy	-9.72637
▁hạng	-9.72714
▁trú	-9.73362
ạp	-9.74425
▁poirot	-9.74432
ton	-9.74525
▁phà	-9.74632
ích	-9.74925
▁hét	-9.74951
ùng	-9.75055
um	-9.75221
▁pro	-9.75227
ã	-9.75701
▁tuyết	-9.75778
▁viễn	-9.75843
Phần	-9.76282
▁hiếm	-9.76373
▁xo	-9.76389
▁leo	-9.76405
▁Israel	-9.76425
▁tắm	-9.76452
su	-9.76475
▁ngang	-9.76633
▁re	-9.7694
▁tiễn	-9.77092
▁ấ	-9.77312
▁trưa	-9.77343
ội	-9.77434
▁Cũ	-9.77882
co	-9.78038
iệt	-9.78465
▁thiểu	-9.78653
ưới	-9.78738
▁vò	-9.78758
▁Washington	-9.7886
▁dầu	-9.78909
▁Ba	-9.78925
▁mai	-9.78939
▁mỉ	-9.79016
▁hang	-9.79086
▁Đức	-9.79439
▁hầm	-9.79528
▁đời	-9.80473
▁Số	-9.80548
ỡ	-9.80731
▁W	-9.80833
iều	-9.8085
▁ga	-9.80911
ưa	-9.81444
▁tiề	-9.81497
▁vịnh	-9.81639
▁hẹp	-9.817
▁mừng	-9.82167
▁bè	-9.82235
▁1998	-9.82321
▁Luậ	-9.82562
óm	-9.82575
▁Do	-9.8258
▁Ngà	-9.82627
ta	-9.82628
▁David	-9.82951
▁nhẫn	-9.82958
▁1999	-9.83318
ẫu	-9.8335
▁đựng	-9.83497
▁cứng	-9.83502
▁epa	-9.8375
▁Giả	-9.83933
z	-9.8402
▁ngài	-9.84123
hầm	-9.84259
La	-9.84262
▁J	-9.8429
]	-9.84318
▁đò	-9.84412
▁trần	-9.84502
▁treo	-9.84732
▁giỏ	-9.84751
▁julius	-9.84872
▁chán	-9.85067
ếp	-9.85375
▁lặp	-9.85614
▁sóng	-9.85716
▁new	-9.85877
▁Hiệ	-9.86061
▁cờ	-9.86134
ce	-9.86305
▁dao	-9.86324
▁buýt	-9.86419
▁khiếp	-9.86513
ve	-9.86726
lo	-9.8687
▁cựu	-9.86938
õ	-9.87147
▁khấu	-9.872
▁hò	-9.87754
▁dần	-9.8797
▁á	-9.88194
▁Hơ	-9.88296
▁Độ	-9.88452
▁sụ	-9.88492
hợ	-9.88529
▁lính	-9.88603
N	-9.8873
▁giường	-9.88743
▁Adri	-9.88764
▁diệt	-9.88779
▁cưỡ	-9.89005
▁1997	-9.89028
▁thạch	-9.89075
▁ngừng	-9.89327
▁chinh	-9.89612
hum	-9.89727
▁bush	-9.89845
▁xinh	-9.90042
▁Ủ	-9.9016
ối	-9.90403
▁Ai	-9.90486
êm	-9.90689
▁San	-9.90745
▁Saint	-9.90784
▁1990	-9.91074
▁trượt	-9.91342
ley	-9.91389
▁des	-9.9164
▁đố	-9.92046
▁rác	-9.92212
▁adrin	-9.92258
vi	-9.92289
ính	-9.9281
and	-9.92824
▁giày	-9.93009
▁xuân	-9.93322
óc	-9.93592
▁mũ	-9.93654
▁lư	-9.93995
hứa	-9.94454
▁25	-9.94583
▁mơ	-9.94848
▁California	-9.94882
▁gắn	-9.95222
▁Hô	-9.9535
▁ho	-9.95659
to	-9.95852
ow	-9.95862
▁thai	-9.96163
ạo	-9.96223
▁Quản	-9.96395
▁pa	-9.96463
▁huy	-9.9654
▁siêu	-9.96708
▁jerusalem	-9.96945
▁mê	-9.9706
▁xưa	-9.97194
land	-9.97251
▁doro	-9.97296
▁ngó	-9.97568
▁scotland	-9.97608
àng	-9.97828
▁Nghiên	-9.97931
▁tỏ	-9.97942
▁Cơ	-9.98118
▁Ma	-9.98144
▁Da	-9.98209
út	-9.98227
Ồ	-9.98522
▁rộn	-9.98567
▁kênh	-9.98571
iết	-9.98725
▁nhạ	-9.98903
▁đập	-9.98947
▁omb	-9.99068
▁ti	-9.99244
▁xô	-9.99379
▁đáo	-9.99479
▁rập	-9.9948
▁40	-9.99704
▁mỏ	-9.99847
ol	-9.99919
▁quà	-9.9993
ter	-10.001
▁tha	-10.0033
▁1995	-10.0045
▁gã	-10.0065
Ngày	-10.0071
▁nắng	-10.011
▁nướng	-10.0121
▁Mary	-10.0134
▁bụ	-10.0144
▁I	-10.0144
▁lãm	-10.0154
▁co	-10.0157
▁cặp	-10.0164
ỉ	-10.0167
▁Ngâ	-10.0199
ợ	-10.0213
hĩ	-10.0224
▁dá	-10.0259
mer	-10.0271
ướng	-10.0277
▁60	-10.0285
▁dư	-10.0316
▁Phí	-10.0319
▁Hồng	-10.033
áo	-10.0332
ạch	-10.0359
▁nát	-10.0363
▁nòi	-10.0376
Bằng	-10.0386
▁slate	-10.0403
▁trụ	-10.0418
ời	-10.0428
▁tai	-10.0443
ĩa	-10.0453
âm	-10.046
ãn	-10.0467
▁mãn	-10.0491
▁chép	-10.0514
▁hỏng	-10.0526
ẫn	-10.0528
▁chụ	-10.0575
▁chữ	-10.0605
▁Las	-10.0628
▁bom	-10.0635
▁chủng	-10.0636
▁mail	-10.0651
▁liệt	-10.0679
▁khoá	-10.0703
▁vé	-10.0709
▁Xe	-10.0731
▁Clinton	-10.075
▁đắn	-10.075
ent	-10.0789
▁Đườ	-10.0793
ha	-10.0815
▁lò	-10.0818
▁sàn	-10.0819
C	-10.0829
▁j	-10.0845
▁Quả	-10.0858
▁mỏi	-10.0868
ượt	-10.0871
▁Robert	-10.0936
ỷ	-10.0945
x	-10.096
▁non	-10.0963
,	-10.0979
▁Vegas	-10.1021
uần	-10.1027
bi	-10.1029
ar	-10.1033
▁trà	-10.1034
▁Nam	-10.1038
▁hổ	-10.1044
ét	-10.1049
▁mạc	-10.1066
▁Thủ	-10.1073
▁rãi	-10.1104
ation	-10.111
S	-10.1118
ử	-10.113
j	-10.1132
▁hoảng	-10.114
▁dâm	-10.1148
B	-10.1161
▁Angeles	-10.1164
▁Quá	-10.1179
▁KM	-10.1184
▁tròn	-10.1213
▁mạo	-10.1237
▁kém	-10.1248
▁Tiế	-10.1261
▁jamaica	-10.1261
rước	-10.1268
▁cống	-10.1271
▁golf	-10.1275
id	-10.1276
▁lành	-10.1283
ển	-10.1341
▁George	-10.1347
▁Lo	-10.1348
iêm	-10.1404
sa	-10.1415
A	-10.145
G	-10.1457
▁lặn	-10.1464
ness	-10.1469
▁túc	-10.1479
▁Cha	-10.1485
▁el	-10.1492
▁hùng	-10.15
▁nhắm	-10.1508
et	-10.1509
▁xó	-10.1515
res	-10.1517
▁rue	-10.152
▁Kông	-10.1546
▁Đá	-10.1548
▁thằn	-10.1558
▁21	-10.1575
▁ả	-10.1595
▁tv	-10.1655
▁tươi	-10.1664
▁trễ	-10.168
ke	-10.1692
Phân	-10.1692
ô	-10.1695
▁vâng	-10.17
huyền	-10.1708
▁nghiện	-10.1723
▁nàn	-10.1739
est	-10.1742
▁Bản	-10.1744
▁mùi	-10.1744
▁Thế	-10.1767
les	-10.1777
▁X	-10.1787
▁muộn	-10.1787
▁nhá	-10.1791
▁ngon	-10.1795
-2	-10.1799
▁thí	-10.1819
▁miệng	-10.1829
▁ngợ	-10.1877
ver	-10.1889
▁gợ	-10.1951
ard	-10.1951
▁kiên	-10.1958
ữ	-10.2013
▁Thá	-10.2025
ĩnh	-10.2028
▁le	-10.2028
ian	-10.2035
▁tụ	-10.2041
bo	-10.2048
▁tán	-10.206
▁kỵ	-10.2062
▁video	-10.2101
com	-10.2103
▁vinh	-10.2119
▁chặt	-10.2127
▁Liê	-10.2131
▁O	-10.2163
Hoặc	-10.2167
▁tràn	-10.2175
▁Lsc	-10.2181
▁ireland	-10.2182
▁kẹ	-10.2185
▁Thiên	-10.2196
▁đạp	-10.2208
Drew	-10.2221
▁sơn	-10.2229
ted	-10.2243
khen	-10.2245
▁Michael	-10.2275
▁điệu	-10.2277
li	-10.2291
▁thự	-10.2296
▁thiêng	-10.2297
hối	-10.2314
▁Quan	-10.2329
▁dave	-10.2333
hay	-10.2343
▁Đi	-10.2343
▁2002	-10.2357
▁dày	-10.2385
▁William	-10.2397
ỉnh	-10.2407
ơ	-10.2412
▁thép	-10.2463
▁lùng	-10.2479
1	-10.2491
ẻ	-10.2502
▁bá	-10.2506
lin	-10.2513
▁lão	-10.2527
▁tật	-10.2538
ll	-10.2542
▁Re	-10.2548
ish	-10.257
ệnh	-10.2571
▁tởm	-10.2577
▁mó	-10.2579
▁dạ	-10.2593
▁Hội	-10.2594
▁Thư	-10.2613
▁Khoản	-10.2621
▁scr	-10.2664
de	-10.2664
▁đống	-10.2668
▁cắp	-10.2671
▁kal	-10.2672
hanh	-10.2675
ay	-10.2679
▁bẩn	-10.2688
▁vuông	-10.2688
▁đùa	-10.2731
▁vả	-10.2748
▁rulemaking	-10.2759
▁xóm	-10.276
▁bê	-10.2763
▁cai	-10.2802
go	-10.2816
▁lô	-10.2849
▁thô	-10.2861
ga	-10.2887
▁Louis	-10.289
hẳng	-10.2891
▁hước	-10.2894
rường	-10.2907
0,000	-10.2911
▁drew	-10.2916
ls	-10.2918
▁táo	-10.293
▁hoà	-10.2959
▁gà	-10.2974
▁Times	-10.2974
▁am	-10.3021
▁tạ	-10.3025
▁Dù	-10.3072
▁hồn	-10.3072
ườn	-10.3074
ưỡng	-10.3081
ney	-10.3083
▁Hoa	-10.3085
▁giây	-10.3091
▁tung	-10.3127
▁địch	-10.3162
▁Poirot	-10.3164
▁quỷ	-10.3165
▁ngũ	-10.3169
▁pha	-10.3172
▁Thứ	-10.3196
ượng	-10.32
▁liền	-10.321
pa	-10.3261
▁Giê	-10.3268
▁hanson	-10.3268
ho	-10.3272
ir	-10.3281
ds	-10.3284
▁Bọ	-10.3285
▁dọn	-10.3298
▁po	-10.3312
▁Jane	-10.3313
▁rũ	-10.3315
▁lưỡi	-10.3317
▁lu	-10.3348
▁rắn	-10.3358
▁đuối	-10.3359
▁Ep	-10.3374
▁điêu	-10.3375
▁tô	-10.3379
▁vội	-10.3382
▁lưới	-10.3385
▁đậu	-10.3426
ghe	-10.3441
ker	-10.3449
▁del	-10.3459
▁Juliu	-10.3464
ghề	-10.348
que	-10.3487
▁gốm	-10.3494
▁đớn	-10.3495
▁lui	-10.35
▁buôn	-10.3524
▁kè	-10.3534
ts	-10.354
▁thác	-10.3546
▁Khá	-10.3552
H	-10.3569
▁đèn	-10.3572
▁Phụ	-10.3574
▁khoán	-10.3587
▁ghê	-10.3602
▁hindu	-10.3618
▁starr	-10.362
▁nháp	-10.3632
ler	-10.3637
▁mét	-10.3644
▁đồn	-10.3645
▁hưng	-10.3652
▁Hả	-10.366
iệp	-10.3671
erry	-10.3673
▁trù	-10.3674
ism	-10.3681
gi	-10.3686
▁tủ	-10.3691
▁mì	-10.371
▁Đa	-10.3733
▁voi	-10.3741
ái	-10.3771
▁Cuba	-10.3773
▁tặng	-10.3788
▁fgd	-10.3788
▁mò	-10.3794
▁giấ	-10.3796
ist	-10.3806
ting	-10.3811
▁trứng	-10.382
▁80	-10.383
▁Đế	-10.3834
▁bông	-10.3836
▁đâm	-10.3857
▁chày	-10.3884
ẹp	-10.3888
▁grantees	-10.3903
▁mar	-10.3928
▁su	-10.3933
▁ngọt	-10.3947
▁đương	-10.398
ally	-10.3982
ina	-10.3996
▁bono	-10.403
L	-10.4043
▁vang	-10.4064
▁fa	-10.4073
▁gián	-10.4075
▁lều	-10.4079
▁lẫn	-10.4081
▁Hò	-10.4093
▁cio	-10.4102
▁dublin	-10.4124
the	-10.4124
▁200	-10.4134
▁bì	-10.4149
ron	-10.4174
▁ko	-10.4176
▁than	-10.4179
éo	-10.4202
▁se	-10.4205
▁gàng	-10.4208
▁medicare	-10.4222
▁ngực	-10.4245
uồng	-10.428
▁đón	-10.4303
▁90	-10.4305
ale	-10.4321
▁hi	-10.4321
▁thầu	-10.4324
▁madeira	-10.4337
▁dốc	-10.4341
▁cộ	-10.4342
▁lũy	-10.4346
▁be	-10.4349
▁Cò	-10.4356
▁kem	-10.4357
▁Thu	-10.4379
ua	-10.4383
▁pe	-10.4389
▁ham	-10.4398
▁say	-10.4416
▁1994	-10.4421
▁cáp	-10.4425
▁rửa	-10.4437
ry	-10.4439
▁Tin	-10.4473
▁rỗng	-10.4488
▁Xin	-10.4491
▁Hollywood	-10.4505
da	-10.4505
▁Chủ	-10.451
▁gore	-10.4516
iên	-10.454
▁ngoạn	-10.4542
▁xăng	-10.4572
ns	-10.4576
ý	-10.4577
▁man	-10.4583
▁chuột	-10.459
▁rau	-10.4604
▁mù	-10.4608
▁sh	-10.4609
▁Bố	-10.462
▁bù	-10.4641
ork	-10.4658
▁vốn	-10.4659
▁mũi	-10.4665
ại	-10.4672
ải	-10.4732
▁cong	-10.4766
▁viế	-10.4776
▁chu	-10.478
ville	-10.4798
▁hề	-10.4831
▁xí	-10.4836
▁trăng	-10.4855
▁Carter	-10.4866
▁gothic	-10.4866
▁ngơ	-10.4887
able	-10.4902
▁Dự	-10.4915
se	-10.4937
ết	-10.4941
▁hư	-10.4944
▁ơi	-10.4968
▁dương	-10.4987
▁mạn	-10.4994
▁vắn	-10.5006
ũng	-10.5015
ris	-10.5019
tz	-10.5032
▁Paul	-10.504
▁he	-10.5041
do	-10.5042
▁va	-10.5052
az	-10.5053
▁Richard	-10.506
ee	-10.508
▁brown	-10.5096
▁70	-10.51
ững	-10.5102
é	-10.5107
I	-10.5128
▁Yê	-10.5128
▁gdp	-10.5132
▁tò	-10.5136
▁mạch	-10.5137
▁edinburgh	-10.5149
▁dò	-10.5169
▁nhị	-10.5178
▁1980	-10.5186
▁mo	-10.5193
▁500	-10.5193
▁ướt	-10.5222
▁xé	-10.5241
▁Bush	-10.5241
▁đấ	-10.5246
nox	-10.5253
za	-10.5254
▁Cung	-10.5263
▁Má	-10.5269
ah	-10.5279
ock	-10.5279
▁nhạt	-10.5303
ner	-10.5305
▁xám	-10.5305
▁Al	-10.531
ny	-10.5319
ino	-10.5335
▁lướ	-10.5342
▁cừu	-10.5349
dy	-10.5353
tra	-10.5367
▁xương	-10.5385
▁chuông	-10.5389
ion	-10.541
▁phu	-10.5449
▁bia	-10.5499
▁Microsoft	-10.5515
▁cồn	-10.5516
▁susan	-10.5516
▁john	-10.5522
▁tước	-10.5535
ủa	-10.5542
rs	-10.5563
uyện	-10.5571
led	-10.5592
ell	-10.5595
▁cuộn	-10.561
▁na	-10.5615
ling	-10.5616
▁vá	-10.562
ps	-10.5641
ty	-10.565
▁mắc	-10.5687
▁thói	-10.5687
berg	-10.57
▁rào	-10.5716
▁radio	-10.5724
ck	-10.573
ara	-10.5762
ria	-10.5763
▁hoại	-10.5787
▁giam	-10.5803
▁24	-10.5823
Tốt	-10.5839
tic	-10.5842
ẫ	-10.5848
ab	-10.5851
▁Madri	-10.5858
▁bụng	-10.5859
ek	-10.5862
▁bó	-10.5892
00	-10.5913
▁xỉ	-10.5922
▁mưu	-10.5931
▁kiệt	-10.596
3	-10.5992
▁nho	-10.6016
bu	-10.6022
▁De	-10.6044
▁chấ	-10.6053
ựa	-10.6053
▁trộn	-10.6056
io	-10.6056
rẽ	-10.6069
▁mượn	-10.6073
▁1993	-10.6074
chi	-10.6081
▁La	-10.6098
wa	-10.6101
▁thorn	-10.6117
axit	-10.6135
ant	-10.6147
ze	-10.6174
▁heo	-10.6189
▁trọ	-10.6195
hi	-10.6214
ge	-10.6216
▁Florida	-10.6232
▁george	-10.6232
▁ngầm	-10.6236
rad	-10.624
úp	-10.6261
▁Á	-10.6269
▁miếng	-10.6274
end	-10.6275
▁Hàn	-10.6276
▁washington	-10.6292
▁muối	-10.6293
▁trói	-10.6295
▁22	-10.6298
lu	-10.6301
▁tú	-10.6317
▁ven	-10.6323
ếc	-10.6332
ous	-10.6341
▁Santa	-10.6377
avendish	-10.6382
ana	-10.6385
răng	-10.6386
▁newsweek	-10.6394
▁Ban	-10.6419
▁ủ	-10.6435
va	-10.6471
iếu	-10.6476
▁Ơ	-10.6488
ới	-10.6493
▁gấu	-10.6502
▁Hó	-10.6505
▁pi	-10.6513
we	-10.6529
D	-10.6534
áy	-10.6547
▁Em	-10.6554
▁z	-10.6554
hiếp	-10.6571
ick	-10.6578
▁Về	-10.658
▁nạ	-10.6582
der	-10.6585
▁khát	-10.6617
ey	-10.6621
▁Dương	-10.6626
▁Tu	-10.6627
ot	-10.6627
he	-10.6663
▁ka	-10.6677
▁béo	-10.668
▁ibiza	-10.6683
▁Dave	-10.6685
▁thà	-10.6699
▁Căn	-10.6704
▁Kiể	-10.6707
ưỡi	-10.6749
▁taxi	-10.6769
E	-10.6769
▁Mà	-10.6782
qu	-10.6782
be	-10.6784
▁sốc	-10.6802
ins	-10.6812
ten	-10.6832
ier	-10.684
per	-10.6843
▁Bob	-10.6849
▁ben	-10.6857
▁Â	-10.6863
▁ngục	-10.6875
▁Du	-10.6886
ren	-10.6899
▁suố	-10.6912
ies	-10.6938
▁bill	-10.695
▁mexico	-10.6982
▁vandemeyer	-10.6982
▁sốt	-10.6983
old	-10.702
▁bo	-10.7021
▁Peter	-10.7025
ary	-10.7028
12	-10.7046
▁Cá	-10.7057
▁chợ	-10.7063
▁long	-10.7066
▁Đến	-10.7082
mon	-10.709
▁Le	-10.7112
▁ottoman	-10.7112
ex	-10.7114
uỗi	-10.7127
▁lăn	-10.7134
▁iii	-10.7153
▁sub	-10.717
▁tuệ	-10.7183
ko	-10.7197
▁1960	-10.7224
hận	-10.7247
▁van	-10.7263
▁cap	-10.7265
▁Daniel	-10.7267
▁lewinsky	-10.7267
▁khán	-10.7277
ph	-10.7283
▁27	-10.729
▁ngộ	-10.7291
▁Xu	-10.73
ơn	-10.731
▁bề	-10.7334
che	-10.736
▁An	-10.7409
fi	-10.7419
▁Mexico	-10.7424
▁Chicago	-10.7425
▁Ar	-10.7435
gh	-10.7446
▁colorado	-10.7446
▁2010	-10.7448
▁Âu	-10.7478
▁Mô	-10.7512
▁Canada	-10.7516
▁Malaysia	-10.7517
▁31	-10.7536
▁cay	-10.7544
ku	-10.7559
▁sô	-10.7573
▁Thiế	-10.7575
▁chìm	-10.7578
uze	-10.7612
▁hall	-10.7655
V	-10.7677
cia	-10.7683
▁Bill	-10.7683
▁ha	-10.7684
ũ	-10.7687
▁tông	-10.7688
▁mây	-10.7707
▁don	-10.7714
0	-10.7714
▁vẹ	-10.7729
▁ozone	-10.7745
ỗ	-10.7764
▁vờ	-10.7765
▁phẳng	-10.777
▁lận	-10.7776
▁Mù	-10.7782
▁tị	-10.7783
▁Ra	-10.7792
▁Y	-10.7814
▁Francis	-10.7815
▁Henry	-10.7816
▁manh	-10.7823
▁gũi	-10.7839
▁xi	-10.7841
ó	-10.7844
▁xoay	-10.7845
▁mòn	-10.785
34	-10.7851
▁thề	-10.7888
▁len	-10.7905
fer	-10.7906
ari	-10.7908
▁hụt	-10.791
▁cỡ	-10.7918
▁trộm	-10.7934
▁grant	-10.7947
▁chua	-10.7958
▁1970	-10.7959
▁mi	-10.7964
▁Newsweek	-10.7981
▁chai	-10.7983
ruyền	-10.7986
▁nhũng	-10.7988
▁aci	-10.8
▁nhục	-10.8011
▁thỉu	-10.8029
▁rennie	-10.8031
▁Đị	-10.8036
▁ex	-10.8039
ment	-10.8039
ists	-10.8058
▁wall	-10.8066
rổ	-10.807
▁gỡ	-10.8071
ingly	-10.8101
ub	-10.8102
▁hung	-10.8114
ịp	-10.8116
▁1992	-10.8127
▁ja	-10.8132
ix	-10.8133
50	-10.8154
▁lồng	-10.8166
P	-10.8189
▁per	-10.8198
▁grand	-10.8212
7	-10.8212
▁uy	-10.8222
gác	-10.8223
▁cản	-10.8234
▁www	-10.8248
▁Kal	-10.8254
ola	-10.8259
▁pr	-10.8266
sey	-10.827
▁nhún	-10.8277
ủ	-10.8278
▁26	-10.8284
▁Sử	-10.8287
▁Cộ	-10.8297
▁Johnson	-10.8326
bra	-10.8358
ada	-10.8359
ein	-10.8361
ff	-10.8364
han	-10.8366
▁neo	-10.8367
R	-10.8368
▁Di	-10.8369
▁email	-10.8372
▁cazar	-10.8375
ons	-10.8387
Mail	-10.8415
jo	-10.8435
▁Brown	-10.8446
▁ổ	-10.8449
ster	-10.8453
ica	-10.8458
fe	-10.8459
▁howard	-10.8473
▁Lan	-10.8488
ja	-10.8494
▁nile	-10.8497
ford	-10.8538
▁xế	-10.8539
▁surpluses	-10.8547
▁pop	-10.8551
è	-10.8553
▁Thomas	-10.8572
▁bỉ	-10.8576
ira	-10.8587
▁chiên	-10.8614
▁diệu	-10.8654
less	-10.8661
▁pre	-10.8666
▁Slate	-10.8675
gan	-10.8676
app	-10.8684
▁lẻ	-10.8685
ư	-10.8715
▁palest	-10.8725
uỳ	-10.8726
tion	-10.8734
gar	-10.8747
▁ngoan	-10.8777
▁dỗ	-10.8811
▁sò	-10.8814
gục	-10.8822
▁Tác	-10.8825
▁St	-10.8826
▁Hay	-10.8831
▁chăn	-10.8881
▁plaza	-10.8881
ome	-10.8886
▁hãng	-10.889
▁tia	-10.8896
▁Johnny	-10.8909
uộc	-10.8909
▁sữa	-10.8914
▁gra	-10.8914
▁tiế	-10.892
▁võ	-10.8922
▁lợ	-10.8933
iểm	-10.8946
men	-10.8952
▁London	-10.896
▁ao	-10.8964
tor	-10.8969
ind	-10.898
ji	-10.8985
▁PHÍ	-10.8986
▁monica	-10.8986
dd	-10.8992
▁bịch	-10.8997
▁23	-10.9001
▁car	-10.9005
ate	-10.9017
▁ừ	-10.9021
▁rỡ	-10.9025
▁Hanso	-10.9033
▁Mẹ	-10.9038
▁300	-10.9044
ez	-10.9057
ice	-10.9057
O	-10.9069
▁lincoln	-10.9071
▁El	-10.9072
oàn	-10.9074
cho	-10.9087
▁ngặt	-10.9092
▁cal	-10.9108
▁fan	-10.9117
ings	-10.9122
ates	-10.9123
▁hủ	-10.9158
▁Ro	-10.918
▁song	-10.9188
Li	-10.9193
▁loa	-10.9208
▁inter	-10.9239
mar	-10.9258
arf	-10.9262
lace	-10.9267
ếm	-10.928
▁maryland	-10.9281
ổ	-10.9285
lan	-10.9302
75	-10.9312
▁cynthia	-10.9315
▁Đà	-10.9327
▁ac	-10.9329
▁bradley	-10.9335
▁khớp	-10.9337
De	-10.9352
met	-10.9363
ếu	-10.9383
6	-10.9419
▁khôn	-10.9422
á	-10.9424
▁đệ	-10.9437
▁fo	-10.9438
▁tựu	-10.944
tro	-10.9452
of	-10.9453
Tháng	-10.9456
aki	-10.9458
▁Lợ	-10.9476
K	-10.9485
▁sather	-10.9502
▁bắp	-10.9503
▁par	-10.9506
▁rock	-10.9521
99	-10.9525
ral	-10.9528
▁Khả	-10.9554
9	-10.9558
▁anse	-10.9565
ade	-10.9579
MI	-10.958
▁28	-10.9598
nic	-10.96
hìn	-10.9602
▁Ben	-10.9615
▁Kh	-10.9618
ef	-10.9628
▁35	-10.965
▁gối	-10.966
4	-10.9669
▁pat	-10.9673
pur	-10.9673
15	-10.9675
one	-10.9677
▁irs	-10.9679
5	-10.9687
10	-10.9699
▁xạ	-10.9705
▁off	-10.9705
Đ	-10.9712
ố	-10.9715
hs	-10.9717
▁lân	-10.9723
62	-10.9726
▁nhặ	-10.9726
▁nản	-10.9726
ea	-10.9735
▁crose	-10.9746
au	-10.9746
uk	-10.9748
Ễ	-10.9755
▁Smith	-10.9755
▁Sĩ	-10.9757
ung	-10.9771
▁tỉ	-10.9791
▁rose	-10.9798
ưởng	-10.9801
ob	-10.9812
▁Bị	-10.9816
▁tokyo	-10.9823
rose	-10.9827
▁ok	-10.9837
side	-10.985
▁phú	-10.986
att	-10.9862
38	-10.9866
off	-10.9917
Ch	-10.9921
▁Ước	-10.9927
▁ló	-10.9934
▁nộp	-10.9959
▁hẻm	-10.9965
kes	-10.9972
▁no	-10.9972
▁Vị	-10.9979
▁boilermaker	-10.9985
▁nhờ	-11
ide	-11.0007
▁Susan	-11.0015
▁Hoàn	-11.0018
▁gre	-11.0036
▁Finn	-11.0044
den	-11.0046
▁ngào	-11.0056
▁miện	-11.0057
82	-11.0058
let	-11.0069
▁muse	-11.008
49	-11.0081
▁nhóc	-11.0081
râu	-11.0087
▁cnn	-11.0091
▁tennis	-11.0112
▁Pho	-11.0118
ki	-11.0125
▁Lu	-11.0126
hấp	-11.0137
by	-11.015
ite	-11.0154
ao	-11.0156
wood	-11.0162
ala	-11.0163
ico	-11.0174
▁lọ	-11.0186
▁Thorn	-11.0193
▁Alexand	-11.0217
gậy	-11.0222
▁Giọ	-11.0222
tri	-11.0224
ạt	-11.0228
▁tem	-11.0238
▁rung	-11.0259
sis	-11.0267
ax	-11.0278
▁Giữ	-11.0283
▁nixon	-11.0288
à	-11.0312
▁Albert	-11.0312
ềm	-11.0356
▁sp	-11.0362
▁cr	-11.0366
▁et	-11.037
▁jean	-11.0376
▁nhãn	-11.0379
▁ST	-11.0402
▁baroque	-11.0403
▁1950	-11.0405
▁75	-11.041
Giấy	-11.0423
▁U	-11.0428
▁whittington	-11.0434
▁Charles	-11.0434
▁cios	-11.0436
▁cuồng	-11.0455
ye	-11.0461
▁street	-11.0464
ise	-11.0471
▁Nhiệ	-11.0472
ớ	-11.0483
▁attestation	-11.0495
▁dâu	-11.0497
▁lũ	-11.05
ox	-11.0518
▁lam	-11.0531
▁rô	-11.0535
nia	-11.0536
▁Ha	-11.0544
ov	-11.055
age	-11.055
▁puert	-11.0556
▁wal	-11.056
ord	-11.0561
▁cairo	-11.059
▁khoan	-11.0593
incoln	-11.0612
▁khốn	-11.0613
hêm	-11.0633
▁vớ	-11.0645
ỳ	-11.0647
▁indiana	-11.0649
▁kyoto	-11.065
▁Mark	-11.0656
iệm	-11.0661
_	-11.0681
▁cỗ	-11.0684
hannon	-11.0689
▁sha	-11.0711
▁aegean	-11.0712
▁franklin	-11.0712
ated	-11.0718
ester	-11.072
▁29	-11.0734
rc	-11.0738
▁israel	-11.0743
▁plano	-11.0743
▁lê	-11.0759
▁rò	-11.0766
▁dis	-11.0766
ida	-11.0768
▁mac	-11.0772
▁caribbean	-11.0775
rus	-11.0779
-1	-11.078
Đồng	-11.0807
▁Gre	-11.0809
tan	-11.082
▁red	-11.0828
awrence	-11.0834
▁Hawai	-11.0838
▁reagan	-11.0838
▁buồ	-11.0846
▁pp	-11.0853
cotland	-11.0859
rill	-11.0864
ble	-11.0865
▁vôi	-11.0869
out	-11.0904
▁over	-11.0906
41	-11.0915
▁Co	-11.0936
lock	-11.0944
nes	-11.0944
▁quê	-11.0949
89	-11.095
ese	-11.0959
▁Houston	-11.0966
▁rồng	-11.0966
98	-11.097
▁lụt	-11.0999
▁mor	-11.1001
cy	-11.1003
▁đới	-11.1005
bell	-11.1006
▁bát	-11.1023
▁Carolina	-11.1031
all	-11.1032
ans	-11.104
▁dàn	-11.1057
40	-11.1057
eth	-11.1064
▁Vịnh	-11.1074
▁So	-11.1079
war	-11.1087
▁har	-11.1107
60	-11.1113
▁diễ	-11.1122
▁alfred	-11.113
▁gop	-11.1131
▁ngư	-11.1139
sen	-11.1156
▁Veni	-11.1166
eo	-11.1171
▁tom	-11.118
▁Cửa	-11.1194
con	-11.1197
▁phế	-11.1223
▁james	-11.1227
ửi	-11.123
▁net	-11.1236
▁bye	-11.1274
▁ju	-11.1275
46	-11.1278
way	-11.1291
raq	-11.1297
▁chị	-11.1301
▁napoleon	-11.1303
▁fena	-11.1304
64	-11.1306
▁me	-11.1307
ors	-11.1337
▁inc	-11.1343
ula	-11.1346
iệu	-11.1349
▁hở	-11.1353
shu	-11.1355
▁guadeloupe	-11.136
▁gpra	-11.1361
▁ibm	-11.1361
àu	-11.1366
ike	-11.1375
dan	-11.1376
▁khuy	-11.1387
ence	-11.1391
▁lụa	-11.1394
▁Loại	-11.1395
▁Pe	-11.1424
zi	-11.1427
66	-11.1443
ano	-11.1454
▁serbia	-11.1461
▁Úc	-11.1462
ive	-11.1475
ssi	-11.1478
q	-11.1484
▁virginia	-11.1499
ash	-11.1518
17	-11.1521
red	-11.1523
fully	-11.1532
▁muss	-11.1534
ther	-11.1547
hel	-11.1548
▁cưng	-11.1555
▁Xi	-11.1557
▁post	-11.156
ore	-11.1563
▁nứt	-11.1564
▁funchal	-11.1564
vis	-11.1578
▁củ	-11.1584
ear	-11.1589
í	-11.159
▁kentucky	-11.1598
▁palazzo	-11.1598
▁Mo	-11.1599
ber	-11.1607
▁ar	-11.1609
▁1,000	-11.1614
▁Bar	-11.1626
▁kosovo	-11.1632
ized	-11.1641
up	-11.1652
hức	-11.1668
▁sec	-11.1672
fl	-11.1695
microsoft	-11.1701
gate	-11.1713
br	-11.1716
▁TV	-11.1722
▁run	-11.173
▁sultan	-11.1736
▁Jackson	-11.1736
▁nhé	-11.1737
55	-11.175
sse	-11.1757
ric	-11.1761
▁pizza	-11.1771
▁hoãn	-11.1773
▁album	-11.1776
rey	-11.1794
eau	-11.1796
▁CEO	-11.1806
▁sina	-11.1812
▁Ngọ	-11.1816
88	-11.1819
▁mwe	-11.182
ity	-11.1821
house	-11.1828
▁sỉ	-11.1841
▁Monica	-11.1841
▁For	-11.1841
▁opera	-11.1846
▁Ka	-11.1853
01	-11.1863
ations	-11.1865
art	-11.1867
▁palais	-11.1876
▁só	-11.1876
▁sen	-11.1887
▁rủa	-11.1891
bel	-11.1896
30	-11.1906
▁sồi	-11.1911
▁thèm	-11.1911
▁Boston	-11.1911
je	-11.1912
▁45	-11.1919
▁Bo	-11.1927
▁ge	-11.1934
ham	-11.1945
▁kirby	-11.1947
▁lườ	-11.1958
▁derry	-11.1964
crete	-11.1968
ire	-11.1968
▁comp	-11.1977
ghệ	-11.201
▁nở	-11.2013
erman	-11.2055
▁charles	-11.2059
▁vrenna	-11.2059
▁Mon	-11.2067
▁gu	-11.207
59	-11.2076
25	-11.2086
▁Martin	-11.2086
▁Steve	-11.2086
dame	-11.2089
kin	-11.2093
▁lật	-11.2098
▁bơm	-11.2108
work	-11.2113
19	-11.2124
▁vẩn	-11.2126
donna	-11.2128
▁Chà	-11.2136
▁Biên	-11.2145
▁monte	-11.2146
ế	-11.2147
ìm	-11.2148
▁bỏng	-11.215
▁white	-11.2169
▁nato	-11.2172
▁bu	-11.2186
ita	-11.2193
▁martinique	-11.2199
oạn	-11.223
▁cạn	-11.2239
▁Bờ	-11.2242
ges	-11.2266
bes	-11.2271
Dựa	-11.2274
▁Nữ	-11.2278
ỹ	-11.2291
val	-11.2297
▁150	-11.2299
▁Sh	-11.2304
▁10,000	-11.2307
▁retrofit	-11.2309
▁kennedy	-11.2309
▁jones	-11.2321
▁ad	-11.2322
omo	-11.2324
ini	-11.2331
14	-11.2372
arao	-11.2372
▁bấ	-11.2377
▁Pa	-11.2383
tes	-11.2387
los	-11.2391
arry	-11.2394
bar	-11.2418
▁notre	-11.242
▁illinois	-11.242
▁thoáng	-11.2425
▁chay	-11.2432
Th	-11.2443
tre	-11.2456
▁chuối	-11.2458
▁rè	-11.246
73	-11.2464
85	-11.2469
dale	-11.2476
hốt	-11.2477
▁mont	-11.2479
▁pm	-11.2484
bert	-11.2488
▁nút	-11.2496
▁Hy	-11.2498
56	-11.25
▁Cà	-11.25
20	-11.2506
▁pin	-11.251
lit	-11.2515
▁cavendish	-11.2517
▁Kim	-11.2518
07	-11.2521
▁lề	-11.2526
▁lội	-11.2528
shire	-11.2533
▁pan	-11.2533
▁sch	-11.2535
70	-11.255
11	-11.2555
ft	-11.2563
▁col	-11.2566
▁May	-11.2573
▁workshar	-11.2579
sburg	-11.2584
ago	-11.2586
ùi	-11.2599
tha	-11.2599
▁lộn	-11.2606
▁Vi	-11.2611
▁gen	-11.2613
ốc	-11.2619
ette	-11.2653
las	-11.2654
▁canh	-11.2669
▁ru	-11.2671
93	-11.2675
▁Atlanta	-11.2684
▁2,000	-11.2692
oro	-11.2701
ony	-11.2708
goại	-11.2713
ượu	-11.2718
ami	-11.2733
▁Bác	-11.2738
▁ôm	-11.2742
▁rù	-11.2748
▁sam	-11.276
Uh	-11.2762
tel	-11.2762
wtp	-11.2763
apoleon	-11.2788
lyn	-11.28
ười	-11.2803
aga	-11.2819
▁inch	-11.282
▁green	-11.2826
▁eo	-11.2861
▁mc	-11.2868
53	-11.2874
▁Quần	-11.2877
olo	-11.2879
ace	-11.2887
ped	-11.2888
▁ốc	-11.289
var	-11.2892
▁jane	-11.2898
low	-11.2903
▁dc	-11.2903
▁ab	-11.2906
hu	-11.2921
▁xà	-11.2923
F	-11.2925
car	-11.2928
▁khâu	-11.2932
63	-11.2938
▁Ho	-11.2941
ras	-11.2954
▁Vandemeyer	-11.2955
ata	-11.2956
▁Kiế	-11.2967
ros	-11.2983
▁nề	-11.2988
▁jazz	-11.2995
▁Z	-11.2997
▁Xa	-11.3001
gov	-11.3011
95	-11.3014
ean	-11.3017
ys	-11.3029
renna	-11.303
▁shiloh	-11.3037
ical	-11.3037
▁mu	-11.3046
90	-11.3071
rm	-11.3074
cal	-11.3083
▁Don	-11.3099
ảnh	-11.3113
▁IV	-11.3114
▁1989	-11.3116
▁visa	-11.3124
mos	-11.3152
▁frank	-11.3154
▁Jesu	-11.3154
▁Fd	-11.3156
02	-11.3169
rt	-11.3171
bc	-11.3179
▁nạp	-11.3186
▁mỡ	-11.3192
94	-11.3197
▁Tiến	-11.3216
iếm	-11.3226
▁Phá	-11.3245
▁buchanan	-11.325
▁Mc	-11.3259
cha	-11.3271
▁Jordan	-11.3275
▁gagas	-11.3275
▁khói	-11.3283
rio	-11.3287
eli	-11.3293
▁Xá	-11.3313
avana	-11.3316
▁nhộn	-11.3316
▁malay	-11.3327
16	-11.3328
▁1991	-11.333
fr	-11.3345
ily	-11.3346
▁Internet	-11.3356
Một	-11.3361
▁Cổ	-11.3377
▁saint	-11.3392
oma	-11.3404
78	-11.3425
▁nghiêng	-11.3428
▁rưởi	-11.3438
stone	-11.3439
▁Hạ	-11.3441
ene	-11.3449
huế	-11.3479
▁kathmandu	-11.3479
▁pennsylvania	-11.3479
▁Chia	-11.3493
▁Lê	-11.3499
eck	-11.35
▁400	-11.3518
▁Simon	-11.3521
▁delhi	-11.3522
▁lánh	-11.3522
▁rico	-11.353
W	-11.3531
91	-11.3535
72	-11.3537
▁Kit	-11.3542
▁nai	-11.3552
huyện	-11.3559
ue	-11.3559
▁hillary	-11.3563
▁Kem	-11.3563
use	-11.3563
▁32	-11.3569
▁Phi	-11.3595
▁2020	-11.3596
▁kg	-11.3601
▁Steven	-11.3609
zo	-11.361
▁jer	-11.3613
68	-11.3615
pas	-11.363
▁Hill	-11.3631
row	-11.3633
form	-11.3643
▁Disney	-11.3646
field	-11.3647
sky	-11.3651
▁đoan	-11.3653
▁sảo	-11.3667
▁Qua	-11.3667
ston	-11.367
ello	-11.3672
well	-11.3684
▁dorca	-11.3689
▁fda	-11.3692
▁33	-11.3693
▁pont	-11.3693
▁Sáu	-11.3693
▁khỉ	-11.3699
▁Lee	-11.3709
itt	-11.3709
92	-11.3713
▁news	-11.372
gen	-11.3722
▁Ga	-11.3727
ack	-11.3729
cr	-11.3732
ming	-11.3733
lli	-11.3734
▁mon	-11.3737
▁norman	-11.3739
àn	-11.3751
mann	-11.377
.-	-11.377
77	-11.3783
ines	-11.3785
ois	-11.3794
ổi	-11.3804
▁65	-11.3813
▁gar	-11.3816
federal	-11.382
▁tôm	-11.3828
dj	-11.383
-3	-11.3837
▁fed	-11.384
ướp	-11.3847
ưng	-11.3853
▁Macau	-11.3859
▁scandal	-11.3859
36	-11.3863
har	-11.3874
24	-11.3875
▁Slim	-11.3902
▁ramse	-11.3905
▁sandy	-11.3905
rum	-11.3908
▁liêu	-11.3908
org	-11.3913
▁ku	-11.3922
▁ri	-11.3946
▁venetian	-11.3947
▁lột	-11.3948
▁đuôi	-11.3955
▁Hiể	-11.396
zar	-11.3964
ú	-11.3966
ilan	-11.3974
▁kan	-11.3981
▁ghen	-11.3984
cfa	-11.3985
hol	-11.3985
▁bồn	-11.3989
▁mccain	-11.3989
▁Sá	-11.3992
iro	-11.3999
74	-11.4005
▁mini	-11.4019
rick	-11.403
đ	-11.4035
08	-11.4037
ks	-11.404
1.2	-11.4049
hớp	-11.406
▁louisian	-11.4077
▁michelangelo	-11.4078
▁100,000	-11.4079
tions	-11.4083
▁au	-11.4086
▁spa	-11.4099
avis	-11.4111
iến	-11.4111
line	-11.4114
hiếu	-11.4118
▁giêng	-11.4121
▁bền	-11.4125
03	-11.4127
▁gal	-11.4136
▁chùa	-11.4167
úa	-11.4195
itler	-11.4204
▁mộng	-11.4208
▁medicaid	-11.421
rk	-11.4219
▁min	-11.4238
96	-11.4242
▁2005	-11.4256
3,000	-11.4257
▁hổng	-11.426
xor	-11.4279
▁Natali	-11.4299
▁stark	-11.43
ạn	-11.4308
aux	-11.431
▁anti	-11.4317
▁tí	-11.432
80	-11.4323
▁Ah	-11.4337
▁Stephen	-11.4344
▁hersheimmer	-11.4344
auve	-11.4358
52	-11.4359
▁rợ	-11.4361
▁fr	-11.437
▁Trư	-11.4371
▁hàn	-11.4382
▁Osaka	-11.4389
▁missouri	-11.4389
▁ohio	-11.4392
▁600	-11.4394
des	-11.4403
▁lau	-11.4407
erth	-11.4424
tin	-11.4427
▁Ans	-11.4433
▁dốt	-11.4435
▁Kennedy	-11.4435
town	-11.444
▁workp	-11.4452
▁dẻ	-11.4459
ynthia	-11.4468
vas	-11.4469
▁Pro	-11.4469
bs	-11.447
anne	-11.4479
▁hố	-11.4479
▁latin	-11.4488
▁mẹo	-11.4491
▁hiên	-11.4494
▁Jones	-11.45
▁cốc	-11.4507
▁Car	-11.4511
▁36	-11.4513
ess	-11.4513
▁gas	-11.4513
ura	-11.4518
pl	-11.4526
▁multi	-11.4528
▁aicpa	-11.453
fu	-11.453
84	-11.4535
▁xá	-11.4554
▁Lá	-11.4559
ski	-11.456
ere	-11.456
mir	-11.4567
▁rep	-11.4568
▁mập	-11.4572
▁romanesque	-11.4572
▁massachusett	-11.4573
▁sadda	-11.4581
jami	-11.4587
▁Gate	-11.4592
hạm	-11.4593
oward	-11.4595
een	-11.4603
▁kẹo	-11.462
ella	-11.462
▁00	-11.4622
▁kề	-11.4632
hạy	-11.464
▁Thánh	-11.4643
èo	-11.4681
▁800	-11.4682
51	-11.4689
▁ev	-11.4697
▁châm	-11.471
▁Antonio	-11.4712
▁nuốt	-11.4719
▁dim	-11.4735
pache	-11.4741
uốn	-11.4742
▁bùn	-11.4758
key	-11.4758
▁fc	-11.4763
Phát	-11.4765
▁nhọ	-11.4766
áng	-11.4766
▁Jim	-11.4788
8	-11.4804
▁37	-11.4806
tterbox	-11.4806
poli	-11.4811
▁Lawrence	-11.4812
▁Ir	-11.4816
54	-11.4822
Ba	-11.4833
▁95	-11.4839
hử	-11.4852
die	-11.4861
▁pu	-11.4863
ux	-11.4865
▁vs	-11.4865
▁rem	-11.4867
▁nấ	-11.4868
ws	-11.4892
▁gr	-11.4896
ered	-11.4896
ennie	-11.4897
ward	-11.4897
▁Trả	-11.4899
ote	-11.49
▁Ghi	-11.4901
▁piano	-11.4902
▁rìu	-11.4905
▁dán	-11.4907
35	-11.4922
▁hã	-11.4927
86	-11.4934
ded	-11.4935
▁mailer	-11.4936
phis	-11.4947
▁natali	-11.4949
▁carbon	-11.4949
13	-11.4949
▁super	-11.495
▁santa	-11.4956
rách	-11.4958
nos	-11.4961
▁pol	-11.4971
▁Khoa	-11.4972
76	-11.4976
31	-11.4985
▁Red	-11.4987
▁nit	-11.5003
▁Quyế	-11.5006
▁Trừ	-11.5008
ight	-11.5028
reland	-11.503
▁thiế	-11.5049
▁Phó	-11.505
▁Đôn	-11.505
▁xướ	-11.5051
riển	-11.5056
ook	-11.5059
▁Un	-11.5085
▁gai	-11.5091
▁Nepal	-11.5094
▁nema	-11.5094
wide	-11.5094
▁phổi	-11.5124
▁Park	-11.5131
▁sọ	-11.5143
▁morris	-11.5147
rop	-11.5156
non	-11.5157
ree	-11.516
ider	-11.5166
29	-11.5172
▁Bàn	-11.5175
44	-11.5176
aff	-11.5176
▁hoan	-11.5178
sar	-11.5181
▁Ru	-11.5183
▁ngà	-11.5192
market	-11.5193
▁antoni	-11.5193
▁múa	-11.5201
06	-11.5209
▁pass	-11.5234
▁hamp	-11.524
▁Singapore	-11.5241
▁fee	-11.5248
lis	-11.5249
21	-11.5255
ãng	-11.5258
▁Vượ	-11.5261
úi	-11.5278
wo	-11.5282
▁Ne	-11.5289
▁dê	-11.5295
ato	-11.5297
wick	-11.5302
ustin	-11.5306
ure	-11.5307
ovak	-11.5317
lor	-11.5318
irginia	-11.5335
kansas	-11.534
▁kurd	-11.5342
back	-11.5345
▁jr	-11.5348
▁đỗ	-11.5349
▁poll	-11.535
▁fy	-11.5363
▁shiva	-11.539
▁aerobics	-11.5392
▁má	-11.5395
▁Per	-11.5413
▁Bó	-11.5413
▁bowl	-11.5422
▁ngụ	-11.5424
ets	-11.5424
▁men	-11.5441
▁boris	-11.5442
▁Bán	-11.545
ane	-11.5457
book	-11.5464
▁gaul	-11.5471
▁smith	-11.5491
▁grani	-11.5497
ợp	-11.55
▁wil	-11.5519
48	-11.5528
▁mid	-11.553
ame	-11.5538
▁Frank	-11.5541
▁Franklin	-11.5542
▁Iraq	-11.5542
▁39	-11.5544
26	-11.5546
scape	-11.5548
▁Hu	-11.5553
more	-11.5559
28	-11.5579
bas	-11.558
▁leonard	-11.5594
rec	-11.5595
▁vã	-11.5597
▁Green	-11.5598
lorence	-11.5598
-01	-11.5613
illy	-11.5617
Q	-11.5624
▁mela	-11.5632
▁lé	-11.5635
87	-11.5637
sad	-11.5648
Cô	-11.5656
▁gold	-11.566
loo	-11.5669
▁phô	-11.5671
ohen	-11.5675
▁gsa	-11.5678
ky	-11.5692
▁hiếp	-11.5697
▁1920	-11.5698
▁Tay	-11.5702
▁Món	-11.5712
▁toá	-11.5716
are	-11.5718
▁bob	-11.5724
nik	-11.5729
rò	-11.5731
▁sant	-11.5741
▁agencie	-11.5747
ảm	-11.575
olly	-11.5765
ably	-11.5772
fo	-11.5773
▁thoa	-11.5779
lus	-11.5781
Thế	-11.5782
ians	-11.5785
ces	-11.5785
▁....	-11.5795
ẹo	-11.5797
▁5,000	-11.5799
▁oklahoma	-11.5799
▁acrose	-11.58
▁In	-11.58
▁kẽ	-11.5817
42	-11.5835
▁Wal	-11.5837
▁porto	-11.584
▁ira	-11.5844
▁Mccain	-11.5852
▁moorish	-11.5852
▁Adam	-11.5852
arl	-11.5852
▁topham	-11.5852
▁alabama	-11.5852
▁martin	-11.5853
,000	-11.5854
ode	-11.5857
▁mandat	-11.5858
▁Ed	-11.5864
▁ken	-11.5872
65	-11.5873
▁jim	-11.5884
▁cbo	-11.5899
ỵ	-11.5902
▁kashmir	-11.5904
▁Joe	-11.5909
vers	-11.591
▁sé	-11.5913
▁sum	-11.5927
▁Am	-11.593
▁lon	-11.5936
ious	-11.5936
▁kl	-11.5953
*	-11.5957
government	-11.5957
▁kì	-11.597
oda	-11.5987
▁franc	-11.599
▁độn	-11.5996
ị	-11.6007
pollutant	-11.601
▁huss	-11.6015
louvre	-11.6018
rant	-11.6023
ments	-11.6036
▁Lake	-11.6038
▁Ber	-11.6043
▁cằm	-11.6047
45	-11.6049
69	-11.6062
erusalem	-11.6063
▁viking	-11.6064
▁1988	-11.6067
ites	-11.607
win	-11.6072
▁Rome	-11.608
▁râm	-11.6083
▁under	-11.6097
rna	-11.6099
▁Mari	-11.6103
▁miss	-11.6109
▁xổ	-11.6124
▁esp	-11.6136
lon	-11.6157
ization	-11.6157
ợt	-11.6163
hẳn	-11.6165
▁sal	-11.617
▁White	-11.6172
▁1974	-11.6174
head	-11.6183
ran	-11.6185
ery	-11.6193
ington	-11.6214
▁ceter	-11.6223
iladelphia	-11.6226
yama	-11.6263
▁hả	-11.6271
worth	-11.6273
▁kín	-11.6275
▁balearic	-11.6281
▁jacob	-11.6281
▁edward	-11.6281
57	-11.6283
58	-11.6284
▁salad	-11.6286
ously	-11.6306
và	-11.6314
32	-11.6315
▁gạo	-11.6316
luc	-11.6331
▁iowa	-11.6336
rẻ	-11.6336
▁pen	-11.6337
▁word	-11.6337
▁1930	-11.6339
allie	-11.634
▁ya	-11.6341
▁Hỗ	-11.6348
▁west	-11.6349
▁les	-11.6354
rian	-11.6354
pot	-11.6355
▁santo	-11.6388
▁Prud	-11.6391
▁out	-11.6393
▁King	-11.6401
▁Po	-11.6408
▁tig	-11.6414
als	-11.6415
hama	-11.6419
lle	-11.6439
▁stein	-11.644
▁milosevic	-11.6446
bacca	-11.6466
▁pla	-11.647
▁yo	-11.6474
▁Đề	-11.6474
fat	-11.6474
augh	-11.6476
▁division	-11.6503
▁mary	-11.6537
bon	-11.6546
izing	-11.6548
nstein	-11.6551
ioxide	-11.6551
▁hastings	-11.6559
▁sale	-11.6564
▁cast	-11.6571
uen	-11.6584
▁Tham	-11.6584
ats	-11.6592
ture	-11.66
ring	-11.6601
▁nến	-11.6603
uli	-11.6606
alaysia	-11.6608
iyre	-11.6609
ixon	-11.6616
▁chử	-11.6616
04	-11.6625
yd	-11.6627
▁Ấ	-11.6628
net	-11.6651
▁cur	-11.6652
ose	-11.6663
rich	-11.6666
water	-11.6666
▁top	-11.6669
▁tripp	-11.6673
▁stewardship	-11.6674
mes	-11.6675
▁arch	-11.6706
97	-11.6728
#	-11.6729
▁ngoặ	-11.6729
▁deficits	-11.673
▁55	-11.6736
▁Rock	-11.6743
cio	-11.675
cut	-11.676
rner	-11.676
▁ber	-11.6765
▁juan	-11.679
Bye	-11.6791
dar	-11.6793
kins	-11.6813
▁Me	-11.6815
span	-11.6819
ross	-11.6824
▁mis	-11.683
▁rên	-11.6833
▁Lã	-11.6834
▁series	-11.685
▁Ok	-11.685
33	-11.6858
▁ngẫ	-11.6859
zes	-11.6867
▁lát	-11.6871
▁studio	-11.6897
▁Victoria	-11.6902
▁review	-11.6903
▁toa	-11.6906
tte	-11.6912
▁vân	-11.6912
▁Ala	-11.6917
tarr	-11.6918
▁Mua	-11.6922
ties	-11.6925
ả	-11.6929
23	-11.6935
aine	-11.6946
▁osa	-11.6948
▁97	-11.6948
▁star	-11.6955
▁port	-11.6959
▁Columbu	-11.6961
▁Iran	-11.6962
▁Cố	-11.6967
▁win	-11.697
▁Tù	-11.697
ò	-11.6986
chia	-11.6989
ém	-11.7004
ime	-11.7016
▁Sản	-11.7018
▁Street	-11.702
▁Kell	-11.7029
ique	-11.7036
ned	-11.7055
▁43	-11.7056
ela	-11.7076
▁slim	-11.7079
swan	-11.7084
▁En	-11.7097
05	-11.7105
▁kit	-11.711
▁disco	-11.7122
▁nhăn	-11.7138
▁argentin	-11.7139
37	-11.7157
▁42	-11.7164
aples	-11.7168
▁1000	-11.7181
79	-11.7185
nist	-11.7191
▁promulgate	-11.7198
▁sicilia	-11.7198
▁Joseph	-11.7208
81	-11.7221
rmere	-11.7223
ational	-11.7223
zer	-11.7224
nell	-11.7228
cit	-11.7232
▁lõ	-11.7238
ches	-11.7248
iolta	-11.7258
▁york	-11.7264
5,000	-11.7274
▁casa	-11.7287
▁iv	-11.7294
▁Khó	-11.7295
race	-11.7295
Kỷ	-11.7299
IS	-11.7305
▁fra	-11.7308
▁maine	-11.7315
▁mosaic	-11.7319
▁Omb	-11.7319
▁victorian	-11.732
▁1986	-11.7322
22	-11.7352
▁bur	-11.7358
rat	-11.7362
▁quạ	-11.7374
ance	-11.7378
▁utah	-11.738
craft	-11.738
iesel	-11.7389
iji	-11.7401
tive	-11.7401
▁city	-11.7403
▁lẫ	-11.7411
▁Sam	-11.7411
▁hunt	-11.7412
▁Lớ	-11.7414
tus	-11.7418
adda	-11.7422
▁tro	-11.7428
▁tex	-11.743
ado	-11.7434
▁Istanbul	-11.7441
▁Edward	-11.7441
▁up	-11.7448
sion	-11.7452
rand	-11.746
▁kệ	-11.7464
▁bauerstein	-11.7471
road	-11.7472
▁dì	-11.7476
ọ	-11.7485
eil	-11.7489
hill	-11.749
▁Har	-11.7492
▁tần	-11.7496
istic	-11.7499
ớm	-11.7499
Tr	-11.7499
▁well	-11.7503
▁Khí	-11.7503
▁202	-11.7505
▁toled	-11.7506
aic	-11.7511
▁Ả	-11.7512
▁show	-11.7516
ito	-11.7521
▁reno	-11.7521
nette	-11.7522
kh	-11.7526
47	-11.7529
▁franco	-11.7536
▁Chu	-11.7541
-19	-11.7553
over	-11.7557
nath	-11.7563
issipp	-11.7565
▁nike	-11.7589
port	-11.7589
cott	-11.7599
sik	-11.7602
▁calle	-11.7614
▁jack	-11.7614
▁48	-11.7626
▁columbia	-11.7628
Pierre	-11.7628
▁colt	-11.7629
▁fox	-11.7631
▁gò	-11.7635
▁Sha	-11.7647
▁Viết	-11.7658
ante	-11.7659
stal	-11.7674
▁mạ	-11.7674
▁bor	-11.7689
▁respondent	-11.7691
▁constantinople	-11.7692
▁baylis	-11.7693
▁Nghĩ	-11.7695
erra	-11.7703
oth	-11.772
oir	-11.7734
ability	-11.7747
▁gầy	-11.7754
▁ritz	-11.7755
par	-11.7756
▁2003	-11.7757
▁tẻ	-11.7758
▁phác	-11.7769
mus	-11.7773
mber	-11.7776
arth	-11.7776
ank	-11.7781
▁nhã	-11.7793
inger	-11.7807
▁pena	-11.781
arawak	-11.7818
huốc	-11.782
▁nghê	-11.7823
Pháp	-11.7828
27	-11.7842
▁cete	-11.7846
kr	-11.7848
18	-11.7852
ding	-11.7855
▁grantee	-11.7867
urs	-11.787
▁fort	-11.7876
▁himalaya	-11.7882
▁caesar	-11.7882
▁willey	-11.7882
▁albert	-11.7884
odi	-11.7885
ries	-11.7887
▁bướ	-11.7888
▁50,000	-11.7889
Tạ	-11.7891
▁syria	-11.7895
▁mốc	-11.7896
▁44	-11.7904
▁Tony	-11.7906
lay	-11.7907
▁rum	-11.792
ship	-11.7933
gầm	-11.7935
lizabeth	-11.7945
▁gabriel	-11.7946
▁outlook	-11.7946
▁picasso	-11.7947
▁20,000	-11.7948
hẽ	-11.7956
Mar	-11.7958
▁Linda	-11.7967
nce	-11.7982
mini	-11.7983
▁tân	-11.7989
ked	-11.8002
hittington	-11.801
yan	-11.803
ếch	-11.8033
▁chanh	-11.8043
eigh	-11.8044
▁tê	-11.805
▁báng	-11.807
▁sấu	-11.807
▁1900	-11.8072
▁op	-11.8075
etty	-11.8084
09	-11.8086
awa	-11.8109
ius	-11.8111
uôn	-11.8114
ộ	-11.8124
▁xít	-11.8137
ruce	-11.8142
▁mộc	-11.8148
lles	-11.8149
act	-11.8153
ware	-11.8158
▁vsl	-11.8169
illo	-11.8188
▁sba	-11.8192
via	-11.8203
aco	-11.8205
lisb	-11.8207
▁presort	-11.8209
▁Bradle	-11.8209
▁Maria	-11.8213
▁Grande	-11.8213
▁120	-11.8215
▁Mạ	-11.8222
▁Ly	-11.8228
heim	-11.8242
mark	-11.8255
▁sel	-11.8262
rys	-11.827
▁Andrew	-11.8275
▁baltimore	-11.8275
della	-11.8279
▁Ex	-11.828
▁hill	-11.8285
Kh	-11.8293
▁Vĩ	-11.8304
eta	-11.8314
▁Lạ	-11.8315
uýt	-11.832
▁Grand	-11.834
▁trán	-11.8343
▁Bond	-11.8346
▁30,000	-11.8352
,8	-11.8356
▁Mũ	-11.8357
▁Pi	-11.8362
▁Hug	-11.8364
▁Long	-11.8364
▁pra	-11.8375
▁truồng	-11.8378
▁thừng	-11.8383
▁pho	-11.8384
▁61	-11.839
▁Bell	-11.8392
Và	-11.8399
Des	-11.8402
made	-11.841
▁java	-11.8411
▁bơ	-11.8419
▁bro	-11.8428
áp	-11.8429
nick	-11.8429
Le	-11.8439
▁0	-11.844
▁poste	-11.844
▁Duy	-11.8447
▁chuyền	-11.8474
▁gruzia	-11.8478
▁mohamm	-11.8478
▁usps	-11.8478
▁yard	-11.8484
▁black	-11.8493
bright	-11.8495
▁Tôn	-11.8499
▁bou	-11.8502
athan	-11.8506
▁Quay	-11.851
▁khan	-11.8521
Sao	-11.8523
▁hen	-11.8524
alla	-11.8526
▁lú	-11.8533
▁vol	-11.8534
▁hand	-11.8534
▁pac	-11.8538
▁gươ	-11.8541
▁count	-11.8543
▁solicit	-11.8546
▁georgia	-11.8546
▁jaffa	-11.8546
▁dean	-11.8549
▁camp	-11.8549
hara	-11.855
▁72	-11.8552
-5	-11.857
hon	-11.8572
otti	-11.8579
▁pb	-11.8581
▁chéo	-11.8584
vely	-11.8594
cef	-11.8594
huyết	-11.8602
mond	-11.8606
oses	-11.8611
ald	-11.8632
▁tre	-11.8641
▁Ami	-11.8643
iers	-11.8648
▁for	-11.8657
iff	-11.8665
▁Min	-11.8673
bun	-11.8678
▁rhode	-11.8685
Martin	-11.8686
▁robert	-11.8687
▁1987	-11.8687
▁lee	-11.8691
uda	-11.8691
onic	-11.8692
▁nhô	-11.8692
asser	-11.8696
▁Os	-11.8698
▁bô	-11.8707
▁rữa	-11.8727
▁250	-11.8737
Ma	-11.8752
▁athens	-11.8755
▁Jack	-11.8755
▁gandh	-11.8755
▁mực	-11.8756
▁Tom	-11.8765
▁marco	-11.8766
got	-11.8771
▁Hoạ	-11.8772
▁kath	-11.8775
rly	-11.8792
andra	-11.8802
fel	-11.8808
ộn	-11.8814
cus	-11.8816
erson	-11.8821
▁---	-11.8821
▁sip	-11.8822
▁eilat	-11.8825
X	-11.8827
▁ap	-11.8831
pper	-11.8832
▁blanc	-11.884
olf	-11.885
mpson	-11.885
U	-11.8867
okyo	-11.8868
oster	-11.8868
èn	-11.8871
▁cự	-11.8877
lion	-11.8885
▁ABC	-11.8896
▁robot	-11.8896
ucker	-11.8899
▁vạt	-11.8909
▁iran	-11.8912
▁water	-11.8917
was	-11.8928
pin	-11.8934
▁phe	-11.8937
▁pit	-11.8957
tors	-11.8968
shin	-11.8969
uss	-11.897
Christophe	-11.897
uso	-11.8971
▁carr	-11.8972
sia	-11.8974
▁reb	-11.8983
uốc	-11.8985
▁hoạn	-11.8986
▁alexandri	-11.8986
▁Barry	-11.8991
▁cop	-11.8994
▁porte	-11.9002
mart	-11.9004
uốt	-11.9018
evin	-11.902
▁Ab	-11.9022
rises	-11.9037
bal	-11.9037
hat	-11.9039
▁Brazil	-11.9039
▁kiosk	-11.9039
▁lorenz	-11.9041
▁jalan	-11.9042
▁csr	-11.9042
▁He	-11.9057
▁shah	-11.9059
▁Anth	-11.9059
dos	-11.906
gers	-11.9063
▁Morris	-11.9064
prim	-11.9066
burger	-11.9072
đt	-11.9092
▁lượn	-11.9105
▁cub	-11.9108
▁1983	-11.9114
roll	-11.9114
▁kitche	-11.9115
ạ	-11.9116
▁Lyon	-11.9131
▁carl	-11.9134
▁fla	-11.9137
61	-11.9139
▁Jo	-11.9142
▁1500	-11.9155
▁amp	-11.9157
onald	-11.916
▁trans	-11.9164
ities	-11.9172
pul	-11.9172
▁Huyền	-11.9185
▁mớ	-11.9204
ỏi	-11.9234
lair	-11.9245
kia	-11.9248
erre	-11.9252
▁celtic	-11.9259
iber	-11.926
▁Sec	-11.926
anama	-11.9273
hir	-11.9277
bourg	-11.929
▁Bang	-11.9293
onne	-11.9315
NG	-11.9328
aviv	-11.9333
uala	-11.9333
▁trâu	-11.9343
rthur	-11.9344
skin	-11.9348
▁tho	-11.9349
▁tour	-11.9351
stat	-11.9365
tech	-11.9367
▁xì	-11.9372
rán	-11.9374
ved	-11.9376
▁Fc	-11.9388
▁medici	-11.9407
▁sever	-11.9409
▁1984	-11.941
▁wai	-11.9416
scow	-11.9421
▁pointe	-11.9422
▁world	-11.9425
lubb	-11.9426
link	-11.9439
ful	-11.9445
astro	-11.9451
hart	-11.9452
▁times	-11.9465
J	-11.9468
uz	-11.9474
▁FBI	-11.9482
▁oxide	-11.9482
▁Sather	-11.9482
▁greco	-11.9484
▁And	-11.9486
▁eu	-11.9486
▁Hunt	-11.9486
ambo	-11.9487
ird	-11.949
utch	-11.95
▁bron	-11.9504
▁Pre	-11.9531
yl	-11.9546
▁47	-11.9551
ille	-11.9554
▁Edinburgh	-11.9558
▁nonexchange	-11.9558
▁Victor	-11.9558
▁1940	-11.9563
.6	-11.9569
▁fal	-11.9573
obe	-11.9575
▁Ac	-11.9578
▁plat	-11.9579
arik	-11.9586
▁Anne	-11.9588
▁Ko	-11.9597
▁nén	-11.9614
▁khe	-11.9615
-9	-11.9618
▁eve	-11.9626
iling	-11.9629
▁carolina	-11.9635
▁hor	-11.9635
fin	-11.9636
enberg	-11.9645
oke	-11.9647
▁Dell	-11.9652
▁mari	-11.9655
hicago	-11.9656
▁ván	-11.9661
ĐT	-11.9672
lb	-11.9677
Col	-11.9677
▁cọ	-11.9693
▁4,000	-11.971
▁Stark	-11.9711
▁minnesota	-11.9711
▁mughal	-11.9711
▁Wolf	-11.9712
▁Arche	-11.9712
▁barnes	-11.9713
▁yu	-11.9714
harlie	-11.9722
lick	-11.9725
ough	-11.9747
opm	-11.9753
▁loan	-11.9759
▁nara	-11.9763
▁muỗi	-11.9766
ents	-11.9775
67	-11.9776
▁Mcdonald	-11.9789
▁nần	-11.9789
▁herod	-11.9789
▁england	-11.9789
▁67	-11.9793
aire	-11.9803
brand	-11.9803
day	-11.9805
▁cover	-11.9817
▁mala	-11.9817
sus	-11.9818
▁Màn	-11.9819
burn	-11.9834
▁1800	-11.9836
mud	-11.9836
enny	-11.9837
▁ceteau	-11.9844
box	-11.9863
▁mumba	-11.9867
▁Abraham	-11.9867
▁vinci	-11.9867
▁amiga	-11.9867
▁henri	-11.9868
▁micro	-11.9868
▁Sandy	-11.9869
tsin	-11.9871
▁Sch	-11.9875
▁mắng	-11.989
bus	-11.9892
▁Barne	-11.9895
law	-11.9906
gs	-11.9923
▁lag	-11.9931
▁arc	-11.9934
ggi	-11.9934
▁sun	-11.9942
ày	-11.9943
▁louis	-11.9946
▁île	-11.9946
▁titian	-11.9946
Michel	-11.9946
▁nhẽo	-11.9946
lbania	-11.9946
▁edo	-11.9947
▁1967	-11.9948
▁Thả	-11.9949
▁normand	-11.9955
abc	-11.9958
▁lưỡng	-11.9979
exas	-11.9982
▁Vai	-12.0001
burg	-12.001
ude	-12.0021
oosevelt	-12.0025
▁Wood	-12.0025
▁prado	-12.0026
▁vatican	-12.0026
▁2015	-12.0029
▁wan	-12.003
room	-12.0038
▁jan	-12.0041
▁Del	-12.0044
hore	-12.0046
▁naple	-12.0053
ê	-12.0056
-6	-12.0056
laza	-12.0075
alism	-12.0082
▁flo	-12.0084
▁mến	-12.01
▁Allen	-12.0105
▁harvard	-12.0105
▁tennesse	-12.0105
▁Annie	-12.0106
▁dô	-12.0108
ables	-12.0108
▁kil	-12.0111
▁Scott	-12.0115
▁philip	-12.0117
▁CD	-12.0125
▁teen	-12.0128
rê	-12.0129
uller	-12.0132
▁Cor	-12.0133
ói	-12.0153
alley	-12.0155
class	-12.0158
▁Bỏ	-12.0169
machi	-12.0176
,500	-12.0181
rno	-12.0182
amaica	-12.0185
efficiencies	-12.0186
▁comptroller	-12.0186
▁tokugawa	-12.0186
▁Suy	-12.0187
▁britta	-12.0189
▁plo	-12.0193
▁Phả	-12.0195
▁coca	-12.0199
▁mị	-12.0199
▁Tấ	-12.021
otto	-12.0215
▁sq	-12.0235
nova	-12.0236
▁700	-12.024
▁900	-12.0264
▁Lewis	-12.0267
▁manhattan	-12.0267
▁mía	-12.0267
akers	-12.0269
arland	-12.0271
▁winde	-12.0271
▁michigan	-12.0272
▁lush	-12.0273
▁thắn	-12.0278
▁25,000	-12.0282
read	-12.0289
▁tea	-12.029
▁Fa	-12.029
▁palm	-12.0295
▁dick	-12.031
hau	-12.0322
graph	-12.033
▁kra	-12.0333
▁Dublin	-12.0349
▁burgund	-12.0349
▁stewar	-12.0349
▁Miller	-12.035
tler	-12.035
▁Đoàn	-12.0372
▁hoy	-12.0382
eira	-12.0392
Sever	-12.0432
▁sol	-12.0444
oji	-12.0449
aud	-12.0451
whi	-12.0456
tta	-12.0471
▁solo	-12.0473
Mer	-12.0496
▁bon	-12.0504
oka	-12.0504
emi	-12.0507
71	-12.051
▁Mont	-12.0512
▁Beach	-12.0515
▁resort	-12.0515
▁honda	-12.0515
▁oak	-12.0516
▁Ken	-12.0518
▁1.5	-12.0521
chev	-12.053
tively	-12.0535
iếng	-12.0541
▁conservative	-12.0548
utter	-12.0555
▁rụ	-12.0561
Y	-12.0572
▁aba	-12.0573
gne	-12.0578
▁Jer	-12.0592
quin	-12.0596
nard	-12.0596
▁Nhu	-12.0596
▁Orleans	-12.0599
▁dakota	-12.0599
▁jordan	-12.0599
eattle	-12.0599
els	-12.0608
-22	-12.0611
▁beau	-12.0617
▁av	-12.0622
▁kiề	-12.0626
▁Hills	-12.0631
esco	-12.0635
▁Biể	-12.0641
▁ec	-12.0647
lies	-12.0659
iner	-12.066
kim	-12.0662
▁bull	-12.0662
iano	-12.0666
ncy	-12.0671
auerstein	-12.0679
▁Phim	-12.0679
=	-12.0684
▁holyrood	-12.0684
▁gran	-12.0689
▁cafe	-12.0689
iness	-12.071
▁nfl	-12.0711
6,000	-12.0715
amura	-12.0736
eas	-12.0749
▁Explore	-12.0769
▁italian	-12.0769
▁pittsburg	-12.0769
▁Grantee	-12.077
▁Emily	-12.077
▁aimd	-12.0771
▁rockefeller	-12.0772
▁1948	-12.0773
▁jf	-12.0777
uer	-12.0782
path	-12.0784
▁ball	-12.0788
▁stra	-12.079
mont	-12.0803
▁xoa	-12.0816
ộp	-12.0817
▁Is	-12.0818
▁vel	-12.0829
thal	-12.0831
onde	-12.0842
▁edgerton	-12.0855
▁flea	-12.0856
▁obelisk	-12.0856
▁menorca	-12.0858
7,000	-12.0873
rina	-12.0874
Gói	-12.0876
▁rubens	-12.0884
fac	-12.0889
menin	-12.0893
alia	-12.0893
83	-12.0894
dad	-12.0895
lar	-12.0895
hri	-12.0903
xon	-12.0926
Tinh	-12.0939
Provence	-12.0942
▁sorbent	-12.0942
view	-12.0943
▁kef	-12.0953
leine	-12.0958
▁nyt	-12.0958
▁mit	-12.0959
tail	-12.0962
bson	-12.0964
▁richards	-12.0966
fw	-12.0972
▁nọ	-12.0977
▁para	-12.1001
▁Án	-12.1007
ways	-12.1008
▁good	-12.1013
▁oreg	-12.1016
▁cale	-12.1022
Ă	-12.103
▁beresford	-12.103
▁franciscan	-12.103
▁raphael	-12.103
▁Moore	-12.103
▁apple	-12.1032
▁Leon	-12.1035
▁ganga	-12.1035
Ph	-12.105
sters	-12.1057
▁gwe	-12.1058
olini	-12.1059
▁spi	-12.1071
▁fig	-12.1074
▁stan	-12.1082
▁cre	-12.1085
▁bas	-12.1097
▁mati	-12.1108
pher	-12.1117
▁watergate	-12.1119
▁evaluators	-12.1119
▁veron	-12.1122
▁Donald	-12.1123
andel	-12.1129
▁pun	-12.1148
rque	-12.1154
loire	-12.1158
▁Or	-12.1164
▁raj	-12.1172
▁rì	-12.1178
▁rod	-12.1181
▁West	-12.1184
▁sim	-12.1194
oz	-12.1196
east	-12.12
▁sainte	-12.1203
▁lewis	-12.1208
▁Topha	-12.1208
▁ernest	-12.1208
▁minoan	-12.1208
▁petit	-12.1209
▁1981	-12.1211
▁2004	-12.1211
ified	-12.1224
eiman	-12.1227
iously	-12.123
▁piet	-12.1234
▁clos	-12.1238
▁marth	-12.1239
39	-12.1243
âng	-12.1248
▁trơ	-12.1249
▁fre	-12.125
sos	-12.1254
mills	-12.1272
▁125	-12.1297
ubia	-12.1298
▁trump	-12.1298
▁nobel	-12.1298
▁Us	-12.1301
garve	-12.1302
▁yel	-12.1328
lex	-12.1333
ardo	-12.135
onso	-12.1351
▁exc	-12.1376
▁nhũ	-12.1376
▁gene	-12.138
▁Olympic	-12.1392
▁hái	-12.1404
ĩ	-12.1405
ido	-12.1411
▁aol	-12.1418
▁Ver	-12.1419
▁Ven	-12.1425
roe	-12.1435
▁bón	-12.1436
vegas	-12.1447
ỡn	-12.1448
▁nel	-12.1461
eodor	-12.1468
▁nevada	-12.1481
▁nhuộm	-12.1481
▁Dorca	-12.1481
▁outlay	-12.1481
▁arkansas	-12.1481
rana	-12.1483
▁peter	-12.1484
▁Sđt	-12.149
dent	-12.1515
▁semi	-12.1527
aries	-12.153
▁dodge	-12.1537
▁genov	-12.1544
▁Che	-12.1545
Rô	-12.1561
▁Madeira	-12.1573
▁terrace	-12.1573
▁2,500	-12.1576
Jean	-12.1588
▁Anna	-12.1611
▁sea	-12.1631
Ca	-12.1636
▁cd	-12.1647
▁hiền	-12.1651
▁roth	-12.1654
Trắng	-12.1667
▁Square	-12.1667
moniac	-12.1667
▁springs	-12.1667
▁contrast	-12.1667
oucher	-12.1667
▁farra	-12.1668
▁harris	-12.1668
▁prud	-12.167
▁goya	-12.1671
▁Gaga	-12.1672
witz	-12.1673
hr	-12.1674
▁torrent	-12.1675
ower	-12.1677
▁has	-12.1684
edge	-12.1696
▁Ge	-12.1698
rakia	-12.1702
▁will	-12.1705
nheim	-12.1706
rình	-12.1711
.5	-12.1711
rut	-12.1716
▁jess	-12.1716
insky	-12.1731
▁Kho	-12.1747
▁lev	-12.1749
▁nebraska	-12.1761
▁strasbourg	-12.1761
▁lù	-12.1762
▁1929	-12.1765
▁trinit	-12.1768
iego	-12.1778
▁euro	-12.1779
▁osi	-12.1789
ennis	-12.1801
ering	-12.1807
▁paul	-12.1815
▁trek	-12.1824
aume	-12.1827
▁Par	-12.1828
ders	-12.1835
▁august	-12.1841
rua	-12.1843
hạc	-12.1845
▁Hersheimmer	-12.1856
▁felip	-12.1856
▁hecta	-12.1856
▁rfp	-12.1856
▁Taylor	-12.1856
▁Ross	-12.1862
rễ	-12.1862
▁thought	-12.1864
▁Thụ	-12.1886
▁Chris	-12.1888
anta	-12.1891
▁cors	-12.1896
▁gau	-12.1904
▁cò	-12.1911
tine	-12.1928
rạng	-12.1928
▁cua	-12.1934
itch	-12.1936
▁shar	-12.1948
▁medi	-12.1952
▁orlean	-12.1952
▁nhõm	-12.1952
▁Disneyland	-12.1953
not	-12.196
pea	-12.1963
▁clar	-12.1964
án	-12.1967
866	-12.1971
audi	-12.1973
▁Hall	-12.1975
ubb	-12.1992
time	-12.1992
▁str	-12.1995
▁salon	-12.1997
raven	-12.2015
anada	-12.2029
sts	-12.2035
▁Nguy	-12.2041
▁mel	-12.2046
Ứ	-12.2049
generalizability	-12.205
▁arthur	-12.2053
▁sạc	-12.2054
ase	-12.2055
▁savoy	-12.206
▁Patric	-12.2069
don	-12.207
guin	-12.2086
▁Chết	-12.209
▁joa	-12.2092
▁cỗi	-12.2094
▁vau	-12.2095
hos	-12.2109
▁hard	-12.2125
allorca	-12.2139
vara	-12.2147
▁nagas	-12.2148
▁whit	-12.2148
▁dudovitz	-12.215
sher	-12.2153
ush	-12.2154
ninj	-12.2156
vishn	-12.2158
▁vú	-12.216
▁nôn	-12.216
▁finn	-12.2172
bury	-12.2173
▁czar	-12.2174
annon	-12.2176
lder	-12.2178
stic	-12.2179
harlem	-12.2181
roit	-12.2183
▁mcc	-12.2196
rcus	-12.2198
▁schu	-12.2205
▁Dạ	-12.2206
wel	-12.2208
kah	-12.2209
ently	-12.2213
mmy	-12.2224
▁ngợp	-12.2237
▁woodward	-12.2247
OU	-12.2247
▁potter	-12.2247
▁amato	-12.2247
▁1945	-12.225
yasu	-12.2254
▁kell	-12.2254
▁Gary	-12.2255
▁past	-12.2255
ayak	-12.2257
gir	-12.2258
▁ul	-12.2275
▁sấ	-12.2276
eit	-12.2276
▁alsac	-12.2288
tein	-12.2291
ề	-12.2292
eye	-12.2303
mast	-12.2311
▁norm	-12.2316
▁pad	-12.2319
azar	-12.2329
▁mega	-12.233
hwa	-12.2335
iscons	-12.2338
ạc	-12.2338
▁mill	-12.2343
lfred	-12.2346
▁alicante	-12.2347
▁schwartz	-12.2347
▁capitol	-12.2347
Pooh	-12.2347
▁kamakura	-12.2347
▁Jess	-12.2349
▁1985	-12.2352
egal	-12.2352
Len	-12.2353
okie	-12.2364
▁gord	-12.2372
anning	-12.2376
ffman	-12.2389
▁ses	-12.2401
his	-12.2403
antly	-12.2405
uchanan	-12.2407
▁chảnh	-12.241
hỉ	-12.2428
▁Gr	-12.2432
▁Davi	-12.2439
@	-12.2448
▁BBQ	-12.2448
▁guitar	-12.2448
▁landscaped	-12.2448
▁rajput	-12.2448
▁fema	-12.2448
mouth	-12.2448
▁yoko	-12.2448
▁memphi	-12.2448
▁Robin	-12.245
lemish	-12.2455
▁wto	-12.2457
▁Cost	-12.2458
▁mafi	-12.2458
kyu	-12.2459
ourbe	-12.2461
▁fred	-12.2464
▁mép	-12.2467
bank	-12.2473
,600	-12.2487
▁roch	-12.2492
▁oc	-12.2492
▁Fen	-12.2498
eur	-12.2507
▁604	-12.2514
▁jeff	-12.2522
-20	-12.2532
▁bit	-12.2541
guration	-12.255
▁kentuckian	-12.255
style	-12.255
mail	-12.2551
▁kaufm	-12.2552
▁Tho	-12.2556
▁mahal	-12.2561
▁brando	-12.2574
outs	-12.2578
▁cite	-12.2581
▁mol	-12.2582
▁Carlo	-12.2584
▁Iv	-12.2602
▁trệt	-12.261
▁lờ	-12.2615
▁Sư	-12.2621
emin	-12.2626
▁scu	-12.2632
▁pc	-12.2632
yoto	-12.2651
▁fernando	-12.2653
▁grinned	-12.2653
child	-12.2653
Oxley	-12.2653
eeping	-12.2653
▁columbus	-12.2653
▁15,000	-12.2659
▁leba	-12.266
sses	-12.2666
▁caps	-12.267
cast	-12.2677
▁ngừ	-12.2678
▁Pol	-12.2685
▁Pen	-12.2689
▁troy	-12.2691
bbe	-12.2693
▁Sara	-12.2695
ấ	-12.2707
▁jacks	-12.2713
▁cup	-12.2716
▁hal	-12.2719
uka	-12.273
ification	-12.2737
43	-12.2744
hmos	-12.2755
zy	-12.2756
▁cleveland	-12.2757
▁afghanistan	-12.2757
▁Harvard	-12.2757
▁akbar	-12.2757
▁ruột	-12.2759
▁bauer	-12.2764
▁tuscany	-12.2764
Chamber	-12.2765
lieu	-12.2765
horus	-12.277
nees	-12.2773
waite	-12.2773
▁serra	-12.2775
orge	-12.2778
▁Zeal	-12.278
▁xẻ	-12.2783
him	-12.2788
orah	-12.2792
dur	-12.2797
▁penn	-12.2797
ador	-12.2803
Roy	-12.281
issa	-12.2818
amos	-12.2825
.4	-12.2839
▁Wat	-12.2854
lig	-12.2858
▁Apple	-12.2862
▁caleornia	-12.2862
▁pompeii	-12.2862
▁Reagan	-12.2862
▁david	-12.2862
▁vermont	-12.2862
▁Ramse	-12.2863
▁island	-12.2863
▁streamlin	-12.2864
▁úy	-12.2865
▁1968	-12.2867
▁Truy	-12.2867
wed	-12.2881
▁sid	-12.2883
▁poly	-12.2908
houses	-12.291
fitz	-12.2915
shing	-12.2929
▁jimm	-12.2939
▁Ali	-12.2957
khan	-12.2963
allas	-12.2966
▁Rem	-12.2968
onapart	-12.2969
▁transept	-12.2969
▁boomer	-12.2969
▁buck	-12.297
ggy	-12.297
▁carter	-12.297
▁1,500	-12.2972
▁monet	-12.2972
,200	-12.2973
Nửa	-12.2976
vier	-12.2977
▁ipo	-12.2977
tous	-12.2977
▁Nit	-12.2979
human	-12.298
▁donald	-12.298
▁hey	-12.2982
valu	-12.2999
▁Bí	-12.3001
▁bass	-12.3002
▁Jud	-12.3008
▁sher	-12.3014
▁Phil	-12.3017
▁Bel	-12.303
enner	-12.3031
cpa	-12.3038
vall	-12.3041
organ	-12.3043
▁Gã	-12.305
▁hao	-12.305
ienne	-12.3055
qa	-12.3059
▁ptolem	-12.3076
▁arizona	-12.3076
▁Temple	-12.3076
found	-12.3076
▁borneo	-12.3076
▁madri	-12.3077
thor	-12.3081
window	-12.3082
▁scott	-12.3095
▁mun	-12.3105
▁wells	-12.3105
▁Ann	-12.3108
▁pitt	-12.3116
oshima	-12.3124
ender	-12.3129
hê	-12.3146
▁pisa	-12.3159
nvers	-12.3166
ques	-12.3166
gger	-12.3175
Nanc	-12.318
ō	-12.3185
▁Conservative	-12.3185
▁giovanni	-12.3185
▁hilltop	-12.3185
▁pundit	-12.3185
▁sculpt	-12.3185
▁Count	-12.3185
ớn	-12.319
▁8.	-12.3198
▁Schu	-12.3199
▁ballet	-12.3202
▁castro	-12.3204
▁bloom	-12.3206
bir	-12.321
4,000	-12.3212
ative	-12.3218
òi	-12.3219
ality	-12.3222
ES	-12.3222
▁Mã	-12.3227
▁ele	-12.3238
8,000	-12.3256
▁maur	-12.3259
▁matt	-12.3263
▁iz	-12.3271
▁Dean	-12.3272
utin	-12.3278
▁meh	-12.3278
▁books	-12.3279
▁hẻ	-12.3281
ernini	-12.3281
mour	-12.3283
rmond	-12.3287
▁chã	-12.3292
▁clip	-12.3293
Ư	-12.3295
▁farmworker	-12.3295
▁istanbul	-12.3295
gerald	-12.3295
▁quinta	-12.3295
▁steele	-12.3295
▁bennet	-12.3295
▁Klei	-12.3298
▁Mel	-12.3306
▁Casa	-12.3307
lie	-12.331
▁Gor	-12.3313
▁laser	-12.3314
fish	-12.3319
▁mcg	-12.3321
▁simon	-12.3325
Com	-12.3325
▁goa	-12.3326
lows	-12.3329
▁usd	-12.3341
▁Pat	-12.3349
▁lsn	-12.3383
arrow	-12.3388
paper	-12.3392
huẩn	-12.3392
▁Rose	-12.3395
▁sul	-12.3398
▁sarbanes	-12.3406
▁phộng	-12.3406
▁shogun	-12.3407
▁zero	-12.3408
▁chamber	-12.3409
▁oxy	-12.341
▁titan	-12.341
daw	-12.3415
▁40,000	-12.3416
ened	-12.3416
lada	-12.3417
niche	-12.3421
▁nasa	-12.3426
▁dơi	-12.3436
▁forb	-12.3441
▁Kong	-12.3465
ory	-12.3465
▁barr	-12.3476
ely	-12.3481
ants	-12.3485
dou	-12.3493
Louis	-12.3499
Biết	-12.3506
oả	-12.3512
▁bombay	-12.3518
▁sabah	-12.3518
alibu	-12.3519
ologists	-12.3519
▁hypo	-12.352
dore	-12.3529
▁Roberts	-12.3532
▁iris	-12.3534
▁Harry	-12.3535
agne	-12.3538
▁coco	-12.3551
ups	-12.3554
slaw	-12.3562
anson	-12.3564
stein	-12.3572
▁Sina	-12.3574
ional	-12.3579
▁joh	-12.3585
Minh	-12.3588
elche	-12.3589
▁Xé	-12.36
Rom	-12.3615
Saint	-12.3621
▁sab	-12.3628
Ẩ	-12.3632
▁byzantine	-12.3632
▁cyclad	-12.3632
▁riviera	-12.3632
▁Randy	-12.3632
▁brooklyn	-12.3632
▁jardin	-12.3632
ecca	-12.3633
▁1976	-12.3636
▁shakespeare	-12.3637
rein	-12.3639
▁paris	-12.364
onnell	-12.3646
corp	-12.3647
leen	-12.3648
pierre	-12.3652
▁taj	-12.3657
light	-12.3663
ucci	-12.367
Du	-12.3672
-4	-12.3676
oul	-12.3679
zon	-12.3679
-7	-12.3684
▁cau	-12.3689
▁policymaker	-12.3689
▁rome	-12.3695
nak	-12.3702
gel	-12.3745
ī	-12.3747
▁colonnade	-12.3747
▁gorbachev	-12.3747
▁minaret	-12.3747
brava	-12.3748
▁rubin	-12.375
ova	-12.3754
uger	-12.3755
cien	-12.3761
sted	-12.3766
▁reo	-12.3766
▁Philipp	-12.3767
▁Jr	-12.377
right	-12.377
háng	-12.3773
eine	-12.3775
▁bagh	-12.3777
corde	-12.3783
check	-12.3798
▁130	-12.3808
lson	-12.3815
lone	-12.3818
▁tone	-12.3836
▁Vinh	-12.3841
connecti	-12.3844
▁boy	-12.3846
▁Zel	-12.3848
▁florentine	-12.3863
Germain	-12.3863
▁loggia	-12.3863
▁reconfi	-12.3863
▁unfund	-12.3863
▁powell	-12.3864
▁hói	-12.3867
▁Điển	-12.3867
▁1868	-12.3868
ouge	-12.3872
▁mutter	-12.3875
site	-12.3875
Phê	-12.3883
fall	-12.3887
▁jap	-12.3891
▁330	-12.3918
▁Sai	-12.392
▁epi	-12.3922
▁Roo	-12.3922
▁1.1	-12.3947
Anders	-12.3951
esses	-12.3957
Terre	-12.3959
▁Hộ	-12.3964
▁Chế	-12.3967
▁Hong	-12.3968
pines	-12.3968
▁sandwich	-12.3981
license	-12.3981
▁record	-12.3981
▁pakistan	-12.3981
hrome	-12.3984
owler	-12.3985
fuku	-12.3985
▁cather	-12.3986
▁4.2	-12.3992
▁Mid	-12.3998
▁Mong	-12.4
vista	-12.4007
igno	-12.4011
▁gates	-12.4015
AS	-12.4016
▁play	-12.4027
rance	-12.4034
▁Than	-12.404
egas	-12.4053
▁palma	-12.4061
▁hatch	-12.4062
▁xả	-12.4065
tarian	-12.4066
bla	-12.4075
▁Lệ	-12.4082
evilla	-12.4086
owers	-12.4088
▁Cao	-12.409
▁fun	-12.4092
othic	-12.4094
▁Jacob	-12.41
▁commemorate	-12.41
▁pantheon	-12.41
▁Julie	-12.41
▁creole	-12.41
▁Lisa	-12.4101
▁boong	-12.4101
▁galilee	-12.4101
▁wilson	-12.4101
▁Florence	-12.4101
▁walter	-12.4102
▁1947	-12.4103
▁605	-12.4104
▁556	-12.4105
▁pico	-12.4107
▁Vui	-12.4107
wright	-12.4109
▁hươ	-12.4113
ươi	-12.4115
▁Bori	-12.412
ylan	-12.4121
lette	-12.4126
Qu	-12.414
▁Philip	-12.4144
▁mả	-12.4147
▁Hil	-12.4148
▁ventur	-12.4148
2,000	-12.4148
▁king	-12.4158
▁maj	-12.4168
▁Rio	-12.4183
▁Bay	-12.4185
shed	-12.4195
▁diều	-12.4202
▁Kiểu	-12.4216
▁decisionmak	-12.422
▁dissaving	-12.422
▁rajasthan	-12.422
▁warsaw	-12.422
▁Julia	-12.422
▁octagon	-12.422
▁1,0	-12.422
▁1979	-12.4224
▁1978	-12.4226
▁Gord	-12.4227
▁1966	-12.4227
▁mallorca	-12.4231
▁yankees	-12.4231
▁nán	-12.4234
▁mìn	-12.4243
▁vienn	-12.4246
▁Già	-12.4247
endal	-12.4252
▁cui	-12.4265
rob	-12.4275
▁trọn	-12.4275
▁solom	-12.4276
ades	-12.4278
fair	-12.4288
ening	-12.4311
risk	-12.4319
hall	-12.4334
▁Stephanopoulo	-12.4342
▁bethlehem	-12.4342
▁byzantium	-12.4342
▁moderniz	-12.4342
▁Nema	-12.4342
▁grove	-12.4343
▁hùm	-12.4343
laz	-12.4345
kers	-12.4352
▁alf	-12.4354
▁dioxide	-12.4358
armeni	-12.4359
▁andre	-12.4366
eville	-12.4366
champ	-12.4398
▁hale	-12.4399
ums	-12.4411
dz	-12.4413
▁Bauer	-12.4414
En	-12.4432
place	-12.4449
Pho	-12.4459
liu	-12.446
▁Beresford	-12.4466
▁bartolom	-12.4466
▁Andrea	-12.4466
▁Barcelo	-12.4466
▁pyre	-12.4466
lysee	-12.4466
▁mormon	-12.4466
rahman	-12.4468
▁1871	-12.4468
▁1965	-12.447
▁wolfe	-12.447
elberg	-12.447
eries	-12.4471
▁glasswar	-12.4474
000	-12.4475
▁Nỗ	-12.4484
▁pil	-12.449
▁blum	-12.4505
glia	-12.4512
▁nash	-12.4512
gỉ	-12.4528
▁pres	-12.4531
▁santi	-12.4532
mut	-12.4535
▁Vii	-12.4536
▁101	-12.4536
pool	-12.4539
iya	-12.4549
▁Hùng	-12.4551
range	-12.4552
uji	-12.4552
▁richard	-12.4557
▁joe	-12.4559
▁Im	-12.4561
uez	-12.4565
yko	-12.4566
arra	-12.458
ahal	-12.4582
▁Inglethorp	-12.4591
▁kabuki	-12.4591
▁tuilerie	-12.4591
▁Hillary	-12.4591
▁arlington	-12.4592
▁mys	-12.4592
▁sofa	-12.4592
ifying	-12.4594
▁miles	-12.4594
▁1952	-12.4596
rell	-12.4609
▁kenne	-12.4612
ological	-12.4613
holder	-12.4615
▁kla	-12.4616
▁Cete	-12.4622
wash	-12.4631
inson	-12.4635
eather	-12.4635
ptor	-12.4643
unger	-12.4647
cutt	-12.465
▁ak	-12.4656
lare	-12.4667
▁glen	-12.4669
▁Alp	-12.4669
like	-12.4673
bridge	-12.4674
▁lane	-12.4678
▁nhó	-12.4686
,400	-12.469
cchio	-12.4696
shes	-12.4697
gore	-12.4698
Mart	-12.4699
ente	-12.4701
▁Luc	-12.4708
▁rã	-12.4714
▁War	-12.4717
▁tutankham	-12.4717
financial	-12.4717
missions	-12.4717
▁Jenni	-12.4717
▁abraham	-12.4717
▁nhện	-12.4717
▁Oscar	-12.4717
▁chén	-12.4718
▁karna	-12.4719
▁sonor	-12.4719
▁sin	-12.472
▁1922	-12.4721
▁1890	-12.4723
▁AR	-12.4724
▁hitler	-12.4725
guard	-12.4729
jima	-12.4729
oãn	-12.4729
ubin	-12.4731
▁ellis	-12.4732
erie	-12.4736
dification	-12.4742
▁sâm	-12.4744
▁esc	-12.4752
▁Tim	-12.4768
▁Kra	-12.4771
shaw	-12.4778
▁lùn	-12.478
▁fen	-12.4783
▁Nike	-12.4785
set	-12.4786
▁sca	-12.4789
real	-12.4791
Mỹ	-12.4794
izz	-12.4795
atra	-12.4797
iser	-12.4805
lif	-12.4806
tory	-12.4811
uke	-12.4818
▁dell	-12.4821
▁Lind	-12.4826
▁kẹp	-12.4829
eux	-12.4832
▁zen	-12.4832
scan	-12.4841
sche	-12.4841
▁canopy	-12.4845
▁lombard	-12.4845
▁punjab	-12.4845
▁Helen	-12.4845
▁silicon	-12.4845
▁stupa	-12.4846
▁thebes	-12.4848
arco	-12.4849
▁pomp	-12.4852
▁0.0	-12.4852
▁175	-12.4854
jahan	-12.4856
anders	-12.4859
arch	-12.4859
estic	-12.4865
ccan	-12.4866
▁Comp	-12.4866
caster	-12.4868
rath	-12.487
▁kid	-12.487
oone	-12.4875
boat	-12.4891
stick	-12.4903
▁ngấ	-12.4907
randy	-12.4909
▁Vé	-12.4914
rete	-12.4917
ota	-12.4921
irth	-12.4921
▁zip	-12.4922
▁marie	-12.4929
kko	-12.4932
wald	-12.4938
nquirer	-12.4939
▁mượt	-12.4943
▁hk	-12.4944
▁zel	-12.4946
point	-12.495
court	-12.4951
from	-12.4954
rel	-12.4956
loge	-12.4957
Et	-12.4968
▁canal	-12.4973
late	-12.4974
akistan	-12.4975
▁merri	-12.4975
▁crawf	-12.4975
▁margare	-12.4975
arshall	-12.4975
▁dowd	-12.4975
▁douglas	-12.4975
▁1600	-12.4984
ừ	-12.4987
▁rita	-12.4993
▁Mis	-12.4995
bility	-12.4999
smere	-12.5011
▁river	-12.5028
adminst	-12.503
erger	-12.5044
logist	-12.5065
▁foot	-12.5075
aul	-12.5077
▁kara	-12.5086
ellin	-12.5092
arj	-12.5095
▁Well	-12.5106
▁Castle	-12.5107
▁Ibiza	-12.5107
▁ehfico	-12.5107
▁kuwait	-12.5107
▁Bengal	-12.5107
aghia	-12.5107
front	-12.5107
▁henry	-12.5107
▁Berlin	-12.5108
▁haifa	-12.5108
▁Grant	-12.5111
▁1969	-12.5112
▁Baker	-12.5112
▁Black	-12.5113
▁1977	-12.5113
▁charlotte	-12.5116
▁peru	-12.5117
iqui	-12.512
▁cole	-12.512
ense	-12.5123
hira	-12.5127
zzi	-12.5131
CH	-12.5133
Sur	-12.514
▁4.3	-12.5143
ridge	-12.5157
▁sod	-12.5164
thos	-12.5167
▁spike	-12.5176
ryan	-12.5183
▁xố	-12.5184
▁wind	-12.5187
▁MT	-12.5192
eeling	-12.5203
▁Roger	-12.5205
mount	-12.5227
agna	-12.5234
ncies	-12.5236
▁wolf	-12.5238
▁abdul	-12.524
▁Apollo	-12.524
▁cobble	-12.524
▁container	-12.524
▁quintile	-12.524
assau	-12.524
▁warner	-12.524
▁cedar	-12.524
▁christi	-12.524
▁oprah	-12.524
▁Bennet	-12.5241
stille	-12.5242
▁beaux	-12.5242
▁nhtsa	-12.5245
▁jain	-12.5245
▁chios	-12.5249
night	-12.5256
gao	-12.5258
dare	-12.5268
vos	-12.5269
enver	-12.5289
evo	-12.5294
eway	-12.5298
-18	-12.5307
▁chê	-12.5309
▁gừ	-12.5313
logic	-12.5322
Pr	-12.5327
oulin	-12.5335
abil	-12.5336
▁160	-12.5346
epa	-12.5347
▁Fort	-12.5357
▁Mohamm	-12.5375
®	-12.5375
▁constantin	-12.5375
▁massage	-12.5375
▁mckin	-12.5376
▁Lucas	-12.5376
▁maxim	-12.5377
▁1,1	-12.5379
▁lotus	-12.538
▁Hamil	-12.5381
saac	-12.5382
▁1200	-12.5383
ruz	-12.5385
rack	-12.5389
▁199	-12.5393
▁weis	-12.5399
▁clay	-12.54
four	-12.541
tura	-12.5428
ander	-12.5437
▁wei	-12.544
▁Eric	-12.5448
list	-12.5448
ection	-12.546
-8	-12.546
ndon	-12.5465
▁fore	-12.548
anor	-12.5481
▁jet	-12.5482
▁Lana	-12.5494
1,000	-12.55
▁đơ	-12.5503
lbert	-12.5505
etta	-12.5507
Như	-12.5508
rugman	-12.551
▁Gentilel	-12.5512
▁alaska	-12.5512
▁bourbon	-12.5512
▁giuliani	-12.5512
▁joyce	-12.5512
▁mortgage	-12.5512
▁relief	-12.5512
▁Chọn	-12.5512
▁Juan	-12.5512
Norman	-12.5513
▁philipp	-12.5513
▁burton	-12.5514
cademi	-12.5514
▁reese	-12.5515
▁Fred	-12.5516
▁olive	-12.5516
▁phoenix	-12.5517
▁patan	-12.5518
▁Wells	-12.5519
▁2007	-12.5519
uzz	-12.5522
▁voth	-12.5524
▁hyper	-12.5528
▁Marc	-12.5534
abor	-12.5536
▁fur	-12.5537
bush	-12.5541
▁sỏ	-12.5545
dden	-12.5547
-10	-12.5558
cowle	-12.5572
aison	-12.5575
urgh	-12.5578
▁mul	-12.5587
▁dừa	-12.5601
ement	-12.5617
▁Ad	-12.5618
▁đê	-12.5624
annie	-12.5633
▁Billy	-12.5637
ichigan	-12.5643
2000	-12.5644
▁jesuit	-12.5651
▁michael	-12.5651
▁Web	-12.5651
▁creek	-12.5652
iffel	-12.5652
perfect	-12.5652
▁enquirer	-12.5652
▁disney	-12.5653
▁corre	-12.5653
▁Blues	-12.5658
Có	-12.5658
▁tele	-12.5658
▁450	-12.5659
elve	-12.566
kkai	-12.5665
▁hooc	-12.5666
▁Mèo	-12.5666
▁dào	-12.567
▁Gd	-12.5671
▁horto	-12.5686
anasi	-12.5698
▁Tan	-12.5698
bane	-12.5705
zak	-12.5714
▁dega	-12.5731
capri	-12.5736
rdin	-12.5743
isle	-12.5746
tomo	-12.5754
▁Poll	-12.5755
▁lậu	-12.5765
▁3000	-12.5765
+	-12.5792
▁cathedrale	-12.5792
▁grafton	-12.5792
▁hadrian	-12.5792
▁frieze	-12.5792
▁galleri	-12.5792
uffet	-12.5792
▁Manch	-12.5792
Aksa	-12.5792
▁cypr	-12.5792
▁Barbar	-12.5793
rzan	-12.5793
▁elizabeth	-12.5795
▁irak	-12.5796
amil	-12.5796
▁alps	-12.5798
▁basse	-12.5802
urbar	-12.581
ossa	-12.5811
▁gara	-12.5816
▁umbr	-12.5823
▁ngạt	-12.5828
fire	-12.5829
▁Ins	-12.5855
azan	-12.5869
▁amble	-12.5869
oud	-12.5879
▁Pas	-12.5881
▁bois	-12.5883
▁cour	-12.5899
▁helm	-12.59
nsur	-12.5908
bach	-12.5911
igg	-12.5915
▁catal	-12.5916
cca	-12.5918
▁juda	-12.5928
ockefeller	-12.5931
mercur	-12.5935
Ố	-12.5935
▁anatolia	-12.5935
▁toyota	-12.5935
▁picnic	-12.5935
▁dayton	-12.5935
antorini	-12.5935
▁galata	-12.5935
▁willie	-12.5936
▁kingston	-12.5936
folk	-12.5938
▁riche	-12.594
▁Maryland	-12.5941
▁alph	-12.5942
anni	-12.5942
▁blow	-12.5945
▁3.3	-12.5946
▁Monte	-12.5947
▁bud	-12.595
▁caus	-12.5956
▁saudi	-12.596
Xin	-12.5962
▁Kath	-12.5965
▁vale	-12.5968
esque	-12.5976
▁Will	-12.5982
volta	-12.5989
works	-12.599
alto	-12.599
ayne	-12.6018
etti	-12.602
▁Nghi	-12.603
ggio	-12.6035
fford	-12.6039
rium	-12.604
▁rơ	-12.6048
▁gog	-12.6051
▁Cap	-12.6053
▁205	-12.6075
lsfo	-12.6077
▁Arizona	-12.608
▁indigent	-12.608
▁lakeland	-12.608
▁macedonia	-12.608
▁nepdg	-12.608
▁indonesia	-12.608
▁whiskey	-12.608
ä	-12.608
▁Lewinsk	-12.608
▁linux	-12.608
▁Palais	-12.608
▁complex	-12.608
▁klein	-12.608
kiki	-12.6082
▁2018	-12.6083
grass	-12.6084
▁sâ	-12.6084
▁1923	-12.6085
▁500,000	-12.6087
▁1700	-12.6091
▁warre	-12.6098
▁iberia	-12.61
▁sikh	-12.6103
rush	-12.6104
▁maple	-12.6107
hour	-12.6113
oya	-12.6117
diana	-12.6118
504	-12.612
irfa	-12.6123
▁aven	-12.6125
▁state	-12.6142
urre	-12.6148
bly	-12.6161
vor	-12.6177
rrin	-12.6177
▁kur	-12.6179
▁Ib	-12.618
obin	-12.6181
hru	-12.6189
arrer	-12.6193
miya	-12.6208
▁elasticit	-12.6227
▁pulitzer	-12.6227
▁drudge	-12.6227
▁Evans	-12.6227
▁cabin	-12.6227
▁provenc	-12.6227
▁louisville	-12.6227
▁Beve	-12.6228
▁Walter	-12.6228
▁chuck	-12.6229
lieb	-12.6229
▁khuẩn	-12.623
▁marx	-12.6231
▁montana	-12.6232
strom	-12.6239
scribe	-12.624
▁Christ	-12.6241
▁Carol	-12.6242
angel	-12.6243
▁dijo	-12.6247
▁agra	-12.625
▁campu	-12.6251
turin	-12.6264
▁hie	-12.6269
jah	-12.627
▁Van	-12.6271
bash	-12.6274
gency	-12.6287
▁neu	-12.6288
sada	-12.629
astings	-12.6291
▁Mailer	-12.6294
fies	-12.63
▁gallo	-12.6303
olic	-12.6308
aseo	-12.6327
▁costa	-12.6333
liff	-12.6339
▁villa	-12.6344
▁dĩ	-12.6345
▁Ol	-12.6356
▁verd	-12.6363
▁lút	-12.6367
glass	-12.6368
feld	-12.6368
ẹn	-12.637
Sang	-12.6373
icasso	-12.6375
oynihan	-12.6376
▁Lumpur	-12.6376
▁hanuk	-12.6376
▁beach	-12.6376
▁pokemon	-12.6376
douin	-12.6377
▁kirk	-12.6377
▁arcade	-12.6378
slide	-12.6392
▁generalization	-12.6393
mip	-12.6393
kaw	-12.6405
avign	-12.6405
ntau	-12.6427
▁reed	-12.6438
▁Ams	-12.6449
ahme	-12.6452
xes	-12.6482
▁126	-12.6487
llian	-12.649
oah	-12.6497
kill	-12.6499
▁campo	-12.6501
▁Port	-12.6503
ility	-12.6519
▁Gra	-12.6522
▁glori	-12.6525
▁Athens	-12.6528
▁caravagg	-12.6528
▁murph	-12.6528
▁hudson	-12.6528
▁oasd	-12.6528
▁Post	-12.653
▁zion	-12.653
quac	-12.653
▁Queen	-12.653
▁Jeff	-12.6531
▁murdoch	-12.6531
,300	-12.6534
▁gro	-12.6537
board	-12.6542
jura	-12.6551
adia	-12.6554
▁1.3	-12.6556
▁nhí	-12.6558
akta	-12.6559
adena	-12.6561
▁jude	-12.6566
▁Lò	-12.6566
uong	-12.6575
fbi	-12.6587
ẹ	-12.659
▁kag	-12.6591
▁cape	-12.6597
▁Beat	-12.6604
-0	-12.6618
amara	-12.6632
sely	-12.6635
▁180	-12.6657
▁110	-12.6659
oise	-12.6662
▁asho	-12.6669
▁Argentina	-12.6681
▁HIV	-12.6681
▁cosmopolitan	-12.6681
▁derwent	-12.6681
▁Cruise	-12.6681
▁GDP	-12.6681
▁Wilson	-12.6681
▁baptist	-12.6681
▁flytrap	-12.6682
▁cyber	-12.6682
eeves	-12.6682
▁koran	-12.6683
▁Ray	-12.6683
▁Jose	-12.6685
▁castle	-12.6686
▁noel	-12.6686
▁stake	-12.6686
▁blm	-12.6688
wski	-12.6704
▁hank	-12.6719
sby	-12.6739
lermo	-12.6749
▁Coc	-12.6754
acci	-12.676
elos	-12.6762
ances	-12.6762
lted	-12.6773
enz	-12.6774
▁Bart	-12.6789
pca	-12.679
▁workshare	-12.6798
rios	-12.6805
lik	-12.6821
Spa	-12.6827
▁Đổ	-12.6828
▁Trà	-12.6829
Hop	-12.683
mova	-12.6837
▁marseill	-12.6838
▁Indonesia	-12.6838
▁autoroute	-12.6838
▁bohemian	-12.6838
▁cricket	-12.6838
▁dominica	-12.6838
▁gutenberg	-12.6838
▁offsetting	-12.6838
▁pavilion	-12.6838
▁whipmaster	-12.6838
▁ephe	-12.6838
Tripp	-12.6838
gupta	-12.6838
determin	-12.6838
▁Fema	-12.6839
▁mykon	-12.6839
▁1939	-12.6841
rane	-12.6843
▁juanit	-12.6846
▁judi	-12.6846
▁Pont	-12.6847
tterman	-12.6848
▁Loan	-12.6848
▁morgan	-12.6851
▁royal	-12.6871
anza	-12.6874
▁busi	-12.6885
▁chốt	-12.6889
▁Huy	-12.6892
kala	-12.6898
▁gasp	-12.69
▁juli	-12.6906
enji	-12.691
▁malla	-12.6911
▁max	-12.6913
live	-12.6921
▁giun	-12.6961
2001	-12.698
oulo	-12.6996
▁AIDS	-12.6996
▁madras	-12.6996
▁piedmont	-12.6996
▁sitcom	-12.6996
▁jeep	-12.6996
applicab	-12.6996
▁impute	-12.6996
▁isabel	-12.6996
▁gosh	-12.6997
▁benido	-12.6997
▁kimono	-12.6997
▁Annette	-12.6997
.8	-12.6998
▁Wilki	-12.6999
with	-12.7008
▁Plo	-12.7011
▁Olive	-12.7014
HH	-12.7016
ault	-12.7017
champs	-12.7018
fman	-12.702
▁polyc	-12.7023
▁Cú	-12.7024
ronto	-12.7034
▁baile	-12.7057
eston	-12.7078
▁Ash	-12.71
▁carlo	-12.71
lois	-12.7107
▁148	-12.7118
eschi	-12.7122
bow	-12.7125
▁suh	-12.7142
yoshi	-12.7151
▁pound	-12.7154
▁idaho	-12.7158
▁haute	-12.7158
▁gondol	-12.7158
▁osha	-12.7159
▁flash	-12.7159
▁Palm	-12.7161
▁barbar	-12.7162
▁Tín	-12.7164
▁stuart	-12.7165
ummin	-12.7166
.7	-12.7169
▁overpay	-12.717
buzz	-12.717
Off	-12.7172
▁Cbs	-12.7176
xem	-12.7176
▁Dian	-12.7181
▁Khô	-12.7189
▁arte	-12.7194
riot	-12.7196
▁denver	-12.7202
arque	-12.7206
▁enro	-12.7207
▁Scr	-12.7208
nott	-12.7212
Nh	-12.7212
raque	-12.7212
▁750	-12.7222
▁Men	-12.7228
▁Leo	-12.7231
consol	-12.7231
ndre	-12.7233
sili	-12.7235
Denis	-12.7248
▁fis	-12.7254
▁Rosen	-12.726
▁homer	-12.7262
huri	-12.7269
verest	-12.7304
▁1300	-12.7306
ondi	-12.7307
hardt	-12.7313
ahoo	-12.7315
william	-12.7318
▁stem	-12.7321
▁carthaginian	-12.7322
▁cloister	-12.7322
▁macroeconomic	-12.7322
▁methodological	-12.7322
Antoine	-12.7322
▁siena	-12.7322
▁nehru	-12.7322
▁daniel	-12.7322
▁Studio	-12.7322
▁oscar	-12.7322
▁anderson	-12.7322
ubpart	-12.7323
alta	-12.7324
▁inhouse	-12.7326
▁xv	-12.7326
▁cromwell	-12.7326
orton	-12.7326
▁Anti	-12.7328
▁80,000	-12.7331
icente	-12.7331
▁clinger	-12.7331
▁Cio	-12.7332
▁3.5	-12.7333
▁fring	-12.7333
▁Santo	-12.7336
▁mitch	-12.7342
file	-12.7349
▁Porto	-12.735
▁herb	-12.7354
▁hercule	-12.7354
▁702	-12.7358
color	-12.736
▁brea	-12.7363
▁Leonard	-12.7378
classe	-12.7382
erme	-12.7385
ipm	-12.7407
jor	-12.741
ssette	-12.7414
umin	-12.7428
▁rêu	-12.7438
▁Chín	-12.7447
▁park	-12.7447
ephr	-12.7449
▁12,000	-12.7451
▁smi	-12.7452
huel	-12.7455
▁how	-12.7457
illike	-12.7466
hiloh	-12.7477
▁Cambridge	-12.7488
▁balkan	-12.7488
▁berkeley	-12.7488
▁emerald	-12.7488
▁penrith	-12.7488
▁russert	-12.7488
▁quantitative	-12.7488
▁christo	-12.7488
etanya	-12.7488
▁jefferson	-12.7488
▁House	-12.7489
▁esplan	-12.749
▁hawai	-12.749
▁stack	-12.7492
▁1971	-12.7492
▁Fox	-12.7492
fleur	-12.7494
▁Kitche	-12.7494
▁Gand	-12.7496
▁1915	-12.75
▁đèo	-12.7503
icole	-12.7503
▁4.5	-12.7507
▁City	-12.7514
pped	-12.7517
Kéo	-12.7518
▁azur	-12.7519
▁Bull	-12.7521
▁alpin	-12.7522
▁lorr	-12.7522
▁saintes	-12.7526
opf	-12.7526
dere	-12.7528
▁Nathan	-12.7531
▁Cry	-12.7541
eyes	-12.7559
▁rip	-12.7567
hrer	-12.7567
▁1.0	-12.7571
ologn	-12.7574
▁shim	-12.7579
▁canon	-12.758
▁maha	-12.758
lope	-12.7588
123	-12.7595
▁Trí	-12.76
▁Pri	-12.7604
▁Sợ	-12.7604
enter	-12.7606
bek	-12.7612
ems	-12.7634
jou	-12.7641
artier	-12.7641
vốn	-12.7645
ears	-12.7654
▁Clark	-12.7654
venger	-12.7655
▁hydro	-12.7658
Ổ	-12.7658
▁Ralph	-12.7658
▁benedictin	-12.7658
▁effluent	-12.7658
▁highland	-12.7658
▁joseph	-12.7658
▁marguerite	-12.7658
▁rainforest	-12.7658
management	-12.7658
▁enterprise	-12.7658
▁segovia	-12.7658
▁picard	-12.7658
▁palaci	-12.7658
▁caletta	-12.7658
▁Harris	-12.7659
▁bengal	-12.7659
▁hamlet	-12.766
▁cityel	-12.766
▁wilde	-12.7661
▁Cather	-12.7663
▁Bryan	-12.7669
icle	-12.7671
▁seti	-12.7674
pole	-12.7674
▁kells	-12.7685
Pom	-12.7687
adu	-12.7693
▁Quin	-12.7695
Reim	-12.7698
▁fasa	-12.7702
▁Thổ	-12.7706
▁Cole	-12.7711
moto	-12.7717
eras	-12.7728
rox	-12.7732
hugh	-12.7735
gora	-12.7737
hops	-12.7771
▁keo	-12.7776
biz	-12.778
moor	-12.7813
harlotte	-12.7818
ooley	-12.7818
hali	-12.7826
tionist	-12.783
▁ductwork	-12.783
▁sullivan	-12.783
▁essex	-12.783
▁montmartr	-12.783
claugh	-12.783
▁liveli	-12.783
▁frederic	-12.7832
▁muhammad	-12.7832
▁montparnasse	-12.7833
▁nepal	-12.7833
▁vieux	-12.7833
endra	-12.7839
▁Dann	-12.784
▁kota	-12.784
▁lawn	-12.7843
▁60,000	-12.7845
▁170	-12.7845
heater	-12.7851
▁arab	-12.786
▁ghat	-12.786
lce	-12.7862
▁2.1	-12.7867
▁140	-12.7867
izu	-12.7877
-97	-12.7879
▁etruscan	-12.7879
eurs	-12.7881
▁Ox	-12.7885
▁boud	-12.7891
▁apt	-12.7895
▁Ball	-12.7896
The	-12.7915
fund	-12.7919
hatcher	-12.7924
▁1.9	-12.7927
▁122	-12.794
▁grande	-12.7945
Ud	-12.7946
oán	-12.7955
arks	-12.7962
▁great	-12.7974
▁metro	-12.7985
zzar	-12.7987
▁Za	-12.7989
▁yankee	-12.799
simo	-12.7993
▁Ze	-12.7999
endo	-12.8001
▁savo	-12.8001
Z	-12.8003
▁salt	-12.8003
▁Stewar	-12.8006
▁4.0	-12.8006
▁Amazon	-12.8006
▁enclave	-12.8006
▁express	-12.8006
▁mccarthy	-12.8006
▁trinfan	-12.8006
Relief	-12.8006
▁cumber	-12.8006
▁talmud	-12.8006
rgarten	-12.8006
▁pepper	-12.8006
▁stalin	-12.8007
ndianapolis	-12.8007
lash	-12.8012
▁1958	-12.8012
▁satan	-12.8012
▁hacker	-12.8013
ball	-12.8015
uffi	-12.8015
▁AL	-12.802
ologi	-12.802
alization	-12.8026
▁robi	-12.8033
euf	-12.8038
▁mahat	-12.8039
▁corn	-12.8044
▁arme	-12.8045
Môn	-12.8057
llage	-12.8083
arily	-12.8086
script	-12.8091
ugge	-12.8123
▁flor	-12.8128
coli	-12.8178
hood	-12.8181
bourne	-12.8184
▁fontaine	-12.8184
▁hatshepsut	-12.8184
▁kelantan	-12.8184
▁sophia	-12.8184
▁toxicant	-12.8184
▁Sophi	-12.8184
▁tutmos	-12.8184
▁rhine	-12.8184
▁knoss	-12.8184
▁simpson	-12.8184
▁riva	-12.8186
eauville	-12.8186
▁Salt	-12.8189
▁blue	-12.8192
▁diane	-12.8195
▁craig	-12.8196
rooke	-12.8197
▁guru	-12.8202
eria	-12.8208
▁wit	-12.8212
▁Alex	-12.8214
Đun	-12.8222
▁lsm	-12.8226
oner	-12.8226
▁Thú	-12.823
kaku	-12.8231
,000,000	-12.8231
▁moore	-12.8234
hew	-12.824
▁mauric	-12.8242
▁thọ	-12.8242
free	-12.8269
love	-12.8287
PH	-12.8287
Up	-12.829
istan	-12.8332
racke	-12.8344
raig	-12.8362
▁August	-12.8366
▁outsourc	-12.8366
▁Bonnie	-12.8366
▁apollo	-12.8366
▁salvador	-12.8366
▁Brune	-12.8366
▁ucla	-12.8366
▁aqua	-12.8366
▁shop	-12.8366
▁golan	-12.8366
▁common	-12.8367
▁Gop	-12.8367
hawk	-12.8367
lemente	-12.8368
▁nhò	-12.837
▁irvin	-12.837
▁intel	-12.837
stanford	-12.8372
▁Grace	-12.8372
▁hack	-12.8372
▁2.5	-12.8374
morrow	-12.8375
agall	-12.8376
▁grim	-12.8396
▁Ria	-12.84
retan	-12.841
amine	-12.8419
▁Barr	-12.8433
Carl	-12.8441
alifornia	-12.8454
ephard	-12.8457
▁350	-12.8461
lais	-12.853
ellen	-12.8538
▁kerr	-12.854
lack	-12.8543
enetian	-12.8546
▁bret	-12.8547
▁Sea	-12.8548
▁flexibili	-12.8551
▁attleboro	-12.8551
▁impressionist	-12.8551
▁livingston	-12.8551
▁mustang	-12.8551
▁odyssey	-12.8551
ieczy	-12.8551
▁forrest	-12.8551
▁kristo	-12.8551
aliban	-12.8551
▁torre	-12.8551
▁rugged	-12.8551
▁stereo	-12.8551
▁texaco	-12.8551
▁portico	-12.8552
▁wyo	-12.8552
▁Stone	-12.8553
metric	-12.8553
▁damas	-12.8554
gow	-12.8556
▁indo	-12.8557
galore	-12.8559
▁amun	-12.856
▁christian	-12.8562
llab	-12.8565
▁manning	-12.8573
▁Huh	-12.8573
oig	-12.8575
▁dante	-12.8577
sible	-12.8585
▁brook	-12.8587
essee	-12.8587
ndera	-12.8593
▁mets	-12.8593
▁irre	-12.8606
apers	-12.8607
Paul	-12.8608
▁Spi	-12.861
là	-12.8616
▁castill	-12.8616
▁fpa	-12.8635
verdan	-12.8647
nnai	-12.8674
grad	-12.868
mund	-12.8681
▁home	-12.8683
▁Fla	-12.8689
arles	-12.869
▁hipp	-12.8707
agio	-12.8733
eavywe	-12.874
▁Shiva	-12.874
▁endpoints	-12.874
▁nicaragua	-12.874
▁populist	-12.874
▁sepulcher	-12.874
▁brew	-12.874
▁maggior	-12.874
igand	-12.8741
▁unfil	-12.8742
ashik	-12.8742
▁rud	-12.8742
▁rousse	-12.8742
ondo	-12.8745
▁2009	-12.8746
▁400,000	-12.8747
einstein	-12.8749
▁Mitch	-12.875
selas	-12.8752
ounted	-12.8757
▁Rita	-12.8759
lier	-12.8759
Dori	-12.8761
bents	-12.8762
▁colomb	-12.8765
▁inde	-12.8772
angelic	-12.8774
▁brit	-12.8782
▁jenn	-12.8789
▁Eva	-12.8796
iger	-12.8815
dwell	-12.8816
tamin	-12.8823
▁colle	-12.8831
▁garde	-12.8832
rodin	-12.8838
▁203	-12.884
grave	-12.8841
ulls	-12.8859
▁master	-12.8859
orial	-12.8866
▁cort	-12.8879
rosema	-12.888
▁Kau	-12.8881
rizz	-12.8882
▁miche	-12.8886
▁butte	-12.8887
ements	-12.8888
anji	-12.8889
inz	-12.8896
▁pert	-12.8896
▁jud	-12.8924
▁Cooper	-12.8932
▁Gabriel	-12.8932
▁Kentuck	-12.8932
▁Margare	-12.8932
▁kodak	-12.8932
▁malcolm	-12.8932
▁mcdonald	-12.8932
▁bazaars	-12.8932
▁chlorine	-12.8932
▁edifice	-12.8932
▁inflow	-12.8932
rigg	-12.8932
▁thomas	-12.8932
▁babylon	-12.8932
▁Collin	-12.8932
upiter	-12.8932
▁perennial	-12.8932
▁wacht	-12.8932
dolph	-12.8933
▁avid	-12.8933
swing	-12.8933
▁Eiffel	-12.8933
▁perakia	-12.8933
▁Malay	-12.8934
▁Inter	-12.8934
▁osaka	-12.8934
Bernard	-12.8935
incourt	-12.8935
▁krak	-12.8935
▁1492	-12.8936
▁dukaki	-12.8937
anese	-12.8938
glades	-12.8938
▁watt	-12.8939
zena	-12.8944
▁Levin	-12.8945
▁arnol	-12.8947
rized	-12.8956
▁hind	-12.8956
▁Shar	-12.8958
▁mich	-12.8962
hammer	-12.8967
▁reim	-12.8969
▁baby	-12.8972
▁hú	-12.8981
▁chateau	-12.8983
▁rica	-12.8992
dminist	-12.8994
oswell	-12.8994
Á	-12.9017
tural	-12.9017
santo	-12.9019
▁Kê	-12.9022
▁lance	-12.9022
orrison	-12.9045
▁kir	-12.905
aves	-12.9066
enco	-12.907
heba	-12.9088
▁clark	-12.9091
▁Phú	-12.9101
dion	-12.911
Pop	-12.9112
▁Matthew	-12.9128
▁hapsburg	-12.9128
▁milwaukee	-12.9128
▁nebbish	-12.9128
▁Caesar	-12.9128
▁scop	-12.9129
▁ggd	-12.9129
▁Albu	-12.9131
▁Word	-12.9132
luster	-12.9133
▁0.1	-12.9134
booth	-12.9134
▁609	-12.9135
asque	-12.9135
▁timber	-12.9138
▁kmart	-12.914
▁Clar	-12.9144
intie	-12.9144
▁Yu	-12.9148
aterp	-12.9155
▁arag	-12.9155
▁madi	-12.9162
▁aeo	-12.9163
bond	-12.9165
Trại	-12.9172
▁logo	-12.9179
ostro	-12.9185
donk	-12.9187
iens	-12.919
▁ruth	-12.9225
omah	-12.9229
▁appal	-12.9232
tanf	-12.924
▁Ul	-12.9258
venue	-12.9263
▁Holl	-12.9264
urke	-12.9271
roce	-12.9276
arais	-12.9276
▁marian	-12.9288
leopa	-12.9296
▁Phổ	-12.9302
▁5000	-12.931
▁counter	-12.9312
▁who	-12.9317
ingston	-12.932
<	-12.9328
▁square	-12.9328
▁flynt	-12.9328
nintend	-12.9328
▁elicit	-12.9328
▁Jefferson	-12.9328
▁litva	-12.9328
olanta	-12.933
egus	-12.9331
ennial	-12.9335
slap	-12.9336
▁borde	-12.9336
▁4.1	-12.9338
omme	-12.934
▁esk	-12.9346
▁pudding	-12.9346
▁silv	-12.9347
▁nubia	-12.9353
▁Chí	-12.9355
illar	-12.9374
etical	-12.9376
jar	-12.9376
egna	-12.9381
kman	-12.9383
avea	-12.9396
lated	-12.9403
ould	-12.9409
Francois	-12.9419
▁135	-12.9449
▁Bobb	-12.9454
ancel	-12.9478
▁padu	-12.9481
▁carol	-12.9505
inster	-12.9512
wall	-12.9514
▁6,	-12.9515
▁phoeni	-12.9525
subsidiz	-12.9532
▁griffith	-12.9532
▁presidenta	-12.9532
▁uninsur	-12.9532
▁vittori	-12.9532
▁Phillip	-12.9532
▁ebay	-12.9532
▁nichol	-12.9532
▁ferrar	-12.9532
▁sabbat	-12.9533
regory	-12.9533
▁cpk	-12.9534
▁singh	-12.9535
▁emanuel	-12.9536
▁Krugman	-12.9536
rancaise	-12.9538
▁linds	-12.9539
▁1905	-12.9539
▁2.0	-12.9542
agena	-12.9545
store	-12.9546
addes	-12.9565
▁Unite	-12.9571
uters	-12.9574
petra	-12.9578
hoáng	-12.9587
fill	-12.9589
dance	-12.9591
arvel	-12.9632
▁scali	-12.9637
macha	-12.964
▁castil	-12.9644
▁lesvo	-12.9647
▁pfi	-12.9648
resse	-12.9667
retto	-12.9669
jack	-12.9673
Cổ	-12.9674
KM	-12.9677
harth	-12.9698
1991	-12.9703
▁bul	-12.9712
▁lacquer	-12.9741
▁miller	-12.9741
heikh	-12.9741
▁Joyce	-12.9741
▁Windows	-12.9741
▁cookbook	-12.9741
▁mileage	-12.9741
lacroix	-12.9741
▁TCN	-12.9741
▁murcia	-12.9741
▁perugia	-12.9741
▁Gpra	-12.9741
▁512-	-12.9741
build	-12.9741
▁signori	-12.9741
▁totali	-12.9741
▁orrer	-12.9741
draw	-12.9741
▁prudence	-12.9741
▁Warner	-12.9741
haven	-12.9741
▁nege	-12.9741
▁topless	-12.9741
▁termin	-12.9742
▁mụn	-12.9742
omania	-12.9744
▁Alice	-12.9744
chowk	-12.9745
▁1943	-12.9745
writ	-12.9745
▁0.2	-12.9747
▁murray	-12.9748
▁welles	-12.9748
▁Wales	-12.9748
▁jerry	-12.9748
▁Yup	-12.9753
▁maui	-12.9755
▁120,000	-12.9756
Dick	-12.9763
Sen	-12.9766
viej	-12.9779
▁Pisa	-12.9789
▁Big	-12.9791
enzo	-12.9798
linger	-12.9801
Sab	-12.9806
cost	-12.981
ulf	-12.9821
▁demo	-12.9828
▁eul	-12.9831
bbie	-12.9835
▁arma	-12.9857
▁acre	-12.9884
arqu	-12.989
ommy	-12.9892
▁Lũ	-12.9897
kaki	-12.9897
▁perkin	-12.9899
▁hosse	-12.9918
▁Mộ	-12.9945
Hoà	-12.9945
▁alz	-12.995
▁signpost	-12.9953
▁deciview	-12.9953
▁mesopotamia	-12.9953
▁Centre	-12.9953
▁Opera	-12.9953
▁siberia	-12.9954
▁omni	-12.9954
▁reclin	-12.9954
▁ledford	-12.9954
Garni	-12.9954
▁monarch	-12.9954
▁nghẹ	-12.9954
▁indus	-12.9954
▁Wayne	-12.9954
▁zucker	-12.9954
▁Luther	-12.9955
▁trumpet	-12.9955
▁carib	-12.9955
quita	-12.9956
▁Gigot	-12.9956
▁flex	-12.9956
▁south	-12.9957
▁Canal	-12.9958
azda	-12.9958
itters	-12.9958
▁cove	-12.9959
▁bursa	-12.9959
lesia	-12.9961
icular	-12.9962
▁xê	-12.9963
▁Brod	-12.9969
▁Giấ	-12.9992
▁Nora	-12.9992
fork	-12.9996
▁nora	-13.0002
Contra	-13.0003
▁parrie	-13.0006
Thờ	-13.0015
▁Yế	-13.0031
▁mulch	-13.0037
drin	-13.0057
▁cram	-13.0063
iscus	-13.0071
wire	-13.0078
▁118	-13.0084
Malo	-13.0093
▁lipp	-13.0099
vard	-13.0121
▁1400	-13.0142
heart	-13.0159
▁Fuji	-13.0169
▁Springs	-13.0171
▁cumbria	-13.0171
▁deregulation	-13.0171
▁ethiopia	-13.0171
▁landfills	-13.0171
▁synergi	-13.0171
▁Respondents	-13.0171
▁gustav	-13.0171
asjid	-13.0171
▁metaboli	-13.0171
▁herald	-13.0171
▁Nichol	-13.0171
▁ncaa	-13.0171
hrenh	-13.0171
▁yellow	-13.0171
▁convey	-13.0171
▁Petit	-13.0172
▁hetel	-13.0172
▁greenberg	-13.0173
hinatown	-13.0174
▁rolls	-13.0174
ollet	-13.0174
renggan	-13.0175
ujiwara	-13.0178
▁2016	-13.0178
▁Wille	-13.0179
▁1957	-13.0179
ecker	-13.018
zone	-13.0182
▁Reno	-13.0186
valier	-13.0217
rham	-13.0226
ejo	-13.0227
▁lenin	-13.0241
ourse	-13.0248
inski	-13.0254
▁flore	-13.0269
anuel	-13.027
ruman	-13.0282
ogy	-13.0292
▁nep	-13.03
raham	-13.0303
Din	-13.0311
arillo	-13.0312
▁Cư	-13.0312
▁casting	-13.0316
luny	-13.0321
▁Tenn	-13.0326
club	-13.0333
▁hán	-13.0333
liffe	-13.0361
piri	-13.0366
riar	-13.0377
ostner	-13.0382
unchal	-13.0392
▁Junior	-13.0393
▁authoritarian	-13.0393
▁ethnographic	-13.0393
▁ibicenco	-13.0393
▁kosovar	-13.0393
▁multiracial	-13.0393
▁outcrop	-13.0393
▁pjff	-13.0393
ç	-13.0393
▁editorial	-13.0393
▁prince	-13.0393
▁Henri	-13.0393
▁kinaba	-13.0393
▁little	-13.0393
▁proserity	-13.0393
▁perugin	-13.0393
ontgomer	-13.0393
▁bosnia	-13.0393
▁Kirb	-13.0393
▁nicola	-13.0393
▁bernard	-13.0394
▁allen	-13.0394
▁cùn	-13.0394
▁Latin	-13.0395
▁angele	-13.0397
▁frana	-13.04
▁2017	-13.0402
▁Klaym	-13.0403
▁Atla	-13.0403
louc	-13.0405
▁yeat	-13.0409
US	-13.0419
▁Kenne	-13.0423
1,2	-13.0423
matsu	-13.0429
shima	-13.0432
▁pine	-13.0432
▁ingli	-13.0435
terol	-13.0435
dige	-13.0439
▁corb	-13.044
onomic	-13.0446
exus	-13.0448
▁1.7	-13.0463
▁gazi	-13.0468
mbled	-13.0468
Nó	-13.0471
▁pali	-13.0477
gaza	-13.0479
▁2.2	-13.0482
▁Vinc	-13.0489
rvati	-13.0496
emps	-13.0511
wand	-13.0511
▁ionia	-13.0548
▁cert	-13.0567
,700	-13.057
▁porter	-13.0607
gnp	-13.0608
andar	-13.0619
ANS	-13.062
agnoli	-13.062
▁Farmworker	-13.062
▁Hughes	-13.062
▁Mercedes	-13.062
▁Murph	-13.062
▁carnival	-13.062
▁foreclosure	-13.062
▁palheiro	-13.062
▁seleyman	-13.062
Morrow	-13.062
ontinental	-13.062
▁greyf	-13.062
▁pdf	-13.062
▁whisky	-13.062
▁gyps	-13.062
▁narayan	-13.0621
▁herz	-13.0621
▁riverside	-13.0621
▁juno	-13.0621
▁waverl	-13.0621
▁assis	-13.0621
▁proser	-13.0621
▁Wild	-13.0621
yrac	-13.0622
▁robertson	-13.0623
▁url	-13.0624
▁williams	-13.0625
▁north	-13.0625
▁avenger	-13.063
▁River	-13.0631
▁1870	-13.0632
▁wales	-13.0634
ionale	-13.0635
▁Under	-13.0642
▁Wei	-13.0652
▁celt	-13.0653
ezzo	-13.0656
▁shee	-13.071
▁este	-13.0715
level	-13.0719
eights	-13.0758
▁360	-13.0758
otter	-13.0777
bind	-13.0783
argo	-13.0786
ndir	-13.079
▁alexand	-13.0792
▁albu	-13.0828
▁tuscan	-13.0838
▁perak	-13.0852
prototyp	-13.0853
▁scotch	-13.0853
enchmarking	-13.0853
▁Colorado	-13.0853
▁croatia	-13.0853
▁heroin	-13.0853
▁mameluke	-13.0853
▁mozart	-13.0853
▁parody	-13.0853
▁safari	-13.0853
É	-13.0853
▁unlv	-13.0853
▁Honda	-13.0853
▁chechen	-13.0853
▁Eglise	-13.0854
▁nuev	-13.0854
▁scrubb	-13.0854
opol	-13.0856
▁katz	-13.0857
▁0.6	-13.0859
▁Kiss	-13.0859
▁Wend	-13.086
studio	-13.0862
▁ocho	-13.0864
▁batu	-13.0866
▁comedi	-13.0867
muna	-13.0885
alest	-13.0896
adio	-13.09
income	-13.09
valenc	-13.0902
▁Lsn	-13.0905
▁jewel	-13.0921
amy	-13.0922
▁cornel	-13.0932
huê	-13.0934
ourma	-13.0947
▁paso	-13.0949
kari	-13.0952
egli	-13.0964
latter	-13.1013
hristian	-13.1016
▁fil	-13.1018
break	-13.1036
ganda	-13.1038
lloway	-13.1056
▁generaliz	-13.1063
▁9000	-13.1064
tuart	-13.1081
marine	-13.1082
▁windsurf	-13.1091
III	-13.1091
evolution	-13.1091
▁Arcinas	-13.1091
▁Guadeloupe	-13.1091
▁Memphis	-13.1091
▁bradshaw	-13.1091
▁invalide	-13.1091
▁Utah	-13.1091
▁sorbon	-13.1091
▁sfas	-13.1091
▁Euro	-13.1091
▁brink	-13.1091
▁hughes	-13.1091
▁croake	-13.1091
▁menhir	-13.1091
▁zionism	-13.1091
▁Blanc	-13.1092
▁avalo	-13.1092
▁Lauren	-13.1092
margue	-13.1092
▁paolo	-13.1094
▁Krist	-13.1094
irca	-13.1096
orough	-13.1097
jj	-13.1101
▁1903	-13.1101
iak	-13.1104
onof	-13.1105
economi	-13.1107
pelle	-13.1125
▁pear	-13.113
solve	-13.1131
▁epo	-13.1156
▁1.4	-13.1159
▁fact	-13.1165
▁valer	-13.1166
type	-13.1176
kta	-13.1177
fant	-13.1193
▁belg	-13.1211
aurel	-13.123
oads	-13.1233
media	-13.1236
▁edit	-13.1237
ntly	-13.124
▁vươn	-13.125
egon	-13.1252
space	-13.1262
▁Over	-13.1268
xar	-13.127
ckett	-13.1279
▁bergma	-13.1299
avona	-13.1321
andia	-13.1321
rating	-13.1326
▁acclimat	-13.1335
▁Brink	-13.1335
▁Express	-13.1335
▁Georgia	-13.1335
▁disburs	-13.1335
▁kebap	-13.1335
▁parcell	-13.1335
▁schwarz	-13.1335
▁modernis	-13.1335
▁ortho	-13.1335
▁beatri	-13.1335
▁Lukas	-13.1335
aggling	-13.1335
▁asakusa	-13.1335
▁matthew	-13.1335
▁rốt	-13.1335
▁eugen	-13.1336
▁ferdinand	-13.1336
▁brock	-13.1336
▁skid	-13.1336
▁hawks	-13.1336
▁Ghé	-13.1337
terdam	-13.1337
▁kazi	-13.1337
▁siê	-13.1338
Vincent	-13.1338
roux	-13.134
emane	-13.134
▁naxo	-13.134
Nicola	-13.1342
▁theodosi	-13.1343
ccord	-13.1343
▁earl	-13.1349
▁sabin	-13.1356
harb	-13.1357
▁leman	-13.1358
▁donat	-13.136
ladi	-13.137
wise	-13.1371
ponent	-13.1374
▁motor	-13.1386
Made	-13.1392
elma	-13.1398
stee	-13.1409
▁goo	-13.147
celli	-13.148
atalin	-13.1516
aspar	-13.1517
arrant	-13.1539
▁Good	-13.1549
tiberia	-13.1553
gged	-13.1553
▁4000	-13.1555
arrett	-13.1556
ichelangelo	-13.1576
udovitz	-13.1577
shogu	-13.1581
▁afghan	-13.1585
▁montreuil	-13.1585
effectual	-13.1585
▁Young	-13.1585
▁mixtec	-13.1585
▁postmodern	-13.1585
▁shinjuku	-13.1585
▁stalagmite	-13.1585
▁tribune	-13.1585
▁hollywood	-13.1585
▁Fried	-13.1585
▁Garden	-13.1585
▁summariz	-13.1585
▁giacomett	-13.1585
vijaya	-13.1585
▁monopol	-13.1585
▁edmund	-13.1585
▁grunt	-13.1585
▁pedro	-13.1585
▁Erlenborn	-13.1585
▁hellenis	-13.1586
agdalen	-13.1586
▁palati	-13.1586
▁snow	-13.1586
czyn	-13.1587
▁Laura	-13.1587
▁slot	-13.1589
lothian	-13.159
▁Tem	-13.1597
cadill	-13.1602
225	-13.1606
storm	-13.1615
▁propa	-13.1617
▁agr	-13.1625
NH	-13.1627
▁Aud	-13.1631
aving	-13.1631
1,700	-13.1641
Thơ	-13.1641
zek	-13.1642
anyon	-13.1646
eppi	-13.1648
igue	-13.165
serve	-13.1669
340	-13.1697
ellor	-13.1704
▁vaca	-13.1705
▁Glen	-13.1706
▁full	-13.1732
▁retir	-13.1755
▁muỗ	-13.1767
watch	-13.1773
▁blooming	-13.1792
atcher	-13.1803
Day	-13.1815
hakespeare	-13.183
Phen	-13.183
tewardship	-13.183
star	-13.1836
▁victor	-13.1836
▁brunell	-13.1841
--------	-13.1841
▁fertiliz	-13.1841
ā	-13.1841
▁Samuel	-13.1841
▁baldwin	-13.1841
▁chechnya	-13.1841
▁cruise	-13.1841
▁illustrati	-13.1841
▁testosterone	-13.1841
arnegie	-13.1841
▁guadal	-13.1841
▁stallone	-13.1841
ñ	-13.1841
▁Glass	-13.1841
▁darwin	-13.1841
▁centre	-13.1841
▁pleas	-13.1841
weak	-13.1841
▁marigot	-13.1842
▁compost	-13.1842
▁hauss	-13.1842
▁tiep	-13.1843
▁miata	-13.1843
▁Trump	-13.1843
▁junk	-13.1844
▁savan	-13.1844
examine	-13.1845
ercher	-13.1845
▁ebook	-13.1847
▁Brit	-13.1848
▁kohl	-13.1849
▁gedi	-13.185
▁Nile	-13.1851
▁drap	-13.1852
▁popular	-13.1856
▁plus	-13.187
▁parose	-13.188
▁vecchi	-13.189
odk	-13.1915
▁3.1	-13.1926
▁sistin	-13.1929
ilken	-13.1933
retire	-13.1937
fayet	-13.1939
▁weight	-13.1957
lcher	-13.1963
▁1,4	-13.1975
brick	-13.1985
eppe	-13.1989
▁newar	-13.1991
urnin	-13.1995
▁power	-13.1999
▁funer	-13.2031
aomi	-13.2055
rlitz	-13.2063
cultural	-13.2074
Muss	-13.2086
ombo	-13.2091
urray	-13.2096
khiếm	-13.2099
▁fuji	-13.2102
▁jaisalm	-13.2104
▁commission	-13.2104
Choicer	-13.2104
Ặ	-13.2104
▁Maroon	-13.2104
▁Pavilion	-13.2104
▁hawthorn	-13.2104
▁maalok	-13.2104
▁psycho	-13.2104
▁shortfall	-13.2104
▁vesuvi	-13.2104
practicab	-13.2104
▁2.3	-13.2104
▁Hamlet	-13.2104
▁brazil	-13.2104
▁palladi	-13.2104
computer	-13.2104
▁cameron	-13.2104
stead	-13.2105
▁sports	-13.2105
▁Muối	-13.2105
▁baltic	-13.2105
▁jenkin	-13.2105
▁rusty	-13.2105
▁Acrose	-13.2105
uwei	-13.2105
▁Lynn	-13.2106
▁stevenson	-13.2106
▁stanisla	-13.2106
Max	-13.2107
▁1,300	-13.2109
ovingly	-13.211
▁harve	-13.2111
▁Fall	-13.2115
▁primer	-13.2116
▁18,000	-13.2119
uppl	-13.2122
rera	-13.2126
aldon	-13.2128
stop	-13.2141
▁foli	-13.2156
▁6.4	-13.2163
▁branc	-13.2173
▁1.8	-13.2178
gaku	-13.2181
patna	-13.2188
Ơ	-13.2217
▁bolt	-13.2222
athi	-13.2235
▁Wag	-13.2236
▁bourge	-13.2279
olster	-13.231
repe	-13.232
▁Campu	-13.2375
discriminator	-13.2375
▁2000-2005	-13.2375
▁Sultan	-13.2375
▁bhairav	-13.2375
▁forfeiture	-13.2375
▁fountain	-13.2375
▁jazzercise	-13.2375
▁jockey	-13.2375
▁marathon	-13.2375
▁marshland	-13.2375
▁speculator	-13.2375
certain	-13.2375
▁Bartolom	-13.2375
▁gentilel	-13.2375
leju	-13.2375
▁unveil	-13.2375
people	-13.2375
▁Puert	-13.2375
▁Adobe	-13.2375
▁feminis	-13.2375
1,9	-13.2375
▁Potter	-13.2376
▁nitrat	-13.2376
skirt	-13.2376
▁prolif	-13.2376
anjus	-13.2376
▁coloss	-13.2377
posed	-13.2377
▁Reese	-13.2378
Tropez	-13.2378
▁Alexandria	-13.2381
upert	-13.2382
exter	-13.2393
wynet	-13.2399
igny	-13.2404
EX	-13.2409
▁Tele	-13.2412
agli	-13.2441
▁scor	-13.2456
▁musing	-13.2465
zko	-13.2473
arage	-13.2482
▁hoạ	-13.2502
eatles	-13.2535
uiz	-13.2553
lenti	-13.2556
action	-13.2563
▁heath	-13.2572
guille	-13.2578
▁fanni	-13.2581
leig	-13.2611
edicare	-13.2644
Sax	-13.2645
foil	-13.2646
bellin	-13.2648
š	-13.2652
▁biblio	-13.2652
▁strateg	-13.2652
ǐ	-13.2653
▁Schwartz	-13.2653
▁clinician	-13.2653
▁keynesian	-13.2653
▁ricardian	-13.2653
▁samuel	-13.2653
▁stucco	-13.2653
▁universal	-13.2653
Jacques	-13.2653
employ	-13.2653
▁jumbo	-13.2653
▁culture	-13.2653
▁cadillac	-13.2653
▁winnie	-13.2653
▁kwh	-13.2653
▁frugal	-13.2653
▁celest	-13.2653
▁twist	-13.2653
▁hydrogen	-13.2653
nstru	-13.2653
thymn	-13.2653
ggett	-13.2653
▁sulph	-13.2653
▁elements	-13.2653
▁cliche	-13.2653
puram	-13.2654
annual	-13.2654
▁fonte	-13.2654
▁heming	-13.2655
▁State	-13.2655
▁justin	-13.2655
▁report	-13.2655
▁sylv	-13.2656
▁salsa	-13.2657
▁sardin	-13.2659
ludi	-13.266
lund	-13.2661
▁rutger	-13.2662
▁Soder	-13.2663
tedral	-13.2667
▁pima	-13.267
-96-	-13.267
escent	-13.2674
▁parsi	-13.2682
▁munic	-13.2683
▁keat	-13.2709
▁rile	-13.2761
ialist	-13.2772
▁sprin	-13.2782
▁fif	-13.2815
sfor	-13.2877
arley	-13.2906
utlook	-13.2937
raditional	-13.2938
ground	-13.2938
▁Pundit	-13.2938
▁abbaye	-13.2938
▁cenotaph	-13.2938
▁econometric	-13.2938
▁guatemala	-13.2938
▁homogen	-13.2938
▁meadow	-13.2938
▁placid	-13.2938
▁workfare	-13.2938
system	-13.2938
ribald	-13.2938
▁slump	-13.2938
▁overhang	-13.2938
Bono	-13.2938
▁civic	-13.2938
▁deliver	-13.2938
yehud	-13.2938
▁layoff	-13.2938
▁pebbl	-13.2938
▁jacque	-13.2939
▁rosewindow	-13.2939
▁isola	-13.2939
ticipat	-13.2939
▁titanic	-13.294
igian	-13.294
▁kuchi	-13.294
bulbs	-13.294
▁Kansa	-13.2941
▁osman	-13.2941
akov	-13.2943
▁cetell	-13.2949
ickens	-13.2955
borne	-13.2958
bound	-13.2975
▁augustin	-13.2985
estori	-13.299
ographic	-13.3008
▁flatl	-13.3012
▁seren	-13.3018
▁Shin	-13.3025
wain	-13.3035
mahon	-13.3039
▁2,1	-13.3046
▁Mill	-13.3047
▁rss	-13.3065
▁francesc	-13.3088
lamma	-13.3097
related	-13.3104
pete	-13.3134
iordan	-13.3158
▁doug	-13.3186
Sò	-13.3192
Dam	-13.32
llinois	-13.3227
olmar	-13.3228
------------	-13.3232
Riviyre	-13.3232
naddressed	-13.3232
position	-13.3232
▁alcazar	-13.3232
▁bolshevi	-13.3232
▁crochet	-13.3232
▁inventories	-13.3232
▁murmur	-13.3232
▁reynold	-13.3232
▁scandinavia	-13.3232
▁sprawl	-13.3232
▁catalonia	-13.3232
▁plug	-13.3232
▁sopranos	-13.3232
▁noec	-13.3232
▁sporad	-13.3233
▁concert	-13.3233
▁Hatch	-13.3233
▁taverna	-13.3233
annibal	-13.3233
▁epitomize	-13.3233
▁venezia	-13.3233
sexual	-13.3233
okemon	-13.3233
▁metropolis	-13.3233
ochelle	-13.3234
▁guam	-13.3234
▁coleman	-13.3234
▁clift	-13.3235
▁Angel	-13.3237
▁hitti	-13.3238
▁Khai	-13.3239
limp	-13.3245
▁crisp	-13.3253
equest	-13.3253
avail	-13.3258
▁napo	-13.326
▁Ponc	-13.3262
▁stonew	-13.3262
▁snap	-13.3267
tsuri	-13.3268
aschle	-13.327
odle	-13.3275
0-1	-13.3278
ompe	-13.3294
ertis	-13.3306
▁predic	-13.3315
aksi	-13.3319
▁sandsto	-13.3333
▁esth	-13.3365
oyle	-13.337
dolf	-13.3378
seig	-13.3382
adre	-13.3385
udia	-13.3388
▁skyli	-13.3403
tocrat	-13.3419
Đị	-13.345
udge	-13.3451
▁Walk	-13.3464
▁milita	-13.3475
Chapel	-13.349
587	-13.3503
copo	-13.3528
camx	-13.3528
Phút	-13.3533
lethorpe	-13.3534
▁depreciat	-13.3535
▁jodh	-13.3535
represent	-13.3535
rivol	-13.3535
▁Cherpit	-13.3535
▁Palazzo	-13.3535
▁Universal	-13.3535
▁ceracz	-13.3535
▁copypaste	-13.3535
▁dauphin	-13.3535
▁gujarat	-13.3535
▁kooning	-13.3535
▁limousin	-13.3535
▁minneapolis	-13.3535
▁misstatement	-13.3535
▁neanderthal	-13.3535
▁topkape	-13.3535
▁teleconferenc	-13.3535
squat	-13.3535
▁ameno	-13.3535
▁Hanna	-13.3536
▁diwan	-13.3536
Sports	-13.3536
▁levada	-13.3536
drive	-13.3536
Vềcchio	-13.3537
cknow	-13.3537
▁mitter	-13.3537
romul	-13.3538
▁mercado	-13.354
wich	-13.354
alvado	-13.3542
▁ilia	-13.3542
▁barthol	-13.3545
adilla	-13.3555
▁isid	-13.3565
sink	-13.3573
egio	-13.3586
aranj	-13.3587
▁dru	-13.3618
clou	-13.3619
igned	-13.3624
meji	-13.3681
chuộ	-13.3683
▁stud	-13.3689
▁conserva	-13.3731
,100	-13.3732
▁3.2	-13.3733
syria	-13.3781
barak	-13.3784
avour	-13.3791
alili	-13.3826
argent	-13.3843
valuators	-13.3847
erdinand	-13.3847
▁confere	-13.3848
American	-13.3848
ehnquist	-13.3848
▁1987-90	-13.3848
▁League	-13.3848
▁appointee	-13.3848
▁canoeing	-13.3848
▁endowment	-13.3848
▁interventionis	-13.3848
▁lusitania	-13.3848
▁mastercard	-13.3848
▁slobo	-13.3848
▁spencer	-13.3848
▁piazza	-13.3848
▁promenade	-13.3848
stadt	-13.3848
▁hugue	-13.3848
▁South	-13.3848
▁paradis	-13.3848
▁guild	-13.3848
ourisme	-13.3848
▁Simpson	-13.3848
▁centro	-13.3848
▁reag	-13.3848
oupe	-13.3849
▁Titani	-13.3849
untam	-13.385
group	-13.3851
rlington	-13.3853
▁Plat	-13.3854
▁dramatiz	-13.3856
▁converse	-13.3856
▁slav	-13.3858
lucca	-13.3859
▁Blum	-13.3859
patrick	-13.3862
gmati	-13.3863
mitsu	-13.3892
cule	-13.3915
▁kuma	-13.392
▁flavo	-13.3929
strip	-13.3929
▁kilim	-13.393
Poly	-13.3931
film	-13.3968
emake	-13.4047
▁Oxid	-13.4078
ochin	-13.4114
horn	-13.4122
Ả	-13.4126
orrent	-13.4143
Giá	-13.4148
▁Blue	-13.4155
enorca	-13.4162
stream	-13.4165
▁histo	-13.417
compensat	-13.417
▁Constantin	-13.417
▁commentari	-13.417
▁hewlett	-13.417
Hecta	-13.417
exempt	-13.417
impressive	-13.417
▁Fergus	-13.417
▁cincinnat	-13.417
▁fluctuate	-13.417
▁foreclose	-13.417
▁higashi	-13.417
▁predominant	-13.417
▁sawyer	-13.417
▁siegel	-13.417
▁stephanopoulo	-13.417
▁summerhay	-13.417
html	-13.417
commuti	-13.417
▁bodh	-13.417
▁cabaret	-13.417
▁dolorose	-13.417
▁accept	-13.417
▁patricia	-13.4171
▁bowness	-13.4171
▁sulfate	-13.4171
▁ralph	-13.4171
▁theban	-13.4171
▁jainism	-13.4171
Douglas	-13.4171
▁janina	-13.4172
▁histori	-13.4172
▁smoke	-13.4172
epress	-13.4172
unction	-13.4172
▁feig	-13.4172
larou	-13.4172
▁dalai	-13.4173
mign	-13.4173
▁Ellis	-13.4176
▁powerscou	-13.4177
▁alger	-13.4177
insurer	-13.4178
Sho	-13.4182
rdog	-13.4191
▁nuô	-13.4207
payment	-13.421
▁floss	-13.4211
▁scafel	-13.4218
question	-13.4232
▁motiv	-13.4243
tune	-13.4243
▁Nghị	-13.4268
9,000	-13.4274
confi	-13.4276
trude	-13.4287
▁libre	-13.4304
plato	-13.4388
▁ruben	-13.4393
▁etrusca	-13.4409
glise	-13.441
uillaume	-13.4422
ontana	-13.4451
imento	-13.4456
▁scowl	-13.4474
▁popularize	-13.4484
À	-13.4485
Ô	-13.4485
atican	-13.4498
lytrap	-13.4503
▁Indiana	-13.4504
repossessi	-13.4504
structure	-13.4504
▁Retrofit	-13.4504
▁american	-13.4504
▁aspen	-13.4504
▁characteriz	-13.4504
▁daimler	-13.4504
▁expend	-13.4504
▁flowerbed	-13.4504
▁maverick	-13.4504
▁nefert	-13.4504
▁oldsmobile	-13.4504
▁overcrowd	-13.4504
▁parochial	-13.4504
▁public	-13.4504
▁rodrigue	-13.4504
▁swayambhu	-13.4504
▁trastever	-13.4504
▁World	-13.4504
croft	-13.4504
interpret	-13.4504
▁Editor	-13.4504
▁gopuram	-13.4504
▁youel	-13.4504
▁corniche	-13.4504
▁Edmund	-13.4504
▁qutb	-13.4504
▁bipartisan	-13.4504
▁maxwell	-13.4504
▁salaman	-13.4504
▁producib	-13.4504
▁Micro	-13.4504
▁braun	-13.4505
,950	-13.4505
▁merca	-13.4505
piece	-13.4506
▁phillie	-13.4507
▁porch	-13.4508
▁Ellen	-13.4509
▁haban	-13.4509
negril	-13.4511
▁kwan	-13.4517
▁monast	-13.4522
▁havel	-13.4527
▁Crocke	-13.4539
dize	-13.454
ensing	-13.4577
▁meander	-13.4578
htsa	-13.4578
▁Verno	-13.4585
ikla	-13.4594
lboa	-13.4602
ongab	-13.4633
prints	-13.4691
▁Franco	-13.4693
urger	-13.4751
▁fontan	-13.4777
akusa	-13.479
ambles	-13.4803
ombe	-13.4819
opez	-13.4825
▁expens	-13.484
eficits	-13.4841
▁elephant	-13.4849
▁kowloon	-13.4849
▁Boilermaker	-13.4849
▁Griffith	-13.4849
▁Herod	-13.4849
▁triptych	-13.4849
reconcil	-13.4849
▁appropriate	-13.4849
▁Brock	-13.4849
▁sakura	-13.4849
▁Columbi	-13.4849
reasonabl	-13.4849
▁dispara	-13.4849
telephon	-13.4849
▁myth	-13.4849
▁Steel	-13.485
ornwalli	-13.485
▁Connor	-13.4851
▁phyll	-13.4851
▁annex	-13.4853
▁crude	-13.4855
junction	-13.4855
Các	-13.4856
▁tunis	-13.4857
uffy	-13.4861
▁sopra	-13.4868
▁styli	-13.489
▁Genov	-13.4895
▁wadi	-13.4901
timate	-13.4907
mboise	-13.4951
agland	-13.5002
ndell	-13.504
stak	-13.5081
▁Fiel	-13.5091
shoe	-13.5137
▁myri	-13.5189
golia	-13.5199
ttestation	-13.5203
hought	-13.5205
▁encompass	-13.5206
ernmost	-13.5206
▁appendi	-13.5206
▁toulouse	-13.5206
pubblic	-13.5206
▁Abdul	-13.5206
▁Parcell	-13.5206
▁amazon	-13.5206
▁coalitions	-13.5206
▁dreyfus	-13.5206
▁evergreen	-13.5206
▁gourmet	-13.5206
▁palawatr	-13.5206
▁impatiently	-13.5206
▁republi	-13.5206
▁Schonga	-13.5206
▁boeing	-13.5206
▁jaipur	-13.5206
▁jeremia	-13.5206
▁stiffen	-13.5206
▁queens	-13.5206
▁shiko	-13.5206
ovenanter	-13.5206
▁fasb	-13.5206
▁Booksta	-13.5206
▁tabulati	-13.5206
▁blankl	-13.5206
▁concurre	-13.5206
process	-13.5206
▁columb	-13.5206
▁mesquit	-13.5206
Lynch	-13.5206
▁quirt	-13.5207
▁trajan	-13.5207
▁diverg	-13.5208
dassa	-13.5208
kiss	-13.521
romana	-13.521
Foot	-13.5214
▁5.3	-13.522
season	-13.5225
alnut	-13.5225
▁travel	-13.5228
eamwork	-13.5229
vento	-13.523
▁Bowl	-13.5235
ritsa	-13.5253
▁entit	-13.5305
Market	-13.5348
calpe	-13.5355
ausch	-13.5388
ulter	-13.5395
arlin	-13.5398
▁5.1	-13.5411
▁Nghiê	-13.5427
pinac	-13.5509
dramati	-13.5566
urdoch	-13.5567
▁stevens	-13.5574
spective	-13.5576
▁porphyr	-13.5576
Barthelemy	-13.5576
Raphael	-13.5576
azzzz	-13.5576
production	-13.5576
souqs	-13.5576
̄	-13.5576
Ộ	-13.5576
▁Ernest	-13.5576
▁Obama	-13.5576
▁Rachel	-13.5576
▁capitaliz	-13.5576
▁fidel	-13.5576
▁filipp	-13.5576
▁madrilello	-13.5576
▁moslem	-13.5576
▁nigeria	-13.5576
▁privatiz	-13.5576
▁promulgati	-13.5576
▁pulpit	-13.5576
▁saffron	-13.5576
Aimd	-13.5576
▁796-	-13.5576
▁Fonda	-13.5576
▁ornithologi	-13.5576
▁stigma	-13.5576
▁Eugen	-13.5576
▁Felip	-13.5576
transmitt	-13.5576
▁botanic	-13.5576
▁aggr	-13.5576
▁secular	-13.5576
▁polycrate	-13.5576
▁Fitz	-13.5576
▁berthel	-13.5576
natche	-13.5576
contract	-13.5576
▁mathew	-13.5576
▁cinema	-13.5576
alogue	-13.5576
▁leaf	-13.5576
▁samothra	-13.5577
▁dravi	-13.5577
▁turist	-13.5577
▁Gonz	-13.5577
▁Disco	-13.5577
▁tudor	-13.5577
▁Brando	-13.5577
▁pfa	-13.5577
▁nationale	-13.5579
▁googl	-13.5579
tilla	-13.5583
▁temple	-13.5587
,350	-13.5589
guise	-13.5593
shita	-13.5604
-98-	-13.5609
ugal	-13.5626
swort	-13.5627
prah	-13.564
▁Iris	-13.5645
▁Gangst	-13.5648
guel	-13.5672
ruch	-13.5674
oleto	-13.5704
omanche	-13.5736
ehme	-13.5745
hibiti	-13.5831
▁blaze	-13.5843
millan	-13.5919
zuela	-13.5939
assett	-13.5955
▁galile	-13.5956
Ú	-13.596
▁sacré	-13.5961
fashion	-13.5961
▁inaccura	-13.5961
Ardennes	-13.5961
ervante	-13.5961
segregation	-13.5961
▁Actuari	-13.5961
▁Milosevic	-13.5961
▁Spect	-13.5961
▁ascetic	-13.5961
▁caravanserai	-13.5961
▁caricature	-13.5961
▁deflation	-13.5961
▁echizen	-13.5961
▁enclos	-13.5961
▁eszterha	-13.5961
▁ethnography	-13.5961
▁exuberant	-13.5961
▁ghetto	-13.5961
▁jacuzzi	-13.5961
▁juxtapos	-13.5961
▁kudup	-13.5961
▁mainstay	-13.5961
▁nippon	-13.5961
▁packard	-13.5961
▁rastafarian	-13.5961
▁shepard	-13.5961
▁variances	-13.5961
▁vogue	-13.5961
▁yuppie	-13.5961
▁hotline	-13.5961
▁iconoclast	-13.5961
▁fergus	-13.5961
▁pierce	-13.5961
▁regula	-13.5961
▁pokhar	-13.5961
▁actuari	-13.5961
▁bristle	-13.5961
▁North	-13.5961
▁kayser	-13.5961
▁pergam	-13.5961
▁Artem	-13.5961
spoon	-13.5961
claim	-13.5961
▁decent	-13.5961
duci	-13.5961
▁katharin	-13.5961
▁situ	-13.5961
▁round	-13.5961
riega	-13.5961
▁ecole	-13.5961
▁profus	-13.5962
▁liberaliz	-13.5963
▁coloniz	-13.5963
social	-13.5965
country	-13.5966
▁barcod	-13.5967
legant	-13.5967
▁quiet	-13.5972
clav	-13.5979
rnett	-13.5981
farm	-13.5994
▁countercultur	-13.6005
halde	-13.6011
â	-13.7437
ï	-13.8143
Ợ	-13.8143
¦	-13.8143
Ấ	-13.9591
ū	-13.9725
å	-13.9725
ö	-14.0313
Š	-14.0313
Ạ	-14.0938
Ế	-14.0938
Ự	-14.1605
Ị	-14.2319
Ậ	-14.3088
Â	-14.32
Ò	-14.3922
Ừ	-14.411
Ì	-14.4831
Ể	-14.4831
Ủ	-14.511
ü	-14.5831
Ớ	-14.5831
Ụ	-14.5831
Ắ	-14.6942
Ờ	-14.6942
}	-14.6942
Ã	-14.6942
Ÿ	-14.6942
́	-14.6942
č	-14.6942
\	-14.8192
£	-14.8192
°	-14.8192
Ê	-14.8192
Ề	-14.8192
~	-15.1287
̈	-15.1287
‰	-15.1287
Ũ	-15.5787
ḍ	-15.5787
ṃ	-15.5787
Ằ	-15.5787
Ỹ	-15.5787
Ḗ	-15.912
{	-15.912
Ó	-15.912
Ĩ	-15.912
ķ	-15.912
ɣ	-15.912
̡	-15.912
̲	-15.912
׺	-15.912
ݳ	-15.912
ၢ	-15.912
Ầ	-15.912
Ỏ	-15.912
Ử	-15.912
‡	-15.912
€	-15.912
œ	-15.912
^	-17.412
Ñ	-17.412
ą	-17.412
Ẫ	-17.412
Ỉ	-17.412
Ữ	-18.5598
Ọ	-18.5599
Ȥ	-18.56
ȡ	-18.5601
Ō	-18.5602
Î	-18.5603
Ϳ	-18.5604
Ệ	-18.5605
ë	-18.5606
>	-18.5607
î	-18.5608
&	-18.5609
Í	-18.561
[	-18.5611
%	-18.5612
$	-18.5613
/	-18.5614
:	-18.5615
ẵ	-18.5616
ẳ	-18.5617
!	-18.5618
;	-18.5619
'	-18.562
ẩ	-18.5621
?	-18.5622
)	-18.5623
ằ	-18.5624
ồ	-18.5625
ặ	-18.5626
ắ	-18.5627
ă	-18.5628
ứ	-18.5629
ầ	-18.563
ậ	-18.5631
