<pad>	0
<unk>	0
<s>	0
</s>	0
[SEP]	0
▁	-2.58433
s	-3.24282
▁.	-3.29363
▁the	-3.36635
▁,	-3.79358
▁to	-4.02859
▁of	-4.04453
▁and	-4.08984
▁'	-4.1091
▁a	-4.16586
▁in	-4.4809
ed	-4.63916
▁that	-4.72332
t	-4.72517
▁is	-4.81059
▁The	-4.85797
ing	-4.90255
▁it	-4.92187
▁you	-5.09224
▁i	-5.10882
▁for	-5.14638
▁was	-5.1573
▁I	-5.29218
-	-5.29255
▁are	-5.40392
▁on	-5.45066
▁be	-5.47048
d	-5.47613
▁have	-5.56978
▁with	-5.57533
▁not	-5.60034
y	-5.60548
ly	-5.64733
e	-5.709
▁they	-5.71021
▁by	-5.93012
re	-5.93261
▁as	-5.94046
▁uh	-5.94532
▁from	-5.9482
▁at	-5.96005
▁but	-5.97231
▁know	-5.97429
▁he	-6.03849
▁we	-6.0716
▁or	-6.08618
m	-6.11419
er	-6.14899
▁can	-6.15167
▁an	-6.18767
▁has	-6.21035
▁had	-6.23287
▁so	-6.23353
(	-6.25379
▁one	-6.2544
▁his	-6.25499
▁were	-6.26239
▁do	-6.26823
▁all	-6.28175
▁this	-6.30023
.	-6.30262
▁about	-6.31456
▁like	-6.32299
n	-6.33936
▁will	-6.39529
▁It	-6.40054
▁there	-6.41654
▁their	-6.41998
al	-6.45125
▁no	-6.45591
▁more	-6.4798
▁would	-6.48247
▁what	-6.49574
▁A	-6.49995
▁out	-6.50119
▁don	-6.51189
a	-6.51258
▁just	-6.54454
▁up	-6.56266
ve	-6.58102
es	-6.58802
▁He	-6.60536
▁people	-6.61104
▁yeah	-6.61371
▁if	-6.62692
▁been	-6.62836
▁them	-6.6369
▁There	-6.63792
c	-6.65351
▁think	-6.6657
▁well	-6.67463
▁my	-6.67834
▁because	-6.68953
o	-6.69077
▁time	-6.6928
▁when	-6.74334
▁other	-6.75387
▁who	-6.76338
▁some	-6.77633
▁get	-6.78514
▁than	-6.79604
th	-6.81954
▁her	-6.92492
▁In	-6.93721
▁me	-6.95558
in	-6.95663
▁good	-6.95938
▁over	-6.96897
▁which	-6.9747
ll	-6.97612
▁only	-6.98008
▁said	-6.98525
▁They	-6.98818
▁go	-6.99072
▁she	-6.99637
ion	-7.01053
g	-7.04039
r	-7.04208
▁any	-7.0442
▁very	-7.05673
▁work	-7.06828
▁right	-7.08104
▁could	-7.08966
▁him	-7.0937
▁really	-7.09945
▁your	-7.10919
▁into	-7.11389
or	-7.11454
▁see	-7.11819
▁We	-7.13438
▁now	-7.14503
▁You	-7.1485
▁most	-7.1567
▁should	-7.16767
▁did	-7.17077
i	-7.17316
▁its	-7.17661
▁much	-7.19403
▁never	-7.2024
▁two	-7.20605
ers	-7.21887
le	-7.22337
en	-7.22723
▁um	-7.22729
▁here	-7.23358
▁lot	-7.23455
on	-7.23757
▁how	-7.24489
▁many	-7.24537
▁years	-7.26133
b	-7.27144
▁also	-7.27708
p	-7.27756
▁take	-7.29453
l	-7.30437
▁new	-7.30615
▁where	-7.30769
▁way	-7.30773
▁going	-7.31231
▁make	-7.32131
k	-7.33386
▁de	-7.33974
▁This	-7.3627
▁back	-7.3651
▁our	-7.3844
▁year	-7.39046
▁then	-7.39939
▁too	-7.39953
▁even	-7.42396
▁down	-7.42566
▁got	-7.43583
▁want	-7.44766
ies	-7.45609
ation	-7.46827
--	-7.48115
u	-7.48799
▁made	-7.48975
able	-7.4928
▁first	-7.49794
▁after	-7.50487
▁these	-7.51363
▁didn	-7.51558
▁still	-7.52059
▁used	-7.52556
▁information	-7.53477
▁un	-7.53797
▁need	-7.53833
▁may	-7.55345
an	-7.55389
▁something	-7.56432
▁little	-7.56628
▁those	-7.57025
▁man	-7.57667
▁things	-7.58852
ce	-7.58876
▁look	-7.60063
▁before	-7.60103
▁long	-7.60266
▁S	-7.61513
ic	-7.61617
▁She	-7.61867
▁through	-7.62341
h	-7.62806
S	-7.63012
▁place	-7.64294
▁come	-7.64852
▁use	-7.64915
▁help	-7.65456
▁mean	-7.6548
ra	-7.66142
▁C	-7.66764
▁home	-7.66822
▁E	-7.67571
ne	-7.679
it	-7.68067
▁around	-7.68163
▁But	-7.68711
▁oh	-7.68861
▁government	-7.69265
▁old	-7.69695
▁kind	-7.707
la	-7.70878
▁being	-7.71501
▁say	-7.72381
▁such	-7.72588
▁day	-7.73469
▁always	-7.74712
ro	-7.7487
▁does	-7.74951
li	-7.75216
▁us	-7.75988
▁under	-7.76938
ch	-7.76945
▁F	-7.76958
▁city	-7.77528
▁off	-7.77716
▁No	-7.77896
▁great	-7.78603
▁find	-7.79065
▁b	-7.79145
▁same	-7.79795
▁last	-7.80184
▁money	-7.81332
▁thing	-7.8153
se	-7.82676
▁end	-7.83737
▁If	-7.84552
ar	-7.84576
▁own	-7.85302
v	-7.85379
▁small	-7.85947
▁Ca	-7.8601
ri	-7.86189
▁three	-7.86846
▁19	-7.8776
to	-7.87984
ity	-7.88097
▁found	-7.88834
▁seem	-7.88948
▁For	-7.89608
ta	-7.90134
▁part	-7.90343
▁That	-7.90454
f	-7.90961
▁public	-7.91169
us	-7.91336
▁best	-7.91434
▁program	-7.91686
est	-7.9178
▁anything	-7.92684
▁legal	-7.9322
▁thought	-7.9354
▁cost	-7.93557
▁show	-7.94263
▁few	-7.94598
▁state	-7.94638
ur	-7.94752
▁system	-7.94912
▁might	-7.95562
▁better	-7.95777
▁high	-7.95832
▁every	-7.95983
lo	-7.96772
▁life	-7.96991
▁New	-7.97347
w	-7.97443
z	-7.97527
▁world	-7.97695
▁different	-7.98
▁1	-7.98241
▁town	-7.98523
between	-7.98966
el	-7.99556
▁case	-8.00703
▁both	-8.00752
▁rule	-8.01229
▁while	-8.01529
▁must	-8.01885
▁important	-8.03063
▁sure	-8.03587
▁less	-8.03962
▁And	-8.04276
is	-8.04396
sh	-8.05254
▁put	-8.05312
▁real	-8.06461
▁believe	-8.06641
▁away	-8.07303
man	-8.07527
ive	-8.07608
A	-8.07714
▁To	-8.08121
▁went	-8.08381
ever	-8.08472
▁each	-8.0854
▁hard	-8.0866
▁house	-8.08808
▁area	-8.08955
▁give	-8.09129
te	-8.0948
▁U	-8.10517
ry	-8.10832
▁during	-8.10853
▁doesn	-8.11503
as	-8.11836
▁country	-8.12594
▁provide	-8.13166
il	-8.13521
de	-8.13571
▁guess	-8.14312
▁2	-8.1621
▁keep	-8.16246
▁care	-8.16471
▁federal	-8.16629
▁big	-8.16797
▁percent	-8.16934
▁As	-8.17135
ter	-8.1715
▁another	-8.17556
▁B	-8.17695
▁number	-8.18118
▁design	-8.18304
▁since	-8.18572
▁though	-8.18708
▁large	-8.18903
▁car	-8.1934
▁D	-8.1984
at	-8.20133
▁services	-8.21105
ate	-8.21169
▁What	-8.22113
▁school	-8.22158
▁St	-8.22566
▁left	-8.22683
▁hand	-8.23326
ment	-8.23693
▁far	-8.23806
▁pro	-8.2382
▁support	-8.24225
▁pay	-8.24667
▁done	-8.24922
ul	-8.24999
▁am	-8.25229
I	-8.25805
um	-8.25814
▁open	-8.25848
ness	-8.2627
▁enough	-8.26944
▁bad	-8.26992
na	-8.27227
▁data	-8.27265
▁T	-8.27396
va	-8.27522
▁water	-8.27619
▁probably	-8.28263
▁GAO	-8.28578
co	-8.28841
▁play	-8.28948
▁N	-8.29142
▁Re	-8.29181
▁Clinton	-8.29966
▁Jon	-8.30032
▁co	-8.3011
▁business	-8.30506
▁doing	-8.30934
▁children	-8.30935
▁nothing	-8.30943
▁point	-8.3109
▁f	-8.31104
▁Some	-8.31344
▁once	-8.31441
▁built	-8.31955
▁took	-8.32229
▁without	-8.32254
▁set	-8.32598
▁change	-8.32635
ist	-8.32665
▁came	-8.32748
▁P	-8.32753
et	-8.32818
▁feel	-8.3303
▁ever	-8.33226
▁head	-8.33594
▁My	-8.33752
▁seen	-8.34061
▁five	-8.34265
▁name	-8.34412
▁watch	-8.34451
▁K	-8.34459
ent	-8.34686
▁market	-8.34915
ian	-8.34967
▁along	-8.35248
▁next	-8.36154
▁course	-8.36175
▁control	-8.36185
▁local	-8.36398
▁pretty	-8.36691
ous	-8.36741
▁against	-8.36808
▁person	-8.37081
C	-8.37129
▁century	-8.37266
▁programs	-8.3727
▁kids	-8.37607
▁again	-8.37642
▁why	-8.37811
ia	-8.37897
▁18	-8.37988
▁war	-8.38194
▁g	-8.38277
am	-8.38362
▁LSC	-8.38396
▁An	-8.3855
ge	-8.38744
▁until	-8.38771
▁3	-8.38886
▁service	-8.39316
age	-8.39644
▁called	-8.39729
▁report	-8.39899
im	-8.40243
▁How	-8.40408
▁men	-8.40549
▁night	-8.40813
ma	-8.41221
▁fact	-8.41278
huh	-8.41294
▁side	-8.417
▁M	-8.42004
▁problem	-8.42137
▁million	-8.42281
▁management	-8.42339
land	-8.42342
▁live	-8.42531
▁order	-8.42545
less	-8.42561
▁stay	-8.42596
▁enjoy	-8.42616
mo	-8.42822
▁American	-8.42936
▁four	-8.43094
▁tell	-8.43219
▁G	-8.43305
▁wanted	-8.43351
▁family	-8.44191
▁All	-8.44346
▁De	-8.44448
ism	-8.44721
ine	-8.45175
▁national	-8.45213
go	-8.45595
▁law	-8.45867
ci	-8.45948
▁O	-8.45976
▁everything	-8.46654
▁several	-8.4703
ck	-8.47982
and	-8.47996
▁performance	-8.48074
▁agencies	-8.4837
vi	-8.48468
ary	-8.48543
▁often	-8.4871
▁won	-8.48887
me	-8.4902
▁Do	-8.49032
▁interest	-8.49145
▁let	-8.49173
▁run	-8.49268
▁past	-8.49369
▁view	-8.49409
▁So	-8.49749
▁La	-8.49787
▁Ma	-8.49996
▁read	-8.5004
tic	-8.50195
▁general	-8.50457
▁known	-8.5058
▁center	-8.50784
▁job	-8.50989
▁room	-8.51368
up	-8.51492
▁study	-8.51779
▁financial	-8.51783
ir	-8.52128
ol	-8.52212
ca	-8.52279
▁process	-8.52351
▁book	-8.52368
▁start	-8.52371
ty	-8.52691
▁H	-8.52894
▁costs	-8.52901
▁When	-8.52935
▁least	-8.52961
▁second	-8.53076
▁ago	-8.53282
▁able	-8.53549
pe	-8.53667
▁20	-8.53781
▁At	-8.53998
▁agency	-8.54035
▁example	-8.5415
▁On	-8.54216
▁power	-8.5425
▁week	-8.54252
▁mail	-8.54292
▁One	-8.54528
▁These	-8.54705
▁getting	-8.54715
un	-8.54793
ha	-8.54867
▁whole	-8.55286
ton	-8.55381
ba	-8.55598
▁per	-8.55742
▁idea	-8.55823
ance	-8.55884
▁nice	-8.56226
▁5	-8.56257
▁island	-8.5639
ber	-8.5677
▁deal	-8.56864
ish	-8.56994
▁main	-8.57035
▁Act	-8.57121
▁capital	-8.5719
ated	-8.57344
▁asked	-8.57481
▁site	-8.57536
▁His	-8.57764
▁having	-8.57925
▁problems	-8.58003
P	-8.58034
ant	-8.58067
▁love	-8.58081
▁quite	-8.58127
ally	-8.58388
▁else	-8.58536
▁walk	-8.58767
▁R	-8.58924
▁become	-8.58932
▁popular	-8.59076
▁major	-8.59228
▁talk	-8.59359
▁San	-8.59437
▁young	-8.59543
▁face	-8.59546
po	-8.59598
▁available	-8.59702
▁try	-8.59711
▁almost	-8.59791
▁told	-8.59884
▁story	-8.60033
▁saw	-8.60137
▁United	-8.60346
ling	-8.60423
▁days	-8.61057
O	-8.61071
▁saving	-8.61156
fi	-8.61228
▁actually	-8.61403
▁Mr	-8.61806
▁Tuppence	-8.62352
▁con	-8.62355
▁dis	-8.62661
▁wasn	-8.62664
ie	-8.62919
▁Tommy	-8.62956
▁plan	-8.63166
▁Congress	-8.6321
▁building	-8.636
x	-8.63803
lu	-8.64087
▁includ	-8.64124
▁says	-8.64166
▁isn	-8.64492
M	-8.64994
id	-8.65088
▁post	-8.65159
▁short	-8.65178
▁trying	-8.65507
way	-8.65705
▁free	-8.65776
century	-8.65851
▁women	-8.65967
▁question	-8.66245
▁art	-8.66337
▁half	-8.66457
▁States	-8.66576
▁bit	-8.66727
▁call	-8.67226
▁air	-8.67335
▁full	-8.67592
▁food	-8.67784
ru	-8.68165
▁increase	-8.68308
▁company	-8.68388
▁true	-8.68394
▁buy	-8.6847
▁tax	-8.68489
▁whether	-8.68522
▁result	-8.68704
▁10	-8.68867
▁museum	-8.68995
▁understand	-8.69066
ut	-8.69082
ow	-8.69128
▁visit	-8.69133
ho	-8.69222
ver	-8.69418
mon	-8.69428
▁history	-8.69444
▁rath	-8.69462
▁Le	-8.69706
▁L	-8.6985
▁times	-8.69903
▁fine	-8.70021
▁making	-8.70056
▁York	-8.70118
▁stuff	-8.70119
▁today	-8.70179
▁okay	-8.70186
no	-8.70196
ti	-8.70362
▁heard	-8.70928
hum	-8.70977
hi	-8.71231
▁black	-8.71323
do	-8.71445
pa	-8.71485
▁usually	-8.71653
▁include	-8.71735
▁needed	-8.71861
com	-8.71907
op	-8.71941
▁church	-8.72077
▁private	-8.72157
T	-8.72293
ni	-8.72304
E	-8.72323
▁4	-8.72638
▁working	-8.72908
▁changes	-8.73011
▁benefits	-8.73797
▁turn	-8.74396
▁future	-8.74489
▁amount	-8.74691
▁within	-8.74698
▁later	-8.7476
▁John	-8.74783
▁outside	-8.7486
▁matter	-8.75209
▁early	-8.75235
▁yet	-8.75253
▁makes	-8.75344
▁remember	-8.75387
▁computer	-8.75423
▁either	-8.75508
▁door	-8.75671
▁low	-8.75697
▁road	-8.75812
▁interesting	-8.75997
▁issue	-8.76217
▁cover	-8.76232
▁value	-8.76352
ence	-8.76395
▁organizations	-8.76581
▁possible	-8.76584
▁miles	-8.76618
ors	-8.7676
nt	-8.76861
▁Most	-8.76868
son	-8.76906
▁budget	-8.77133
L	-8.77204
▁easy	-8.77218
▁among	-8.77245
▁near	-8.77259
▁15	-8.77349
▁office	-8.77527
▁talking	-8.77617
▁final	-8.77703
▁ten	-8.77748
ster	-8.77996
▁Legal	-8.78018
▁17	-8.78216
▁hundred	-8.78241
▁poor	-8.78265
▁W	-8.78442
▁top	-8.78459
▁analysis	-8.78538
one	-8.78811
▁experience	-8.7882
R	-8.78955
▁collection	-8.79025
▁knew	-8.79173
▁issues	-8.79195
▁economic	-8.79368
be	-8.79416
▁certain	-8.7942
▁leave	-8.79436
▁across	-8.79699
ship	-8.80041
▁group	-8.80183
▁yes	-8.80319
▁close	-8.80374
▁six	-8.80532
▁V	-8.80913
▁pre	-8.81301
▁already	-8.81446
▁Al	-8.81561
▁sort	-8.81666
▁Pa	-8.8169
▁village	-8.81789
▁original	-8.8179
▁due	-8.8204
▁held	-8.82074
▁access	-8.82215
daan	-8.82263
▁Ba	-8.82269
ga	-8.82458
▁particular	-8.82641
▁someone	-8.82841
ach	-8.82847
▁started	-8.82917
▁non	-8.83023
▁difficult	-8.83185
D	-8.83245
came	-8.83381
▁together	-8.83772
nd	-8.83834
▁given	-8.83943
ized	-8.84127
▁period	-8.84205
▁team	-8.84206
ical	-8.84429
▁staff	-8.84481
▁Be	-8.84491
▁health	-8.8463
▁French	-8.84678
▁bar	-8.84957
the	-8.8505
▁travel	-8.85065
side	-8.85104
ful	-8.85137
▁rate	-8.85168
▁south	-8.85216
▁reason	-8.85585
B	-8.85733
▁land	-8.85824
▁remain	-8.86102
taken	-8.86185
▁With	-8.86261
bo	-8.86347
▁north	-8.86379
▁maybe	-8.86452
▁couple	-8.86516
fe	-8.86614
▁require	-8.86808
▁white	-8.87046
▁return	-8.87163
▁la	-8.87274
▁couldn	-8.87304
▁Mi	-8.87427
▁p	-8.87459
tra	-8.87549
▁technology	-8.88101
▁stop	-8.8812
▁Ro	-8.882
▁modern	-8.88462
▁security	-8.8847
▁ground	-8.88734
▁bring	-8.88739
▁16	-8.88822
▁music	-8.88874
di	-8.88939
▁himself	-8.88964
▁fee	-8.89137
▁death	-8.89168
mi	-8.89209
▁quality	-8.89288
▁contain	-8.89337
▁National	-8.89362
▁needs	-8.89589
▁husband	-8.89669
▁months	-8.90192
▁political	-8.90337
▁summer	-8.9055
che	-8.90705
▁Ha	-8.90724
▁results	-8.90782
▁paper	-8.90794
▁dollars	-8.90966
▁current	-8.91079
▁movie	-8.91156
▁human	-8.91185
▁review	-8.91312
▁model	-8.91431
▁direct	-8.91469
▁hours	-8.91618
▁Federal	-8.91687
▁mind	-8.91906
▁cause	-8.91908
per	-8.91961
▁organization	-8.92004
▁systems	-8.92035
▁clear	-8.92101
▁6	-8.92125
con	-8.92183
que	-8.9231
ard	-8.92483
▁looking	-8.92549
▁fish	-8.92594
▁court	-8.92694
▁form	-8.92738
▁Many	-8.92818
using	-8.92875
▁everyone	-8.92967
▁line	-8.93048
rs	-8.93281
▁toward	-8.93414
▁required	-8.9355
▁worth	-8.93647
▁level	-8.9365
▁Con	-8.93756
▁park	-8.93801
▁People	-8.93832
▁woman	-8.93892
▁considered	-8.93994
▁based	-8.94006
00	-8.94057
out	-8.9407
▁rest	-8.94128
▁After	-8.94311
▁allow	-8.94885
▁cut	-8.94905
▁risk	-8.95306
▁policy	-8.95538
▁light	-8.9559
▁gave	-8.95639
▁canno	-8.95701
▁Service	-8.95829
▁requirements	-8.96168
▁Sa	-8.96208
▁War	-8.96253
▁lost	-8.96298
▁Mar	-8.96369
▁Texas	-8.96473
felt	-8.96478
▁present	-8.96552
▁sometimes	-8.96562
▁White	-8.96611
H	-8.96645
▁lead	-8.96651
ke	-8.96654
▁standards	-8.96699
led	-8.97251
▁famous	-8.97327
▁price	-8.97376
▁population	-8.97635
▁shows	-8.97709
▁wouldn	-8.9783
min	-8.98189
▁type	-8.98221
ng	-8.98393
ad	-8.98546
▁single	-8.98603
▁British	-8.9863
pi	-8.98644
▁thousand	-8.98995
▁Roman	-8.9912
▁behind	-8.99137
ft	-8.99151
▁personal	-8.9922
▁act	-8.99221
▁suggest	-8.99362
▁12	-8.99399
▁Street	-8.99452
▁Mo	-8.9959
▁impact	-8.9982
ner	-8.99828
▁companies	-8.99912
▁pick	-9.00157
ure	-9.00165
ud	-9.00183
N	-9.00235
▁studies	-9.00334
▁anyone	-9.00349
▁demand	-9.00468
he	-9.00505
▁president	-9.00641
▁project	-9.00644
da	-9.0075
▁month	-9.00871
▁wrong	-9.00978
▁turned	-9.01073
▁pass	-9.01086
▁Ra	-9.01326
pl	-9.01458
row	-9.0155
▁Drew	-9.01614
▁consider	-9.01691
▁star	-9.01765
▁agree	-9.01803
▁fun	-9.0181
▁focus	-9.01811
▁subject	-9.01914
▁development	-9.01988
▁haven	-9.02266
▁hold	-9.02415
▁wife	-9.02817
▁eyes	-9.02943
▁areas	-9.02988
▁cases	-9.03189
▁di	-9.03216
▁House	-9.03343
▁income	-9.03488
▁Co	-9.0355
▁employees	-9.03783
▁especially	-9.03815
end	-9.04056
▁...	-9.0411
▁total	-9.04112
▁Adrin	-9.04149
▁research	-9.04164
▁resources	-9.0424
▁goes	-9.0442
▁America	-9.04463
os	-9.04716
▁coast	-9.04816
au	-9.04912
▁workers	-9.04932
▁nation	-9.05011
▁Don	-9.05017
▁community	-9.05079
▁sense	-9.05118
▁involved	-9.05208
▁audit	-9.05508
▁activities	-9.0561
▁strong	-9.05647
ak	-9.05695
▁began	-9.05735
cy	-9.05818
▁camp	-9.05884
▁themselves	-9.05895
▁investment	-9.05916
▁President	-9.05945
▁sun	-9.05958
▁Po	-9.06121
▁situation	-9.0645
ble	-9.06624
mer	-9.06641
▁vote	-9.06669
­	-9.06681
▁delivery	-9.06776
par	-9.06885
▁members	-9.06895
▁hope	-9.06946
▁longer	-9.06966
ap	-9.07138
▁Bar	-9.07546
time	-9.07558
▁provided	-9.08114
vo	-9.08158
▁news	-9.08188
▁beautiful	-9.08522
▁alcohol	-9.08574
▁special	-9.08687
▁Lo	-9.08838
▁spend	-9.09202
▁significant	-9.09208
ial	-9.09479
▁similar	-9.09482
▁30	-9.09773
▁morning	-9.09889
▁moment	-9.09901
ating	-9.09958
▁sea	-9.09993
▁huge	-9.10146
2	-9.10152
bi	-9.10207
▁TV	-9.10364
▁likely	-9.10465
▁po	-9.10481
▁planning	-9.10607
▁approach	-9.1066
▁rules	-9.10677
▁offer	-9.10704
▁seven	-9.10785
▁Poirot	-9.1081
▁ask	-9.10877
▁meet	-9.10965
▁self	-9.11228
▁college	-9.11377
▁tried	-9.11433
▁rock	-9.1149
▁however	-9.11579
▁proposed	-9.11795
ities	-9.11882
ite	-9.12036
▁move	-9.12204
▁Car	-9.12406
▁comments	-9.12415
▁Commission	-9.12417
▁friend	-9.12454
▁soon	-9.12601
▁Me	-9.12629
▁answer	-9.1265
▁France	-9.12819
▁position	-9.12872
▁continue	-9.12877
ep	-9.12929
▁taking	-9.12995
▁expensive	-9.13045
▁follow	-9.13126
▁coming	-9.13132
▁sub	-9.13175
▁share	-9.13221
▁parents	-9.13236
ect	-9.13245
ki	-9.13295
▁individual	-9.13343
▁visitor	-9.13615
▁ma	-9.13677
▁charge	-9.13719
▁hear	-9.13999
▁industry	-9.14135
▁evidence	-9.14208
▁drive	-9.14467
▁temple	-9.14561
▁brough	-9.14638
tu	-9.14683
▁above	-9.14905
▁request	-9.14908
▁age	-9.14957
rew	-9.14974
▁river	-9.15134
▁Not	-9.15327
▁test	-9.15369
U	-9.1553
▁effect	-9.15567
F	-9.15575
let	-9.15668
▁child	-9.15761
▁received	-9.1586
ot	-9.15978
▁fl	-9.16007
les	-9.16131
ff	-9.16162
▁hot	-9.16189
▁chance	-9.16255
▁late	-9.1627
▁worked	-9.16277
▁crime	-9.16305
▁7	-9.1636
▁economy	-9.16412
▁front	-9.1646
▁key	-9.16486
▁effective	-9.16787
▁El	-9.16883
▁Pi	-9.16993
▁minutes	-9.17028
▁houses	-9.17081
▁living	-9.17122
▁check	-9.17233
▁street	-9.17254
▁explain	-9.17506
▁culture	-9.17618
▁sign	-9.1763
▁14	-9.17915
▁changed	-9.1826
▁du	-9.18262
der	-9.18294
old	-9.18363
▁others	-9.18375
▁fall	-9.187
ka	-9.18705
▁role	-9.18708
kept	-9.1871
har	-9.18755
if	-9.1882
ex	-9.1882
▁campaign	-9.18945
▁common	-9.18947
ring	-9.18993
▁reduce	-9.19082
▁Ne	-9.19147
▁red	-9.19312
ction	-9.1952
▁happened	-9.19532
▁serve	-9.19598
▁completely	-9.19704
▁film	-9.19966
▁allowed	-9.20021
▁heart	-9.20046
▁trade	-9.20054
ger	-9.20073
▁exactly	-9.20086
line	-9.20262
ler	-9.20384
▁weather	-9.20576
▁success	-9.20674
spite	-9.2071
▁regard	-9.2078
▁grant	-9.20812
▁sound	-9.20866
qui	-9.20904
▁reporting	-9.2097
G	-9.21027
▁develop	-9.21167
▁Even	-9.21202
▁Mrs	-9.21343
▁gone	-9.21389
▁addition	-9.21464
▁mother	-9.21659
▁US	-9.21779
wa	-9.21841
▁decision	-9.21885
▁Julius	-9.21887
▁lived	-9.22003
▁lower	-9.22062
▁funding	-9.22132
▁itself	-9.22175
▁James	-9.22233
▁fight	-9.22246
▁product	-9.22301
▁Museum	-9.22352
▁questions	-9.22431
▁Bo	-9.22471
▁states	-9.22657
▁record	-9.22805
ny	-9.22873
▁wish	-9.22948
▁piece	-9.22976
▁attention	-9.23016
work	-9.23076
▁happy	-9.231
tro	-9.23152
▁break	-9.23217
▁Yes	-9.233
▁Japan	-9.23328
▁region	-9.23363
▁EPA	-9.23404
▁depend	-9.23463
▁figure	-9.23502
▁page	-9.23505
▁social	-9.23569
▁decided	-9.23574
▁structure	-9.23598
▁exist	-9.23621
▁choice	-9.23801
men	-9.23818
▁fair	-9.23951
▁Postal	-9.23961
▁aren	-9.24058
▁hour	-9.24079
▁Chinese	-9.24505
▁reports	-9.24598
▁expected	-9.24763
▁standard	-9.24921
lin	-9.2508
▁necessary	-9.25096
▁benefit	-9.25238
ists	-9.25262
of	-9.25331
▁books	-9.25376
▁Washington	-9.25393
▁paid	-9.25455
▁recent	-9.2555
▁credit	-9.25572
▁located	-9.25635
▁sit	-9.25712
▁education	-9.25752
▁game	-9.25832
▁girl	-9.25896
▁address	-9.259
▁fire	-9.25989
▁resort	-9.2599
▁Bush	-9.26008
▁wonder	-9.2611
ten	-9.26131
▁ancient	-9.26169
▁Na	-9.26235
▁created	-9.2629
bu	-9.26323
▁State	-9.26326
▁specific	-9.26548
▁Office	-9.26577
▁Man	-9.26826
▁friends	-9.27046
▁train	-9.27121
gi	-9.27191
▁twenty	-9.27254
ang	-9.27451
▁saying	-9.27465
▁moved	-9.27497
gan	-9.27574
ig	-9.27578
▁knowledge	-9.27862
▁save	-9.27864
▁palace	-9.27923
▁Saint	-9.27929
▁bill	-9.27969
▁department	-9.27991
▁trouble	-9.28108
red	-9.28132
▁field	-9.28215
▁wide	-9.28241
hu	-9.28264
app	-9.28315
▁foreign	-9.28352
▁2000	-9.28427
▁higher	-9.28722
▁section	-9.28804
gh	-9.28949
▁English	-9.28965
Y	-9.28994
▁trees	-9.29126
▁cr	-9.29191
▁rates	-9.29203
▁west	-9.29261
▁arm	-9.29374
▁reach	-9.29513
▁traditional	-9.29586
▁Services	-9.2961
▁action	-9.29733
ize	-9.29804
▁voice	-9.29895
▁attack	-9.29957
▁Ho	-9.29987
▁Li	-9.30108
▁happen	-9.30254
▁guide	-9.3028
▁Our	-9.3029
▁inside	-9.30313
▁trip	-9.30347
▁Z	-9.30373
▁World	-9.30393
cent	-9.30435
▁recently	-9.30515
▁means	-9.3062
▁lack	-9.30624
▁east	-9.30754
▁expect	-9.30809
▁spent	-9.30848
▁station	-9.30865
▁fund	-9.30908
▁imp	-9.31019
▁spoke	-9.31022
ab	-9.31158
mar	-9.31237
ice	-9.31254
▁stone	-9.31298
0	-9.31316
▁works	-9.31384
ley	-9.31386
▁buildings	-9.31394
▁guy	-9.31583
ped	-9.3165
▁Go	-9.317
▁Her	-9.31917
▁table	-9.31942
▁sell	-9.3197
▁8	-9.3214
▁13	-9.32168
▁instead	-9.32211
rn	-9.3223
▁wait	-9.32316
▁plans	-9.32406
▁military	-9.32477
▁taxes	-9.32698
▁From	-9.32734
▁countries	-9.32867
▁lawyers	-9.32963
▁boat	-9.32998
▁floor	-9.33054
▁funds	-9.33055
▁successful	-9.33199
▁words	-9.33238
▁foot	-9.33361
▁eight	-9.33424
▁related	-9.33608
ious	-9.33614
▁hit	-9.33616
▁Security	-9.33787
▁King	-9.33977
▁ho	-9.33977
▁spending	-9.34122
ier	-9.34225
▁complex	-9.34281
io	-9.34422
▁Paris	-9.3458
▁Or	-9.34596
▁date	-9.34629
▁season	-9.34761
▁eat	-9.34775
▁beach	-9.3478
▁natural	-9.35064
▁groups	-9.35102
▁influence	-9.35102
▁included	-9.35196
▁range	-9.35229
▁Inglethorp	-9.35524
▁appropriate	-9.35524
▁Se	-9.35581
▁dead	-9.35742
▁article	-9.35787
▁clients	-9.35824
▁draw	-9.35945
▁garden	-9.36019
▁Other	-9.3634
▁gain	-9.36375
▁ex	-9.36409
▁following	-9.3672
▁fell	-9.36862
▁met	-9.36924
▁died	-9.37018
▁speak	-9.37431
▁word	-9.37514
▁11	-9.37601
▁reported	-9.37638
▁list	-9.37668
▁boy	-9.37742
▁places	-9.3787
▁shops	-9.37903
▁Although	-9.3824
▁labor	-9.38348
▁son	-9.38373
wise	-9.38387
▁response	-9.38394
em	-9.38419
▁growth	-9.38428
▁style	-9.38509
▁tend	-9.38581
▁deep	-9.38632
▁City	-9.38749
▁bank	-9.38839
▁Ri	-9.38949
▁spot	-9.39062
▁II	-9.39289
▁board	-9.3962
▁streets	-9.39662
▁anyway	-9.39733
ick	-9.39775
▁Vi	-9.39832
ther	-9.39894
▁father	-9.39912
▁General	-9.39965
▁notice	-9.40233
▁Pe	-9.40236
▁efforts	-9.40254
▁Now	-9.4026
▁join	-9.40271
▁Government	-9.40447
king	-9.40466
▁size	-9.40628
▁account	-9.4063
▁Well	-9.40684
▁stock	-9.40726
▁Ja	-9.4081
▁hate	-9.40813
▁entire	-9.40857
▁further	-9.40865
▁Old	-9.41003
▁practices	-9.41049
▁100	-9.41175
▁Dallas	-9.4121
▁third	-9.41258
ile	-9.41261
▁reflect	-9.4135
pp	-9.41369
▁practice	-9.41401
ward	-9.41421
▁myself	-9.4149
▁respect	-9.41502
▁maintain	-9.4156
▁claim	-9.41608
▁Social	-9.41629
▁contract	-9.41681
▁battle	-9.417
▁mu	-9.41708
▁views	-9.41737
▁God	-9.41813
▁color	-9.41868
▁str	-9.4221
▁West	-9.42223
▁former	-9.42364
▁protect	-9.42403
▁TI	-9.42455
▁various	-9.42543
▁sat	-9.42645
▁learn	-9.42669
▁annual	-9.42685
▁central	-9.42685
▁bus	-9.42775
▁China	-9.42907
▁volume	-9.42968
▁basi	-9.42973
▁middle	-9.43038
ron	-9.43056
▁civil	-9.43079
▁Ta	-9.43113
▁favorite	-9.4326
▁cold	-9.43265
▁critical	-9.43447
uch	-9.43484
▁training	-9.43555
▁base	-9.4367
▁correct	-9.43825
▁trust	-9.43907
▁executive	-9.44046
▁additional	-9.44069
▁older	-9.44131
▁50	-9.44151
▁rich	-9.44186
▁mine	-9.44252
▁receive	-9.44266
▁quickly	-9.44283
our	-9.44636
▁begin	-9.44818
▁Spanish	-9.44828
▁Ka	-9.44918
▁interested	-9.4498
▁increased	-9.45072
▁throughout	-9.45127
amp	-9.45188
▁published	-9.45213
▁Department	-9.45262
▁improve	-9.45321
▁ensure	-9.45336
▁body	-9.4534
▁stand	-9.45376
day	-9.45412
▁household	-9.45431
▁port	-9.45479
▁party	-9.4554
▁Japanese	-9.45559
chi	-9.4578
ought	-9.45828
▁judge	-9.45844
▁written	-9.45947
▁grow	-9.46033
▁difference	-9.46079
▁remains	-9.46084
▁affect	-9.46192
▁green	-9.46211
▁official	-9.4622
body	-9.46255
ise	-9.46289
▁Gi	-9.46332
▁entities	-9.46359
▁setting	-9.46452
▁prices	-9.46519
▁attempt	-9.46651
3	-9.46696
▁Fa	-9.46717
qu	-9.4675
term	-9.46769
by	-9.46855
tan	-9.46934
▁square	-9.46945
▁running	-9.46948
we	-9.46984
▁dark	-9.47019
lic	-9.4703
▁Red	-9.47061
▁equipment	-9.47168
▁win	-9.47252
▁quiet	-9.47317
▁developed	-9.4741
ana	-9.47439
▁plant	-9.47458
▁Time	-9.47466
▁Law	-9.47547
▁build	-9.47593
▁revenue	-9.47611
ja	-9.47637
ell	-9.47698
▁drug	-9.47759
▁average	-9.47835
▁professional	-9.47859
▁Indian	-9.47987
▁supposed	-9.47998
▁construction	-9.48032
▁sand	-9.48044
▁km	-9.48051
▁lake	-9.48172
▁definitely	-9.48359
▁wall	-9.48389
▁blood	-9.48431
▁deliver	-9.48439
ide	-9.48486
ath	-9.48516
▁environment	-9.48582
▁bought	-9.48628
▁doctor	-9.48677
▁named	-9.48778
▁pull	-9.48861
▁ran	-9.48915
▁class	-9.48919
▁cook	-9.49038
▁avoid	-9.49055
▁alone	-9.49064
house	-9.49152
▁wind	-9.49173
▁Per	-9.49191
▁assistance	-9.49302
▁language	-9.49485
W	-9.49505
▁East	-9.49805
▁covered	-9.49995
▁emissions	-9.50064
▁below	-9.50105
▁Ar	-9.50189
ability	-9.50218
▁Times	-9.5029
▁Court	-9.50346
▁Sir	-9.50364
▁cap	-9.5038
▁afford	-9.50398
▁write	-9.50543
▁according	-9.50555
▁separate	-9.50581
▁opinion	-9.50627
ties	-9.50649
han	-9.50699
ral	-9.50857
▁goals	-9.50906
▁More	-9.50932
▁simple	-9.51011
▁sent	-9.51076
▁lives	-9.51129
use	-9.513
▁comment	-9.51324
▁clean	-9.51397
▁established	-9.51464
▁George	-9.51472
▁complete	-9.51552
▁By	-9.51638
▁phone	-9.51774
▁Ju	-9.5179
▁Greek	-9.51801
▁Du	-9.51845
▁inter	-9.51866
uff	-9.51962
▁potential	-9.52169
▁relationship	-9.52169
▁Jo	-9.5217
▁Only	-9.52183
▁justice	-9.52191
vis	-9.52196
▁mis	-9.52199
fore	-9.52208
▁beyond	-9.52255
ible	-9.52449
▁horse	-9.52459
▁emergenc	-9.52508
▁carry	-9.5252
▁reform	-9.52651
▁upon	-9.52756
▁terrible	-9.52793
▁space	-9.52819
▁9	-9.52822
▁Pro	-9.52997
▁While	-9.53121
▁card	-9.53199
stood	-9.53378
▁movies	-9.53541
▁easily	-9.53579
▁hands	-9.53629
▁wear	-9.53653
▁detail	-9.53659
▁meeting	-9.53818
▁patients	-9.53921
▁aid	-9.53955
▁rain	-9.54026
ban	-9.54165
▁generation	-9.54211
▁thinking	-9.54237
▁wrote	-9.5437
▁accept	-9.54415
▁Slate	-9.5445
year	-9.54607
jo	-9.54696
▁extreme	-9.54768
nna	-9.54779
▁winter	-9.54804
▁beaches	-9.54873
▁Gu	-9.54877
▁count	-9.55058
▁location	-9.55087
▁represent	-9.55108
ement	-9.55333
▁tourist	-9.55354
▁South	-9.55422
▁factor	-9.55424
▁rep	-9.55808
▁sites	-9.55867
▁relative	-9.56071
▁tourists	-9.56083
▁fast	-9.56165
tion	-9.56311
▁everybody	-9.56335
▁includes	-9.56346
ries	-9.56365
▁production	-9.56503
▁Then	-9.56504
▁nature	-9.5654
▁certainly	-9.56571
fo	-9.56591
▁tomb	-9.56597
▁appear	-9.56605
▁perhaps	-9.5662
▁increasing	-9.5662
▁perform	-9.56624
▁Just	-9.56648
▁Lake	-9.56659
▁force	-9.56731
,000	-9.5675
▁terms	-9.56818
▁lawyer	-9.5682
▁Che	-9.56826
pr	-9.56895
▁walls	-9.56924
▁normal	-9.5695
▁Italian	-9.5711
▁Today	-9.57144
▁safe	-9.57183
▁weeks	-9.57207
▁Di	-9.57336
▁machine	-9.57354
giving	-9.57356
▁kill	-9.57378
▁tower	-9.5743
▁prevent	-9.57436
▁sky	-9.57445
4	-9.57529
▁effort	-9.57583
▁wo	-9.57629
▁Dave	-9.57701
ub	-9.57704
▁North	-9.57773
▁hotel	-9.57898
▁scene	-9.57963
▁events	-9.57994
▁ways	-9.57999
▁1996	-9.58101
▁mission	-9.58278
▁Ex	-9.58288
ze	-9.58415
▁drink	-9.58426
▁suit	-9.58428
0,000	-9.58462
▁authority	-9.58641
▁restaurants	-9.58696
▁alternative	-9.58755
▁letter	-9.58824
▁feeling	-9.58827
▁Miss	-9.58843
▁effects	-9.589
▁create	-9.58921
qua	-9.58954
▁send	-9.59027
ative	-9.59131
▁Why	-9.59172
ain	-9.59244
▁hotels	-9.59261
▁Ga	-9.59329
▁killed	-9.59576
▁electronic	-9.59589
▁drugs	-9.59593
▁insurance	-9.59686
▁offers	-9.59698
▁Park	-9.5982
▁grand	-9.59841
▁billion	-9.59881
▁seek	-9.59882
▁senior	-9.59925
air	-9.59999
▁Un	-9.60082
▁watching	-9.60098
▁David	-9.60345
▁aware	-9.60437
▁sp	-9.6054
▁listen	-9.60541
▁officials	-9.60586
▁monument	-9.60599
▁murder	-9.60683
▁lose	-9.60727
▁collect	-9.60732
▁cities	-9.60785
▁display	-9.60806
▁Europe	-9.60887
▁Americans	-9.60922
▁families	-9.60938
▁involve	-9.60945
ah	-9.60951
▁round	-9.6112
▁students	-9.61166
▁schedule	-9.61193
▁sector	-9.61281
▁character	-9.61343
▁growing	-9.61461
▁Christian	-9.61506
▁debt	-9.61539
▁shopping	-9.6154
V	-9.61585
▁islands	-9.61586
▁wild	-9.61705
zar	-9.61754
▁2001	-9.61802
▁term	-9.62033
▁cross	-9.62055
over	-9.62089
▁leading	-9.62186
▁payment	-9.62317
▁unit	-9.62344
▁Fi	-9.6249
▁Of	-9.62535
vers	-9.62575
▁doubt	-9.62651
▁measure	-9.62661
▁medi	-9.62681
bra	-9.62699
▁India	-9.6271
ign	-9.62745
▁closed	-9.62835
▁Since	-9.62913
▁independent	-9.62995
ping	-9.63063
▁director	-9.63081
▁pieces	-9.6314
▁prefer	-9.63157
▁First	-9.63169
▁Kong	-9.63266
▁shop	-9.63314
▁internal	-9.63345
gar	-9.63484
▁Jewish	-9.63531
▁degree	-9.63603
▁hospital	-9.6369
▁added	-9.63711
▁method	-9.63745
▁excellent	-9.63778
▁simply	-9.63778
lit	-9.63921
▁district	-9.63952
▁Hong	-9.64059
off	-9.64185
▁Jerusalem	-9.64215
▁Can	-9.64269
▁identify	-9.64303
▁des	-9.64328
▁centuries	-9.64391
▁medical	-9.64397
ju	-9.6445
▁sounds	-9.64562
▁perfect	-9.64654
▁Program	-9.64657
▁sight	-9.64739
▁Temple	-9.64831
▁larges	-9.64969
▁entrance	-9.65011
lthough	-9.65034
▁da	-9.65156
▁items	-9.65183
▁yourself	-9.65184
ren	-9.65206
▁German	-9.6526
▁policies	-9.65273
▁anti	-9.6532
ization	-9.65405
▁Robert	-9.65452
▁serious	-9.65453
▁products	-9.65458
kin	-9.65534
▁obtain	-9.65539
▁European	-9.65593
▁Pre	-9.65608
▁J	-9.65713
▁En	-9.6587
▁equal	-9.65959
▁types	-9.66009
▁religious	-9.66074
K	-9.66158
▁payments	-9.66161
▁anymore	-9.66199
▁wants	-9.66208
▁flow	-9.66223
uc	-9.66236
▁farm	-9.66237
▁According	-9.66432
▁daughter	-9.66432
▁attraction	-9.66502
▁nearly	-9.66576
▁smaller	-9.66585
▁Col	-9.66595
▁beginning	-9.66613
▁Ki	-9.66649
ou	-9.66718
izing	-9.66829
rate	-9.66848
▁limited	-9.66934
▁passed	-9.66936
▁Management	-9.67153
j	-9.67264
▁individuals	-9.67273
▁wine	-9.67329
▁operations	-9.67332
▁Internet	-9.67332
▁steps	-9.67333
▁path	-9.67381
▁served	-9.67461
▁OMB	-9.67513
▁hurt	-9.67513
▁variet	-9.67604
gen	-9.67634
▁purpose	-9.67734
ably	-9.67752
▁laws	-9.67793
▁Post	-9.67809
▁king	-9.67867
▁media	-9.67879
▁discount	-9.67881
▁hair	-9.67885
▁election	-9.67902
▁worse	-9.67968
back	-9.67972
▁playing	-9.6804
▁levels	-9.68092
▁Everyone	-9.68252
▁ride	-9.68328
▁race	-9.68368
▁sex	-9.68371
▁hall	-9.68382
eas	-9.68441
▁managers	-9.68513
▁topic	-9.68619
ob	-9.68735
▁gardens	-9.68744
▁Dr	-9.68778
▁led	-9.68897
▁shot	-9.68985
,	-9.69001
fer	-9.69009
▁Kal	-9.69039
aw	-9.69051
▁link	-9.69145
▁Mary	-9.69239
▁retirement	-9.69257
▁profit	-9.69273
▁responsible	-9.69342
▁catch	-9.6939
▁truth	-9.69406
▁CIO	-9.69527
▁mostly	-9.69563
▁60	-9.69706
▁Two	-9.69898
▁eye	-9.69912
▁raised	-9.70053
▁narrow	-9.70176
right	-9.70274
▁society	-9.70363
▁thirty	-9.70363
▁sold	-9.70477
gent	-9.7069
▁provid	-9.70756
▁wonderful	-9.7078
▁useful	-9.70809
▁Bill	-9.7092
▁actions	-9.71001
▁Their	-9.71115
▁ready	-9.71234
▁glass	-9.71435
▁Because	-9.71488
▁hat	-9.71504
ay	-9.71585
▁treatment	-9.71605
▁favor	-9.71665
▁married	-9.71677
▁Br	-9.71727
▁Both	-9.71779
▁broad	-9.71783
▁die	-9.7182
▁author	-9.71969
▁tour	-9.71975
▁warm	-9.72002
▁sword	-9.72048
▁finally	-9.72109
nu	-9.72124
▁add	-9.72145
▁Art	-9.72148
▁stories	-9.7215
▁Hanson	-9.72159
▁dog	-9.72316
ition	-9.72385
▁brother	-9.7253
▁document	-9.72546
▁trial	-9.72561
▁stopped	-9.72649
▁larger	-9.7265
▁store	-9.72687
▁discussion	-9.72894
▁schools	-9.72919
▁Dur	-9.72935
▁Har	-9.72983
▁crowd	-9.72995
▁agreed	-9.73092
▁intervention	-9.73166
▁rec	-9.73173
▁choose	-9.73181
▁gets	-9.73199
▁estimates	-9.73202
▁source	-9.73265
▁valley	-9.73296
like	-9.73303
▁basic	-9.73451
▁cathedral	-9.73584
▁expand	-9.73787
▁Justice	-9.73787
▁push	-9.73874
▁forward	-9.73901
▁track	-9.73974
▁fear	-9.73978
▁em	-9.73998
▁pool	-9.74009
▁weekend	-9.7401
▁Egypt	-9.74043
▁blue	-9.74069
▁interview	-9.7407
▁newspaper	-9.74071
iv	-9.74073
▁25	-9.74096
▁oil	-9.74124
ock	-9.7414
lock	-9.74151
▁Air	-9.7426
▁California	-9.7426
▁press	-9.74291
can	-9.74307
▁methods	-9.74392
pur	-9.74397
bsolutely	-9.7441
▁magazine	-9.74454
▁Spain	-9.7446
▁auditors	-9.74465
▁extra	-9.74478
▁Mon	-9.74498
ball	-9.74509
▁international	-9.74746
her	-9.748
ified	-9.7486
▁Gra	-9.74883
▁mountain	-9.7499
dent	-9.74994
▁ability	-9.75093
▁Louis	-9.75137
▁Information	-9.75137
▁Te	-9.75342
sur	-9.75416
wi	-9.75467
▁reading	-9.7551
▁function	-9.75512
port	-9.75899
▁establish	-9.75944
▁reasons	-9.75987
▁criminal	-9.7612
▁police	-9.76122
▁40	-9.76142
▁Pri	-9.76146
▁Oh	-9.76162
▁initial	-9.76237
ham	-9.76274
▁commercial	-9.76416
▁associated	-9.76511
▁1999	-9.7653
▁Republicans	-9.76546
▁block	-9.76562
ee	-9.76574
▁Israel	-9.76595
▁regulator	-9.76617
▁evening	-9.76687
▁savings	-9.76744
lan	-9.76809
▁northern	-9.76819
▁observ	-9.76856
ran	-9.76875
ko	-9.77017
▁comp	-9.7702
▁corner	-9.77029
▁representation	-9.77083
istic	-9.77097
lor	-9.77279
▁assessment	-9.77353
▁destroyed	-9.77392
low	-9.77406
hook	-9.77431
▁step	-9.77564
based	-9.77625
▁paying	-9.77627
▁beat	-9.77744
▁Sea	-9.77769
▁rise	-9.77777
cri	-9.77956
▁produce	-9.77957
▁seat	-9.78051
▁host	-9.78199
head	-9.78305
▁instance	-9.78318
▁Ben	-9.78376
▁discussed	-9.78393
▁leaders	-9.78405
▁followed	-9.78455
▁opportunit	-9.78459
▁throw	-9.78537
▁recognize	-9.78599
▁moral	-9.78624
▁property	-9.78634
▁Su	-9.78699
▁touch	-9.78778
▁cash	-9.78832
▁Report	-9.78848
▁caught	-9.78924
▁worry	-9.7893
▁funny	-9.78946
▁Hu	-9.79014
▁1990	-9.7904
▁offered	-9.79051
clock	-9.79111
▁secret	-9.79208
▁defend	-9.7923
▁currently	-9.79266
▁except	-9.79349
ade	-9.79414
▁politics	-9.79535
cra	-9.79567
▁apartment	-9.79572
▁fr	-9.79585
▁gold	-9.79623
room	-9.79676
▁regulations	-9.79689
▁advance	-9.7974
load	-9.79923
▁features	-9.79927
▁firm	-9.79988
▁Wa	-9.80102
▁bed	-9.80195
▁Cha	-9.8021
ric	-9.80212
▁animals	-9.80218
▁Jesu	-9.80244
▁England	-9.80253
▁gas	-9.80261
▁owner	-9.80323
▁domestic	-9.80357
▁net	-9.80362
ture	-9.80442
▁looks	-9.80564
▁pop	-9.80653
▁decisions	-9.80669
ew	-9.80788
[	-9.80873
▁sculpture	-9.8088
▁Are	-9.80977
▁Count	-9.8098
▁cave	-9.81021
▁theater	-9.81047
▁activity	-9.81085
▁1998	-9.81096
ey	-9.81115
▁cheap	-9.81181
”	-9.81184
▁sports	-9.81238
▁rent	-9.81308
▁club	-9.81392
▁dress	-9.81429
▁nine	-9.81552
▁multiple	-9.816
all	-9.81661
▁existing	-9.81672
▁Brown	-9.81705
▁entity	-9.81717
▁fashion	-9.82112
▁slow	-9.82176
▁apply	-9.82177
▁greater	-9.82387
iti	-9.82436
▁Church	-9.82439
▁estimate	-9.82523
▁mountains	-9.82597
▁respond	-9.82626
▁finance	-9.82633
▁proposal	-9.82649
▁attend	-9.82764
▁Sh	-9.82773
▁estimated	-9.8292
▁rare	-9.82931
▁fiscal	-9.82966
1	-9.83092
▁Your	-9.83118
▁affected	-9.83204
▁Si	-9.83267
▁application	-9.83284
▁Gate	-9.8335
night	-9.83374
▁drop	-9.83422
]	-9.83496
▁wood	-9.83716
▁implement	-9.83748
▁paintings	-9.83834
ker	-9.83838
za	-9.83841
doro	-9.83848
▁career	-9.83894
▁route	-9.84006
▁royal	-9.8403
▁University	-9.84249
▁Par	-9.84314
▁reached	-9.84314
▁Web	-9.8435
▁purchase	-9.84365
▁Vega	-9.84632
▁ahead	-9.84704
▁burden	-9.8478
ification	-9.84863
▁series	-9.849
▁procedures	-9.84907
▁Italy	-9.85044
▁predict	-9.85105
▁award	-9.85118
▁exercise	-9.85212
▁image	-9.85227
▁Hall	-9.85274
▁reduc	-9.85276
▁slave	-9.85426
▁balance	-9.85466
ill	-9.85496
▁enter	-9.85568
▁May	-9.85572
▁Tu	-9.85664
▁factors	-9.85668
▁determine	-9.85753
▁appeal	-9.85754
▁sleep	-9.85755
art	-9.85757
▁architecture	-9.85762
▁express	-9.85782
▁shape	-9.85798
▁statue	-9.85921
▁Jane	-9.85935
▁efficient	-9.86022
▁gun	-9.86093
eval	-9.8615
▁Thos	-9.86225
▁condition	-9.86226
▁picture	-9.86258
▁historical	-9.86281
press	-9.86288
▁positive	-9.863
▁Bu	-9.86303
▁rooms	-9.86325
▁version	-9.86529
▁Hi	-9.86538
▁points	-9.86639
▁Grand	-9.86666
▁network	-9.86748
▁statements	-9.86781
▁agreement	-9.86902
hop	-9.87207
▁Jew	-9.87214
▁Arab	-9.87303
▁stage	-9.87333
▁compared	-9.87388
▁easier	-9.874
▁starting	-9.87408
▁statement	-9.87468
▁impossible	-9.8751
▁fresh	-9.8751
den	-9.87606
▁ruin	-9.8761
▁Da	-9.87623
▁note	-9.87633
▁discuss	-9.87746
▁Gore	-9.87776
rio	-9.87903
ek	-9.87932
▁match	-9.88072
ik	-9.8821
▁taste	-9.88248
▁identified	-9.88288
▁strategic	-9.88288
▁advantage	-9.88288
▁hill	-9.88291
▁hearing	-9.88413
mat	-9.88437
▁target	-9.88511
▁majority	-9.88538
▁print	-9.88571
▁interior	-9.88599
▁heavy	-9.88623
▁abuse	-9.8867
▁behavior	-9.88735
rry	-9.88768
ina	-9.8877
▁weight	-9.88787
▁Ko	-9.88941
▁parties	-9.88944
▁Ru	-9.89034
▁bear	-9.8906
light	-9.89101
▁straight	-9.89184
▁achieve	-9.892
place	-9.89253
not	-9.8936
▁coffee	-9.89409
ular	-9.89435
▁brief	-9.89522
▁claims	-9.89556
▁restaurant	-9.89603
▁multi	-9.89657
▁Board	-9.89662
▁cars	-9.89737
▁Newsweek	-9.89748
▁spring	-9.89765
▁sitting	-9.89842
▁assets	-9.89902
▁kid	-9.89915
▁castle	-9.89938
▁waiting	-9.90043
ung	-9.90043
▁Susan	-9.90091
▁dance	-9.90103
▁raise	-9.90133
▁bother	-9.90168
▁failed	-9.90225
stream	-9.90454
J	-9.9052
ments	-9.90533
▁sudden	-9.90544
ants	-9.90553
form	-9.90557
▁tri	-9.90652
▁cultural	-9.90658
▁evaluation	-9.90693
▁tea	-9.90713
▁roll	-9.90719
▁testing	-9.90746
▁fit	-9.90751
▁attorney	-9.90788
▁nearby	-9.90797
▁intended	-9.90798
▁handle	-9.90866
▁mark	-9.90996
▁forced	-9.91073
▁Los	-9.91087
▁ball	-9.91104
▁attract	-9.91109
car	-9.91144
▁landscape	-9.91231
▁earlier	-9.91248
bre	-9.91275
spect	-9.91338
▁describe	-9.91362
▁teacher	-9.91385
▁dinner	-9.91461
▁trail	-9.91467
▁material	-9.91508
nce	-9.91547
▁stores	-9.91757
22	-9.91773
▁cat	-9.91773
▁jury	-9.9181
▁objectives	-9.91823
law	-9.91826
▁relax	-9.91922
▁argument	-9.91935
▁200	-9.92036
▁search	-9.92081
▁July	-9.92099
▁games	-9.92121
▁sales	-9.92332
vin	-9.92365
lar	-9.92407
ji	-9.92418
▁clearly	-9.92419
▁yard	-9.92463
▁flat	-9.92482
▁daily	-9.92509
▁screen	-9.92575
▁wealth	-9.92609
▁1997	-9.92635
ari	-9.92639
▁Great	-9.92646
rank	-9.93161
▁conservative	-9.93203
▁survey	-9.93203
▁double	-9.93205
▁conversation	-9.9332
water	-9.93324
continued	-9.93337
▁Here	-9.9334
▁Cor	-9.93347
▁walking	-9.93353
▁attorneys	-9.93421
▁expense	-9.93438
▁completed	-9.93484
▁dollar	-9.93561
▁Je	-9.93593
▁Scot	-9.93598
▁fail	-9.93601
▁television	-9.93673
▁rural	-9.93674
▁strange	-9.93753
▁Sal	-9.93757
▁cool	-9.93783
▁consistent	-9.93825
▁Under	-9.93827
▁symbol	-9.94026
▁moving	-9.94027
▁biggest	-9.94027
▁depict	-9.94029
▁Sp	-9.94061
▁concerned	-9.9412
▁physical	-9.94145
▁powerful	-9.94283
▁peace	-9.94293
bar	-9.94331
▁accounting	-9.94345
▁speech	-9.94381
ology	-9.94386
▁writing	-9.94497
▁video	-9.945
▁committee	-9.945
▁technical	-9.94619
rop	-9.94782
▁Account	-9.94857
▁dedicat	-9.94857
truck	-9.94885
nother	-9.94935
bri	-9.95014
▁tough	-9.95041
▁software	-9.95217
cal	-9.95316
▁performed	-9.95322
▁miss	-9.95327
▁army	-9.95329
▁employee	-9.95414
▁conditions	-9.95434
▁August	-9.95454
▁acquisition	-9.95454
▁eventually	-9.95454
▁sad	-9.95475
▁clothes	-9.95503
cul	-9.95535
▁Republican	-9.95557
▁quarter	-9.95669
gue	-9.95682
▁Did	-9.95712
either	-9.95824
▁Thorn	-9.95824
▁fully	-9.95927
▁border	-9.95935
▁Bor	-9.95935
▁task	-9.95937
▁Ser	-9.96068
▁Starr	-9.96254
▁southern	-9.96298
▁immediately	-9.96353
rose	-9.96379
▁Island	-9.96388
▁processes	-9.96448
▁unless	-9.96558
cut	-9.96623
▁William	-9.9666
▁occur	-9.96749
▁violence	-9.96781
▁cur	-9.96851
ration	-9.9688
▁ideas	-9.96885
▁shall	-9.96922
ging	-9.96925
cious	-9.96955
▁liked	-9.9714
▁anywhere	-9.97203
▁jobs	-9.97286
▁bomb	-9.97289
▁Aid	-9.97363
▁prepared	-9.97391
▁actual	-9.97404
▁Over	-9.97491
▁lunch	-9.9752
▁conference	-9.97526
bound	-9.97545
▁heat	-9.97574
▁Western	-9.97639
▁Sunday	-9.97639
▁temples	-9.97681
cus	-9.97703
50	-9.9777
▁1995	-9.97779
▁sources	-9.97797
▁fifty	-9.9788
▁pressure	-9.97906
▁client	-9.97935
▁imagine	-9.97941
▁mistake	-9.97955
▁importance	-9.98015
▁Michael	-9.98126
▁interventions	-9.98171
▁slight	-9.98201
▁Am	-9.98242
▁responsibility	-9.98249
▁shift	-9.98249
▁decide	-9.98278
▁nobody	-9.98398
-2	-9.98451
▁gather	-9.98498
▁message	-9.98516
painted	-9.98626
du	-9.9865
▁sir	-9.98651
lie	-9.98695
ai	-9.98747
ino	-9.9876
▁stands	-9.98773
▁novel	-9.98796
▁unique	-9.98867
▁gift	-9.98869
▁desert	-9.98872
▁goal	-9.98897
▁plants	-9.98911
▁recommend	-9.98934
▁guard	-9.98944
▁grantees	-9.98993
▁competition	-9.98993
▁bono	-9.98996
berg	-9.99054
▁draft	-9.99116
▁High	-9.99126
▁prior	-9.99191
▁highly	-9.99198
▁cafe	-9.99245
▁routes	-9.99268
▁risks	-9.99299
▁baby	-9.99367
▁neighborhood	-9.99368
▁born	-9.9942
▁Ti	-9.99431
life	-9.99484
ack	-9.99559
▁appli	-9.99619
▁conduct	-9.99643
▁meant	-9.99675
8	-9.99698
▁constant	-9.99739
▁honor	-9.99739
▁Valley	-9.99745
▁del	-9.99879
X	-9.99959
▁shrine	-9.99989
▁Microsoft	-10.0011
▁regular	-10.0014
▁residents	-10.0019
▁learned	-10.0033
▁fan	-10.0035
▁weren	-10.0036
▁object	-10.0037
▁roof	-10.0037
▁seeing	-10.0038
ku	-10.0039
▁Every	-10.0044
▁movement	-10.0049
▁Sha	-10.0052
▁hunt	-10.0062
▁bridge	-10.0064
▁June	-10.0094
▁environmental	-10.0097
▁lie	-10.0111
▁familiar	-10.0112
▁debate	-10.0113
▁lay	-10.012
fu	-10.0121
fully	-10.0131
▁prison	-10.0134
gotten	-10.0134
▁parts	-10.0135
▁refer	-10.0138
▁advice	-10.0138
▁capacity	-10.0138
▁surrounding	-10.0148
▁direction	-10.0152
▁busy	-10.0153
▁administration	-10.0163
▁compliance	-10.0164
▁surround	-10.0166
▁Also	-10.0178
▁wage	-10.0187
▁exchange	-10.0189
▁traffic	-10.0189
▁content	-10.0199
▁Budget	-10.0202
▁grass	-10.0202
▁Bay	-10.0218
▁feed	-10.0221
▁bag	-10.0233
▁climb	-10.024
▁plenty	-10.024
zi	-10.025
▁Muslim	-10.0253
▁dramatic	-10.0254
▁band	-10.0257
▁screening	-10.0258
ue	-10.026
▁exhibit	-10.027
▁implementation	-10.0273
▁Las	-10.0279
▁waste	-10.0298
▁described	-10.0299
atic	-10.0302
▁calls	-10.0302
▁Standard	-10.0304
▁contact	-10.0305
▁Who	-10.0311
▁limit	-10.0316
▁super	-10.0323
▁carri	-10.0336
▁participants	-10.0339
▁broke	-10.0339
▁era	-10.034
▁neighbor	-10.0343
▁pleasant	-10.0343
▁Royal	-10.0344
▁threat	-10.0349
len	-10.0354
▁afraid	-10.0356
▁relat	-10.0361
▁welfare	-10.0369
▁worst	-10.0369
income	-10.0372
▁solution	-10.0395
▁student	-10.04
▁manufacturing	-10.0408
▁nor	-10.041
▁21	-10.0418
cro	-10.0423
▁assess	-10.0431
overall	-10.0433
▁please	-10.0437
▁Angeles	-10.0438
75	-10.0441
▁progress	-10.0444
▁Cavendish	-10.0448
▁surviv	-10.0456
▁relevant	-10.0461
▁pursu	-10.0461
▁Senate	-10.0462
but	-10.0463
▁decrease	-10.0474
▁Santa	-10.0482
▁pollution	-10.0487
▁forest	-10.0488
▁pattern	-10.0501
▁Sever	-10.0503
▁plain	-10.0514
▁devot	-10.0514
class	-10.0521
▁Ye	-10.0532
▁challenge	-10.0536
▁accident	-10.054
▁vacation	-10.054
▁shoot	-10.054
▁Richard	-10.054
▁Russian	-10.0541
▁projects	-10.0541
▁findings	-10.0546
▁invest	-10.0547
▁stick	-10.0554
▁writer	-10.0554
▁golf	-10.056
▁encourage	-10.0565
▁happens	-10.0565
▁none	-10.0577
ville	-10.0577
▁decline	-10.0578
▁theory	-10.0593
▁Dublin	-10.0593
▁defeat	-10.0593
▁snow	-10.0593
▁guys	-10.0594
▁legislation	-10.0597
▁Gre	-10.0599
▁negative	-10.0606
▁Good	-10.0606
▁fac	-10.0611
▁requirement	-10.0614
▁Madeira	-10.062
▁concerns	-10.0622
▁businesses	-10.0627
▁energy	-10.0633
▁Mus	-10.0642
▁painting	-10.0648
▁conflict	-10.066
▁produced	-10.0668
▁window	-10.0678
gle	-10.0681
▁tall	-10.0683
▁arch	-10.0683
for	-10.0685
▁filled	-10.0688
▁smart	-10.0689
ini	-10.0695
▁executives	-10.0699
▁tradition	-10.0699
▁appreciate	-10.07
▁extend	-10.07
▁Irish	-10.07
▁massive	-10.0702
▁master	-10.0705
▁wi	-10.0711
▁understanding	-10.0714
▁conclusion	-10.0714
▁tiny	-10.0714
▁status	-10.0715
what	-10.0716
▁determined	-10.0718
▁adult	-10.0723
ica	-10.0725
▁assume	-10.0726
▁communication	-10.0727
▁essential	-10.0727
ES	-10.0731
▁connection	-10.0734
▁mid	-10.0741
▁arrived	-10.0753
▁Egyptian	-10.0757
▁box	-10.076
▁twice	-10.0768
ney	-10.0773
▁offices	-10.0777
▁values	-10.0789
▁younger	-10.0794
▁science	-10.0795
ria	-10.0797
▁manner	-10.0798
▁players	-10.0808
▁laugh	-10.0812
▁radio	-10.0817
▁religion	-10.0822
▁breath	-10.0822
▁photograph	-10.0822
▁magic	-10.0822
▁concept	-10.0824
▁tree	-10.0829
BA	-10.0833
▁female	-10.0835
▁trend	-10.0836
je	-10.0837
▁protection	-10.0839
well	-10.0856
▁holding	-10.0859
▁totally	-10.0861
▁amazing	-10.0863
▁Hindu	-10.0863
▁Final	-10.0868
▁member	-10.0871
▁pat	-10.088
▁previous	-10.0882
pro	-10.0882
▁finished	-10.0883
cept	-10.0884
tem	-10.0892
▁matters	-10.0903
▁dangerous	-10.0905
▁recommendations	-10.0907
▁Water	-10.0908
▁soft	-10.0912
▁cards	-10.0915
▁drinking	-10.0917
▁Win	-10.0942
▁festival	-10.0945
▁Cr	-10.0951
▁Association	-10.0959
▁ski	-10.0968
▁construct	-10.0968
▁defense	-10.0973
▁changing	-10.0973
▁opposite	-10.0974
▁highest	-10.0978
▁fill	-10.0981
▁meat	-10.0983
▁refus	-10.0989
mile	-10.099
▁Ski	-10.0993
▁sentence	-10.1003
▁loan	-10.1005
▁affair	-10.1014
▁event	-10.1014
▁leav	-10.1017
▁western	-10.1023
▁forces	-10.1027
rang	-10.1047
▁weak	-10.1055
▁facilities	-10.1056
▁Pol	-10.106
▁install	-10.1064
▁damage	-10.1065
▁mortality	-10.107
▁spread	-10.1081
▁Committee	-10.1084
▁impressive	-10.1084
ese	-10.1104
▁Jamaica	-10.1108
▁standing	-10.1111
▁fix	-10.1116
▁surprised	-10.1119
how	-10.1122
▁accurate	-10.1126
▁lots	-10.1133
▁lies	-10.1139
▁presented	-10.114
▁Vandemeyer	-10.114
▁marriage	-10.114
▁confus	-10.114
▁ft	-10.115
▁reference	-10.1157
FA	-10.1162
▁Corp	-10.1163
▁package	-10.1172
▁iron	-10.1181
▁Edinburgh	-10.1182
▁apparent	-10.1182
▁planned	-10.1183
▁sister	-10.1183
▁paint	-10.1185
▁nodd	-10.1189
▁offering	-10.1193
dom	-10.1195
▁Sch	-10.1198
▁None	-10.12
▁opportunities	-10.1205
gun	-10.121
▁Bra	-10.1216
▁Ed	-10.1216
▁dream	-10.1225
▁rid	-10.1229
▁male	-10.1237
▁supply	-10.1239
▁records	-10.124
▁loss	-10.1248
▁advis	-10.1248
▁copy	-10.1256
▁hadn	-10.1258
board	-10.1258
▁News	-10.126
▁Fo	-10.1264
▁Medicare	-10.1267
aries	-10.1271
▁explore	-10.1272
▁Democrats	-10.1273
top	-10.1273
▁concern	-10.1279
▁flu	-10.1282
▁officer	-10.1286
▁controls	-10.1294
▁manage	-10.1294
▁GDP	-10.1296
▁reveal	-10.1296
▁Hotel	-10.1297
▁smoke	-10.1297
▁leadership	-10.1297
▁vast	-10.1297
▁somebod	-10.1316
ford	-10.133
uck	-10.1332
ily	-10.1333
rm	-10.1337
▁marble	-10.1339
▁phase	-10.1339
▁recogniz	-10.1342
▁primar	-10.1343
▁reasonable	-10.1344
cho	-10.1351
▁restored	-10.1353
▁Where	-10.1353
▁housing	-10.1357
▁Star	-10.1363
▁fighting	-10.1365
▁forget	-10.1367
▁Lu	-10.1373
▁skills	-10.1374
▁argue	-10.1386
▁caus	-10.1388
▁component	-10.1396
▁rulemaking	-10.1398
▁herself	-10.1411
▁finger	-10.1416
20	-10.1419
▁quick	-10.1419
▁mess	-10.1422
▁guidance	-10.1425
▁distance	-10.1441
▁Rue	-10.1442
▁realize	-10.1449
▁FGD	-10.1454
▁stretch	-10.1454
▁numbers	-10.1457
▁units	-10.1458
▁coverage	-10.1463
▁smil	-10.1467
▁introduc	-10.1468
▁Bob	-10.1477
▁conducted	-10.148
▁artists	-10.1488
▁selection	-10.1488
ox	-10.1491
▁brand	-10.1498
▁portion	-10.1502
ov	-10.1505
▁mention	-10.1512
▁invit	-10.1524
▁Pat	-10.1532
▁loved	-10.1537
▁craft	-10.1543
▁consumer	-10.1549
Class	-10.1557
▁minute	-10.1557
▁elder	-10.1557
tive	-10.1557
▁options	-10.156
▁carv	-10.156
▁Sc	-10.1562
▁dozen	-10.1566
▁Look	-10.1572
▁defin	-10.1581
▁suppose	-10.1588
wide	-10.1594
▁continu	-10.1594
▁Paul	-10.1598
▁afternoon	-10.16
▁Town	-10.1603
responsibilities	-10.1615
▁extent	-10.1615
▁entirely	-10.1616
▁Rome	-10.1621
mate	-10.1622
▁organizational	-10.1624
▁leg	-10.1624
▁glad	-10.163
▁Scott	-10.1642
▁stated	-10.1643
▁beside	-10.1644
hen	-10.1644
iz	-10.1644
▁Clear	-10.1644
▁wh	-10.165
▁numero	-10.165
▁Lincoln	-10.1659
▁eastern	-10.1659
▁indicate	-10.1665
▁Will	-10.1672
▁song	-10.1674
▁jump	-10.1674
read	-10.1675
▁awful	-10.1679
▁illegal	-10.1689
hand	-10.169
▁football	-10.169
▁Table	-10.17
▁entertainment	-10.1706
▁Th	-10.1708
▁leader	-10.171
▁noticed	-10.171
▁March	-10.1713
9	-10.1714
▁Center	-10.1719
▁failure	-10.172
▁Order	-10.1721
▁corporate	-10.1733
▁permanent	-10.1734
▁Figure	-10.1748
▁error	-10.1749
▁reduction	-10.1751
▁attractive	-10.1752
▁Day	-10.1756
▁Mc	-10.1762
▁IRS	-10.1764
▁substantial	-10.1766
▁ideal	-10.1769
▁Pen	-10.1778
▁title	-10.1779
▁horses	-10.1783
ctor	-10.1798
war	-10.1808
win	-10.1809
▁permit	-10.1813
▁worried	-10.1816
▁Work	-10.1824
▁dropped	-10.1825
tz	-10.1833
▁steel	-10.1839
▁measures	-10.1839
6	-10.1847
▁differences	-10.1851
▁convert	-10.1854
▁possibilit	-10.1854
▁escape	-10.1854
▁accepted	-10.1857
▁Long	-10.1858
▁90	-10.1868
▁feature	-10.1871
▁manager	-10.1872
▁bright	-10.1876
run	-10.1876
▁text	-10.1885
▁Pu	-10.1891
▁weapons	-10.1898
▁Mount	-10.1898
▁reli	-10.1899
▁Port	-10.1904
▁slowly	-10.1905
▁teach	-10.1907
▁formal	-10.1924
▁Executive	-10.1929
▁April	-10.1929
▁occurr	-10.1933
▁River	-10.1935
LS	-10.1938
▁tools	-10.1939
▁Mont	-10.1941
▁visited	-10.1954
related	-10.1957
▁Maybe	-10.1962
▁Dis	-10.1965
▁mere	-10.1973
▁shut	-10.1973
▁scenario	-10.1975
hol	-10.1988
▁trans	-10.199
▁retain	-10.199
▁Monica	-10.1991
▁grown	-10.1996
▁patient	-10.1999
▁users	-10.2002
▁discover	-10.2002
▁Research	-10.2006
▁employer	-10.2014
▁Carter	-10.2014
▁edge	-10.2021
▁buying	-10.2022
▁accountability	-10.2023
lia	-10.2024
▁London	-10.2036
▁approved	-10.2037
stone	-10.204
▁fellow	-10.204
ium	-10.2043
▁firms	-10.2047
point	-10.205
burg	-10.2053
▁length	-10.2067
wan	-10.2068
▁Place	-10.2072
▁neat	-10.2076
01	-10.2078
▁meaning	-10.2081
▁audience	-10.2083
rated	-10.2092
▁managed	-10.2095
▁speaking	-10.21
▁online	-10.2107
▁Madri	-10.2116
▁facility	-10.2129
cle	-10.2131
▁figures	-10.2132
▁birth	-10.2144
tory	-10.2146
ncy	-10.215
▁accounts	-10.2156
ubb	-10.2156
▁saved	-10.2158
▁Let	-10.2158
▁declar	-10.216
▁oppos	-10.2161
▁Ni	-10.2169
▁engineering	-10.217
▁active	-10.2171
▁rose	-10.2172
dra	-10.2177
▁addressed	-10.2181
log	-10.2184
▁Out	-10.2186
tel	-10.2191
▁harbor	-10.2191
▁vehicle	-10.2191
▁becoming	-10.2193
▁asking	-10.2199
▁somewhere	-10.2201
drew	-10.2208
long	-10.2211
▁Sam	-10.2211
▁luck	-10.2214
▁towns	-10.222
ez	-10.2222
▁District	-10.2223
▁papers	-10.2229
cha	-10.2233
▁selling	-10.2234
31	-10.2247
▁Rennie	-10.2254
▁settlement	-10.2254
gri	-10.2265
▁70	-10.2268
▁strategy	-10.227
▁admir	-10.227
▁counsel	-10.2285
▁driving	-10.2285
▁calm	-10.2291
▁installation	-10.2292
▁editor	-10.23
▁Wil	-10.2302
style	-10.2303
gy	-10.2307
▁publication	-10.2312
▁hero	-10.2313
▁boring	-10.2318
▁ED	-10.2319
▁dry	-10.2327
▁windows	-10.2331
▁poll	-10.2333
▁deficit	-10.2333
▁helping	-10.2344
▁volunteer	-10.2349
▁2002	-10.2351
▁proper	-10.2353
▁Take	-10.2356
▁eligib	-10.2356
▁thank	-10.2357
bye	-10.2369
▁Case	-10.2371
▁Renaissance	-10.2381
▁critics	-10.2381
▁lady	-10.2381
▁Any	-10.2387
▁statues	-10.2389
▁pet	-10.2393
▁citizens	-10.2395
▁January	-10.2396
▁promise	-10.2399
burn	-10.2399
▁effectively	-10.2405
▁decade	-10.2408
hood	-10.2411
SA	-10.2414
▁basically	-10.2415
▁gate	-10.2418
fund	-10.2422
SI	-10.2423
rant	-10.2424
▁option	-10.2425
▁flowers	-10.2427
▁reductions	-10.2427
▁Hollywood	-10.2428
▁IT	-10.2431
▁release	-10.2437
23	-10.2437
▁productivity	-10.2445
▁tru	-10.2453
▁lawn	-10.2455
▁upset	-10.2472
▁preamble	-10.2476
▁succeed	-10.2476
▁documents	-10.248
▁Before	-10.2495
▁80	-10.2503
29	-10.2519
▁improved	-10.2521
▁chair	-10.2522
▁Hav	-10.2524
▁challenges	-10.2534
▁Gothic	-10.2538
▁alive	-10.2538
talked	-10.2538
ough	-10.2541
▁treasure	-10.2541
▁swimming	-10.2541
▁pen	-10.2547
▁cell	-10.2555
▁hasn	-10.2559
▁desire	-10.256
ake	-10.2561
▁file	-10.2564
▁Catholic	-10.2573
▁reviews	-10.2574
▁whom	-10.2578
▁Saturday	-10.2589
▁odd	-10.259
AC	-10.2592
▁principles	-10.26
wn	-10.2602
▁complain	-10.2602
▁destination	-10.2606
▁techniques	-10.2609
▁Russia	-10.2621
▁strict	-10.2622
▁plus	-10.2624
▁cast	-10.2631
produc	-10.2638
▁command	-10.2638
▁suspect	-10.2638
▁Black	-10.2638
▁historic	-10.2641
ient	-10.2642
▁Howard	-10.2649
28	-10.265
26	-10.2653
▁shock	-10.2655
▁flexibility	-10.266
▁fat	-10.2663
▁Cost	-10.2668
▁restriction	-10.2675
mail	-10.2675
▁tests	-10.2682
▁Charles	-10.2688
▁vision	-10.2693
▁scar	-10.2694
▁Council	-10.2704
▁authoriz	-10.2711
▁Financial	-10.2721
ore	-10.2727
▁belong	-10.273
▁Com	-10.2732
cop	-10.2735
▁sufficient	-10.2739
▁loud	-10.2741
gate	-10.2746
▁magnificent	-10.2753
▁Sather	-10.2757
tting	-10.2759
lon	-10.2766
▁PM	-10.2766
▁hang	-10.2769
27	-10.277
ook	-10.2786
Perhaps	-10.2786
▁Tra	-10.2789
▁Bur	-10.2789
▁occasional	-10.279
▁discovered	-10.2792
▁cup	-10.2796
▁worship	-10.2803
▁facade	-10.2804
▁finding	-10.2827
▁sexual	-10.283
bes	-10.2834
ank	-10.2834
15	-10.2835
▁Prince	-10.2837
▁putting	-10.2842
▁Dole	-10.2847
▁obvious	-10.2851
ently	-10.2852
▁Middle	-10.2853
▁September	-10.2853
▁harm	-10.2867
▁fixed	-10.2868
▁SCR	-10.2869
▁empire	-10.2869
▁Thank	-10.287
▁cable	-10.2886
▁welcome	-10.2886
tern	-10.2888
▁surprise	-10.2895
▁sail	-10.2904
▁percentage	-10.2905
▁Anse	-10.2908
▁driver	-10.2908
▁presence	-10.292
▁fool	-10.292
▁carrier	-10.2926
▁explor	-10.2931
▁mosque	-10.2937
▁Gar	-10.2945
▁hire	-10.2961
poli	-10.2961
▁Cal	-10.297
▁fly	-10.297
▁details	-10.297
▁liberal	-10.297
▁sample	-10.2977
▁earth	-10.298
35	-10.2982
▁provisions	-10.2985
▁leather	-10.2987
▁Mor	-10.2988
▁names	-10.3003
metric	-10.3003
▁explanation	-10.3004
▁blade	-10.3004
▁Christmas	-10.3004
book	-10.3014
pin	-10.3015
▁Central	-10.3021
▁DOD	-10.3021
▁chain	-10.3022
45	-10.3035
▁assist	-10.3046
hir	-10.3047
▁meal	-10.3051
▁Four	-10.3052
bel	-10.3054
▁models	-10.3054
▁entered	-10.3054
▁silver	-10.3056
▁500	-10.3057
▁engagement	-10.3062
▁happening	-10.307
▁protest	-10.3072
ER	-10.3077
▁sharp	-10.3089
▁Nothing	-10.309
▁approval	-10.3106
▁atmosphere	-10.3113
▁pain	-10.3122
▁lines	-10.3127
▁telling	-10.313
▁eighty	-10.3136
▁chief	-10.314
▁mass	-10.3151
▁realized	-10.3152
▁customers	-10.3153
▁treat	-10.3159
▁Green	-10.3162
▁Ken	-10.3163
▁appeared	-10.3174
▁Octo	-10.3175
▁consideration	-10.3179
▁decades	-10.318
state	-10.318
▁pointed	-10.318
▁proud	-10.3185
▁scandal	-10.3192
▁fascinating	-10.3192
▁sick	-10.3193
▁tape	-10.3203
▁Mail	-10.3206
▁submitt	-10.3208
▁Square	-10.3209
▁operation	-10.321
▁skill	-10.3214
▁Tur	-10.3215
▁smile	-10.3217
▁Like	-10.3231
▁skin	-10.3232
▁survive	-10.3233
▁shoulder	-10.3237
▁operate	-10.3238
▁foundation	-10.324
▁Chicago	-10.3244
▁Union	-10.3245
▁Ge	-10.3246
▁contributions	-10.325
▁girls	-10.3254
▁wooden	-10.3256
▁disagree	-10.3261
▁monaster	-10.3261
▁background	-10.3265
▁panel	-10.3266
bid	-10.3266
▁Cynthia	-10.3279
▁elements	-10.3286
▁Bi	-10.3287
▁hole	-10.3287
▁thus	-10.3289
▁mouth	-10.3292
▁admit	-10.3297
▁Ab	-10.3297
▁promote	-10.3308
frame	-10.3311
▁university	-10.3314
▁contrast	-10.3315
Ox	-10.3317
▁broken	-10.332
▁Pla	-10.3325
▁expert	-10.3329
▁Have	-10.3336
shirt	-10.3336
▁churches	-10.3336
▁determin	-10.3343
▁fraud	-10.3349
▁definition	-10.3349
▁shore	-10.335
▁column	-10.3353
▁anybody	-10.3353
▁guilty	-10.336
▁belief	-10.3366
▁participate	-10.3366
▁Monday	-10.3368
▁Malaysia	-10.3376
▁mentioned	-10.3378
▁poverty	-10.3384
▁attitude	-10.3384
▁peak	-10.3384
▁Chi	-10.3387
▁tired	-10.3389
▁chapel	-10.3401
▁artist	-10.3403
▁Though	-10.3409
▁connect	-10.341
▁architect	-10.3418
▁extensive	-10.3419
graph	-10.3419
▁freedom	-10.3421
ological	-10.3424
▁safety	-10.3424
▁forms	-10.3427
▁suffer	-10.3429
▁hills	-10.3431
▁sorry	-10.3433
▁partner	-10.3433
▁prove	-10.3436
▁Public	-10.3437
▁congressional	-10.3437
▁bye	-10.344
▁finish	-10.3446
▁carefully	-10.3454
▁holiday	-10.3454
▁ceiling	-10.3454
▁investigation	-10.3461
▁wave	-10.3467
▁capture	-10.3468
▁advertising	-10.3472
▁code	-10.3484
▁adopted	-10.3487
▁reputation	-10.349
▁courtyard	-10.349
▁website	-10.349
▁gay	-10.3491
rise	-10.35
▁tours	-10.3507
▁manufacture	-10.3508
▁thanks	-10.3508
▁Project	-10.3508
▁Ibiza	-10.3508
nder	-10.3509
▁dirt	-10.351
▁Hill	-10.3516
▁pan	-10.3517
▁thick	-10.3528
▁owned	-10.3529
▁bottom	-10.3543
▁approximate	-10.3543
▁decorated	-10.3544
hal	-10.3547
▁Wal	-10.355
▁Napoleon	-10.3561
▁Three	-10.3561
▁perfectly	-10.3561
▁clothing	-10.3561
quest	-10.3568
▁bigger	-10.357
makers	-10.3572
▁silent	-10.3573
▁circumstances	-10.3577
mission	-10.3578
ua	-10.3585
▁mad	-10.3587
▁loans	-10.3596
▁cuts	-10.3596
▁spirit	-10.3597
▁Analysis	-10.3597
▁technologies	-10.3597
▁Queen	-10.3597
▁transfer	-10.3613
▁speed	-10.3617
▁native	-10.3618
▁Val	-10.3618
mount	-10.3622
▁Peter	-10.3623
▁primari	-10.3628
▁elegant	-10.3632
▁enhance	-10.3633
▁Critic	-10.3633
▁Review	-10.3635
▁Road	-10.3638
▁Men	-10.3646
▁pack	-10.3649
▁Garden	-10.3652
▁1994	-10.3653
bit	-10.3659
dating	-10.3661
▁blow	-10.3664
▁consumption	-10.3669
▁spectacular	-10.3669
▁witness	-10.3669
▁launch	-10.367
▁reviewed	-10.3685
▁Age	-10.369
▁practical	-10.37
▁inspir	-10.3701
▁recover	-10.3704
▁incorporat	-10.3705
▁characteristic	-10.3707
▁mental	-10.3712
▁courts	-10.3715
7	-10.3715
▁buried	-10.3724
▁talent	-10.3725
▁improvement	-10.3725
▁Ku	-10.3727
▁bath	-10.3734
▁publish	-10.3736
mph	-10.3739
▁expression	-10.3739
imp	-10.3741
▁convince	-10.3742
▁brain	-10.3743
▁strategies	-10.376
▁transaction	-10.3778
▁commission	-10.3779
▁poison	-10.3779
▁employment	-10.3781
▁communit	-10.3789
gli	-10.3795
▁Mari	-10.3798
lucky	-10.3809
▁reject	-10.3815
▁rider	-10.3824
12	-10.383
▁salt	-10.3831
▁spa	-10.3832
itch	-10.3836
▁comfortable	-10.3836
▁Saving	-10.3838
▁poet	-10.3847
▁forth	-10.3849
▁journey	-10.3852
▁privacy	-10.3852
▁Wall	-10.3852
▁empty	-10.3853
▁hide	-10.3854
▁closer	-10.3858
▁categori	-10.387
▁subsid	-10.3871
▁alien	-10.3873
af	-10.3873
▁initiatives	-10.388
lf	-10.3884
▁emperor	-10.3889
raising	-10.389
▁electricity	-10.3892
▁Beach	-10.3896
deem	-10.3896
▁accomplish	-10.3915
▁peaceful	-10.3921
▁refuse	-10.3922
▁struggle	-10.3925
▁processing	-10.3925
▁horrible	-10.3926
▁recipient	-10.3926
▁Vrenna	-10.3926
▁Ver	-10.3931
▁reward	-10.3931
▁storm	-10.3933
▁Smith	-10.3944
▁contribute	-10.3947
▁Last	-10.3951
40	-10.3956
typically	-10.3957
▁implemented	-10.3965
▁1980	-10.3965
▁Auditor	-10.3969
pul	-10.3972
▁description	-10.3982
▁dad	-10.3982
▁transform	-10.3982
▁Ya	-10.399
▁Lewinsky	-10.4
▁library	-10.4
TA	-10.4005
going	-10.4017
▁aliens	-10.4019
▁columns	-10.4034
▁Empire	-10.4038
▁Mexico	-10.4038
ano	-10.4038
▁branch	-10.4043
▁Director	-10.4048
uring	-10.4049
▁fruit	-10.4057
▁egg	-10.406
where	-10.4065
▁import	-10.4073
mark	-10.4074
▁criteria	-10.4076
ix	-10.4079
▁instrument	-10.4094
▁SO	-10.4095
▁apart	-10.4096
▁24	-10.4108
▁photo	-10.4113
▁Palace	-10.4113
▁audits	-10.4113
▁pleasure	-10.4113
▁Centre	-10.4113
▁trading	-10.4113
▁Health	-10.4114
▁reliability	-10.4114
▁Tri	-10.4118
▁sum	-10.4121
▁purposes	-10.4124
▁deni	-10.4131
▁stable	-10.4137
▁Lawrence	-10.4151
▁unusual	-10.4151
▁committed	-10.4152
▁giant	-10.4152
10	-10.4156
▁Part	-10.4159
▁materials	-10.4162
▁supplie	-10.4169
▁Britain	-10.417
▁analyz	-10.417
▁commitment	-10.4175
▁letters	-10.4181
▁yesterday	-10.4189
▁Dan	-10.4206
▁School	-10.4208
▁beauty	-10.4208
▁urban	-10.4209
▁reality	-10.421
▁coal	-10.4214
▁advocate	-10.4224
▁telephone	-10.4228
stairs	-10.4233
▁engage	-10.4239
▁System	-10.4247
▁assumptions	-10.4247
lined	-10.4258
pm	-10.426
▁guns	-10.426
▁Up	-10.4266
▁Suprem	-10.4266
▁everywhere	-10.4269
▁mom	-10.4281
▁map	-10.4284
▁cliff	-10.4285
▁chose	-10.4287
▁greates	-10.4288
▁Gr	-10.4289
▁vary	-10.4289
▁highlight	-10.4291
▁corporation	-10.4304
▁fifteen	-10.4304
▁Administration	-10.4305
▁frequent	-10.4308
▁aim	-10.4309
▁adequate	-10.4324
▁regardless	-10.4331
▁counter	-10.4336
▁operating	-10.4344
▁flee	-10.4348
▁generate	-10.4349
▁typical	-10.4349
▁Christ	-10.4351
▁Call	-10.4358
▁crop	-10.4359
▁possibly	-10.4362
▁guest	-10.4363
ada	-10.4376
▁golden	-10.4376
▁frequently	-10.4378
▁baseball	-10.4383
▁mix	-10.4384
▁Hunt	-10.4386
while	-10.4386
▁soldiers	-10.4388
ware	-10.439
▁scale	-10.44
▁blame	-10.4401
▁Friday	-10.4402
▁learning	-10.4411
▁delay	-10.4411
▁medicine	-10.4421
▁Franklin	-10.4422
▁Va	-10.4424
def	-10.4433
▁sections	-10.4434
▁Bradley	-10.444
▁rapid	-10.4442
▁punishment	-10.4442
65	-10.4448
▁vegetable	-10.446
▁Wom	-10.4461
▁selected	-10.447
▁disc	-10.4471
▁replaced	-10.4477
AP	-10.4477
▁exception	-10.4477
▁ear	-10.4477
▁earn	-10.448
▁consist	-10.4491
pping	-10.4498
▁crazy	-10.4499
▁disease	-10.4499
▁experts	-10.4502
▁Shi	-10.4503
▁mall	-10.4504
▁Year	-10.4505
▁limits	-10.4506
▁boys	-10.4507
▁Den	-10.451
▁Near	-10.4512
▁rush	-10.452
▁remind	-10.4523
din	-10.4526
▁Technology	-10.4538
ette	-10.4539
▁shadow	-10.4539
▁planet	-10.4543
▁para	-10.4543
▁mandate	-10.4548
▁examine	-10.4548
ola	-10.4551
▁teaching	-10.4557
▁scared	-10.4557
▁governor	-10.4573
▁twelve	-10.4578
▁Among	-10.4578
▁Henry	-10.4578
nin	-10.4589
▁tip	-10.4592
▁dri	-10.4594
▁Corporation	-10.4598
▁statewide	-10.4603
▁Pra	-10.4609
signed	-10.4618
▁Economic	-10.4618
▁SEC	-10.4622
▁customer	-10.4623
▁calling	-10.4623
▁Jones	-10.4629
▁Iraq	-10.4638
▁stuck	-10.4638
▁celebrate	-10.464
▁Jim	-10.4643
▁bay	-10.4646
▁visiting	-10.4656
▁sale	-10.4656
▁comprehensive	-10.4658
▁professor	-10.4658
▁bargain	-10.4658
rie	-10.4661
▁metal	-10.4661
wearing	-10.4665
lli	-10.4667
latest	-10.4667
▁Poland	-10.467
▁basket	-10.4678
rian	-10.4678
▁stress	-10.4679
▁score	-10.4679
▁bunch	-10.4682
▁incentives	-10.4685
ille	-10.4686
▁define	-10.4689
▁adopt	-10.469
▁classical	-10.4692
▁outcomes	-10.4693
▁guarantee	-10.4696
meter	-10.4697
▁troops	-10.4698
▁expectations	-10.4698
▁smell	-10.4699
▁Han	-10.4703
▁Wi	-10.4707
fir	-10.4713
▁Florida	-10.4718
▁chapter	-10.4718
▁chemical	-10.4718
▁combination	-10.4718
▁strike	-10.4718
▁sole	-10.4718
▁van	-10.4719
▁Section	-10.4721
▁achieved	-10.4723
▁remark	-10.4724
▁Nixon	-10.4738
▁concert	-10.4738
▁Daniel	-10.4738
▁replied	-10.4738
▁kick	-10.474
▁Virginia	-10.4743
▁helpful	-10.4744
▁III	-10.4746
▁significantly	-10.4758
sponsor	-10.4758
▁creating	-10.4758
▁faith	-10.4767
▁previously	-10.477
5,000	-10.4774
▁Soviet	-10.4778
▁peninsula	-10.4778
▁subsequent	-10.4778
▁functions	-10.4786
▁exp	-10.4788
▁cried	-10.4794
▁instruct	-10.4796
▁minor	-10.4798
▁praise	-10.4799
▁jail	-10.4799
▁quit	-10.4803
bun	-10.4809
▁adjust	-10.4812
▁demon	-10.482
▁repair	-10.4821
▁Asian	-10.4823
tti	-10.4824
put	-10.4829
▁Whitting	-10.484
▁fourth	-10.4843
▁pictures	-10.4846
▁Holy	-10.4846
▁meetings	-10.4848
▁careful	-10.4859
▁dome	-10.4859
▁judgment	-10.4859
▁comparison	-10.486
▁Book	-10.4863
▁Israeli	-10.4864
▁upper	-10.4867
▁Tel	-10.4867
▁Plan	-10.4868
tech	-10.4875
▁Kennedy	-10.488
▁carpet	-10.488
▁institution	-10.4888
▁via	-10.4898
▁Performance	-10.49
▁Arch	-10.4901
▁weapon	-10.4902
▁crack	-10.4902
▁Nor	-10.4917
▁organized	-10.4917
▁sculpt	-10.4919
▁Buddhist	-10.4921
▁concentration	-10.4921
▁coordinat	-10.4921
▁angry	-10.4922
▁duty	-10.493
▁protected	-10.4935
▁deposit	-10.4936
iff	-10.4939
▁dominat	-10.4942
▁victims	-10.4944
▁engineer	-10.4946
▁opening	-10.4956
fare	-10.4961
▁confidence	-10.4962
cap	-10.4965
▁graduate	-10.4968
▁severe	-10.4973
▁ignored	-10.4975
▁eating	-10.498
▁intellectual	-10.4983
▁residence	-10.4983
▁valuable	-10.4983
▁violent	-10.4983
▁guidelines	-10.4983
▁Albert	-10.4983
▁cats	-10.4996
▁surprising	-10.5003
▁economist	-10.5005
▁allowances	-10.5009
span	-10.5011
▁friendly	-10.5012
▁penalty	-10.5013
▁grave	-10.5017
▁Vietnam	-10.5024
▁Was	-10.5041
▁Further	-10.5045
▁employ	-10.5051
▁principle	-10.5052
▁candidate	-10.5052
▁animal	-10.5052
post	-10.5054
losing	-10.5056
88	-10.5056
▁hell	-10.5064
▁prepare	-10.5066
▁readers	-10.5069
round	-10.507
48	-10.5082
▁perspective	-10.5086
▁studied	-10.5086
bell	-10.5097
▁displays	-10.5099
▁Via	-10.5103
▁Tokyo	-10.5107
▁1993	-10.5109
▁oversight	-10.5111
CC	-10.5111
take	-10.5113
▁tons	-10.5117
▁December	-10.5128
▁association	-10.5128
▁cheaper	-10.5129
▁actor	-10.513
▁FDA	-10.5131
▁laid	-10.514
position	-10.5145
▁Colorado	-10.5149
▁principal	-10.5149
▁Martin	-10.5151
▁settl	-10.5151
proved	-10.5154
▁Sub	-10.5156
▁sport	-10.5159
Q	-10.5161
▁Sun	-10.5163
ison	-10.5167
▁artifact	-10.517
▁bottle	-10.517
arch	-10.5172
▁assumed	-10.5172
▁transportation	-10.5175
rd	-10.5176
▁adjustment	-10.5177
▁improvements	-10.5178
▁Regulator	-10.5191
▁obviously	-10.5194
▁Human	-10.5197
▁splendid	-10.5212
gna	-10.5212
▁noise	-10.5219
▁Piazza	-10.5233
▁corrupt	-10.5233
▁Bank	-10.5237
95	-10.524
▁pit	-10.5244
▁statute	-10.5255
▁Still	-10.526
▁effectiveness	-10.5265
▁electric	-10.5272
▁regional	-10.5286
▁bull	-10.5288
▁observation	-10.5288
▁candidates	-10.5289
▁treated	-10.529
▁tested	-10.5297
▁incident	-10.5297
▁habit	-10.5297
▁showing	-10.5299
▁strip	-10.53
▁Germany	-10.53
▁Mac	-10.5305
iness	-10.5308
▁turning	-10.531
missed	-10.5316
▁tickets	-10.5316
▁retrofit	-10.5318
▁tight	-10.5319
▁boot	-10.5321
▁cutting	-10.5322
gged	-10.5324
▁efficiency	-10.5325
PA	-10.5331
▁deserve	-10.5338
▁dogs	-10.5338
▁territory	-10.534
▁random	-10.5341
▁monk	-10.5345
55	-10.5347
corn	-10.5349
▁understood	-10.5351
▁joke	-10.5363
▁Johnson	-10.5372
▁commit	-10.5377
▁Gal	-10.5389
▁Home	-10.539
▁kni	-10.5397
bility	-10.5399
▁bronze	-10.5404
▁experiment	-10.5404
▁mercury	-10.5404
▁measur	-10.5408
AL	-10.541
▁surpluses	-10.5415
▁aspects	-10.5415
▁calculat	-10.5417
view	-10.5422
▁insist	-10.5425
▁engine	-10.5429
▁fired	-10.5434
▁nurs	-10.5438
▁distribut	-10.5438
▁union	-10.544
▁Ottoman	-10.5447
▁hidden	-10.5447
▁stupid	-10.5447
▁fuel	-10.5448
▁applicab	-10.5449
curr	-10.5462
▁Turkish	-10.5469
▁scream	-10.5469
▁thorough	-10.5469
▁license	-10.5469
▁Tower	-10.5469
nstead	-10.5474
▁providers	-10.5485
▁Journal	-10.5491
▁memory	-10.5491
▁admitted	-10.5492
▁arrive	-10.5492
▁distribution	-10.55
▁device	-10.5512
CA	-10.552
ura	-10.5525
making	-10.5529
▁competitive	-10.5534
▁physician	-10.5534
▁terrace	-10.5534
▁crash	-10.5535
▁grade	-10.5536
▁cry	-10.5541
HI	-10.5572
▁auditor	-10.5574
▁tent	-10.5576
▁avoided	-10.5576
▁sweet	-10.5578
▁wealthy	-10.5581
▁classic	-10.5582
▁Johnny	-10.5584
aire	-10.5585
▁Rou	-10.5589
hour	-10.5595
▁abortion	-10.56
▁administrative	-10.56
▁arrang	-10.56
▁compare	-10.56
▁Vice	-10.5609
▁falling	-10.5612
▁coach	-10.5615
▁greatly	-10.5616
ome	-10.5617
tha	-10.5618
▁flood	-10.5622
▁maintenance	-10.5622
▁crisis	-10.5622
▁shelter	-10.5622
▁rival	-10.5623
▁exposure	-10.5623
▁chest	-10.5628
▁literature	-10.5644
▁Ireland	-10.5645
▁interpretation	-10.5647
▁split	-10.5649
key	-10.5649
script	-10.565
▁voters	-10.5651
▁shoes	-10.5663
▁danger	-10.5664
▁necessarily	-10.5666
taught	-10.5666
▁nurse	-10.5676
▁forever	-10.5683
30	-10.5684
▁Nile	-10.5685
▁desk	-10.5689
OL	-10.5697
▁App	-10.5708
aving	-10.5726
rick	-10.5727
oli	-10.5727
▁knock	-10.5732
▁stroll	-10.5733
▁methodolog	-10.5733
▁Sen	-10.5735
ccuracy	-10.5755
▁disaster	-10.5755
▁boom	-10.5755
▁Foundation	-10.5756
▁Finn	-10.5757
▁harder	-10.5765
▁dust	-10.5769
▁context	-10.5777
▁Thomas	-10.5777
q	-10.578
▁demonstrate	-10.578
▁antique	-10.578
▁trace	-10.5782
▁player	-10.5792
▁journalist	-10.5798
▁Tom	-10.5799
▁Byzantine	-10.5799
▁pair	-10.5806
▁Bal	-10.5812
▁consult	-10.5814
▁Reform	-10.582
▁attribut	-10.5822
▁folks	-10.5822
▁minimum	-10.5822
▁Regist	-10.5822
66	-10.5831
▁expos	-10.584
▁Carolina	-10.5844
▁merchant	-10.5844
▁voting	-10.5844
▁channel	-10.5845
▁1960	-10.5848
▁plate	-10.5849
arian	-10.5849
▁farmer	-10.5849
▁tomorrow	-10.585
ami	-10.585
uze	-10.5866
▁replace	-10.587
uk	-10.588
▁Thu	-10.5887
▁divorce	-10.5889
▁Latin	-10.5894
▁fortress	-10.5912
ken	-10.5915
▁indicat	-10.5923
▁evaluate	-10.5926
▁exhibition	-10.5928
▁Rock	-10.5928
aging	-10.5939
▁politicians	-10.5941
ico	-10.5946
33	-10.5946
conscious	-10.5958
▁Something	-10.5958
educat	-10.597
RE	-10.5974
▁improper	-10.598
▁exceed	-10.598
▁violat	-10.598
▁Maryland	-10.5986
mbo	-10.5991
▁barely	-10.6005
▁govern	-10.6005
▁2010	-10.6005
▁Cuba	-10.6008
more	-10.6012
gging	-10.6019
▁residential	-10.6027
eur	-10.6033
▁Asia	-10.604
▁Morris	-10.6049
▁solid	-10.6051
▁resource	-10.6051
wood	-10.6054
▁usual	-10.606
▁updat	-10.6063
▁pride	-10.6072
▁Right	-10.6075
▁Luc	-10.6093
▁chamber	-10.6095
▁curious	-10.6096
▁honest	-10.61
▁seriously	-10.6117
▁Portuguese	-10.6118
▁pocket	-10.6118
▁CEO	-10.6118
▁outcome	-10.6124
▁recall	-10.6134
▁Big	-10.6136
pillar	-10.6138
▁suggestion	-10.614
▁transition	-10.6142
▁Mag	-10.6146
▁overlook	-10.6151
▁forty	-10.6179
34	-10.6179
▁element	-10.6179
▁Week	-10.6182
▁borrow	-10.6188
▁relief	-10.6188
▁elsewhere	-10.619
examined	-10.6199
▁repeated	-10.62
▁indeed	-10.6201
▁Hol	-10.6205
laz	-10.6208
some	-10.621
▁height	-10.6211
▁Visitor	-10.6211
▁steep	-10.6211
▁Wolf	-10.6211
▁fans	-10.6212
ility	-10.6213
▁Derry	-10.6215
36	-10.6217
▁prisoner	-10.6218
▁compos	-10.622
▁Comp	-10.6222
▁rough	-10.6224
5	-10.6234
▁disappoint	-10.6234
▁furniture	-10.6234
▁altar	-10.6234
▁export	-10.6237
▁PC	-10.6239
made	-10.6243
▁chronic	-10.6258
▁exciting	-10.6258
▁cu	-10.6259
▁warn	-10.6265
▁Qu	-10.6268
▁lately	-10.627
▁intention	-10.6271
ara	-10.6278
▁hung	-10.6279
▁framework	-10.6281
▁weird	-10.6282
town	-10.6294
▁galler	-10.6296
▁abandoned	-10.6299
ima	-10.6299
▁invasion	-10.6305
▁threaten	-10.6306
▁addict	-10.6307
qualifi	-10.6313
▁International	-10.6328
▁Treasury	-10.6328
▁cruise	-10.6328
▁involving	-10.6328
▁appearance	-10.6334
gin	-10.6337
▁differ	-10.6345
▁Em	-10.6348
▁sugar	-10.6352
plan	-10.6352
▁stall	-10.6353
▁reliable	-10.6361
▁remarkable	-10.6366
NC	-10.637
▁entry	-10.6373
pollutant	-10.6376
▁Sometimes	-10.6376
▁excited	-10.6376
▁railway	-10.6376
▁preserv	-10.6377
68	-10.6382
annon	-10.6384
▁monitor	-10.6396
▁pure	-10.6398
▁steal	-10.64
▁Land	-10.6401
▁riding	-10.6405
▁tourism	-10.6405
▁Tour	-10.6409
▁profession	-10.6415
▁strength	-10.6416
▁www	-10.6423
▁chateau	-10.6423
▁classes	-10.6425
▁McCain	-10.6425
▁Spring	-10.6425
pac	-10.6428
▁Veni	-10.6434
free	-10.6436
▁item	-10.6447
▁Yeah	-10.6448
▁paus	-10.6451
sembl	-10.6454
▁conclude	-10.6455
▁listening	-10.6466
▁hike	-10.6466
▁click	-10.6471
▁earthquake	-10.6471
▁victory	-10.6471
▁Market	-10.6473
▁yell	-10.6479
▁drawn	-10.6486
▁breed	-10.6492
32	-10.6494
most	-10.6495
▁Room	-10.6495
▁Natali	-10.6495
verything	-10.6498
▁stewardship	-10.6503
▁input	-10.6514
60	-10.6519
▁division	-10.6519
▁improving	-10.6519
▁gross	-10.6519
▁excuse	-10.6519
▁villa	-10.6521
▁financ	-10.6522
▁investors	-10.6522
▁Gen	-10.6523
ption	-10.6527
▁buck	-10.6528
▁Does	-10.6529
▁Malay	-10.653
▁rap	-10.6533
case	-10.6533
▁revolution	-10.6535
down	-10.654
▁disappear	-10.6543
▁secure	-10.6543
▁Reagan	-10.6543
▁represented	-10.6543
▁latter	-10.6543
▁silence	-10.6544
▁output	-10.6562
▁approaches	-10.6565
▁Tuesday	-10.6567
▁assassin	-10.6567
▁global	-10.6567
genera	-10.6568
▁African	-10.6569
▁Norman	-10.6571
▁scary	-10.6574
▁Kyoto	-10.6591
▁category	-10.6591
▁exclusive	-10.6591
▁rating	-10.66
▁settled	-10.6605
▁lovely	-10.6606
▁ruler	-10.6611
▁earning	-10.6613
▁compar	-10.6615
▁virtual	-10.6616
▁Mill	-10.6616
▁ACI	-10.6616
▁pace	-10.6616
▁Little	-10.6617
▁presidential	-10.6622
ttle	-10.6624
atory	-10.663
▁specifical	-10.6632
▁marked	-10.6639
▁Van	-10.6639
▁lobby	-10.664
▁Civil	-10.664
▁Business	-10.664
▁See	-10.6643
▁handsome	-10.6644
▁noble	-10.6647
IC	-10.6649
keep	-10.6652
ulf	-10.6659
▁transport	-10.666
▁collapse	-10.6664
▁imperial	-10.6664
▁lip	-10.6665
▁boss	-10.6673
▁Tourist	-10.6675
eigh	-10.6677
▁Bell	-10.6681
▁Africa	-10.6687
▁Mediterranean	-10.6689
▁plastic	-10.6689
▁uniform	-10.6689
▁Institute	-10.6689
front	-10.6689
▁1970	-10.6692
▁pond	-10.6695
▁investigat	-10.6699
▁solve	-10.6704
▁clo	-10.6711
▁February	-10.6713
▁democrac	-10.6713
▁heavily	-10.6713
▁Second	-10.6713
▁conquer	-10.6713
▁profile	-10.6713
▁Fund	-10.6721
▁flight	-10.6721
▁root	-10.6739
▁birds	-10.674
▁Sil	-10.6742
▁Six	-10.6749
▁documentation	-10.6753
list	-10.6755
uous	-10.6756
▁anticipat	-10.6763
▁mosaic	-10.6763
▁portray	-10.6763
▁ugly	-10.6763
▁inner	-10.6765
▁rising	-10.6766
▁web	-10.677
▁Frank	-10.677
▁gallerie	-10.6771
aged	-10.6775
fri	-10.6777
▁regularly	-10.6783
▁Musee	-10.6787
▁Alfred	-10.6787
▁kitchen	-10.6787
▁creation	-10.6787
▁suburb	-10.6788
driven	-10.6789
▁spell	-10.679
▁300	-10.679
▁neck	-10.679
▁scope	-10.679
▁listed	-10.6806
▁Buddha	-10.6812
▁Emperor	-10.6812
▁Disney	-10.6813
▁Super	-10.6816
▁Party	-10.6816
▁opera	-10.6821
86	-10.6827
integrat	-10.6831
98	-10.6832
▁equally	-10.6836
▁representatives	-10.6858
▁testimony	-10.6862
▁Small	-10.6862
▁session	-10.6862
67	-10.687
▁Tar	-10.6872
ux	-10.6875
▁industrial	-10.688
▁occasion	-10.688
▁serving	-10.6887
▁taxi	-10.6902
▁legislati	-10.6905
▁mill	-10.6905
▁sacred	-10.6912
that	-10.6913
▁Texan	-10.6915
▁moon	-10.6917
▁Clean	-10.6937
▁1992	-10.694
▁modest	-10.694
▁estate	-10.6944
ridge	-10.6949
▁Hawaii	-10.6962
▁pyramid	-10.6962
▁ridiculous	-10.6962
▁incredibl	-10.6962
▁plea	-10.6963
▁happi	-10.6965
stein	-10.6969
▁combined	-10.6984
▁stakeholders	-10.6987
▁ferry	-10.6988
▁charming	-10.6993
▁rely	-10.6995
▁removed	-10.7006
announced	-10.7008
▁ozone	-10.7012
▁sustain	-10.7012
▁motor	-10.7012
▁earned	-10.7014
▁asset	-10.7023
▁superb	-10.7026
▁countryside	-10.7032
▁proceed	-10.7061
▁independence	-10.7063
▁register	-10.7063
▁Chief	-10.7063
▁precise	-10.7063
▁unknown	-10.7068
▁healthy	-10.707
▁utilit	-10.7085
▁bodies	-10.7088
▁brown	-10.7088
▁ultimately	-10.7089
▁resolve	-10.7091
▁crowded	-10.7092
▁destroy	-10.7093
▁properly	-10.7094
▁Indiana	-10.7096
stru	-10.71
MA	-10.7102
worthy	-10.7105
▁ordinary	-10.7114
▁Plann	-10.7117
▁suffered	-10.7125
99	-10.7126
▁cousin	-10.7131
▁donation	-10.7135
▁Participant	-10.7139
▁switch	-10.7139
▁Trust	-10.7139
▁encouraged	-10.7143
▁commun	-10.7144
▁Compan	-10.7145
aday	-10.7156
▁Mark	-10.7157
▁dig	-10.7157
-1	-10.7158
rchaeological	-10.7165
▁recycle	-10.7165
▁recycling	-10.7166
▁Get	-10.7188
▁authentic	-10.7191
▁enormous	-10.7191
▁species	-10.7191
▁deriv	-10.7196
37	-10.7203
▁achievement	-10.7212
▁adventure	-10.7217
▁warrior	-10.7217
▁outdoor	-10.7217
▁Agency	-10.7217
▁wheel	-10.7217
▁faster	-10.7233
level	-10.7239
▁sought	-10.7243
▁killing	-10.7244
72	-10.7248
.5	-10.7256
▁addresses	-10.7256
▁GPRA	-10.7268
▁Society	-10.7268
▁Cret	-10.727
▁Tax	-10.7274
▁pitch	-10.728
▁ignore	-10.7281
▁Station	-10.7287
ibility	-10.7292
▁CNN	-10.7294
▁souvenir	-10.7294
▁personnel	-10.7295
▁highway	-10.7295
▁camera	-10.7297
▁ticket	-10.7297
▁obligation	-10.7297
sky	-10.7299
▁demonstration	-10.73
▁trick	-10.7307
▁exact	-10.7311
▁Nu	-10.7316
▁hired	-10.7319
▁Venetian	-10.732
▁climate	-10.732
▁swim	-10.732
▁Data	-10.7329
▁crose	-10.7331
17	-10.7332
ado	-10.7332
acti	-10.7345
▁analyses	-10.7346
care	-10.7347
▁brick	-10.7352
ivity	-10.7352
▁establishment	-10.7365
▁consequences	-10.7367
▁prohibit	-10.7373
▁masterpiece	-10.7373
▁cooperat	-10.7399
▁Revolution	-10.7409
▁answered	-10.7413
▁soul	-10.7424
▁Victor	-10.7424
▁accused	-10.7425
▁Nepal	-10.7426
▁Moor	-10.7434
IR	-10.7439
▁user	-10.7439
▁Sina	-10.744
▁portrait	-10.7452
▁Gau	-10.7452
▁copies	-10.7452
oriented	-10.7453
mmu	-10.7454
▁mansion	-10.746
▁contractor	-10.7461
▁speaker	-10.7463
▁acknowledg	-10.7478
▁enforcement	-10.7479
▁wound	-10.7481
90	-10.7484
▁acid	-10.7486
▁emission	-10.7492
▁Serb	-10.7501
OR	-10.7501
▁ocean	-10.7505
▁eleven	-10.7505
▁Slim	-10.7505
▁saint	-10.7505
▁dining	-10.7514
▁plane	-10.7514
70	-10.7524
▁dismiss	-10.7528
▁Cho	-10.7531
▁cycle	-10.7531
▁prime	-10.7532
▁bond	-10.7533
▁concerning	-10.7536
▁logic	-10.7538
▁mini	-10.754
18	-10.7549
▁Fra	-10.7555
39	-10.7556
▁annually	-10.7558
▁gambling	-10.7558
▁mechanism	-10.7558
▁fundamental	-10.7558
▁summary	-10.7558
▁cloud	-10.7559
03	-10.7569
▁initiative	-10.7571
▁regulation	-10.7571
▁complicated	-10.7585
▁exploit	-10.7585
▁Science	-10.7585
▁stepped	-10.7587
▁participation	-10.7591
▁interrupt	-10.7611
▁imposing	-10.7611
▁competitor	-10.7613
▁shout	-10.7613
circ	-10.7632
▁entertain	-10.7635
▁Mexican	-10.7638
▁sweat	-10.7638
▁winning	-10.7639
field	-10.7644
▁divided	-10.7648
riv	-10.765
▁painter	-10.766
▁Ten	-10.7666
ello	-10.7673
97	-10.7678
▁league	-10.7692
▁Major	-10.7692
▁smooth	-10.7692
▁Pan	-10.77
controlled	-10.7701
▁weigh	-10.7705
EC	-10.7706
fall	-10.7706
▁Back	-10.7713
▁achiev	-10.7713
The	-10.7717
▁Dutch	-10.7719
▁ph	-10.7721
▁About	-10.7721
▁simulation	-10.7722
▁retired	-10.7722
▁rode	-10.7726
▁embrac	-10.7747
craft	-10.775
▁warning	-10.7753
▁Tro	-10.7755
▁mow	-10.7764
▁gentle	-10.7766
▁scientific	-10.7774
▁surface	-10.7775
▁airport	-10.7779
42	-10.778
▁repeat	-10.7786
85	-10.7796
▁enemies	-10.7801
▁prompt	-10.7801
▁substance	-10.7801
▁chicken	-10.7801
▁internet	-10.7801
▁confirm	-10.7814
▁retreat	-10.7828
▁drove	-10.7829
▁nose	-10.7833
47	-10.784
▁passage	-10.7842
▁celebrat	-10.7843
▁colorful	-10.7852
▁Wednesday	-10.7856
▁triumph	-10.7856
▁celebrit	-10.7856
▁Supp	-10.7868
▁eliminate	-10.7869
▁erect	-10.7871
▁thin	-10.7876
▁architectural	-10.7884
▁phrase	-10.7884
▁Fena	-10.7884
▁carving	-10.7886
▁tribe	-10.7901
▁assumption	-10.7911
▁tobacco	-10.7911
▁Kosov	-10.7911
▁Club	-10.7911
▁select	-10.7916
44	-10.793
▁Lee	-10.7933
▁belt	-10.7935
▁gap	-10.7936
▁expenditures	-10.7939
▁fault	-10.7939
▁tennis	-10.7939
▁Rule	-10.7945
▁Real	-10.7946
▁visibl	-10.795
▁Puert	-10.7951
▁automat	-10.7953
▁visi	-10.7954
ground	-10.796
illa	-10.7965
▁Thursday	-10.7967
▁overwhelm	-10.7967
▁recruit	-10.7967
▁evil	-10.7967
▁Peace	-10.7967
▁Lord	-10.7969
▁burned	-10.7979
▁everyday	-10.798
▁Qua	-10.7986
▁GAGAS	-10.7994
▁Jordan	-10.7994
cum	-10.7996
▁bias	-10.7998
▁declined	-10.7998
mination	-10.7999
▁reaction	-10.8001
▁til	-10.8006
▁Bel	-10.8008
▁Monte	-10.8009
unch	-10.8011
omb	-10.802
▁luxur	-10.8021
▁elaborate	-10.8022
▁priest	-10.8022
▁Eastern	-10.8023
▁preferred	-10.8028
lou	-10.8029
mel	-10.8044
▁appropriation	-10.805
▁privilege	-10.805
▁Castle	-10.805
▁convict	-10.8051
▁swing	-10.8054
▁Cap	-10.8057
▁ethnic	-10.8078
▁fountain	-10.8078
▁sulfur	-10.8078
▁Islamic	-10.8082
bil	-10.8097
NA	-10.8105
▁detect	-10.8107
ifying	-10.8116
▁Yo	-10.8121
▁emerge	-10.8126
▁bird	-10.8132
▁Guadeloupe	-10.8135
▁sophisticat	-10.8135
▁flash	-10.8135
▁crown	-10.8135
▁Cairo	-10.8135
▁Plaza	-10.8136
▁stamp	-10.8136
▁lean	-10.8137
▁compensation	-10.8139
gram	-10.8146
▁flag	-10.8147
▁automatic	-10.8154
▁alter	-10.8162
▁custom	-10.8163
▁Buchanan	-10.8163
▁Through	-10.8163
referred	-10.8164
▁Edward	-10.8165
▁raid	-10.8171
05	-10.8172
▁gang	-10.818
▁mailers	-10.8187
▁Policy	-10.8192
▁IBM	-10.8192
▁coat	-10.8192
▁musical	-10.8198
▁parent	-10.8204
▁quote	-10.8205
TE	-10.8213
▁Unfortunate	-10.8219
▁widely	-10.8219
▁agricultural	-10.822
▁receipt	-10.822
▁remote	-10.822
▁glance	-10.822
ologist	-10.822
▁broadcast	-10.8221
▁auction	-10.8221
▁colonial	-10.8221
▁diversity	-10.8222
49	-10.8225
▁Far	-10.8228
▁bread	-10.8229
wel	-10.823
hill	-10.8232
▁releas	-10.8234
piece	-10.8237
▁Ah	-10.8238
▁swu	-10.824
▁Karf	-10.8249
▁Dorca	-10.8249
▁eager	-10.8249
▁monarch	-10.8249
▁Children	-10.8249
▁Nation	-10.8252
▁presentation	-10.8257
▁facilitate	-10.8264
dale	-10.8271
▁sew	-10.8275
▁Alexander	-10.8277
▁sacrifice	-10.8277
▁vital	-10.8278
▁bedroom	-10.828
▁boilermaker	-10.8282
▁prize	-10.8299
▁valid	-10.8302
▁horror	-10.8306
examination	-10.8306
▁smoking	-10.8306
▁Force	-10.8334
▁evaluat	-10.8335
▁receiving	-10.8335
▁adapt	-10.8335
zen	-10.8336
▁Democratic	-10.8337
▁Bridge	-10.8338
▁alley	-10.8346
▁compete	-10.835
▁Modern	-10.8364
▁kingdom	-10.8365
▁jewelry	-10.8367
▁sixty	-10.8382
▁Plano	-10.8384
84	-10.8389
▁contribution	-10.8391
▁casual	-10.8393
corp	-10.8401
▁comply	-10.8409
fold	-10.8415
▁Phil	-10.8417
38	-10.8419
▁jewel	-10.8421
▁cuisine	-10.8422
▁elected	-10.8424
▁Sel	-10.843
▁geograph	-10.8431
-19	-10.8443
▁Kell	-10.8445
▁resist	-10.845
Agencies	-10.8451
▁Palais	-10.8451
▁casino	-10.8451
▁utter	-10.8453
▁uncle	-10.8462
▁IV	-10.8479
discipline	-10.848
▁taxpayer	-10.848
▁Gallery	-10.848
path	-10.8481
num	-10.8481
ella	-10.8485
born	-10.8486
56	-10.8489
nia	-10.85
▁emphasiz	-10.851
▁identity	-10.851
▁dispute	-10.8511
▁solicit	-10.852
▁eliminat	-10.8525
▁enact	-10.8539
▁twist	-10.8539
▁fame	-10.8539
▁Blue	-10.854
▁rational	-10.8548
▁missing	-10.8557
▁cents	-10.8559
ntil	-10.8563
▁Opera	-10.8568
▁yield	-10.8568
▁boast	-10.8569
▁brilliant	-10.8569
▁cream	-10.8569
▁peer	-10.857
▁objective	-10.8572
▁rein	-10.8586
▁appoint	-10.8592
▁insight	-10.8594
_	-10.8598
▁Aegean	-10.8598
▁academic	-10.8598
▁Prud	-10.8598
▁Lewis	-10.8598
▁knee	-10.8599
▁chart	-10.86
▁curve	-10.8605
fish	-10.8608
▁contribut	-10.8615
25	-10.8617
effective	-10.8617
▁pour	-10.8618
▁county	-10.8618
▁sil	-10.8621
▁November	-10.8628
▁Would	-10.8628
▁nervous	-10.8628
▁Funchal	-10.8628
▁wedding	-10.8628
▁palm	-10.8628
wash	-10.8629
▁Canada	-10.8629
▁compris	-10.8634
▁traveler	-10.8635
▁Camp	-10.864
▁gosh	-10.8641
▁label	-10.8641
▁prospect	-10.8643
▁origin	-10.8652
▁CO	-10.8652
▁Georgia	-10.8658
▁Organization	-10.8658
▁grocer	-10.8658
▁impression	-10.8658
▁litigation	-10.8658
▁referral	-10.8659
82	-10.8662
▁LA	-10.8663
▁Golden	-10.8664
▁situat	-10.8679
▁GOP	-10.8687
▁Kentucky	-10.8687
▁fiction	-10.8688
▁Trans	-10.8689
▁captur	-10.8698
▁preserve	-10.8704
▁champion	-10.8717
▁trauma	-10.8717
▁enforc	-10.8721
▁moderate	-10.8722
▁illustrat	-10.8724
▁Simon	-10.8736
▁dull	-10.8742
▁Young	-10.8745
▁Wood	-10.8747
▁elephant	-10.8747
▁occupie	-10.8747
▁convenient	-10.8747
▁pension	-10.8748
▁disclosure	-10.8748
▁provision	-10.8751
even	-10.8766
known	-10.8776
▁breakfast	-10.8777
▁hint	-10.8779
▁strengthen	-10.8787
▁bike	-10.8802
▁administer	-10.8808
▁boutique	-10.8808
▁premature	-10.8808
▁temperature	-10.8808
▁proportion	-10.8808
▁wire	-10.8814
▁reign	-10.8815
▁Fri	-10.8817
▁myster	-10.8827
▁researchers	-10.8829
wick	-10.8832
▁formula	-10.8833
▁Environmental	-10.8838
▁universal	-10.8838
▁gray	-10.8838
▁toxic	-10.8839
▁thriv	-10.8842
nam	-10.8851
▁requir	-10.8852
▁Ham	-10.8852
▁shade	-10.8853
▁Chan	-10.886
▁Estimate	-10.8868
▁frustrat	-10.8868
▁blind	-10.8868
▁Jackson	-10.887
hole	-10.8879
▁fabric	-10.8899
▁spiritual	-10.8899
▁Turkey	-10.8899
▁annoy	-10.89
▁Sure	-10.8903
▁Qui	-10.8904
We	-10.8907
▁1950	-10.8908
▁pine	-10.8909
▁compli	-10.8923
▁avail	-10.8925
52	-10.8925
▁encounter	-10.8929
▁exclud	-10.8929
▁Computer	-10.8929
▁circle	-10.8933
▁boiler	-10.8934
▁Francisc	-10.8938
▁hanging	-10.8945
▁integrity	-10.8946
62	-10.8958
▁Kirby	-10.896
▁platform	-10.896
▁Bureau	-10.896
▁mandatory	-10.896
▁projections	-10.8962
▁vice	-10.8966
▁surplus	-10.8976
▁divide	-10.898
78	-10.8983
▁hip	-10.8989
,500	-10.8991
▁Key	-10.8999
word	-10.9002
▁fad	-10.9002
▁Bru	-10.9004
▁mob	-10.9009
▁rice	-10.901
PR	-10.9011
▁Shilo	-10.9012
▁Republic	-10.9017
▁exotic	-10.9022
▁cigarette	-10.9022
▁float	-10.9023
▁editorial	-10.9024
▁reviv	-10.9025
under	-10.9029
▁closely	-10.9031
trained	-10.9037
▁diverse	-10.9042
▁mixed	-10.9053
▁tunnel	-10.9053
▁variable	-10.9053
▁wander	-10.9053
▁pirate	-10.9054
uh	-10.9062
▁semi	-10.9064
market	-10.9069
ENT	-10.907
▁Anti	-10.9071
▁forgotten	-10.9072
▁shin	-10.9075
▁confident	-10.9083
▁pottery	-10.9084
▁routine	-10.9084
▁contest	-10.9084
▁cruci	-10.9092
▁challeng	-10.9105
▁Hersheimmer	-10.9115
▁Baroque	-10.9115
▁implications	-10.9115
▁margin	-10.9115
▁arrangement	-10.9116
▁coastline	-10.9121
▁Antonio	-10.9123
▁priority	-10.9124
▁Beside	-10.9127
ancy	-10.9127
▁Gree	-10.9136
▁pray	-10.9139
oma	-10.914
▁Festival	-10.9146
▁frescoe	-10.9146
▁Houston	-10.9146
▁historian	-10.9146
▁citizen	-10.9149
▁Jack	-10.9155
▁Christianity	-10.916
▁elect	-10.9169
▁Rate	-10.9171
▁Caribbean	-10.9178
▁dancing	-10.9178
▁opponent	-10.9178
▁romantic	-10.9178
▁statutor	-10.9178
▁salary	-10.9178
▁admission	-10.9179
▁patron	-10.918
▁Change	-10.9181
▁remove	-10.9185
▁popularity	-10.9185
▁delightful	-10.9189
▁linked	-10.919
ante	-10.9203
▁pounds	-10.9206
▁Persian	-10.9209
▁Mountain	-10.921
▁pub	-10.9216
▁Santo	-10.9225
▁dear	-10.9228
▁Dec	-10.9238
▁Boulevard	-10.9241
▁cinema	-10.9241
▁consolidat	-10.9241
▁immigration	-10.9241
▁enemy	-10.9241
▁pink	-10.9242
▁winner	-10.9247
▁merit	-10.9251
onic	-10.9251
▁Bett	-10.9263
omo	-10.9267
▁unlikely	-10.927
▁Current	-10.9272
▁marvel	-10.9272
▁slope	-10.9273
▁monitoring	-10.9276
▁hoped	-10.9278
▁filed	-10.9292
07	-10.93
▁Southern	-10.9304
▁Mosque	-10.9304
▁capabilit	-10.9307
▁Cop	-10.9307
▁Hillary	-10.9308
dying	-10.9313
ounce	-10.9314
▁till	-10.9327
▁Columb	-10.9328
▁authorit	-10.9331
▁Martinique	-10.9336
▁College	-10.9336
▁fifth	-10.9336
▁album	-10.9336
▁biograph	-10.9336
▁mask	-10.9339
▁stole	-10.9346
▁plantation	-10.9361
▁victim	-10.9364
▁criticiz	-10.9364
atur	-10.9367
▁colon	-10.9367
▁Results	-10.9368
▁colleague	-10.9368
▁limestone	-10.9368
aples	-10.9369
▁confront	-10.937
▁Boy	-10.938
▁Juan	-10.9385
ulation	-10.9387
▁assure	-10.9389
▁upstairs	-10.9392
▁Nex	-10.9393
▁Mean	-10.9399
▁episode	-10.94
▁unemployment	-10.94
▁Steven	-10.9418
14	-10.942
▁Come	-10.942
▁bustl	-10.9428
▁ignor	-10.9431
▁statistics	-10.9432
▁drunk	-10.9432
rich	-10.944
▁Bab	-10.9449
▁exit	-10.9455
16	-10.9461
▁recognition	-10.9464
▁avenue	-10.9464
▁striking	-10.9464
▁Australia	-10.9464
▁Personal	-10.9464
▁Earth	-10.9464
▁false	-10.9464
89	-10.9466
road	-10.9472
count	-10.9473
▁fake	-10.9474
uji	-10.9475
▁150	-10.9481
profit	-10.9487
▁dish	-10.9487
▁tele	-10.9488
91	-10.9492
▁Cur	-10.9493
▁attestation	-10.9497
▁Dai	-10.9503
▁immigrants	-10.9509
▁spin	-10.9509
▁confirmed	-10.9514
43	-10.952
▁chosen	-10.9526
▁Illinois	-10.9529
▁controversi	-10.9529
▁creature	-10.9529
▁destruction	-10.9529
▁unfair	-10.9529
▁summariz	-10.9529
▁amendment	-10.9529
▁Labor	-10.9529
Dame	-10.9531
▁attach	-10.9532
▁Life	-10.9536
▁Rose	-10.9543
oven	-10.9544
▁mor	-10.9548
▁USA	-10.9549
46	-10.9549
▁innocent	-10.9551
02	-10.9555
angel	-10.9562
▁drama	-10.9562
grad	-10.9564
possess	-10.9567
▁dislike	-10.9568
▁tempt	-10.9568
pound	-10.957
▁VA	-10.9571
DA	-10.9582
▁argued	-10.9585
▁NATO	-10.9594
▁desperate	-10.9594
▁beautifully	-10.9595
▁Maha	-10.9599
▁prayer	-10.9602
▁representative	-10.9602
▁stake	-10.9607
▁Del	-10.9616
▁Pont	-10.9619
▁external	-10.9627
▁innovative	-10.9627
▁Topham	-10.9627
▁Sultan	-10.9627
▁sauce	-10.9627
▁Kingdom	-10.9629
▁decent	-10.963
▁Iran	-10.964
▁fur	-10.9645
▁unfortunately	-10.9646
▁impose	-10.9651
▁Way	-10.9652
▁locked	-10.9652
just	-10.9654
pending	-10.9656
▁statistical	-10.966
▁Bern	-10.9672
▁Merc	-10.9673
▁costume	-10.9673
▁centre	-10.9673
▁Earl	-10.9683
▁Press	-10.9684
▁Inter	-10.9693
▁passenger	-10.9693
▁Floren	-10.9697
▁1,000	-10.9708
▁stat	-10.9724
▁Hitler	-10.9726
▁orange	-10.9728
▁offset	-10.974
▁Bible	-10.9741
▁Master	-10.9746
▁charm	-10.9752
▁Ramses	-10.9759
▁Member	-10.9759
▁retail	-10.9759
aux	-10.9761
▁creative	-10.9767
aki	-10.9774
92	-10.9778
▁Portugal	-10.9793
▁Special	-10.9793
cited	-10.9797
horn	-10.9803
racing	-10.9803
▁wow	-10.9809
▁Education	-10.9826
▁WTP	-10.9826
▁certification	-10.9826
▁ritual	-10.9826
▁hillside	-10.9832
▁secretary	-10.9833
▁quot	-10.9845
▁rever	-10.9856
▁interi	-10.9857
▁veteran	-10.986
▁impressed	-10.986
▁communicate	-10.986
▁essay	-10.986
▁inspection	-10.986
▁bowl	-10.986
Very	-10.9863
BC	-10.9869
77	-10.9873
aunt	-10.9876
▁Base	-10.9877
▁handled	-10.9882
▁stadium	-10.9893
▁whisper	-10.9893
▁pilot	-10.9893
▁entitl	-10.9893
▁MWe	-10.9896
▁recreat	-10.9901
▁Inde	-10.9904
11	-10.991
▁Show	-10.9912
▁etc	-10.9915
▁Mad	-10.9916
▁assurance	-10.9927
▁Clar	-10.9947
▁execut	-10.9949
cast	-10.9953
▁accountable	-10.9954
▁Sim	-10.9959
▁maximum	-10.9961
▁protocol	-10.9961
▁injured	-10.9961
▁clue	-10.9961
▁withdraw	-10.9961
flat	-10.9963
▁anger	-10.9969
bbed	-10.997
▁bare	-10.9979
▁Audit	-10.9984
▁illustrate	-10.9988
▁interpret	-10.9989
▁useless	-10.9992
▁scholar	-10.9993
▁Chapel	-10.9995
▁resembl	-10.9998
▁Pass	-11.0006
IPA	-11.001
▁mainland	-11.002
▁signal	-11.0026
▁Inside	-11.0027
▁Coast	-11.0029
▁fortune	-11.0029
▁exempt	-11.003
76	-11.0031
▁Delhi	-11.0031
faced	-11.0035
41	-11.0038
▁armor	-11.0042
▁twin	-11.0045
trip	-11.0045
laughter	-11.0054
▁trap	-11.0059
▁proven	-11.0063
▁rapier	-11.0065
▁History	-11.0068
▁Bron	-11.0068
▁Guide	-11.007
▁accordan	-11.0081
▁measurement	-11.0086
boat	-11.009
▁excess	-11.0095
▁ultimate	-11.0097
▁density	-11.0098
▁ensuring	-11.0098
▁manual	-11.0099
▁picturesque	-11.01
▁yellow	-11.01
depth	-11.0101
64	-11.0101
▁leak	-11.0102
IN	-11.0104
▁intent	-11.0105
found	-11.0106
▁letting	-11.0107
▁melt	-11.011
ference	-11.0111
▁Nema	-11.0111
▁contra	-11.012
▁HUD	-11.0132
▁compromise	-11.0132
▁rebuilt	-11.0132
▁satisfaction	-11.0132
▁PP	-11.0135
▁fancy	-11.0138
▁recommendation	-11.014
61	-11.014
spread	-11.0141
scale	-11.0145
MS	-11.0146
▁significan	-11.0147
▁comfort	-11.0153
▁distinct	-11.0155
▁considerabl	-11.016
▁rope	-11.0163
▁Access	-11.0167
▁ourselves	-11.0167
▁aggressive	-11.0167
▁steam	-11.0167
▁Duke	-11.0172
▁rat	-11.0173
▁arrested	-11.0184
▁Bl	-11.0187
fin	-11.0197
▁designated	-11.02
▁staircase	-11.0202
▁Control	-11.0202
▁Boston	-11.0202
▁ninety	-11.0209
▁silk	-11.021
81	-11.021
▁Free	-11.0218
▁disco	-11.0225
▁damaged	-11.0231
▁emphasis	-11.0236
▁infrastructure	-11.0236
▁mirror	-11.0236
▁excavat	-11.0236
▁nonprofit	-11.0238
▁Boris	-11.0248
▁rum	-11.0248
▁seventy	-11.0252
71	-11.0256
▁lifetime	-11.0261
▁Manag	-11.0267
▁punish	-11.0268
▁Amendment	-11.0271
▁ceramic	-11.0271
▁scientist	-11.0271
▁absence	-11.0271
▁Army	-11.0272
▁AICP	-11.0273
▁spare	-11.0289
American	-11.0289
▁collaborat	-11.0306
▁supplement	-11.0306
▁elevat	-11.0306
▁genuine	-11.0306
▁throat	-11.0306
▁boost	-11.0307
▁barrier	-11.0307
▁assistant	-11.0316
standing	-11.033
▁constitutional	-11.0334
▁oversee	-11.0334
▁uncertain	-11.0339
▁dioxide	-11.0342
▁pump	-11.0342
▁agenda	-11.0342
▁Bauerstein	-11.0342
▁clever	-11.0342
▁submit	-11.0345
▁Muse	-11.0348
▁imposed	-11.0351
▁tire	-11.0355
▁campus	-11.0356
minute	-11.0365
▁sheep	-11.0368
▁Power	-11.0377
▁trash	-11.0379
69	-11.0382
▁focuses	-11.0384
▁assign	-11.0388
ugg	-11.0388
▁burning	-11.0389
shap	-11.0396
▁Fla	-11.0397
▁participat	-11.0403
print	-11.0407
▁Five	-11.0409
▁arrival	-11.0412
▁embarrass	-11.0412
▁reluctan	-11.0412
▁loose	-11.0413
▁Circu	-11.0413
59	-11.0413
▁bathroom	-11.0413
▁Secretary	-11.0414
▁landmark	-11.0415
paper	-11.0419
▁Cete	-11.0419
▁graphic	-11.0419
▁Lux	-11.0419
▁motivation	-11.042
▁delight	-11.0422
wear	-11.0423
empt	-11.0442
ike	-11.0444
▁Evaluation	-11.0451
ipped	-11.0451
▁slipp	-11.0451
▁northeast	-11.0457
una	-11.0458
▁UN	-11.0483
▁Alcohol	-11.0484
▁Capital	-11.0484
▁featur	-11.0484
risk	-11.0485
▁Notre	-11.0488
▁Tin	-11.0489
▁tank	-11.0504
▁Stone	-11.0511
EA	-11.0512
▁clinic	-11.0513
▁Exhibit	-11.052
▁dynast	-11.052
▁nineteen	-11.052
▁utiliz	-11.052
▁immediate	-11.052
▁ornate	-11.052
▁sunset	-11.0521
▁informed	-11.0523
▁Nazi	-11.0528
ider	-11.0528
▁compet	-11.0536
▁productive	-11.0539
▁acquired	-11.0546
▁Cathedral	-11.0556
▁cloak	-11.0557
▁oak	-11.0562
▁chill	-11.0563
issu	-11.0576
53	-11.0577
Comm	-11.0578
▁promis	-11.0587
▁Atlanta	-11.0592
▁pretend	-11.0592
▁zero	-11.0593
▁permitted	-11.0594
▁Jr	-11.0595
▁Which	-11.0596
▁Steve	-11.0611
63	-11.0621
▁Palazzo	-11.0628
▁fantastic	-11.0628
▁Jacob	-11.0628
▁sultan	-11.0628
▁throne	-11.0628
▁Judge	-11.0629
▁Paper	-11.0629
▁emotion	-11.0633
80	-11.0638
▁chin	-11.0646
▁plot	-11.0648
▁10,000	-11.0651
▁Kan	-11.0655
▁Cuban	-11.0656
▁assert	-11.0658
▁Terr	-11.0661
▁thrill	-11.0664
▁milk	-11.0664
▁racial	-11.0664
▁Food	-11.0664
▁lab	-11.0665
▁lifestyle	-11.0672
▁zoo	-11.0681
▁roughly	-11.0683
▁react	-11.0694
▁Follow	-11.0701
▁suspicion	-11.0701
▁hiking	-11.0701
▁legend	-11.0709
shire	-11.0715
▁Alp	-11.0717
▁tie	-11.0728
▁expansion	-11.0737
▁neglect	-11.0737
▁pilgrims	-11.0737
▁stomach	-11.0737
▁wake	-11.0739
▁Clo	-11.0753
▁pile	-11.0753
udge	-11.0761
▁Range	-11.0765
▁Ceter	-11.0774
▁accent	-11.0775
▁Protect	-11.0776
▁fulfill	-11.0776
▁erupt	-11.0776
▁Gold	-11.0782
▁emotional	-11.0806
▁Reduction	-11.0811
▁Should	-11.0811
▁administrator	-11.0811
▁excursion	-11.0811
▁suicide	-11.0811
▁Alternative	-11.0811
ON	-11.0811
▁harsh	-11.0813
▁Victorian	-11.0814
▁Char	-11.0816
▁cloth	-11.082
▁flaw	-11.0824
▁march	-11.0825
▁Nav	-11.0827
RC	-11.0828
▁contemporary	-11.0848
▁injuries	-11.0848
▁Conrad	-11.0848
▁resistance	-11.085
You	-11.0851
19	-11.0851
▁manag	-11.0853
NT	-11.0864
▁bore	-11.0874
▁accumulat	-11.0885
▁prince	-11.0885
▁premium	-11.0885
▁frighten	-11.0885
▁spear	-11.0885
▁abroad	-11.0885
▁Model	-11.0885
box	-11.0886
heim	-11.0888
▁civilization	-11.0889
▁dependent	-11.09
▁outstanding	-11.0901
rving	-11.0903
▁tap	-11.0904
▁reserve	-11.0909
tsu	-11.0917
glass	-11.0918
▁ceremony	-11.0923
▁refuge	-11.0923
▁valuation	-11.0923
▁prominent	-11.0923
▁scout	-11.0923
▁priorities	-11.0926
sieur	-11.0927
▁dispos	-11.093
▁downtown	-11.0933
▁chas	-11.094
▁incentive	-11.0947
voc	-11.0955
▁purchas	-11.0955
▁Osaka	-11.096
▁signature	-11.096
▁inflation	-11.096
▁minorit	-11.0967
▁Things	-11.0967
73	-11.0974
▁retire	-11.0991
lexibility	-11.0995
▁council	-11.0998
▁enthusiast	-11.0998
▁frown	-11.0998
▁merger	-11.0998
solved	-11.101
▁enable	-11.1011
▁strychnine	-11.1035
▁quarterback	-11.1037
▁humor	-11.1043
▁2,000	-11.1049
▁tear	-11.1049
▁deny	-11.1054
▁unlike	-11.1059
bush	-11.1068
▁Rob	-11.1073
▁venture	-11.1073
▁Product	-11.1073
▁renew	-11.1073
▁illness	-11.1075
zan	-11.1075
▁Macau	-11.1075
▁transferred	-11.1075
▁Unlike	-11.1076
▁Shu	-11.1083
▁Tomb	-11.1089
▁Walk	-11.1089
▁Francis	-11.1103
▁Medicaid	-11.1111
▁concrete	-11.1111
▁database	-11.1111
▁superior	-11.1111
▁mild	-11.1112
▁boxes	-11.1117
nished	-11.1117
▁Chair	-11.1118
bringing	-11.1123
evolutionary	-11.1127
▁ratio	-11.1136
▁advertise	-11.114
▁Rain	-11.1145
▁Communication	-11.1149
▁sympath	-11.1149
▁tropical	-11.1149
▁pistol	-11.1149
▁behalf	-11.1149
▁cancel	-11.1156
ED	-11.116
▁supervis	-11.1167
▁Equal	-11.1177
▁exhaust	-11.1188
▁prototyp	-11.1188
▁renown	-11.1188
▁variation	-11.1188
▁weaknesses	-11.1188
▁Shopp	-11.1188
▁Night	-11.1189
▁acres	-11.1207
present	-11.122
▁Sai	-11.1223
▁Michelangelo	-11.1226
▁extraordinar	-11.1226
▁analyst	-11.1226
▁Third	-11.1226
▁greet	-11.1226
▁injury	-11.1226
▁Minister	-11.1227
▁guaranteed	-11.1229
RI	-11.1233
▁cow	-11.1236
▁Tex	-11.1243
▁specializ	-11.1254
▁Leonard	-11.1265
▁Protestant	-11.1265
▁banned	-11.1265
▁porch	-11.1265
Chamber	-11.1265
▁ruling	-11.1267
▁Local	-11.1269
▁treaty	-11.127
tact	-11.1271
▁arrest	-11.1284
▁aerobics	-11.1304
▁allocation	-11.1304
▁steady	-11.1304
▁gesture	-11.1304
▁loyal	-11.1304
▁mode	-11.1307
▁enjoyable	-11.1309
▁suck	-11.1312
▁inspiration	-11.1316
▁absolute	-11.1321
itting	-11.133
▁Virgin	-11.1332
▁personality	-11.1336
▁Istanbul	-11.1342
▁dagger	-11.1342
▁sanctuar	-11.1342
▁temporary	-11.1342
▁inevitab	-11.1342
▁Bowl	-11.1343
▁instant	-11.1344
▁Award	-11.1349
▁distinction	-11.1353
▁trou	-11.137
▁restrict	-11.1377
▁HC	-11.1381
▁pizza	-11.1382
▁Chapter	-11.1382
▁commemorat	-11.1382
▁micro	-11.1382
▁paragraph	-11.1382
ING	-11.1383
AM	-11.1384
▁classification	-11.1384
▁Ohio	-11.1385
▁gear	-11.1386
▁Fall	-11.1386
▁tale	-11.1392
▁execution	-11.1392
gawa	-11.1393
96	-11.1411
▁Defense	-11.1421
▁jazz	-11.1421
▁vineyard	-11.1421
▁unexpected	-11.1421
▁remov	-11.1421
▁bolt	-11.1421
▁mobile	-11.1422
▁absorber	-11.1422
▁nut	-11.1426
▁email	-11.1427
▁Whi	-11.1442
theless	-11.1444
▁cheer	-11.1448
▁Canal	-11.1457
▁bureau	-11.146
▁Please	-11.146
▁heaven	-11.146
▁tournament	-11.146
▁crush	-11.146
▁provinc	-11.1461
▁fisherm	-11.1464
▁lap	-11.1498
▁innovation	-11.15
▁universe	-11.15
▁distract	-11.15
▁Style	-11.1502
▁Tak	-11.1503
▁Die	-11.1507
▁consultant	-11.1514
▁rear	-11.1515
▁Direct	-11.1522
▁supervisor	-11.1524
father	-11.1532
▁Var	-11.1538
▁singer	-11.1539
▁diploma	-11.1539
▁Kathmandu	-11.1539
▁technological	-11.1539
▁volcanic	-11.1539
▁mechanic	-11.1539
▁Romanesque	-11.1539
▁mood	-11.1539
▁Porto	-11.154
▁colony	-11.1545
▁layer	-11.1557
▁headline	-11.1558
79	-11.1558
▁dare	-11.1573
▁Beat	-11.1576
▁Similar	-11.1579
▁equivalent	-11.1579
▁prosecutor	-11.1579
▁workforce	-11.1579
▁Word	-11.158
▁cynic	-11.158
▁evaluator	-11.1583
▁1989	-11.1584
▁Shiva	-11.1584
▁relate	-11.1585
dressed	-11.1587
▁meaningful	-11.1603
▁Prime	-11.1613
▁absorb	-11.1617
▁Appendix	-11.1619
▁Holocaust	-11.1619
▁opposition	-11.1621
94	-11.1626
▁CD	-11.1627
▁OK	-11.1629
▁400	-11.1637
▁conclud	-11.1646
▁rebel	-11.1655
▁economical	-11.1658
▁Pennsylvania	-11.1659
▁jungle	-11.1659
▁negotiate	-11.1659
▁philosophy	-11.1659
▁nuclear	-11.1659
▁arcade	-11.1659
▁delicate	-11.1659
▁cheese	-11.166
▁missile	-11.1662
▁hardware	-11.1666
▁northwest	-11.1667
▁resident	-11.1673
third	-11.1674
▁tack	-11.1685
▁Never	-11.1687
▁approve	-11.1698
▁Sadda	-11.17
▁Turks	-11.17
nette	-11.1701
▁auto	-11.1701
▁Palestinian	-11.1701
▁introduction	-11.1702
▁Express	-11.1702
▁flank	-11.1702
▁Design	-11.1703
▁awake	-11.1707
▁lion	-11.1707
▁Franco	-11.1708
▁southwest	-11.1708
▁cater	-11.171
▁tied	-11.1713
▁pose	-11.1715
abilities	-11.1717
▁ease	-11.1737
▁venue	-11.174
▁Made	-11.1742
▁minister	-11.1743
▁therap	-11.1744
▁membership	-11.1745
▁bullet	-11.1745
▁marry	-11.1746
▁Jamaican	-11.175
▁discusse	-11.1753
▁civilian	-11.1754
▁specialist	-11.1758
▁cult	-11.1762
▁Best	-11.1775
▁comic	-11.178
▁resolution	-11.1781
▁combat	-11.1781
▁particle	-11.1781
▁presum	-11.1782
▁overseas	-11.1782
▁evict	-11.1783
▁zone	-11.1785
▁gateway	-11.1785
venge	-11.1797
▁constitute	-11.1808
▁edition	-11.1813
▁discrimination	-11.1822
▁junk	-11.1822
▁discourage	-11.1822
▁invaded	-11.1822
▁Study	-11.1822
dominant	-11.1822
▁damn	-11.1822
▁scheme	-11.1822
▁slid	-11.1824
1.2	-11.1825
▁comedy	-11.1827
▁Large	-11.1828
▁Academ	-11.1834
▁dense	-11.1848
▁tid	-11.185
▁Shar	-11.1858
▁Islam	-11.1858
▁rag	-11.1859
▁Initiative	-11.1863
▁Philip	-11.1863
▁flourish	-11.1863
▁confess	-11.1863
▁varied	-11.1863
▁jacket	-11.1863
▁outrage	-11.1864
▁Seven	-11.187
▁Mother	-11.187
▁Tim	-11.1875
fertile	-11.1876
IG	-11.188
▁Rico	-11.1882
▁nave	-11.1883
nches	-11.1886
,3	-11.1887
▁alleged	-11.1904
▁chat	-11.1904
visual	-11.1904
▁Adam	-11.1905
ehind	-11.1907
▁indigen	-11.1908
▁urge	-11.1917
▁joy	-11.1918
face	-11.1935
▁Stephen	-11.1945
▁securities	-11.1945
▁speculat	-11.1945
▁terrifi	-11.1945
▁mysterious	-11.1946
▁integration	-11.1953
▁indicator	-11.1953
▁shipp	-11.1954
smith	-11.1955
▁Try	-11.1962
▁ABC	-11.1964
▁Dead	-11.1964
▁motivat	-11.1977
▁bat	-11.1977
▁appendix	-11.1987
▁beneficial	-11.1987
▁industries	-11.1987
▁promulgat	-11.1987
▁CFO	-11.1987
▁devastat	-11.1987
▁Congressional	-11.1987
▁diving	-11.1987
▁motion	-11.1987
▁legac	-11.1988
▁Improv	-11.1991
▁align	-11.1993
▁DC	-11.1994
▁Tell	-11.2004
▁unified	-11.201
93	-11.201
angu	-11.2017
hyp	-11.2021
restricted	-11.2024
federal	-11.2027
▁Administrator	-11.2028
▁hazard	-11.2028
▁nitrogen	-11.2028
▁regret	-11.2028
articulate	-11.2028
▁THE	-11.2028
▁Consider	-11.2028
▁Kitche	-11.2029
▁studio	-11.2035
maid	-11.2038
57	-11.2042
▁trader	-11.2047
tterbox	-11.2052
▁pale	-11.2064
▁currency	-11.207
▁granite	-11.207
▁criticism	-11.2072
▁struggl	-11.2072
▁dishe	-11.2074
▁Wan	-11.2074
▁2020	-11.2076
▁mock	-11.208
▁shame	-11.2088
▁rental	-11.2092
quality	-11.2104
SE	-11.2109
▁Communist	-11.2112
▁naked	-11.2112
▁losses	-11.2115
▁persist	-11.2115
▁Nara	-11.2116
▁1991	-11.2117
▁Gang	-11.2119
▁terror	-11.2141
▁apologize	-11.2152
▁flyer	-11.2153
▁bankrupt	-11.2154
specified	-11.2154
▁Benefit	-11.2154
▁Joseph	-11.2154
▁intelligence	-11.2154
▁parliament	-11.2154
▁picnic	-11.2154
▁scatter	-11.2154
▁Helms	-11.2154
▁Given	-11.2154
▁snake	-11.2155
▁Development	-11.2156
▁Barnes	-11.2156
▁apolog	-11.2158
▁Crusader	-11.2167
▁thoughtful	-11.2169
▁pie	-11.2184
brac	-11.2186
viv	-11.2188
▁conventional	-11.2193
▁Cowboys	-11.2197
▁credibility	-11.2197
▁explicit	-11.2197
▁cruel	-11.2197
▁transparen	-11.2197
▁Click	-11.2197
▁Cross	-11.2197
▁scrap	-11.22
▁lowest	-11.2201
▁warrant	-11.2203
▁Statement	-11.2207
▁pig	-11.221
▁capita	-11.2211
▁institutional	-11.223
▁Comptroller	-11.2239
▁accompanie	-11.2239
▁sweep	-11.2239
▁traged	-11.2239
▁Hasting	-11.2239
▁overcome	-11.2241
▁acceptance	-11.2249
guard	-11.2255
power	-11.2256
payment	-11.2256
51	-11.2259
▁harmon	-11.2259
posed	-11.2266
▁Method	-11.2282
▁XIV	-11.2282
▁monopoly	-11.2282
▁Summer	-11.2282
▁imagination	-11.2286
▁forgot	-11.229
▁Reno	-11.2294
▁Pope	-11.23
▁Farm	-11.2303
▁separat	-11.2308
21	-11.2318
▁exquisite	-11.2325
▁enclos	-11.2325
▁acrose	-11.2326
▁refin	-11.233
mpson	-11.233
▁Quiz	-11.233
▁GSA	-11.2331
▁believ	-11.2331
▁glow	-11.2337
13	-11.2341
▁Recent	-11.2343
efficient	-11.2348
▁pill	-11.2357
maker	-11.2361
▁Down	-11.2365
▁Madonna	-11.2368
▁republic	-11.2368
▁recipe	-11.2368
▁Missouri	-11.2368
▁applicant	-11.2368
▁teeth	-11.2368
▁fond	-11.2369
fact	-11.237
▁tendenc	-11.2371
▁relic	-11.2373
▁replacement	-11.2376
▁Stark	-11.2388
▁Lower	-11.2388
74	-11.2401
arches	-11.2404
▁Beau	-11.2411
eyond	-11.2411
▁Elizabeth	-11.2411
▁brutal	-11.2411
▁configuration	-11.2411
▁enterprise	-11.2411
▁glimpse	-11.2411
▁senator	-11.2411
▁Family	-11.2411
▁Building	-11.2411
▁Davis	-11.2414
▁charit	-11.2418
cott	-11.2425
24	-11.2437
hou	-11.244
▁aggregate	-11.2443
▁Governor	-11.2455
▁Harvard	-11.2455
▁instinct	-11.2455
▁tremendous	-11.2455
▁monetar	-11.2455
▁lend	-11.2456
▁associate	-11.2457
▁intend	-11.2458
della	-11.2458
▁handl	-11.2458
▁Cour	-11.2458
▁medium	-11.2468
minded	-11.2474
58	-11.2475
unda	-11.2478
▁rue	-11.2485
regulat	-11.2498
▁satisfy	-11.2498
▁Quality	-11.2498
▁prestig	-11.2498
▁restoration	-11.2498
▁faint	-11.2499
▁Stein	-11.2499
FC	-11.25
▁Div	-11.2503
▁clinical	-11.2506
▁600	-11.252
▁halt	-11.253
government	-11.2537
▁cheat	-11.2538
▁intelligent	-11.2542
▁abbey	-11.2542
▁stunn	-11.2542
▁cartoon	-11.2542
▁terminal	-11.2542
▁Argentin	-11.2542
▁banana	-11.2543
▁Multi	-11.2543
▁cotton	-11.2543
▁impeachment	-11.2543
▁betray	-11.2544
▁uncertainty	-11.2545
▁democratic	-11.2545
▁Theatre	-11.2547
▁restore	-11.2572
correct	-11.2584
▁classifi	-11.2585
▁Custom	-11.2586
▁Employee	-11.2586
▁Explorer	-11.2586
▁ceremoni	-11.2586
▁inhabitant	-11.2586
▁revision	-11.2586
▁Natural	-11.2586
▁skull	-11.2586
▁Keep	-11.2586
▁convey	-11.2587
▁surge	-11.2588
▁surgery	-11.2589
▁replica	-11.259
▁proceedings	-11.2591
▁regime	-11.2592
▁graduat	-11.2617
▁Globe	-11.2631
▁operator	-11.2631
▁THe	-11.2634
ndustrialist	-11.2638
trust	-11.2639
▁reverse	-11.2642
▁Korean	-11.2646
▁revised	-11.2649
▁Test	-11.2652
▁fatal	-11.2652
▁producer	-11.2657
▁Villa	-11.266
▁Resource	-11.2675
▁evident	-11.2675
▁headquarters	-11.2675
▁negotiation	-11.2675
▁Jersey	-11.2675
▁heritage	-11.2675
▁pork	-11.2675
▁elite	-11.2678
▁cheerful	-11.2679
fashion	-11.268
▁cancer	-11.2682
▁100,000	-11.2689
▁clan	-11.2704
▁FY	-11.2706
▁Atlantic	-11.272
▁reservation	-11.272
▁Private	-11.272
▁Arthur	-11.272
▁payroll	-11.272
▁hurry	-11.272
▁sigh	-11.2721
▁olive	-11.2725
87	-11.2728
▁Make	-11.2733
▁celebration	-11.2735
▁grip	-11.2737
bourg	-11.2745
▁Bou	-11.2754
▁bitter	-11.2762
▁Anne	-11.2764
▁preparation	-11.2764
▁reconstruct	-11.2764
▁soccer	-11.2764
▁Internal	-11.2765
▁screw	-11.2765
▁foster	-11.2765
▁Kath	-11.2777
▁Fox	-11.2784
pipe	-11.2788
ssistance	-11.2789
▁basement	-11.279
▁Certain	-11.281
▁chocolate	-11.281
▁satellite	-11.281
▁delicious	-11.281
▁possession	-11.281
▁Moorish	-11.2813
lept	-11.2814
▁Interest	-11.2815
▁axe	-11.2819
▁experienc	-11.283
▁Comment	-11.2837
play	-11.2853
▁integr	-11.2853
▁disgust	-11.2855
▁optimis	-11.2855
▁minimal	-11.2855
▁stiff	-11.2855
▁froze	-11.2856
▁gaze	-11.2857
pack	-11.2862
▁preference	-11.2865
▁realistic	-11.2869
▁pav	-11.2871
▁jet	-11.2881
▁Low	-11.2881
OT	-11.29
▁accompany	-11.29
▁lawsuit	-11.29
▁HMO	-11.29
CBO	-11.29
▁Librar	-11.2901
▁cobbl	-11.2901
▁decor	-11.2902
▁whip	-11.2907
anda	-11.2908
▁Left	-11.2917
▁brave	-11.292
▁grace	-11.2924
laka	-11.2924
▁Read	-11.2928
▁800	-11.2934
▁workplace	-11.2934
▁Mayor	-11.2935
▁artistic	-11.2939
▁burial	-11.2946
▁identical	-11.2946
▁compound	-11.2946
▁eighteen	-11.2946
▁leap	-11.2951
EN	-11.2954
▁investigator	-11.2957
▁Gingri	-11.2958
▁drag	-11.2965
▁Max	-11.2974
locate	-11.2978
ffirmative	-11.2992
▁Attorney	-11.2992
▁Kashmir	-11.2992
▁Oklahoma	-11.2992
▁inexpensive	-11.2992
▁mortgage	-11.2992
▁volcano	-11.2992
▁Senior	-11.2992
▁inquiry	-11.2992
▁rugged	-11.2992
▁intense	-11.2992
▁dumb	-11.2993
▁partnership	-11.2996
▁continuous	-11.2999
▁Leader	-11.3001
▁cease	-11.3008
▁Apple	-11.3009
household	-11.3023
▁grin	-11.3027
▁Balearic	-11.3038
▁Counsel	-11.3038
▁Picasso	-11.3038
▁girlfriend	-11.3038
▁horizon	-11.3038
▁plaza	-11.3038
▁Additional	-11.3038
▁Mohamm	-11.3038
▁Ancien	-11.304
Pierre	-11.3041
▁Op	-11.3041
▁salarie	-11.3042
▁Theater	-11.3048
▁Kansa	-11.3049
▁Dam	-11.306
▁Meet	-11.3062
▁Berg	-11.3062
▁seal	-11.3067
▁demonstrat	-11.3068
▁owe	-11.3074
clusion	-11.3082
▁catalyst	-11.3084
▁puzzl	-11.3084
▁murmur	-11.3084
▁Pacifi	-11.3084
▁sentiment	-11.3084
▁haunt	-11.3085
▁Initial	-11.3085
4,000	-11.3085
▁Geno	-11.3085
▁waterfront	-11.3089
▁tactic	-11.3093
▁regulate	-11.3097
looking	-11.31
▁Casa	-11.3124
▁absurd	-11.3131
▁modifi	-11.3131
equipp	-11.3131
▁hammer	-11.3131
▁2005	-11.3135
torage	-11.3137
▁reasonably	-11.3138
▁chairman	-11.314
3,000	-11.3148
▁outline	-11.3165
▁Rich	-11.3168
▁soldier	-11.3168
after	-11.3174
▁Secret	-11.3175
▁Twenty	-11.3177
▁mathematic	-11.3177
▁modification	-11.3177
▁Tripp	-11.3179
▁Officer	-11.3188
OX	-11.3188
▁theories	-11.3193
▁pants	-11.3196
▁Train	-11.3205
▁freeze	-11.3205
▁Fair	-11.3214
illo	-11.3216
▁Coron	-11.3223
arium	-11.3224
▁Alabama	-11.3224
▁Singapore	-11.3224
▁generous	-11.3224
▁FBI	-11.3224
▁leaf	-11.3226
▁decoration	-11.323
avour	-11.3231
▁blend	-11.3233
▁allowance	-11.3233
partisan	-11.3237
54	-11.3239
worth	-11.3251
▁technique	-11.3261
▁aristocra	-11.3271
▁fragment	-11.3271
▁Income	-11.3272
▁cemeter	-11.3272
▁batter	-11.3275
Term	-11.3275
▁waterfall	-11.3276
▁combine	-11.3277
▁deadline	-11.3279
▁rust	-11.3285
▁vulnerab	-11.3292
▁graceful	-11.3295
TH	-11.3302
▁procedure	-11.3311
Based	-11.3313
▁hobby	-11.3319
▁servant	-11.3319
▁unnecessary	-11.3319
▁parallel	-11.3319
▁Orange	-11.3319
▁ornament	-11.3319
▁distinctive	-11.3323
▁hungry	-11.3325
▁underground	-11.3326
'	-11.3327
phone	-11.3328
▁slavery	-11.3332
▁partial	-11.3361
▁Affair	-11.3366
▁Community	-11.3366
▁fierce	-11.3367
▁flexibl	-11.3367
▁Utah	-11.3367
▁flame	-11.3369
▁punch	-11.337
▁promot	-11.3374
▁Tan	-11.3377
sight	-11.3395
PO	-11.3401
▁acquire	-11.341
▁rumor	-11.3411
▁stud	-11.3413
▁congress	-11.3414
▁Assessment	-11.3414
▁Mallorca	-11.3414
▁Milosevic	-11.3414
▁accommodate	-11.3414
▁bicycle	-11.3414
▁goddess	-11.3414
▁sensitivity	-11.3414
▁Could	-11.3414
▁vivid	-11.3414
▁Title	-11.3415
▁dump	-11.3416
▁shake	-11.3417
▁loop	-11.3418
▁furnish	-11.3424
▁sunny	-11.3425
▁Linda	-11.3428
jack	-11.343
▁terrorist	-11.343
which	-11.3431
▁Bayli	-11.3432
▁depart	-11.3456
▁Trade	-11.3461
neutral	-11.3462
▁Avenue	-11.3462
▁envelope	-11.3462
▁Abraham	-11.3462
▁suspicious	-11.3462
▁Studies	-11.3462
▁Yel	-11.3462
ntagon	-11.3463
▁motive	-11.3463
▁skeptic	-11.3475
▁critic	-11.3477
▁stranger	-11.3478
otted	-11.3509
▁hom	-11.351
▁Gabriel	-11.3511
▁Investment	-11.3511
▁Olympic	-11.3511
▁legitimate	-11.3511
▁filing	-11.3513
▁Donald	-11.3514
▁Austria	-11.3515
▁Notice	-11.352
▁grabb	-11.3525
▁tune	-11.3527
▁tail	-11.3528
▁Medi	-11.353
interest	-11.3535
▁Milan	-11.3535
▁translate	-11.356
▁Acid	-11.3561
▁grill	-11.3562
▁prosperity	-11.3562
▁Polish	-11.3566
void	-11.3567
▁closing	-11.3567
▁respondent	-11.357
▁describ	-11.3571
▁consume	-11.3585
▁wip	-11.3588
▁sixteen	-11.3608
▁gender	-11.3609
▁Sicil	-11.3618
▁dwell	-11.3619
▁pric	-11.3627
▁contrar	-11.364
▁objection	-11.3643
▁tube	-11.3653
▁artificial	-11.3657
▁condemn	-11.3657
▁obscure	-11.3657
▁tranquil	-11.3657
▁Across	-11.3657
▁spouse	-11.3657
Hugh	-11.3659
▁humid	-11.3659
▁ramp	-11.3661
▁Rather	-11.3666
▁progressive	-11.3669
▁Buil	-11.3669
▁bandit	-11.3674
▁Creat	-11.3683
▁exterior	-11.3706
▁teenager	-11.3706
▁voluntary	-11.3706
▁League	-11.3706
▁jerk	-11.3706
▁powder	-11.3706
▁Number	-11.3706
▁segment	-11.3706
▁Apache	-11.3706
▁carbon	-11.3707
▁cheek	-11.3707
▁salad	-11.3707
▁Kurd	-11.3708
▁tension	-11.3711
▁duties	-11.3714
▁advoca	-11.3716
▁tailor	-11.3721
▁divers	-11.3728
▁postage	-11.3741
held	-11.3751
▁literary	-11.3756
▁pepper	-11.3756
▁quantitative	-11.3757
▁env	-11.3758
▁Fisc	-11.3759
▁Money	-11.3764
▁Close	-11.3775
▁OF	-11.3777
tention	-11.3781
▁entr	-11.3795
shine	-11.38
▁Massachusett	-11.3806
▁encouraging	-11.3806
▁deliberate	-11.3806
▁shrugg	-11.3806
▁crystal	-11.3806
literally	-11.3806
▁limitations	-11.3806
▁hesitate	-11.3807
▁queen	-11.3812
▁originat	-11.3817
▁fortunate	-11.3822
called	-11.3829
▁Matt	-11.3837
▁parade	-11.3837
sufficien	-11.3849
▁practic	-11.3851
▁temper	-11.3856
AND	-11.3856
▁IRA	-11.3856
▁forgive	-11.3858
▁restrain	-11.386
▁worldwide	-11.3867
Z	-11.3871
▁exile	-11.3875
09	-11.3888
▁sampl	-11.3891
▁Hamp	-11.3892
▁Versailles	-11.3906
▁illuminat	-11.3906
▁preparing	-11.3906
▁Caesar	-11.3906
▁invader	-11.3906
▁slap	-11.3907
▁Mum	-11.3909
▁Guard	-11.3915
▁collective	-11.3924
▁evolution	-11.3937
▁Korea	-11.3939
▁Jer	-11.3944
▁Kentuckian	-11.3956
▁Michigan	-11.3956
▁Orleans	-11.3956
▁Practice	-11.3956
▁leisure	-11.3956
▁summit	-11.3956
▁barrel	-11.3957
▁bonus	-11.3957
▁Steel	-11.3959
▁calculation	-11.3978
holders	-11.3989
▁Again	-11.3994
▁quantit	-11.4007
▁journal	-11.4007
▁grandmother	-11.4007
▁proclaim	-11.4007
▁surrender	-11.4007
▁unhappy	-11.4007
▁Group	-11.4007
▁worksharing	-11.4007
▁skirt	-11.4007
▁spark	-11.4008
▁ladies	-11.4008
▁cattle	-11.4008
▁saddle	-11.4008
▁circus	-11.4008
▁Lisbo	-11.4008
tronghold	-11.4012
▁spice	-11.4018
adding	-11.4024
rakia	-11.4032
06	-11.4034
▁economi	-11.404
▁oblig	-11.4041
▁Palm	-11.4049
▁Parliament	-11.4058
▁automobile	-11.4058
▁immense	-11.4058
▁wrestl	-11.4058
▁babies	-11.4058
▁Louisiana	-11.4058
▁rampart	-11.4059
▁garage	-11.4059
▁Energ	-11.406
▁narrative	-11.4061
▁expend	-11.4062
▁Vol	-11.4065
▁neo	-11.4079
▁Dick	-11.4092
▁calendar	-11.4109
▁declining	-11.4109
▁occupation	-11.4109
▁USPS	-11.4109
▁companion	-11.4109
▁Athens	-11.411
▁Wheth	-11.411
▁departure	-11.4111
▁Almost	-11.4113
▁confin	-11.4114
▁workshop	-11.4115
acco	-11.412
acci	-11.4123
▁crew	-11.4125
▁canvas	-11.413
▁Jesuit	-11.4132
▁Domin	-11.4139
▁Emergenc	-11.4161
▁Pharaoh	-11.4161
▁symptom	-11.4161
▁virtue	-11.4161
▁basilica	-11.4161
▁anxious	-11.4161
▁vault	-11.4161
▁burst	-11.4161
▁isolated	-11.4161
▁feasibl	-11.4161
▁Bird	-11.4162
▁attain	-11.4163
▁Lead	-11.4169
▁organize	-11.4171
▁Letter	-11.4174
▁behave	-11.4175
▁flock	-11.4181
▁evolve	-11.4213
▁kilometer	-11.4213
▁promenade	-11.4213
▁Convent	-11.4213
▁choir	-11.4213
▁timing	-11.4214
▁jean	-11.4214
▁scholarship	-11.4215
▁childhood	-11.4216
▁hyper	-11.4217
eaten	-11.4219
▁carriage	-11.4222
▁forbidd	-11.4223
about	-11.4253
▁renovat	-11.4256
▁Buddhism	-11.4265
▁excitement	-11.4265
▁chemist	-11.4265
▁Drug	-11.4265
▁minimize	-11.4265
▁massacre	-11.4265
▁beef	-11.427
▁subtle	-11.4274
▁Knight	-11.4277
▁airline	-11.4282
Paperwork	-11.4283
▁Louvre	-11.4317
▁Survey	-11.4317
desirable	-11.4317
▁crawl	-11.4317
▁respectively	-11.4317
▁bulk	-11.4317
▁polite	-11.4318
▁renovation	-11.4326
▁roar	-11.4329
consistenc	-11.4332
▁argu	-11.434
▁shad	-11.4349
nsurance	-11.4365
▁Delivery	-11.437
▁Individual	-11.437
▁Rockefeller	-11.437
▁tomatoes	-11.437
inhabited	-11.437
▁sanction	-11.437
▁Travel	-11.437
▁Constitution	-11.4371
▁Light	-11.4372
▁hub	-11.4373
▁Medici	-11.4374
▁formidabl	-11.4374
▁Risk	-11.4375
▁Willey	-11.4375
▁validity	-11.4377
▁seize	-11.4379
▁wool	-11.4383
▁cage	-11.4388
▁slip	-11.4421
▁Professor	-11.4423
▁accommodation	-11.4423
▁appreciati	-11.4423
▁controversy	-11.4423
▁garbage	-11.4423
▁vendor	-11.4423
▁alliance	-11.4423
▁gentleman	-11.4429
▁lazy	-11.4429
▁Iowa	-11.4436
▁1920	-11.4437
▁Village	-11.4444
▁rail	-11.4452
▁duck	-11.4456
▁Author	-11.4476
▁Hispanic	-11.4476
▁harvest	-11.4476
continent	-11.4476
▁astonish	-11.4476
▁vague	-11.4477
▁perceiv	-11.4478
▁outfit	-11.4478
▁blanket	-11.4478
▁1974	-11.4481
▁detective	-11.4482
▁render	-11.4483
▁Peak	-11.4485
▁assertion	-11.4489
▁faithful	-11.4506
▁Angel	-11.4517
▁dragg	-11.4518
white	-11.4527
▁Flytrap	-11.4529
▁Representative	-11.4529
▁cautious	-11.4529
▁plague	-11.4529
▁completion	-11.4529
▁piano	-11.453
▁stack	-11.4531
▁mixture	-11.4531
▁Staff	-11.4533
▁interaction	-11.4534
▁bump	-11.4534
▁permission	-11.4536
▁cake	-11.4537
▁disclos	-11.4539
▁poem	-11.454
inches	-11.4575
▁figur	-11.4577
▁procedural	-11.4583
▁cloister	-11.4583
▁landlord	-11.4583
▁lodge	-11.4583
▁XV	-11.4583
▁Half	-11.4587
Christophe	-11.4587
▁complaints	-11.4595
▁advertisement	-11.4596
▁Columbia	-11.4597
▁Bond	-11.4598
▁rude	-11.4602
FI	-11.4606
CH	-11.4629
▁Advisor	-11.4637
▁Memorial	-11.4637
▁Regulation	-11.4637
▁Reserve	-11.4637
▁vessel	-11.4637
rawak	-11.4637
build	-11.4642
▁epic	-11.4644
course	-11.4644
ribal	-11.4651
▁Self	-11.4655
▁institut	-11.4683
▁Hussein	-11.4692
▁bazaar	-11.4692
▁judicial	-11.4692
▁legislature	-11.4692
▁wagon	-11.4692
▁seafood	-11.4692
▁Future	-11.4692
▁snorkel	-11.4692
▁audio	-11.4692
▁Scout	-11.4697
▁greed	-11.4699
▁resign	-11.47
▁Gandh	-11.4703
▁Syria	-11.4703
foot	-11.4707
▁Cook	-11.4708
skinn	-11.471
▁Total	-11.4711
▁doorway	-11.4717
▁accomplishment	-11.4723
supposedly	-11.4727
▁streamlin	-11.4735
etween	-11.4741
▁Strategi	-11.4746
▁prescription	-11.4746
▁swept	-11.4746
▁altogether	-11.4746
▁Northern	-11.4747
▁stabb	-11.4748
▁tapestr	-11.4748
▁abandon	-11.4759
▁southeast	-11.4761
▁Mini	-11.4761
▁Death	-11.4762
llocated	-11.4762
▁Drive	-11.4785
▁McDonald	-11.4801
▁memorial	-11.4801
▁terribly	-11.4801
▁demographic	-11.4801
▁liquid	-11.4801
▁mutual	-11.4801
▁revolving	-11.4802
▁Viking	-11.4808
▁descend	-11.481
▁Greco	-11.4812
▁candle	-11.4816
▁Add	-11.4817
▁decid	-11.4837
▁consensus	-11.4856
▁Bauer	-11.4856
▁sprawl	-11.4856
▁gradual	-11.4856
▁array	-11.4856
▁captain	-11.4856
▁Lyon	-11.4857
▁tongue	-11.4859
▁announcement	-11.486
▁promotion	-11.4867
▁jam	-11.4884
▁uncomfortabl	-11.4892
▁Canadian	-11.4912
▁perception	-11.4912
▁thumb	-11.4912
▁bugs	-11.4912
ennial	-11.4914
▁interven	-11.4918
▁Open	-11.4921
▁expedit	-11.4923
▁litter	-11.4924
▁advisor	-11.4938
school	-11.494
▁preced	-11.4953
▁blank	-11.4965
▁Philadelphia	-11.4968
▁Stewart	-11.4968
▁reorganiz	-11.4968
▁glory	-11.4968
▁echo	-11.4978
▁Appar	-11.4982
▁guilt	-11.4987
▁imagin	-11.4997
▁panic	-11.5009
ailing	-11.5009
▁implie	-11.5018
▁Constantinople	-11.5024
▁Hospital	-11.5024
▁exaggerat	-11.5024
▁extension	-11.5024
▁revolt	-11.5024
▁Rhode	-11.5024
▁shogun	-11.5024
▁Brazil	-11.5024
▁steak	-11.5024
▁stroke	-11.5024
▁presidenc	-11.5024
▁crypt	-11.5025
▁1930	-11.5034
▁lur	-11.5039
▁plac	-11.5054
stitution	-11.5056
▁Brea	-11.5072
▁Traditional	-11.5081
▁prescrib	-11.5081
▁balloon	-11.5081
OPM	-11.5081
▁Henri	-11.5082
▁marine	-11.5082
▁infant	-11.5082
▁constraints	-11.5083
▁spike	-11.5083
▁birthday	-11.5083
▁Doctor	-11.5088
eather	-11.5101
▁Sacr	-11.5116
▁distan	-11.5123
▁Specific	-11.5137
▁maximize	-11.5137
▁qualify	-11.5137
▁ghost	-11.5137
▁Field	-11.5137
▁cottage	-11.5138
▁memorab	-11.5138
▁luxurious	-11.5139
▁resent	-11.5139
▁Blanc	-11.5141
▁excessive	-11.5142
▁earlie	-11.5143
▁Propos	-11.5161
itude	-11.5171
help	-11.5193
▁unpleasant	-11.5194
▁Foreign	-11.5195
▁muscle	-11.5195
▁railroad	-11.5195
▁reinforce	-11.5195
▁trek	-11.5196
▁liberat	-11.5196
▁suppliers	-11.52
▁appointment	-11.5207
▁raw	-11.5211
▁legendar	-11.5243
▁Arkansas	-11.5252
▁elasticit	-11.5252
▁piazza	-11.5252
▁thirteen	-11.5252
▁lavish	-11.5252
▁Think	-11.5252
▁snack	-11.5252
▁Harris	-11.5255
▁Eye	-11.5262
▁chor	-11.5296
▁boundar	-11.5305
▁homosexual	-11.531
é	-11.531
▁Exchange	-11.531
intensive	-11.531
espirator	-11.531
▁Provenc	-11.5312
▁dawn	-11.5313
▁chao	-11.5321
▁Alexandria	-11.5368
▁pundit	-11.5368
▁VSL	-11.5368
▁wreck	-11.5368
▁grape	-11.5368
▁radical	-11.5368
▁rabbi	-11.5368
▁spoil	-11.5368
▁funeral	-11.5368
▁drain	-11.5371
▁1987	-11.5373
▁canoe	-11.5375
▁dictator	-11.5378
▁plug	-11.5397
▁Raj	-11.54
▁genius	-11.5426
emerging	-11.5426
▁Reich	-11.5427
▁journalism	-11.5429
▁hopefully	-11.5432
▁hail	-11.5433
▁clip	-11.5433
▁beast	-11.5441
ugu	-11.5463
▁narrat	-11.5483
▁NYT	-11.5485
▁deduction	-11.5485
▁mandrake	-11.5485
▁sequence	-11.5485
▁synagogue	-11.5485
▁identification	-11.5485
▁Wallace	-11.5485
▁Eilat	-11.5485
▁victori	-11.5485
▁Treat	-11.5486
▁gigan	-11.5486
▁anchor	-11.5487
▁Ville	-11.5489
▁submission	-11.5489
charg	-11.5489
mouth	-11.5501
reserved	-11.5542
▁Lind	-11.5544
▁coincide	-11.5544
▁citadel	-11.5544
▁convincing	-11.5544
▁qualitative	-11.5544
▁breeze	-11.5544
▁Inspector	-11.5544
▁correlat	-11.5545
▁Horse	-11.5545
▁Everybody	-11.5548
▁boil	-11.5589
yama	-11.5599
▁Benjamin	-11.5604
▁Enquirer	-11.5604
▁migrant	-11.5604
▁obsession	-11.5604
▁Merchant	-11.5604
▁manuscript	-11.5604
▁curiosit	-11.5604
▁Vinci	-11.5604
▁spray	-11.5604
▁Champ	-11.5605
▁Thai	-11.5606
▁petition	-11.5606
▁jaw	-11.5606
▁hack	-11.5609
onald	-11.5612
AGE	-11.5613
▁lone	-11.5628
watch	-11.563
ographic	-11.5639
▁undermine	-11.5639
▁estimat	-11.5642
▁cabin	-11.5661
▁Astronomer	-11.5664
▁cluster	-11.5664
▁territori	-11.5664
▁fourteen	-11.5664
▁conceal	-11.5664
▁Annie	-11.5664
▁migrat	-11.5665
▁Medical	-11.5665
▁Rangers	-11.5667
▁Common	-11.5671
▁nail	-11.5671
junct	-11.5672
▁assignment	-11.5679
▁Jeff	-11.5709
▁Arizona	-11.5724
▁barbecue	-11.5724
▁pedestrian	-11.5724
▁pregnant	-11.5724
▁swallow	-11.5724
▁explode	-11.5724
▁Bosnia	-11.5725
▁Sports	-11.5725
▁afterwards	-11.5726
▁inherent	-11.5726
▁rebuild	-11.5726
▁confidential	-11.5726
▁conquest	-11.5731
▁Jaff	-11.5732
▁packet	-11.5733
hmet	-11.5738
competent	-11.5739
▁corridor	-11.5785
▁disadvantage	-11.5785
▁manipulat	-11.5785
▁peasant	-11.5785
▁defensi	-11.5785
▁Rubin	-11.5785
▁grove	-11.5785
▁notorious	-11.5785
▁Hatch	-11.5785
▁insult	-11.5786
▁Conference	-11.5787
▁grid	-11.5797
hitting	-11.5817
▁disabilit	-11.5846
▁ingredient	-11.5846
▁Ocean	-11.5846
▁yacht	-11.5846
▁parole	-11.5846
▁resume	-11.5848
▁tiger	-11.5848
▁probabilit	-11.585
▁brass	-11.5854
▁ownership	-11.5855
▁rescu	-11.5856
▁Financ	-11.586
Art	-11.5865
▁Compar	-11.5868
iya	-11.5895
▁beneficiar	-11.5907
▁CIA	-11.5907
▁Honda	-11.5907
▁actress	-11.5908
mitigat	-11.5908
▁Gordo	-11.5909
▁liability	-11.5909
▁worthwhile	-11.5911
▁cord	-11.5918
▁politician	-11.5951
child	-11.5959
▁FEMA	-11.5969
▁Independenc	-11.5969
▁assault	-11.5969
▁custody	-11.5969
▁mistress	-11.5969
▁civic	-11.5969
▁memories	-11.5969
▁wrapped	-11.5969
▁puppet	-11.5971
▁Golf	-11.5972
▁Herod	-11.5973
▁informal	-11.5975
▁mature	-11.5979
▁Passai	-11.598
▁vulnerabilit	-11.6004
forcing	-11.6016
ologi	-11.6027
▁Pakistan	-11.6031
▁qualities	-11.6031
▁Quarter	-11.6031
▁Lorenz	-11.6031
hectare	-11.6031
▁Tubac	-11.6031
▁Region	-11.6031
▁torture	-11.6032
▁defect	-11.6032
▁thunder	-11.6032
▁Ceteau	-11.6035
▁painful	-11.6038
▁bald	-11.6039
▁characterize	-11.6045
▁condo	-11.6053
▁applaud	-11.6093
▁Household	-11.6093
▁outlook	-11.6093
▁erotic	-11.6093
▁idiot	-11.6094
▁absent	-11.6094
▁convention	-11.6099
▁descendant	-11.6109
▁doom	-11.6113
▁Franc	-11.6113
▁chic	-11.6115
▁surf	-11.6123
▁Palestin	-11.6154
▁Netscape	-11.6156
▁bloom	-11.6156
▁dinosaur	-11.6156
▁procurement	-11.6156
▁skyscraper	-11.6156
▁snapped	-11.6156
▁shareholder	-11.618
Making	-11.621
hrist	-11.6211
▁Mississippi	-11.6219
▁bizarre	-11.6219
▁certified	-11.6219
▁scrutiny	-11.6219
▁Culture	-11.6219
▁paycheck	-11.6219
▁Sudden	-11.622
▁Oliver	-11.622
▁chips	-11.622
▁Discover	-11.622
▁cabinet	-11.6222
limit	-11.623
▁Aust	-11.6248
▁urg	-11.6251
hitis	-11.6279
reimburs	-11.6283
tropolitan	-11.6283
▁Bennett	-11.6283
▁Windows	-11.6283
▁extravagant	-11.6283
▁junior	-11.6283
▁miracle	-11.6283
▁pilgrimage	-11.6283
▁shrubs	-11.6283
▁wrist	-11.6283
▁Process	-11.6283
▁athlete	-11.6283
▁drum	-11.6283
▁forecast	-11.6284
▁Yard	-11.6285
▁Battle	-11.6287
eiman	-11.629
▁constitution	-11.6299
rmere	-11.6321
▁compensat	-11.6341
▁agriculture	-11.6347
▁genetic	-11.6347
▁grain	-11.6347
▁contend	-11.6348
▁Ritz	-11.6351
▁Actual	-11.6352
▁honey	-11.6352
▁lush	-11.6352
▁keen	-11.6355
Bono	-11.6381
ecca	-11.6397
▁Agricultur	-11.6412
▁Mughal	-11.6412
▁Yankee	-11.6412
▁overcrowd	-11.6412
▁counterpart	-11.6412
▁Living	-11.6412
▁alarm	-11.6414
▁spill	-11.6418
Michel	-11.6422
▁shoe	-11.6423
▁Retirement	-11.6477
▁buzz	-11.6477
▁arriving	-11.6477
▁stimulat	-11.6477
▁CSR	-11.6477
▁disabled	-11.6477
fax	-11.6477
▁decorative	-11.6478
▁Effective	-11.6479
▁Talk	-11.648
▁paradis	-11.6481
acre	-11.6492
egas	-11.6493
▁inventor	-11.6499
ATION	-11.6505
▁Remember	-11.6542
▁glorious	-11.6542
▁Vatican	-11.6542
▁depression	-11.6542
▁Engine	-11.6542
▁ascend	-11.6543
▁safeguard	-11.6543
▁Patient	-11.6544
▁chant	-11.6564
▁chew	-11.6566
control	-11.6575
from	-11.658
▁flea	-11.6583
▁Baltimore	-11.6608
▁XII	-11.6608
▁irritat	-11.6608
▁Advoca	-11.6608
▁adverse	-11.6608
▁presort	-11.6608
▁unaware	-11.6608
▁Pointe	-11.6608
▁skimm	-11.6609
▁midnight	-11.661
▁brill	-11.6626
▁terminat	-11.6631
,8	-11.6637
▁unfortunate	-11.6639
covered	-11.6639
▁grab	-11.6655
▁Commerce	-11.6674
▁Revenue	-11.6674
▁Thousand	-11.6674
▁clutch	-11.6674
▁commodit	-11.6674
▁convenience	-11.6674
▁intricate	-11.6674
▁intoxicat	-11.6674
▁adorn	-11.6675
▁hilltop	-11.6677
▁padd	-11.6679
▁sink	-11.6692
▁accord	-11.6701
speak	-11.6723
AIMD	-11.6741
▁Electric	-11.6741
▁incumbent	-11.6741
▁terrain	-11.6741
▁catalog	-11.6741
▁courage	-11.6741
▁bluff	-11.6741
▁tornado	-11.6741
▁Shinto	-11.6741
▁offense	-11.6741
▁quiz	-11.6744
▁Prize	-11.6746
▁offsho	-11.6746
▁verify	-11.6748
▁consequence	-11.6755
service	-11.6793
▁Challenge	-11.6808
▁hobbies	-11.6808
▁miniature	-11.6808
hydro	-11.6808
iselle	-11.6819
witz	-11.6822
▁circulat	-11.6831
filled	-11.6867
▁dynamic	-11.6875
▁helicopter	-11.6875
▁inadequate	-11.6875
▁nightclub	-11.6875
▁Continu	-11.6875
▁drown	-11.6876
▁swamp	-11.6876
CEF	-11.6876
▁Know	-11.6876
▁Southeast	-11.6879
▁Visa	-11.6882
▁imitat	-11.6882
▁Original	-11.6943
▁dialogue	-11.6943
▁amazed	-11.6943
▁brush	-11.6943
▁Menorca	-11.6944
▁Network	-11.6944
▁Morning	-11.6944
▁Mandate	-11.6944
▁witch	-11.6945
▁composition	-11.6946
▁Jalan	-11.695
▁sightsee	-11.696
witt	-11.6986
▁Imperial	-11.7012
▁pavilion	-11.7012
▁prehistor	-11.7012
▁psychology	-11.7012
▁ambition	-11.7012
▁browser	-11.7012
▁adjacen	-11.7012
▁flesh	-11.7012
▁nightmare	-11.7013
▁Statu	-11.7013
▁outlay	-11.7015
France	-11.7016
▁Rural	-11.7016
court	-11.7034
▁grav	-11.7035
▁invok	-11.7035
heels	-11.7043
▁Mik	-11.7044
▁Dudovitz	-11.7081
▁census	-11.7081
▁kiosk	-11.7081
▁nickname	-11.7081
▁obstacle	-11.7081
▁practitioner	-11.7081
▁Minoan	-11.7081
▁beloved	-11.7081
▁disorder	-11.7081
▁Sound	-11.7085
Martin	-11.709
ventory	-11.7126
artisans	-11.7133
▁porcelain	-11.715
▁propaganda	-11.715
▁scratch	-11.715
▁Cardinal	-11.715
▁diminish	-11.715
▁Celtic	-11.715
▁Annual	-11.715
▁Girl	-11.715
▁craftsmen	-11.7151
▁empower	-11.7151
▁Suppose	-11.7152
▁haul	-11.7155
Help	-11.7188
125	-11.7205
▁lecture	-11.722
▁majestic	-11.722
▁minaret	-11.722
▁predecessor	-11.722
▁oxides	-11.722
▁Kaufm	-11.722
▁juror	-11.722
▁timber	-11.722
▁ethical	-11.722
▁rifle	-11.722
▁oppress	-11.7221
▁gleam	-11.7221
bject	-11.7226
▁LSN	-11.7236
▁strain	-11.7256
pinning	-11.7283
▁Associate	-11.7291
▁Instruments	-11.7291
▁Schwartz	-11.7291
▁aesthetic	-11.7291
▁disburs	-11.7291
▁peculiar	-11.7291
▁devil	-11.7291
▁penetrat	-11.7291
▁ripped	-11.7292
lemish	-11.7297
▁justify	-11.731
sexual	-11.7317
▁Child	-11.7361
▁Formentera	-11.7362
▁Memphis	-11.7362
▁Minneso	-11.7362
▁Raphael	-11.7362
▁abundant	-11.7362
▁awkward	-11.7362
▁activist	-11.7362
▁Shrine	-11.7362
▁reopen	-11.7362
▁lantern	-11.7362
▁Nevertheless	-11.7362
▁obey	-11.7362
▁SAT	-11.7362
▁Woodward	-11.7364
▁monster	-11.7364
▁uncover	-11.7388
earn	-11.7421
▁psycho	-11.7433
▁fabulous	-11.7433
▁feminist	-11.7433
▁feudal	-11.7433
▁quarrel	-11.7433
▁Historical	-11.7433
▁grasp	-11.7433
▁imprison	-11.7433
▁Abbey	-11.7433
▁spiral	-11.7433
▁bronc	-11.7433
▁plung	-11.7434
▁kidding	-11.7435
onomy	-11.7437
million	-11.7462
▁Surplus	-11.7505
▁abrupt	-11.7505
▁boulevard	-11.7505
▁impatient	-11.7505
▁reconfigur	-11.7505
▁unpopular	-11.7505
▁verdict	-11.7505
▁vigorous	-11.7505
▁Political	-11.7505
▁Ernest	-11.7505
▁Monaster	-11.7505
▁prevalen	-11.7505
▁dignit	-11.7511
▁Petit	-11.7521
group	-11.7549
storm	-11.7551
▁enlighten	-11.7577
▁Veteran	-11.7577
▁fossil	-11.7577
▁incidence	-11.7577
▁metaphor	-11.7577
▁FWI	-11.7577
▁Railway	-11.7577
▁naval	-11.7577
▁plaster	-11.7577
▁fraction	-11.7578
▁siege	-11.7578
▁Titian	-11.7578
▁Watch	-11.7578
▁Rubens	-11.7578
▁Provid	-11.7578
▁Short	-11.7579
▁Honor	-11.7579
▁niche	-11.758
▁quantifi	-11.759
▁choos	-11.7592
▁testify	-11.7605
What	-11.7629
▁caution	-11.765
▁compassion	-11.765
▁Charlotte	-11.765
▁Electronic	-11.765
▁duplicate	-11.765
▁preliminar	-11.765
▁filter	-11.7651
induc	-11.7687
▁fascinat	-11.7724
▁accelerat	-11.7724
▁dolphin	-11.7724
▁hypothesis	-11.7724
▁tribute	-11.7724
▁voucher	-11.7724
▁Physic	-11.7724
▁uprising	-11.7724
▁asleep	-11.7724
▁copper	-11.7725
▁freezing	-11.7725
▁Kingston	-11.7725
▁Bengal	-11.7725
▁varies	-11.7727
▁venera	-11.773
▁Fenn	-11.7747
specially	-11.7765
▁flip	-11.7782
condition	-11.7786
▁laborator	-11.7791
▁Manhattan	-11.7798
▁Tennessee	-11.7798
▁magnitude	-11.7798
▁martyr	-11.7798
▁navigat	-11.7798
▁reagent	-11.7798
▁quaint	-11.7798
▁Contract	-11.7798
▁Britta	-11.7798
▁Jardin	-11.7798
▁glove	-11.7798
▁nasty	-11.7798
▁Oscar	-11.7799
▁leverag	-11.7799
▁tragic	-11.78
▁Emily	-11.78
precedent	-11.7821
▁upgrade	-11.7825
▁overlap	-11.7849
rospective	-11.7853
▁Univers	-11.787
▁Shakespeare	-11.7873
▁Taiwan	-11.7873
▁Trump	-11.7873
▁cumulative	-11.7873
▁nonexchange	-11.7873
▁philosopher	-11.7873
▁rhythm	-11.7873
▁sentencing	-11.7873
▁entrepreneur	-11.7873
▁psychological	-11.7873
▁virus	-11.7873
▁Glass	-11.7873
▁inherit	-11.7873
▁tuition	-11.7873
▁outreach	-11.7873
▁whisk	-11.7875
▁balanc	-11.7922
▁Eventually	-11.7948
▁ambitious	-11.7948
▁diamond	-11.7948
▁intriguing	-11.7948
▁Increasing	-11.7948
▁clerk	-11.7948
▁shrink	-11.7948
▁endanger	-11.7948
▁backyard	-11.7948
▁lottery	-11.7949
process	-11.795
writing	-11.795
▁dictat	-11.8011
▁Impact	-11.8024
▁Pundit	-11.8024
▁bamboo	-11.8024
▁frequenc	-11.8024
▁litigant	-11.8024
▁nephew	-11.8024
▁parcel	-11.8024
▁sarcophag	-11.8024
▁stumble	-11.8024
▁Burgund	-11.8024
▁Felip	-11.8024
▁distort	-11.8024
▁regain	-11.8024
▁intimate	-11.8024
▁Regard	-11.8024
▁consciousness	-11.8024
▁conjur	-11.8027
▁Lamb	-11.8039
▁Milita	-11.8043
▁Antho	-11.805
hannel	-11.8067
valued	-11.8086
hearted	-11.8087
▁prosper	-11.8098
▁Consumer	-11.81
▁intimidat	-11.81
▁occupy	-11.81
▁quantify	-11.81
▁Captain	-11.81
▁rebellion	-11.81
▁swift	-11.81
▁grinned	-11.81
▁colt	-11.8102
enchant	-11.8107
▁dimension	-11.8123
▁workshare	-11.8125
▁hurricane	-11.8177
▁influential	-11.8177
▁steadi	-11.8177
▁colonnade	-11.8177
▁Saudi	-11.8177
▁curtain	-11.8177
▁pardon	-11.8177
Connell	-11.8177
▁sneak	-11.8177
▁warehouse	-11.8177
▁Charlie	-11.8178
▁cigar	-11.8178
friendly	-11.8199
▁Record	-11.8254
▁Dakota	-11.8254
▁Dynast	-11.8254
▁Screening	-11.8254
▁breathtaking	-11.8254
▁magnet	-11.8254
▁panorama	-11.8254
▁phenomenon	-11.8254
▁vegetarian	-11.8254
▁vibrant	-11.8254
▁conversion	-11.8254
▁Issues	-11.8254
▁widow	-11.8254
▁trunk	-11.8254
▁hustl	-11.8255
▁Movie	-11.8255
▁Oreg	-11.8256
laying	-11.8266
midst	-11.8278
▁interfere	-11.8299
immigrant	-11.8303
▁Indonesia	-11.8333
▁disguise	-11.8333
▁mausoleum	-11.8333
▁pagoda	-11.8333
▁reproduction	-11.8333
▁secular	-11.8333
▁societies	-11.8333
▁Minute	-11.8333
▁RFP	-11.8333
▁romance	-11.8333
▁sensation	-11.8333
▁orchestra	-11.8333
▁Joyce	-11.8333
▁wrap	-11.8333
▁isolation	-11.8334
▁Panama	-11.8337
▁Plot	-11.8347
▁hind	-11.8369
▁worrie	-11.837
morrow	-11.84
▁Conservative	-11.8411
▁anonymous	-11.8411
▁embroider	-11.8411
▁gambler	-11.8411
▁Akbar	-11.8411
▁biological	-11.8412
▁disrupt	-11.8412
▁Goya	-11.8412
▁adhere	-11.8419
▁deceiv	-11.8428
▁Heavy	-11.8491
▁mercenar	-11.8491
▁Margaret	-11.8491
▁purple	-11.8491
▁prejudice	-11.8491
▁plaque	-11.8491
▁Potter	-11.8491
▁juice	-11.8491
▁Smok	-11.8495
flux	-11.8514
written	-11.8539
▁benchmark	-11.8571
▁Bartolom	-11.8571
▁Holyrood	-11.8571
▁Kamakura	-11.8571
▁Pittsburg	-11.8571
▁aluminum	-11.8571
▁conjunction	-11.8571
▁marijuana	-11.8571
▁gilded	-11.8571
▁offensive	-11.8571
▁Shadow	-11.8571
▁slogan	-11.8571
atomic	-11.8571
▁relocat	-11.8572
▁bowed	-11.8572
▁analog	-11.8573
IPM	-11.8573
gression	-11.8573
▁Brando	-11.8577
▁Credi	-11.8587
ashamed	-11.8602
▁accusation	-11.8651
▁merchandise	-11.8651
▁mosquito	-11.8651
▁neighbour	-11.8651
▁plausible	-11.8651
▁unimportant	-11.8651
▁refreshing	-11.8651
▁questionnaire	-11.8651
▁temporari	-11.8651
▁undoubted	-11.8651
▁injustice	-11.8651
▁awesome	-11.8651
▁racist	-11.8651
▁despise	-11.8652
▁atmospher	-11.8699
▁penalt	-11.8707
world	-11.8713
▁substanti	-11.8719
▁fertil	-11.8719
efinitely	-11.8729
¡	-11.8733
▁Roosevelt	-11.8733
▁outskirt	-11.8733
▁pesticide	-11.8733
▁registration	-11.8733
▁rhetoric	-11.8733
▁conceive	-11.8733
▁Rajput	-11.8733
▁Krame	-11.8734
▁Eglis	-11.8736
▁Chris	-11.8771
▁Crusade	-11.8789
▁Fernando	-11.8815
▁Immigration	-11.8815
▁Krugman	-11.8815
▁circuit	-11.8815
▁jurisdiction	-11.8815
▁panoramic	-11.8815
▁Capitol	-11.8815
▁NFL	-11.8815
▁torrent	-11.8815
▁dialect	-11.8815
▁stupa	-11.8815
▁bidding	-11.8815
▁nominal	-11.8818
▁interactiv	-11.8822
▁Solom	-11.8839
weight	-11.8892
▁sorbent	-11.8897
▁sturdy	-11.8897
▁unchanged	-11.8897
▁squeeze	-11.8897
▁industrializ	-11.8898
▁seminar	-11.8898
▁autonom	-11.8904
▁democrat	-11.8975
▁disciple	-11.8981
▁Brief	-11.8981
▁Success	-11.8981
▁chunk	-11.8981
▁gasoline	-11.8981
osphor	-11.8981
▁bundle	-11.8981
▁Appeal	-11.8981
▁actuari	-11.8981
Pooh	-11.8982
▁Castil	-11.8985
nyone	-11.9025
Okay	-11.9039
▁energetic	-11.9065
disturbed	-11.9065
▁specify	-11.9065
▁edifice	-11.9065
▁adjoin	-11.9065
▁premise	-11.9065
▁shark	-11.9065
▁disseminat	-11.9065
▁Trent	-11.9066
▁credibl	-11.9093
▁Uncl	-11.9125
▁Murph	-11.9149
▁abolish	-11.9149
▁virgin	-11.9149
▁Allowance	-11.9149
▁Oriental	-11.9149
▁invention	-11.9149
▁suspens	-11.9149
▁famine	-11.9149
▁reckless	-11.9149
▁Editor	-11.9149
▁crumbl	-11.915
▁vegetati	-11.915
▁inscription	-11.915
▁factual	-11.915
▁quart	-11.9164
honestly	-11.9215
dresses	-11.9231
▁volatil	-11.9235
▁COST	-11.9235
▁gossip	-11.9235
▁inconsistent	-11.9235
▁jealous	-11.9235
▁robust	-11.9235
▁illusion	-11.9235
▁Student	-11.9235
▁evoke	-11.9235
▁rigid	-11.9235
▁manifest	-11.9235
▁Florentine	-11.9235
▁ancestor	-11.9235
▁Limit	-11.9235
▁escalat	-11.9235
modern	-11.9254
▁miserabl	-11.9268
threatening	-11.9277
blown	-11.93
mployment	-11.9318
▁caravan	-11.9321
unconstitutional	-11.9321
▁NHTSA	-11.9321
▁Nebraska	-11.9321
▁Stephanopoulo	-11.9321
▁clarify	-11.9321
▁privatiz	-11.9321
▁spectrum	-11.9321
▁subscriber	-11.9321
▁Monument	-11.9321
▁suppress	-11.9321
▁transept	-11.9321
Perfect	-11.9322
▁indulg	-11.9322
▁delegat	-11.9323
▁Brahm	-11.9333
▁captiv	-11.9343
subsidized	-11.9392
▁Magazine	-11.9408
▁NEPDG	-11.9408
▁deterrent	-11.9408
▁libertarian	-11.9408
▁sketch	-11.9408
▁underestimat	-11.9408
▁vacuum	-11.9408
▁Example	-11.9408
▁bount	-11.9408
▁inspector	-11.941
▁fantasi	-11.9411
▁Found	-11.9436
▁Domestic	-11.9496
▁Judicia	-11.9496
▁Nevada	-11.9496
▁Alicante	-11.9496
▁trigger	-11.9496
▁Brother	-11.9496
▁altitude	-11.9496
▁Volume	-11.9496
▁pigeon	-11.9496
▁Period	-11.9496
▁Craft	-11.9496
▁shaft	-11.9496
▁farmworker	-11.9496
▁cultivat	-11.9496
▁slack	-11.9496
▁concede	-11.9499
▁Democrat	-11.9545
tewardship	-11.9555
western	-11.9575
▁Effect	-11.9581
hoenix	-11.9584
orthodox	-11.9584
▁AIDS	-11.9584
▁Baptist	-11.9584
▁harassment	-11.9584
▁humiliat	-11.9584
▁shatter	-11.9584
▁simplicity	-11.9584
▁stylish	-11.9584
▁treasury	-11.9584
▁unbelievabl	-11.9584
▁turkey	-11.9584
▁Depression	-11.9584
▁Problem	-11.9584
▁Writer	-11.9584
▁infinite	-11.9584
▁NASA	-11.9584
esteem	-11.9584
▁lease	-11.9594
▁enabl	-11.96
▁scener	-11.9637
▁Antoni	-11.9657
elegraph	-11.9659
evolving	-11.9673
▁Farrak	-11.9673
▁exercising	-11.9673
▁phenomena	-11.9673
▁Thirty	-11.9673
▁perjury	-11.9673
▁mound	-11.9673
▁Senator	-11.9673
▁windsurf	-11.9673
▁Sikh	-11.9674
▁Gross	-11.9674
wield	-11.9681
ights	-11.974
*	-11.9764
▁Bloom	-11.9764
▁octagon	-11.9764
▁revolve	-11.9764
▁transplant	-11.9764
▁Taylor	-11.9764
▁austere	-11.9764
▁stirr	-11.9764
▁compact	-11.9764
▁Ventur	-11.9765
▁itinerar	-11.9765
▁Libert	-11.9765
address	-11.9783
existent	-11.9821
▁encompass	-11.9854
▁Pompeii	-11.9854
▁millennium	-11.9854
generalizability	-11.9854
▁OPP	-11.9854
▁turtle	-11.9854
▁Jefferson	-11.9854
▁uncommon	-11.9854
▁Wonder	-11.9854
▁gallon	-11.9855
▁Gentilel	-11.9855
▁Harbor	-11.9855
ITY	-11.9855
▁clay	-11.9855
▁Desert	-11.9855
▁Randy	-11.9855
▁crude	-11.9861
discharge	-11.9882
▁nominat	-11.9886
taller	-11.991
foresee	-11.9915
cademi	-11.9918
famous	-11.993
▁Broadway	-11.9946
▁umbrella	-11.9946
elecommunication	-11.9946
▁Adventure	-11.9946
▁Chronic	-11.9946
▁Federation	-11.9946
▁Official	-11.9946
▁appraisal	-11.9946
▁cassette	-11.9946
▁charisma	-11.9946
▁discriminate	-11.9946
▁folklor	-11.9946
▁athletic	-11.9946
▁trooper	-11.9946
▁analytic	-11.9946
▁Space	-11.9946
▁pertain	-11.9946
▁inflow	-11.9947
▁elegan	-11.995
▁Violen	-11.9953
▁announce	-11.9957
▁impeach	-12.0036
▁REMSAD	-12.0039
▁Cleveland	-12.0039
▁Douglas	-12.0039
▁Economist	-12.0039
▁Zealand	-12.0039
▁affiliate	-12.0039
▁endeavor	-12.0039
▁gloom	-12.0039
▁psychologist	-12.0039
▁tabloid	-12.0039
▁Heaven	-12.0039
▁kindergarten	-12.0039
▁entail	-12.0039
▁contempt	-12.0039
▁blur	-12.0041
Listen	-12.0045
▁Trinit	-12.0047
▁constrain	-12.0051
▁undertak	-12.0074
Sevil	-12.0079
▁legislator	-12.0132
▁hilarious	-12.0132
▁hockey	-12.0132
▁Ghost	-12.0132
▁cascad	-12.0132
▁gauge	-12.0132
▁retaliat	-12.0132
▁Eagle	-12.0132
▁prevail	-12.0132
▁interval	-12.0132
▁alternate	-12.0132
▁Famili	-12.0132
MIT	-12.0132
▁overthrow	-12.0132
▁ancestr	-12.0133
ART	-12.0133
ompliance	-12.0137
▁Northeast	-12.0139
structive	-12.0224
nunciation	-12.0227
▁Creole	-12.0227
▁Experience	-12.0227
▁Sophia	-12.0227
▁Tibetan	-12.0227
▁boyfriend	-12.0227
▁bureaucracy	-12.0227
▁exclaim	-12.0227
▁frieze	-12.0227
▁maturity	-12.0227
▁qualification	-12.0227
▁whipmaster	-12.0227
▁Ptolem	-12.0227
▁Random	-12.0227
▁crusade	-12.0227
▁embodi	-12.0227
▁hawk	-12.0227
▁pioneer	-12.0227
▁deviation	-12.0227
▁Worth	-12.0227
▁populis	-12.023
specific	-12.023
benefit	-12.0231
▁hostilit	-12.0254
▁pupp	-12.0319
acquaint	-12.0322
▁AUDIT	-12.0322
▁Territori	-12.0322
▁critique	-12.0322
▁noncompliance	-12.0322
▁unsuccessful	-12.0322
▁memoir	-12.0322
▁serene	-12.0322
▁coloss	-12.0322
▁bookstore	-12.0322
financial	-12.0336
▁Securit	-12.0381
penny	-12.0385
▁Caleornia	-12.0418
▁Summary	-12.0418
▁adolescent	-12.0418
▁correspondent	-12.0418
▁dilution	-12.0418
▁enclave	-12.0418
▁geometric	-12.0418
▁threshold	-12.0418
▁refurbish	-12.0418
▁spontaneous	-12.0418
▁Apollo	-12.0418
▁dishonest	-12.0418
@	-12.0613
=	-12.1984
®	-12.3441
ó	-12.5623
#	-12.5787
+	-12.8206
í	-12.9318
«	-12.98
`	-13.2001
¦	-13.4042
̄	-13.4042
έ	-13.4042
“	-13.5243
Υ	-13.819
£	-14.007
ζ	-14.2387
’	-14.4296
ά	-14.5407
\	-14.5407
°	-14.5407
â	-14.5407
̈	-14.5407
̡	-14.5407
γ	-14.5407
ñ	-14.6657
{	-14.9753
~	-14.9753
‰	-14.9753
à	-14.9753
ç	-15.1753
—	-15.1753
<	-15.4253
œ	-15.7586
ȩ	-15.7586
É	-15.7586
ɣ	-15.7586
̭	-15.7586
̲	-15.7586
͠	-15.7586
Χ	-15.7586
ή	-15.7586
α	-15.7586
β	-15.7586
κ	-15.7586
Х	-15.7586
׺	-15.7586
ݳ	-15.7586
‡	-15.7586
′	-15.7586
€	-15.7586
ô	-17.2565
Σ	-17.2566
ȥ	-17.2567
ȡ	-17.2568
ΰ	-17.2569
ί	-17.257
Ρ	-17.2571
>	-17.2572
Ω	-17.2573
Τ	-17.2574
δ	-17.2575
Ϳ	-17.2576
&	-17.2577
%	-17.2578
/	-17.2579
:	-17.258
$	-17.2581
!	-17.2582
;	-17.2583
"	-17.2584
?	-17.2585
Ý	-17.2586
)	-17.2586
^	-17.2586
î	-17.2586
