{
  "version": "1.0",
  "truncation": null,
  "padding": null,
  "added_tokens": [
    {
      "id": 0,
      "content": "[PAD]",
      "single_word": false,
      "lstrip": false,
      "rstrip": false,
      "normalized": false,
      "special": true
    },
    {
      "id": 1,
      "content": "[UNK]",
      "single_word": false,
      "lstrip": false,
      "rstrip": false,
      "normalized": false,
      "special": true
    },
    {
      "id": 2,
      "content": "[CLS]",
      "single_word": false,
      "lstrip": false,
      "rstrip": false,
      "normalized": false,
      "special": true
    },
    {
      "id": 3,
      "content": "[SEP]",
      "single_word": false,
      "lstrip": false,
      "rstrip": false,
      "normalized": false,
      "special": true
    },
    {
      "id": 4,
      "content": "[MASK]",
      "single_word": false,
      "lstrip": false,
      "rstrip": false,
      "normalized": false,
      "special": true
    }
  ],
  "normalizer": {
    "type": "Sequence",
    "normalizers": [
      {
        "type": "NFD"
      },
      {
        "type": "Lowercase"
      },
      {
        "type": "StripAccents"
      }
    ]
  },
  "pre_tokenizer": {
    "type": "Whitespace"
  },
  "post_processor": null,
  "decoder": null,
  "model": {
    "type": "WordPiece",
    "unk_token": "[UNK]",
    "continuing_subword_prefix": "##",
    "max_input_chars_per_word": 100,
    "vocab": {
      "[PAD]": 0,
      "[UNK]": 1,
      "[CLS]": 2,
      "[SEP]": 3,
      "[MASK]": 4,
      "!": 5,
      "#": 6,
      "$": 7,
      "%": 8,
      "&": 9,
      "'": 10,
      "(": 11,
      ")": 12,
      "*": 13,
      "+": 14,
      ",": 15,
      "-": 16,
      ".": 17,
      "/": 18,
      "0": 19,
      "1": 20,
      "2": 21,
      "3": 22,
      "4": 23,
      "5": 24,
      "6": 25,
      "7": 26,
      "8": 27,
      "9": 28,
      ":": 29,
      ";": 30,
      "<": 31,
      "=": 32,
      ">": 33,
      "?": 34,
      "@": 35,
      "[": 36,
      "\\": 37,
      "]": 38,
      "^": 39,
      "_": 40,
      "a": 41,
      "b": 42,
      "c": 43,
      "d": 44,
      "e": 45,
      "f": 46,
      "g": 47,
      "h": 48,
      "i": 49,
      "j": 50,
      "k": 51,
      "l": 52,
      "m": 53,
      "n": 54,
      "o": 55,
      "p": 56,
      "q": 57,
      "r": 58,
      "s": 59,
      "t": 60,
      "u": 61,
      "v": 62,
      "w": 63,
      "x": 64,
      "y": 65,
      "z": 66,
      "{": 67,
      "}": 68,
      "~": 69,
      "£": 70,
      "¦": 71,
      "¨": 72,
      "ª": 73,
      "®": 74,
      "¯": 75,
      "°": 76,
      "đ": 77,
      "œ": 78,
      "ȡ": 79,
      "ȥ": 80,
      "ˠ": 81,
      "ϳ": 82,
      "׺": 83,
      "ݳ": 84,
      "‡": 85,
      "•": 86,
      "‰": 87,
      "€": 88,
      "➖": 89,
      "�": 90,
      "##a": 91,
      "##b": 92,
      "##e": 93,
      "##d": 94,
      "##i": 95,
      "##o": 96,
      "##k": 97,
      "##s": 98,
      "##u": 99,
      "##t": 100,
      "##l": 101,
      "##r": 102,
      "##9": 103,
      "##8": 104,
      "##1": 105,
      "##m": 106,
      "##c": 107,
      "##n": 108,
      "##g": 109,
      "##h": 110,
      "##f": 111,
      "##y": 112,
      "##w": 113,
      "##3": 114,
      "##7": 115,
      "##p": 116,
      "##v": 117,
      "##z": 118,
      "##2": 119,
      "##j": 120,
      "##0": 121,
      "##x": 122,
      "##q": 123,
      "##6": 124,
      "##4": 125,
      "##5": 126,
      "##.": 127,
      "##-": 128,
      "##đ": 129,
      "##œ": 130,
      "##ng": 131,
      "##oi": 132,
      "##an": 133,
      "##ong": 134,
      "##hu": 135,
      "##ie": 136,
      "tr": 137,
      "th": 138,
      "##ua": 139,
      "ca": 140,
      "đa": 141,
      "se": 142,
      "kh": 143,
      "la": 144,
      "ch": 145,
      "co": 146,
      "ng": 147,
      "va": 148,
      "##nh": 149,
      "##ot": 150,
      "sep": 151,
      "##oc": 152,
      "cua": 153,
      "nh": 154,
      "ho": 155,
      "##at": 156,
      "mot": 157,
      "##en": 158,
      "##hung": 159,
      "##ang": 160,
      "gi": 161,
      "##uoc": 162,
      "##ai": 163,
      "ph": 164,
      "##ay": 165,
      "##ien": 166,
      "toi": 167,
      "##inh": 168,
      "cac": 169,
      "nhung": 170,
      "##ac": 171,
      "khong": 172,
      "thu": 173,
      "tu": 174,
      "##ieu": 175,
      "##uoi": 176,
      "đuoc": 177,
      "##on": 178,
      "trong": 179,
      "##ao": 180,
      "##am": 181,
      "##ung": 182,
      "##anh": 183,
      "đe": 184,
      "đo": 185,
      "the": 186,
      "su": 187,
      "anh": 188,
      "nguoi": 189,
      "cho": 190,
      "ta": 191,
      "no": 192,
      "qu": 193,
      "chu": 194,
      "ban": 195,
      "voi": 196,
      "##iet": 197,
      "##au": 198,
      "ngh": 199,
      "##uong": 200,
      "##et": 201,
      "##ic": 202,
      "noi": 203,
      "##in": 204,
      "chung": 205,
      "##yen": 206,
      "##uc": 207,
      "lam": 208,
      "ve": 209,
      "nhu": 210,
      "##ich": 211,
      "đen": 212,
      "chi": 213,
      "ma": 214,
      "so": 215,
      "##iem": 216,
      "khi": 217,
      "cong": 218,
      "quan": 219,
      "rang": 220,
      "##ap": 221,
      "bao": 222,
      "qua": 223,
      "biet": 224,
      "cung": 225,
      "##iec": 226,
      "hon": 227,
      "vi": 228,
      "đang": 229,
      "to": 230,
      "nay": 231,
      "đong": 232,
      "nha": 233,
      "gia": 234,
      "thuc": 235,
      "nhan": 236,
      "ra": 237,
      "đieu": 238,
      "bo": 239,
      "phai": 240,
      "nam": 241,
      "nhieu": 242,
      "thay": 243,
      "rat": 244,
      "ay": 245,
      "vao": 246,
      "đoi": 247,
      "nghi": 248,
      "phu": 249,
      "cu": 250,
      "khac": 251,
      "tren": 252,
      "du": 253,
      "moi": 254,
      "viec": 255,
      "con": 256,
      "đi": 257,
      "##eu": 258,
      "đau": 259,
      "##er": 260,
      "tai": 261,
      "uh": 262,
      "bat": 263,
      "boi": 264,
      "thanh": 265,
      "cai": 266,
      "bi": 267,
      "chinh": 268,
      "phan": 269,
      "van": 270,
      "ky": 271,
      "nhat": 272,
      "dung": 273,
      "lai": 274,
      "thong": 275,
      "kho": 276,
      "##uon": 277,
      "phi": 278,
      "cau": 279,
      "tien": 280,
      "tro": 281,
      "##oai": 282,
      "##ach": 283,
      "can": 284,
      "ke": 285,
      "nao": 286,
      "vu": 287,
      "an": 288,
      "hoi": 289,
      "tat": 290,
      "bang": 291,
      "đay": 292,
      "hang": 293,
      "ly": 294,
      "cap": 295,
      "chuyen": 296,
      "hai": 297,
      "ong": 298,
      "hien": 299,
      "thoi": 300,
      "đinh": 301,
      "##iep": 302,
      "sau": 303,
      "gio": 304,
      "tuong": 305,
      "xe": 306,
      "##ar": 307,
      "tinh": 308,
      "ngay": 309,
      "tot": 310,
      "san": 311,
      "vien": 312,
      "tin": 313,
      "cao": 314,
      "cach": 315,
      "hop": 316,
      "mat": 317,
      "cuoc": 318,
      "##es": 319,
      "##im": 320,
      "##uat": 321,
      "thuong": 322,
      "tam": 323,
      "vay": 324,
      "truong": 325,
      "loi": 326,
      "tri": 327,
      "hoac": 328,
      "##or": 329,
      "khu": 330,
      "đat": 331,
      "lon": 332,
      "##yet": 333,
      "gian": 334,
      "nen": 335,
      "dan": 336,
      "neu": 337,
      "lien": 338,
      "đai": 339,
      "nho": 340,
      "##uyen": 341,
      "thi": 342,
      "do": 343,
      "##al": 344,
      "tham": 345,
      "te": 346,
      "hanh": 347,
      "toan": 348,
      "kiem": 349,
      "hoa": 350,
      "phap": 351,
      "trung": 352,
      "minh": 353,
      "le": 354,
      "trinh": 355,
      "hu": 356,
      "phong": 357,
      "yeu": 358,
      "ket": 359,
      "mo": 360,
      "lo": 361,
      "quoc": 362,
      "hoc": 363,
      "roi": 364,
      "that": 365,
      "muon": 366,
      "tho": 367,
      "bay": 368,
      "theo": 369,
      "lu": 370,
      "tra": 371,
      "nang": 372,
      "tim": 373,
      "nghe": 374,
      "trang": 375,
      "##is": 376,
      "ngoai": 377,
      "song": 378,
      "cam": 379,
      "tang": 380,
      "đuong": 381,
      "tieu": 382,
      "he": 383,
      "hieu": 384,
      "giu": 385,
      "thang": 386,
      "đung": 387,
      "##ieng": 388,
      "pho": 389,
      "bien": 390,
      "luc": 391,
      "##el": 392,
      "truoc": 393,
      "thich": 394,
      "giao": 395,
      "##as": 396,
      "chua": 397,
      "go": 398,
      "hinh": 399,
      "sach": 400,
      "dich": 401,
      "phat": 402,
      "##00": 403,
      "tac": 404,
      "chan": 405,
      "19": 406,
      "chien": 407,
      "đua": 408,
      "tay": 409,
      "thiet": 410,
      "ngoi": 411,
      "len": 412,
      "ben": 413,
      "ngan": 414,
      "cuoi": 415,
      "mua": 416,
      "nhin": 417,
      "ro": 418,
      "lan": 419,
      "hay": 420,
      "huong": 421,
      "bai": 422,
      "tao": 423,
      "tap": 424,
      "đao": 425,
      "ai": 426,
      "quy": 427,
      "gioi": 428,
      "ba": 429,
      "##it": 430,
      "tiep": 431,
      "canh": 432,
      "nuoc": 433,
      "gan": 434,
      "chuong": 435,
      "điem": 436,
      "luong": 437,
      "kinh": 438,
      "##ed": 439,
      "lich": 440,
      "trai": 441,
      "chuc": 442,
      "lap": 443,
      "tru": 444,
      "kien": 445,
      "xem": 446,
      "tre": 447,
      "##ui": 448,
      "de": 449,
      "binh": 450,
      "tranh": 451,
      "khoi": 452,
      "xay": 453,
      "##ia": 454,
      "phia": 455,
      "phuc": 456,
      "xuat": 457,
      "tuc": 458,
      "may": 459,
      "nua": 460,
      "nhien": 461,
      "ty": 462,
      "##ch": 463,
      "be": 464,
      "đien": 465,
      "me": 466,
      "vo": 467,
      "kha": 468,
      "##ing": 469,
      "đanh": 470,
      "han": 471,
      "nhau": 472,
      "sang": 473,
      "muc": 474,
      "##le": 475,
      "hoan": 476,
      "vuc": 477,
      "xa": 478,
      "giam": 479,
      "xac": 480,
      "loai": 481,
      "đoc": 482,
      "##us": 483,
      "tuyet": 484,
      "sao": 485,
      "cuu": 486,
      "khach": 487,
      "than": 488,
      "đoan": 489,
      "giai": 490,
      "đan": 491,
      "phe": 492,
      "choi": 493,
      "quyen": 494,
      "mac": 495,
      "luat": 496,
      "da": 497,
      "đia": 498,
      "mau": 499,
      "##ro": 500,
      "goi": 501,
      "vai": 502,
      "##il": 503,
      "lang": 504,
      "luan": 505,
      "am": 506,
      "nghiep": 507,
      "ton": 508,
      "bac": 509,
      "đon": 510,
      "thap": 511,
      "giong": 512,
      "chac": 513,
      "lieu": 514,
      "xu": 515,
      "pham": 516,
      "đac": 517,
      "ung": 518,
      "tran": 519,
      "hau": 520,
      "ngu": 521,
      "gh": 522,
      "giup": 523,
      "tieng": 524,
      "gom": 525,
      "ru": 526,
      "dien": 527,
      "it": 528,
      "chong": 529,
      "toa": 530,
      "phuong": 531,
      "trien": 532,
      "tan": 533,
      "um": 534,
      "nghien": 535,
      "##ra": 536,
      "nu": 537,
      "--": 538,
      "het": 539,
      "##ton": 540,
      "si": 541,
      "hoat": 542,
      "đeu": 543,
      "đu": 544,
      "manh": 545,
      "##re": 546,
      "ne": 547,
      "mai": 548,
      "thuoc": 549,
      "nguyen": 550,
      "cay": 551,
      "nhiem": 552,
      "tuy": 553,
      "nghiem": 554,
      "danh": 555,
      "lua": 556,
      "ten": 557,
      "sat": 558,
      "vong": 559,
      "buc": 560,
      "nghia": 561,
      "che": 562,
      "duoi": 563,
      "chon": 564,
      "di": 565,
      "dai": 566,
      "sinh": 567,
      "dang": 568,
      "chay": 569,
      "mang": 570,
      "my": 571,
      "nhap": 572,
      "##ou": 573,
      "gang": 574,
      "tong": 575,
      "pha": 576,
      "quyet": 577,
      "khan": 578,
      "thuat": 579,
      "##and": 580,
      "st": 581,
      "muoi": 582,
      "tich": 583,
      "đam": 584,
      "truyen": 585,
      "luon": 586,
      "hoang": 587,
      "đep": 588,
      "199": 589,
      "xuong": 590,
      "khoang": 591,
      "cham": 592,
      "giua": 593,
      "buoc": 594,
      "em": 595,
      "vang": 596,
      "tuoi": 597,
      "chiec": 598,
      "tuan": 599,
      "hoach": 600,
      "tiet": 601,
      "tram": 602,
      "thue": 603,
      "##lin": 604,
      "khoan": 605,
      "bu": 606,
      "thieu": 607,
      "day": 608,
      "viet": 609,
      "bon": 610,
      "chet": 611,
      "chat": 612,
      "lay": 613,
      "##li": 614,
      "##os": 615,
      "nhac": 616,
      "truc": 617,
      "phep": 618,
      "thai": 619,
      "them": 620,
      "##eb": 621,
      "vat": 622,
      "quanh": 623,
      "##ah": 624,
      "##ter": 625,
      "lanh": 626,
      "mon": 627,
      "phim": 628,
      "rong": 629,
      "duy": 630,
      "chuan": 631,
      "re": 632,
      "##ol": 633,
      "huu": 634,
      "tung": 635,
      "man": 636,
      "thien": 637,
      "ich": 638,
      "ap": 639,
      "ngon": 640,
      "bong": 641,
      "xung": 642,
      "thao": 643,
      "chia": 644,
      "lau": 645,
      "web": 646,
      "##ad": 647,
      "troi": 648,
      "hom": 649,
      "doi": 650,
      "##ly": 651,
      "xet": 652,
      "ao": 653,
      "##id": 654,
      "gay": 655,
      "hiem": 656,
      "mien": 657,
      "in": 658,
      "cat": 659,
      "doanh": 660,
      "##ur": 661,
      "quang": 662,
      "gap": 663,
      "tuyen": 664,
      "##ers": 665,
      "dau": 666,
      "bau": 667,
      "mong": 668,
      "rieng": 669,
      "benh": 670,
      "suc": 671,
      "nong": 672,
      "toc": 673,
      "khoa": 674,
      "luu": 675,
      "mar": 676,
      "##te": 677,
      "##ion": 678,
      "200": 679,
      "chap": 680,
      "giay": 681,
      "duc": 682,
      "##om": 683,
      "khai": 684,
      "chut": 685,
      "vui": 686,
      "kich": 687,
      "new": 688,
      "tom": 689,
      "hy": 690,
      "gai": 691,
      "ruou": 692,
      "ye": 693,
      "##ent": 694,
      "cang": 695,
      "trieu": 696,
      "##sc": 697,
      "##ran": 698,
      "ngo": 699,
      "al": 700,
      "##ak": 701,
      "nguon": 702,
      "nhanh": 703,
      "quay": 704,
      "cuon": 705,
      "hat": 706,
      "huy": 707,
      "gui": 708,
      "khung": 709,
      "yeah": 710,
      "nhom": 711,
      "long": 712,
      "buoi": 713,
      "xuyen": 714,
      "lac": 715,
      "chiu": 716,
      "soat": 717,
      "trach": 718,
      "on": 719,
      "jon": 720,
      "niem": 721,
      "oh": 722,
      "vua": 723,
      "sai": 724,
      "##ard": 725,
      "uy": 726,
      "thoai": 727,
      "duong": 728,
      "ghi": 729,
      "gao": 730,
      "##ag": 731,
      "##oh": 732,
      "som": 733,
      "truy": 734,
      "đem": 735,
      "##th": 736,
      "000": 737,
      "linh": 738,
      "giau": 739,
      "chau": 740,
      "##op": 741,
      "sung": 742,
      "thuan": 743,
      "clin": 744,
      "nui": 745,
      "##se": 746,
      "vung": 747,
      "cha": 748,
      "clinton": 749,
      "18": 750,
      "đuc": 751,
      "##ork": 752,
      "vuot": 753,
      "20": 754,
      "##ian": 755,
      "uoc": 756,
      "##em": 757,
      "sac": 758,
      "bieu": 759,
      "dua": 760,
      "lao": 761,
      "##son": 762,
      "goc": 763,
      "##all": 764,
      "##ul": 765,
      "bua": 766,
      "ham": 767,
      "hong": 768,
      "sh": 769,
      "giet": 770,
      "##io": 771,
      "##ig": 772,
      "##ber": 773,
      "cuc": 774,
      "##ell": 775,
      "thuyet": 776,
      "##ab": 777,
      "phien": 778,
      "suy": 779,
      "ngua": 780,
      "ghe": 781,
      "chieu": 782,
      "joh": 783,
      "nan": 784,
      "##st": 785,
      "thua": 786,
      "hao": 787,
      "soc": 788,
      "lsc": 789,
      "##ll": 790,
      "sua": 791,
      "john": 792,
      "sc": 793,
      "xau": 794,
      "ha": 795,
      "##man": 796,
      "dam": 797,
      "##iv": 798,
      "khau": 799,
      "khien": 800,
      "##un": 801,
      "lung": 802,
      "vuon": 803,
      "##my": 804,
      "bar": 805,
      "buu": 806,
      "keo": 807,
      "quen": 808,
      "##ist": 809,
      "khuyen": 810,
      "##iz": 811,
      "au": 812,
      "cuong": 813,
      "thoa": 814,
      "phieu": 815,
      "10": 816,
      "##ne": 817,
      "khoe": 818,
      "chang": 819,
      "hut": 820,
      "15": 821,
      "phoi": 822,
      "coi": 823,
      "dong": 824,
      "hung": 825,
      "đot": 826,
      "##ff": 827,
      "##dr": 828,
      "hap": 829,
      "gop": 830,
      "ninh": 831,
      "luoc": 832,
      "##od": 833,
      "oi": 834,
      "ac": 835,
      "mu": 836,
      "ep": 837,
      "tommy": 838,
      "ar": 839,
      "đap": 840,
      "thach": 841,
      "hiep": 842,
      "tron": 843,
      "nguy": 844,
      "vuong": 845,
      "##land": 846,
      "phut": 847,
      "##ip": 848,
      "17": 849,
      "vinh": 850,
      "##ill": 851,
      "suat": 852,
      "giac": 853,
      "##de": 854,
      "##ow": 855,
      "##ies": 856,
      "tau": 857,
      "##enn": 858,
      "suu": 859,
      "suot": 860,
      "doc": 861,
      "york": 862,
      "##ve": 863,
      "##sh": 864,
      "##ry": 865,
      "12": 866,
      "tex": 867,
      "##ation": 868,
      "par": 869,
      "ju": 870,
      "xep": 871,
      "ngai": 872,
      "##tin": 873,
      "jam": 874,
      "kham": 875,
      "nhay": 876,
      "##eth": 877,
      "km": 878,
      "sam": 879,
      "16": 880,
      "xo": 881,
      "car": 882,
      "##qu": 883,
      "kia": 884,
      "hen": 885,
      "uong": 886,
      "thuyen": 887,
      "sap": 888,
      "##mb": 889,
      "ed": 890,
      "##ta": 891,
      "buon": 892,
      "nuoi": 893,
      "##ash": 894,
      "thung": 895,
      "xin": 896,
      "texas": 897,
      "##mp": 898,
      "lop": 899,
      "##ge": 900,
      "xanh": 901,
      "khich": 902,
      "rac": 903,
      "gr": 904,
      "ngheo": 905,
      "##ut": 906,
      "đich": 907,
      "##ir": 908,
      "##..": 909,
      "duyet": 910,
      "##ce": 911,
      "##nt": 912,
      "huh": 913,
      "##ington": 914,
      "tiec": 915,
      "##gh": 916,
      "daan": 917,
      "vet": 918,
      "khao": 919,
      "##ke": 920,
      "ga": 921,
      "##ate": 922,
      "thuy": 923,
      "##ess": 924,
      "##ver": 925,
      "is": 926,
      "thoat": 927,
      "##ley": 928,
      "rap": 929,
      "##ph": 930,
      "sa": 931,
      "hum": 932,
      "loan": 933,
      "un": 934,
      "nga": 935,
      "kem": 936,
      "khap": 937,
      "thiep": 938,
      "##ca": 939,
      "##orn": 940,
      "sot": 941,
      "14": 942,
      "banh": 943,
      "br": 944,
      "##ky": 945,
      "ngac": 946,
      "##ish": 947,
      "rung": 948,
      "nem": 949,
      "nham": 950,
      "ti": 951,
      "nhuan": 952,
      "xam": 953,
      "##lor": 954,
      "##ts": 955,
      "##rot": 956,
      "fran": 957,
      "...": 958,
      "sl": 959,
      "đuoi": 960,
      "30": 961,
      "poi": 962,
      "tha": 963,
      "uu": 964,
      "##ord": 965,
      "##ore": 966,
      "adr": 967,
      "ir": 968,
      "pro": 969,
      "##ok": 970,
      "##net": 971,
      "sanh": 972,
      "inter": 973,
      "nat": 974,
      "xuc": 975,
      "adrin": 976,
      "thit": 977,
      "khuon": 978,
      "198": 979,
      "##les": 980,
      "rui": 981,
      "pr": 982,
      "luyen": 983,
      "trao": 984,
      "ste": 985,
      "##est": 986,
      "13": 987,
      "ge": 988,
      "loat": 989,
      "##end": 990,
      "ii": 991,
      "im": 992,
      "##ey": 993,
      "11": 994,
      "##az": 995,
      "ghet": 996,
      "met": 997,
      "bot": 998,
      "##ush": 999,
      "poirot": 1000,
      "##ico": 1001,
      "meo": 1002,
      "##ler": 1003,
      "2000": 1004,
      "##um": 1005,
      "don": 1006,
      "##ind": 1007,
      "cot": 1008,
      "pal": 1009,
      "100": 1010,
      "ngoc": 1011,
      "chao": 1012,
      "##bert": 1013,
      "nhiet": 1014,
      "pl": 1015,
      "chiem": 1016,
      "juli": 1017,
      "khang": 1018,
      "chim": 1019,
      "##ass": 1020,
      "sp": 1021,
      "kim": 1022,
      "##ick": 1023,
      "rut": 1024,
      "gran": 1025,
      "dao": 1026,
      "##rew": 1027,
      "epa": 1028,
      "nganh": 1029,
      "doa": 1030,
      "james": 1031,
      "julius": 1032,
      "##to": 1033,
      "yen": 1034,
      "##we": 1035,
      "##ine": 1036,
      "##ba": 1037,
      "##ack": 1038,
      "wash": 1039,
      "##ath": 1040,
      "gon": 1041,
      "##bur": 1042,
      "luoi": 1043,
      "nhe": 1044,
      "tiem": 1045,
      "huan": 1046,
      "##are": 1047,
      "##que": 1048,
      "ing": 1049,
      "##ins": 1050,
      "washington": 1051,
      "bl": 1052,
      "##ri": 1053,
      "nau": 1054,
      "mc": 1055,
      "##ud": 1056,
      "mem": 1057,
      "kieu": 1058,
      "nien": 1059,
      "soi": 1060,
      "chin": 1061,
      "bush": 1062,
      "mi": 1063,
      "##orp": 1064,
      "lenh": 1065,
      "##og": 1066,
      "##ss": 1067,
      "sup": 1068,
      "lou": 1069,
      "##co": 1070,
      "ingl": 1071,
      "ven": 1072,
      "wh": 1073,
      "50": 1074,
      "##ethorp": 1075,
      "mich": 1076,
      "wil": 1077,
      "scot": 1078,
      "mui": 1079,
      "geor": 1080,
      "mary": 1081,
      "cr": 1082,
      "##ant": 1083,
      "el": 1084,
      "##rael": 1085,
      "israel": 1086,
      "inglethorp": 1087,
      "##ier": 1088,
      "leo": 1089,
      "paris": 1090,
      "##row": 1091,
      "tui": 1092,
      "dav": 1093,
      "dor": 1094,
      "##da": 1095,
      "internet": 1096,
      "##ris": 1097,
      "2001": 1098,
      "1996": 1099,
      "jer": 1100,
      "non": 1101,
      "##sa": 1102,
      "##mak": 1103,
      "##ward": 1104,
      "drew": 1105,
      "dall": 1106,
      "cl": 1107,
      "##ek": 1108,
      "##ain": 1109,
      "25": 1110,
      "dallas": 1111,
      "##so": 1112,
      "col": 1113,
      "nap": 1114,
      "##yn": 1115,
      "saint": 1116,
      "##ale": 1117,
      "ni": 1118,
      "mal": 1119,
      "star": 1120,
      "##rad": 1121,
      "rua": 1122,
      "nguoc": 1123,
      "##ity": 1124,
      "##ite": 1125,
      "khoc": 1126,
      "khieu": 1127,
      "cuop": 1128,
      "##ort": 1129,
      "##ood": 1130,
      "boc": 1131,
      "mail": 1132,
      "##ens": 1133,
      "ron": 1134,
      "##oth": 1135,
      "har": 1136,
      "##ence": 1137,
      "ber": 1138,
      "gat": 1139,
      "louis": 1140,
      "mieng": 1141,
      "##ov": 1142,
      "ab": 1143,
      "##rg": 1144,
      "60": 1145,
      "197": 1146,
      "##ith": 1147,
      "##ings": 1148,
      "##ans": 1149,
      "##lif": 1150,
      "##iss": 1151,
      "min": 1152,
      "moc": 1153,
      "##mer": 1154,
      "##pl": 1155,
      "slate": 1156,
      "scotland": 1157,
      "des": 1158,
      "##ld": 1159,
      "##yt": 1160,
      "ngot": 1161,
      "del": 1162,
      "thon": 1163,
      "##ec": 1164,
      "en": 1165,
      "ex": 1166,
      "per": 1167,
      "rai": 1168,
      "xi": 1169,
      "##inc": 1170,
      "med": 1171,
      "##don": 1172,
      "dis": 1173,
      "ngang": 1174,
      "dave": 1175,
      "##av": 1176,
      "phao": 1177,
      "##eland": 1178,
      "david": 1179,
      "##bo": 1180,
      "##san": 1181,
      "##alem": 1182,
      "com": 1183,
      "##ara": 1184,
      "ri": 1185,
      "##ock": 1186,
      "196": 1187,
      "40": 1188,
      "##ane": 1189,
      "trua": 1190,
      "char": 1191,
      "##lly": 1192,
      "##ft": 1193,
      "nhi": 1194,
      "##ica": 1195,
      "##tt": 1196,
      "ang": 1197,
      "##ous": 1198,
      "##pe": 1199,
      "##na": 1200,
      "luot": 1201,
      "kong": 1202,
      "bom": 1203,
      "##ast": 1204,
      "hep": 1205,
      "##itt": 1206,
      "##usalem": 1207,
      "jerusalem": 1208,
      "george": 1209,
      "kal": 1210,
      "##bb": 1211,
      "gianh": 1212,
      "##ornia": 1213,
      "omb": 1214,
      "mung": 1215,
      "giang": 1216,
      "1999": 1217,
      "trich": 1218,
      "vom": 1219,
      "son": 1220,
      "treo": 1221,
      "gau": 1222,
      "1998": 1223,
      "news": 1224,
      "##gas": 1225,
      "nguc": 1226,
      "tv": 1227,
      "##ide": 1228,
      "##ik": 1229,
      "ngam": 1230,
      "rau": 1231,
      "las": 1232,
      "ganh": 1233,
      "ib": 1234,
      "khiep": 1235,
      "##ald": 1236,
      "##igh": 1237,
      "giuong": 1238,
      "ram": 1239,
      "buyt": 1240,
      "calif": 1241,
      "xuan": 1242,
      "diet": 1243,
      "hua": 1244,
      "mic": 1245,
      "truot": 1246,
      "ngoan": 1247,
      "hanson": 1248,
      "##la": 1249,
      "1997": 1250,
      "ngung": 1251,
      "pol": 1252,
      "##lf": 1253,
      "mor": 1254,
      "hoai": 1255,
      "xinh": 1256,
      "##ira": 1257,
      "##tor": 1258,
      "##art": 1259,
      "##ism": 1260,
      "medic": 1261,
      "california": 1262,
      "kenh": 1263,
      "sieu": 1264,
      "##dy": 1265,
      "ran": 1266,
      "##ny": 1267,
      "1990": 1268,
      "gre": 1269,
      "##ob": 1270,
      "sal": 1271,
      "##ada": 1272,
      "21": 1273,
      "##50": 1274,
      "##her": 1275,
      "flor": 1276,
      "thinh": 1277,
      "##one": 1278,
      "500": 1279,
      "or": 1280,
      "##lo": 1281,
      "bui": 1282,
      "##ana": 1283,
      "##rown": 1284,
      "##ps": 1285,
      "##ael": 1286,
      "##per": 1287,
      "##ary": 1288,
      "robert": 1289,
      "fr": 1290,
      "xua": 1291,
      "khoanh": 1292,
      "angel": 1293,
      "micro": 1294,
      "nuong": 1295,
      "mus": 1296,
      "brown": 1297,
      "bia": 1298,
      "mex": 1299,
      "frank": 1300,
      "##aica": 1301,
      "je": 1302,
      "##ham": 1303,
      "vegas": 1304,
      "##ug": 1305,
      "jamaica": 1306,
      "ireland": 1307,
      "los": 1308,
      "##ose": 1309,
      "##ti": 1310,
      "##ty": 1311,
      "1995": 1312,
      "martin": 1313,
      "doro": 1314,
      "##week": 1315,
      "##ical": 1316,
      "##der": 1317,
      "golf": 1318,
      "malay": 1319,
      "##tr": 1320,
      "franc": 1321,
      "##eter": 1322,
      "grante": 1323,
      "##ney": 1324,
      "newsweek": 1325,
      "##iel": 1326,
      "mexico": 1327,
      "nhang": 1328,
      "rich": 1329,
      "mao": 1330,
      "rue": 1331,
      "##he": 1332,
      "##lex": 1333,
      "chep": 1334,
      "ad": 1335,
      "bill": 1336,
      "##ment": 1337,
      "susan": 1338,
      "##mon": 1339,
      "liet": 1340,
      "thac": 1341,
      "##ace": 1342,
      "cav": 1343,
      "##inn": 1344,
      "dieu": 1345,
      "194": 1346,
      "##itz": 1347,
      "201": 1348,
      "##liam": 1349,
      "##wood": 1350,
      "dep": 1351,
      "mil": 1352,
      "hill": 1353,
      "##ates": 1354,
      "mim": 1355,
      "##ole": 1356,
      "##soft": 1357,
      "microsoft": 1358,
      "22": 1359,
      "bung": 1360,
      "xoa": 1361,
      "##burgh": 1362,
      "coc": 1363,
      "##ated": 1364,
      "es": 1365,
      "times": 1366,
      "angeles": 1367,
      "##deo": 1368,
      "william": 1369,
      "##ail": 1370,
      "##rn": 1371,
      "ag": 1372,
      "starr": 1373,
      "##eo": 1374,
      "##tine": 1375,
      "##making": 1376,
      "thorn": 1377,
      "huyen": 1378,
      "##con": 1379,
      "michael": 1380,
      "gen": 1381,
      "##ann": 1382,
      "##dp": 1383,
      "##ito": 1384,
      "sm": 1385,
      "##ji": 1386,
      "##by": 1387,
      "ren": 1388,
      "her": 1389,
      "pau": 1390,
      "nor": 1391,
      "##ina": 1392,
      "##rb": 1393,
      "ind": 1394,
      "ira": 1395,
      "dub": 1396,
      "##gd": 1397,
      "video": 1398,
      "bor": 1399,
      "sch": 1400,
      "##ama": 1401,
      "##ille": 1402,
      "cro": 1403,
      "##led": 1404,
      "lew": 1405,
      "jane": 1406,
      "##hi": 1407,
      "##han": 1408,
      "by": 1409,
      "fl": 1410,
      "chup": 1411,
      "##ice": 1412,
      "thep": 1413,
      "##cl": 1414,
      "##if": 1415,
      "##ois": 1416,
      "##aw": 1417,
      "scr": 1418,
      "grand": 1419,
      "ok": 1420,
      "alb": 1421,
      "lot": 1422,
      "##endish": 1423,
      "der": 1424,
      "cavendish": 1425,
      "chuoi": 1426,
      "tuoc": 1427,
      "richard": 1428,
      "##dem": 1429,
      "##ker": 1430,
      "##enc": 1431,
      "##berg": 1432,
      "khen": 1433,
      "##ena": 1434,
      "grantees": 1435,
      "2002": 1436,
      "thieng": 1437,
      "suoi": 1438,
      "lui": 1439,
      "li": 1440,
      "cuba": 1441,
      "##ists": 1442,
      "##me": 1443,
      "##go": 1444,
      "dublin": 1445,
      "##ron": 1446,
      "##eyer": 1447,
      "##ial": 1448,
      "gore": 1449,
      "##pp": 1450,
      "ngat": 1451,
      "pat": 1452,
      "rule": 1453,
      "##ete": 1454,
      "xom": 1455,
      "##nes": 1456,
      "vandem": 1457,
      "vandemeyer": 1458,
      "thoang": 1459,
      "##its": 1460,
      "made": 1461,
      "rulemaking": 1462,
      "madr": 1463,
      "work": 1464,
      "vach": 1465,
      "hind": 1466,
      "mach": 1467,
      "comp": 1468,
      "ev": 1469,
      "##za": 1470,
      "roc": 1471,
      "suon": 1472,
      "wal": 1473,
      "khon": 1474,
      "80": 1475,
      "##ger": 1476,
      "##ais": 1477,
      "jack": 1478,
      "linc": 1479,
      "edin": 1480,
      "90": 1481,
      "tach": 1482,
      "holly": 1483,
      "bep": 1484,
      "##oln": 1485,
      "lincoln": 1486,
      "huoc": 1487,
      "##ely": 1488,
      "gu": 1489,
      "gdp": 1490,
      "##ya": 1491,
      "edinburgh": 1492,
      "kar": 1493,
      "law": 1494,
      "sub": 1495,
      "##ios": 1496,
      "say": 1497,
      "##ds": 1498,
      "net": 1499,
      "mer": 1500,
      "out": 1501,
      "##ki": 1502,
      "##our": 1503,
      "cio": 1504,
      "##lt": 1505,
      "##ago": 1506,
      "192": 1507,
      "uc": 1508,
      "von": 1509,
      "##sia": 1510,
      "and": 1511,
      "##--": 1512,
      "goth": 1513,
      "pe": 1514,
      "lieng": 1515,
      "brad": 1516,
      "gies": 1517,
      "##azz": 1518,
      "giesu": 1519,
      "khoac": 1520,
      "thau": 1521,
      "##ox": 1522,
      "##zar": 1523,
      "santa": 1524,
      "carter": 1525,
      "193": 1526,
      "##pa": 1527,
      "70": 1528,
      "##mas": 1529,
      "fgd": 1530,
      "choang": 1531,
      "monica": 1532,
      "ter": 1533,
      "gothic": 1534,
      "mcc": 1535,
      "bono": 1536,
      "hindu": 1537,
      "24": 1538,
      "nguong": 1539,
      "madeira": 1540,
      "##ida": 1541,
      "vic": 1542,
      "xong": 1543,
      "##ses": 1544,
      "##ner": 1545,
      "##ano": 1546,
      "kenn": 1547,
      "##fr": 1548,
      "##ford": 1549,
      "mont": 1550,
      "medicare": 1551,
      "stre": 1552,
      "##ost": 1553,
      "at": 1554,
      "##ze": 1555,
      "##ics": 1556,
      "##xon": 1557,
      "renn": 1558,
      "##ado": 1559,
      "sim": 1560,
      "hollywood": 1561,
      "300": 1562,
      "que": 1563,
      "xoay": 1564,
      "av": 1565,
      "leu": 1566,
      "ray": 1567,
      "##umb": 1568,
      "bam": 1569,
      "chic": 1570,
      "##ct": 1571,
      "##ater": 1572,
      "##del": 1573,
      "khia": 1574,
      "cast": 1575,
      "heo": 1576,
      "bob": 1577,
      "rennie": 1578,
      "ngau": 1579,
      "quai": 1580,
      "alex": 1581,
      "charles": 1582,
      "for": 1583,
      "cal": 1584,
      "malaysia": 1585,
      "##iana": 1586,
      "##insky": 1587,
      "cyn": 1588,
      "na": 1589,
      "ngap": 1590,
      "##sw": 1591,
      "howard": 1592,
      "##tein": 1593,
      "chuot": 1594,
      "##able": 1595,
      "##ling": 1596,
      "##rist": 1597,
      "luy": 1598,
      "loc": 1599,
      "##nn": 1600,
      "##bon": 1601,
      "##ville": 1602,
      "khiem": 1603,
      "##thia": 1604,
      "gl": 1605,
      "ruoi": 1606,
      "1994": 1607,
      "men": 1608,
      "pop": 1609,
      "hit": 1610,
      "red": 1611,
      "27": 1612,
      "##ub": 1613,
      "##ue": 1614,
      "xang": 1615,
      "##ka": 1616,
      "rad": 1617,
      "##ser": 1618,
      "anse": 1619,
      "vieng": 1620,
      "madrid": 1621,
      "hem": 1622,
      "por": 1623,
      "##ma": 1624,
      "lat": 1625,
      "cynthia": 1626,
      "##lan": 1627,
      "nut": 1628,
      "res": 1629,
      "##edy": 1630,
      "caro": 1631,
      "sec": 1632,
      "ret": 1633,
      "rao": 1634,
      "##enna": 1635,
      "napole": 1636,
      "sur": 1637,
      "francis": 1638,
      "##ria": 1639,
      "chicago": 1640,
      "##pr": 1641,
      "dat": 1642,
      "##gg": 1643,
      "##ters": 1644,
      "##ents": 1645,
      "##inia": 1646,
      "##work": 1647,
      "##xi": 1648,
      "##ativ": 1649,
      "kiet": 1650,
      "vr": 1651,
      "cor": 1652,
      "uot": 1653,
      "##rence": 1654,
      "##iza": 1655,
      "1980": 1656,
      "os": 1657,
      "gua": 1658,
      "triet": 1659,
      "##aliz": 1660,
      "haw": 1661,
      "alexand": 1662,
      "wall": 1663,
      "31": 1664,
      "##stan": 1665,
      "##fa": 1666,
      "il": 1667,
      "jo": 1668,
      "##oman": 1669,
      "smith": 1670,
      "hall": 1671,
      "##ks": 1672,
      "##ari": 1673,
      "khoai": 1674,
      "fer": 1675,
      "napoleon": 1676,
      "dinh": 1677,
      "paul": 1678,
      "chai": 1679,
      "##ors": 1680,
      "ken": 1681,
      "mieu": 1682,
      "ibiza": 1683,
      "26": 1684,
      "##aka": 1685,
      "##min": 1686,
      "##alia": 1687,
      "##und": 1688,
      "giat": 1689,
      "##pt": 1690,
      "bal": 1691,
      "gal": 1692,
      "##ett": 1693,
      "det": 1694,
      "canada": 1695,
      "off": 1696,
      "radio": 1697,
      "cum": 1698,
      "lawrence": 1699,
      "iv": 1700,
      "##uer": 1701,
      "##xit": 1702,
      "muu": 1703,
      "vrenna": 1704,
      "peter": 1705,
      "##ations": 1706,
      "khat": 1707,
      "color": 1708,
      "war": 1709,
      "đeo": 1710,
      "franklin": 1711,
      "victor": 1712,
      "hous": 1713,
      "##ise": 1714,
      "lewinsky": 1715,
      "bradley": 1716,
      "virg": 1717,
      "tue": 1718,
      "##che": 1719,
      "23": 1720,
      "axit": 1721,
      "pon": 1722,
      "whitt": 1723,
      "jes": 1724,
      "##ston": 1725,
      "mul": 1726,
      "ko": 1727,
      "plaz": 1728,
      "loa": 1729,
      "1993": 1730,
      "taxi": 1731,
      "huynh": 1732,
      "##age": 1733,
      "jim": 1734,
      "daniel": 1735,
      "iraq": 1736,
      "##ight": 1737,
      "henry": 1738,
      "florida": 1739,
      "mark": 1740,
      "##kyo": 1741,
      "33": 1742,
      "jones": 1743,
      "kennedy": 1744,
      "pan": 1745,
      "pre": 1746,
      "##ini": 1747,
      "app": 1748,
      "street": 1749,
      "iii": 1750,
      "195": 1751,
      "##ingly": 1752,
      "fda": 1753,
      "##ns": 1754,
      "nox": 1755,
      "##ness": 1756,
      "sather": 1757,
      "albert": 1758,
      "columb": 1759,
      "virginia": 1760,
      "kath": 1761,
      "sin": 1762,
      "##van": 1763,
      "nixon": 1764,
      "gach": 1765,
      "att": 1766,
      "kent": 1767,
      "ox": 1768,
      "##uses": 1769,
      "##olog": 1770,
      "gar": 1771,
      "##mar": 1772,
      "beo": 1773,
      "##ions": 1774,
      "ott": 1775,
      "grant": 1776,
      "bro": 1777,
      "kir": 1778,
      "##ib": 1779,
      "ngao": 1780,
      "colorado": 1781,
      "tokyo": 1782,
      "ut": 1783,
      "ver": 1784,
      "##ily": 1785,
      "oz": 1786,
      "whittington": 1787,
      "bra": 1788,
      "plaza": 1789,
      "fun": 1790,
      "##uk": 1791,
      "##cas": 1792,
      "##oto": 1793,
      "gam": 1794,
      "bye": 1795,
      "bap": 1796,
      "mur": 1797,
      "tia": 1798,
      "phun": 1799,
      "##ii": 1800,
      "##ire": 1801,
      "##yl": 1802,
      "phau": 1803,
      "##ino": 1804,
      "anton": 1805,
      "##agas": 1806,
      "imp": 1807,
      "ww": 1808,
      "well": 1809,
      "##lina": 1810,
      "ah": 1811,
      "nhip": 1812,
      "johnson": 1813,
      "##br": 1814,
      "##bi": 1815,
      "28": 1816,
      "ser": 1817,
      "irs": 1818,
      "over": 1819,
      "christ": 1820,
      "ottoman": 1821,
      "but": 1822,
      "##ique": 1823,
      "pic": 1824,
      "##20": 1825,
      "phang": 1826,
      "##zz": 1827,
      "bur": 1828,
      "1960": 1829,
      "us": 1830,
      "om": 1831,
      "oc": 1832,
      "ann": 1833,
      "35": 1834,
      "riv": 1835,
      "email": 1836,
      "et": 1837,
      "2010": 1838,
      "thomas": 1839,
      "johnny": 1840,
      "##len": 1841,
      "29": 1842,
      "400": 1843,
      "điep": 1844,
      "rose": 1845,
      "bork": 1846,
      "venice": 1847,
      "##kin": 1848,
      "##mand": 1849,
      "##ians": 1850,
      "##ella": 1851,
      "sol": 1852,
      "derry": 1853,
      "reag": 1854,
      "bich": 1855,
      "##vel": 1856,
      "##att": 1857,
      "cui": 1858,
      "kentuc": 1859,
      "##pra": 1860,
      "mah": 1861,
      "ozone": 1862,
      "##gn": 1863,
      "##lip": 1864,
      "miss": 1865,
      "##ied": 1866,
      "duyen": 1867,
      "maryland": 1868,
      "ruc": 1869,
      "nile": 1870,
      "quet": 1871,
      "nhuc": 1872,
      "##ful": 1873,
      "##ven": 1874,
      "choc": 1875,
      "str": 1876,
      "kr": 1877,
      "ua": 1878,
      "##itch": 1879,
      "##ically": 1880,
      "so2": 1881,
      "nep": 1882,
      "##vern": 1883,
      "##way": 1884,
      "white": 1885,
      "kos": 1886,
      "##fe": 1887,
      "##estine": 1888,
      "##heim": 1889,
      "##qua": 1890,
      "lut": 1891,
      "gac": 1892,
      "##nis": 1893,
      "##ota": 1894,
      "jean": 1895,
      "jac": 1896,
      "michel": 1897,
      "we": 1898,
      "##gar": 1899,
      "##ona": 1900,
      "carolina": 1901,
      "khuyet": 1902,
      "1970": 1903,
      "##let": 1904,
      "mand": 1905,
      "trom": 1906,
      "mccain": 1907,
      "far": 1908,
      "ger": 1909,
      "##ure": 1910,
      "1992": 1911,
      "surpl": 1912,
      "finn": 1913,
      "##ita": 1914,
      "##ola": 1915,
      "75": 1916,
      "##bes": 1917,
      "##vis": 1918,
      "##ese": 1919,
      "surpluses": 1920,
      "##vers": 1921,
      "cazar": 1922,
      "##aid": 1923,
      "thiu": 1924,
      "##ility": 1925,
      "##men": 1926,
      "150": 1927,
      "bel": 1928,
      "##cy": 1929,
      "191": 1930,
      "buom": 1931,
      "natalia": 1932,
      "disney": 1933,
      "##euze": 1934,
      "kyoto": 1935,
      "alfr": 1936,
      "##makers": 1937,
      "##ted": 1938,
      "##gr": 1939,
      "##ats": 1940,
      "##rose": 1941,
      "##erson": 1942,
      "www": 1943,
      "guc": 1944,
      "leon": 1945,
      "reagan": 1946,
      "guong": 1947,
      "not": 1948,
      "palestine": 1949,
      "##tic": 1950,
      "##cr": 1951,
      "xich": 1952,
      "alfred": 1953,
      "mia": 1954,
      "london": 1955,
      "##ban": 1956,
      "er": 1957,
      "fe": 1958,
      "wind": 1959,
      "##ipp": 1960,
      "ls": 1961,
      "aci": 1962,
      "##ines": 1963,
      "##ars": 1964,
      "slim": 1965,
      "lee": 1966,
      "greuze": 1967,
      "00": 1968,
      "##cc": 1969,
      "##va": 1970,
      "##annon": 1971,
      "mass": 1972,
      "tit": 1973,
      "##ized": 1974,
      "steph": 1975,
      "morris": 1976,
      "##ura": 1977,
      "##ette": 1978,
      "arch": 1979,
      "georg": 1980,
      "##bel": 1981,
      "##his": 1982,
      "##fl": 1983,
      "##the": 1984,
      "##ive": 1985,
      "pen": 1986,
      "vs": 1987,
      "##ren": 1988,
      "##fer": 1989,
      "##burg": 1990,
      "##ean": 1991,
      "roman": 1992,
      "mel": 1993,
      "##rer": 1994,
      "##ys": 1995,
      "##eder": 1996,
      "raj": 1997,
      "jord": 1998,
      "dip": 1999,
      "##bin": 2000,
      "poll": 2001,
      "penn": 2002,
      "cy": 2003,
      "##12": 2004,
      "##for": 2005,
      "##ows": 2006,
      "##be": 2007,
      "##rt": 2008,
      "nhiep": 2009,
      "##ade": 2010,
      "##add": 2011,
      "##res": 2012,
      "nhoc": 2013,
      "36": 2014,
      "##aic": 2015,
      "suong": 2016,
      "tuu": 2017,
      "ghep": 2018,
      "quat": 2019,
      "cnn": 2020,
      "boiler": 2021,
      "lind": 2022,
      "nhon": 2023,
      "600": 2024,
      "32": 2025,
      "les": 2026,
      "den": 2027,
      "##och": 2028,
      "##nd": 2029,
      "##ating": 2030,
      "hers": 2031,
      "##any": 2032,
      "##com": 2033,
      "chiet": 2034,
      "khop": 2035,
      "po": 2036,
      "sđ": 2037,
      "nhot": 2038,
      "##ache": 2039,
      "sđt": 2040,
      "fan": 2041,
      "ui": 2042,
      "##ep": 2043,
      "##med": 2044,
      "khinh": 2045,
      "puer": 2046,
      "##ansas": 2047,
      "190": 2048,
      "attest": 2049,
      "kosov": 2050,
      "##oque": 2051,
      "##sp": 2052,
      "##ican": 2053,
      "tennis": 2054,
      "jordan": 2055,
      "##ile": 2056,
      "##ko": 2057,
      "ae": 2058,
      "##ator": 2059,
      "rep": 2060,
      "sen": 2061,
      "sandy": 2062,
      "phil": 2063,
      "##ign": 2064,
      "post": 2065,
      "##ond": 2066,
      "cairo": 2067,
      "menh": 2068,
      "cios": 2069,
      "##ix": 2070,
      "fena": 2071,
      "mill": 2072,
      "##ima": 2073,
      "buchan": 2074,
      "pres": 2075,
      "nai": 2076,
      "nop": 2077,
      "pm": 2078,
      "##oupe": 2079,
      "palais": 2080,
      "stark": 2081,
      "wood": 2082,
      "ibm": 2083,
      "karf": 2084,
      "gagas": 2085,
      "indiana": 2086,
      "worksh": 2087,
      "##iew": 2088,
      "##chal": 2089,
      "kin": 2090,
      "alexander": 2091,
      "lor": 2092,
      "buchanan": 2093,
      "ara": 2094,
      "##gan": 2095,
      "##ets": 2096,
      "edward": 2097,
      "##ect": 2098,
      "##rd": 2099,
      "55": 2100,
      "sy": 2101,
      "##well": 2102,
      "baroque": 2103,
      "guadel": 2104,
      "gpra": 2105,
      "##iano": 2106,
      "##ious": 2107,
      "oper": 2108,
      "rh": 2109,
      "attestation": 2110,
      "##iff": 2111,
      "##fic": 2112,
      "##sta": 2113,
      "plano": 2114,
      "green": 2115,
      "guadeloupe": 2116,
      "cel": 2117,
      "xoi": 2118,
      "##ja": 2119,
      "dec": 2120,
      "189": 2121,
      "dorcas": 2122,
      "ak": 2123,
      "hor": 2124,
      "##aph": 2125,
      "##gean": 2126,
      "funchal": 2127,
      "pin": 2128,
      "map": 2129,
      "##ester": 2130,
      "hawai": 2131,
      "kentucky": 2132,
      "45": 2133,
      "##uch": 2134,
      "prud": 2135,
      "exp": 2136,
      "muse": 2137,
      "##bar": 2138,
      "##up": 2139,
      "##angel": 2140,
      "186": 2141,
      "aegean": 2142,
      "jose": 2143,
      "sn": 2144,
      "187": 2145,
      "pet": 2146,
      "##ibb": 2147,
      "##ls": 2148,
      "camp": 2149,
      "jackson": 2150,
      "kl": 2151,
      "pp": 2152,
      "##bs": 2153,
      "coun": 2154,
      "hawaii": 2155,
      "bach": 2156,
      "tem": 2157,
      "1950": 2158,
      "##king": 2159,
      "sab": 2160,
      "##iy": 2161,
      "##qui": 2162,
      "##heimmer": 2163,
      "hersheimmer": 2164,
      "hi": 2165,
      "##gus": 2166,
      "##rof": 2167,
      "##ltan": 2168,
      "kirby": 2169,
      "cra": 2170,
      "sultan": 2171,
      "art": 2172,
      "palazz": 2173,
      "bas": 2174,
      "kip": 2175,
      "##orca": 2176,
      "rem": 2177,
      "gates": 2178,
      "antonio": 2179,
      "opera": 2180,
      "95": 2181,
      "kn": 2182,
      "pas": 2183,
      "rock": 2184,
      "shil": 2185,
      "800": 2186,
      "jan": 2187,
      "viem": 2188,
      "##rac": 2189,
      "nhua": 2190,
      "neo": 2191,
      "rec": 2192,
      "crete": 2193,
      "album": 2194,
      "cm": 2195,
      "cre": 2196,
      "bow": 2197,
      "venet": 2198,
      "##scap": 2199,
      "caribb": 2200,
      "gieng": 2201,
      "wow": 2202,
      "##bul": 2203,
      "##set": 2204,
      "serb": 2205,
      "##ities": 2206,
      "sant": 2207,
      "shannon": 2208,
      "hillary": 2209,
      "##fully": 2210,
      "sar": 2211,
      "##gate": 2212,
      "##wart": 2213,
      "##ield": 2214,
      "roy": 2215,
      "caribbean": 2216,
      "kito": 2217,
      "lis": 2218,
      "##ites": 2219,
      "bun": 2220,
      "##ship": 2221,
      "nato": 2222,
      "houston": 2223,
      "fa": 2224,
      "iran": 2225,
      "jazz": 2226,
      "shiloh": 2227,
      "huc": 2228,
      "##box": 2229,
      "..": 2230,
      "ceo": 2231,
      "piz": 2232,
      "##ott": 2233,
      "serbia": 2234,
      "##rey": 2235,
      "monte": 2236,
      "rev": 2237,
      "illin": 2238,
      "phar": 2239,
      "palazzo": 2240,
      "arg": 2241,
      "kosovo": 2242,
      "sil": 2243,
      "##ck": 2244,
      "##ha": 2245,
      "##ves": 2246,
      "dame": 2247,
      "eli": 2248,
      "##ele": 2249,
      "##lem": 2250,
      "juan": 2251,
      "hitler": 2252,
      "dr": 2253,
      "fcc": 2254,
      "##off": 2255,
      "giap": 2256,
      "martinique": 2257,
      "toph": 2258,
      "pizza": 2259,
      "illinois": 2260,
      "kur": 2261,
      "scand": 2262,
      "retrof": 2263,
      "topham": 2264,
      "##oy": 2265,
      "pom": 2266,
      "##ez": 2267,
      "chop": 2268,
      "mall": 2269,
      "##ello": 2270,
      "mis": 2271,
      "op": 2272,
      "sing": 2273,
      "##dd": 2274,
      "##kins": 2275,
      "##hs": 2276,
      "##40": 2277,
      "khuc": 2278,
      "##rop": 2279,
      "##erstein": 2280,
      "cle": 2281,
      "##hur": 2282,
      "aer": 2283,
      "gas": 2284,
      "pit": 2285,
      "##aine": 2286,
      "dc": 2287,
      "##uz": 2288,
      "##los": 2289,
      "##mir": 2290,
      "workshar": 2291,
      "wol": 2292,
      "1991": 2293,
      "##di": 2294,
      "lux": 2295,
      "gener": 2296,
      "eo": 2297,
      "puerto": 2298,
      "duoc": 2299,
      "##ata": 2300,
      "##eur": 2301,
      "##nte": 2302,
      "cheo": 2303,
      "##istan": 2304,
      "mwe": 2305,
      "pot": 2306,
      "florence": 2307,
      "liu": 2308,
      "hm": 2309,
      "ant": 2310,
      "charl": 2311,
      "##serv": 2312,
      "as": 2313,
      "jr": 2314,
      "##ons": 2315,
      "vit": 2316,
      "ria": 2317,
      "##lle": 2318,
      "boris": 2319,
      "##inger": 2320,
      "##ades": 2321,
      "##ability": 2322,
      "##key": 2323,
      "##phia": 2324,
      "ramses": 2325,
      "##ani": 2326,
      "sum": 2327,
      "boston": 2328,
      "constan": 2329,
      "##oma": 2330,
      "##----": 2331,
      "##can": 2332,
      "##ero": 2333,
      "##ization": 2334,
      "venetian": 2335,
      "97": 2336,
      "##ster": 2337,
      "##right": 2338,
      "delhi": 2339,
      "norman": 2340,
      "01": 2341,
      "mid": 2342,
      "##iro": 2343,
      "ngui": 2344,
      "dow": 2345,
      "notre": 2346,
      "##ex": 2347,
      "set": 2348,
      "##ome": 2349,
      "##nette": 2350,
      "steve": 2351,
      "perth": 2352,
      "##oxide": 2353,
      "shu": 2354,
      "##int": 2355,
      "stud": 2356,
      "bauerstein": 2357,
      "hav": 2358,
      "37": 2359,
      "city": 2360,
      "##ange": 2361,
      "##als": 2362,
      "run": 2363,
      "nema": 2364,
      "##tp": 2365,
      "simon": 2366,
      "##angelo": 2367,
      "pier": 2368,
      "nhao": 2369,
      "chuoc": 2370,
      "arc": 2371,
      "pos": 2372,
      "##uji": 2373,
      "khiet": 2374,
      "nonf": 2375,
      "##anc": 2376,
      "hunt": 2377,
      "abc": 2378,
      "ath": 2379,
      "dot": 2380,
      "##lah": 2381,
      "##vin": 2382,
      "jeff": 2383,
      "nito": 2384,
      "##sen": 2385,
      "##met": 2386,
      "##sey": 2387,
      "##izing": 2388,
      "ash": 2389,
      "##ius": 2390,
      "##aoh": 2391,
      "shiv": 2392,
      "pharaoh": 2393,
      "port": 2394,
      "water": 2395,
      "##ato": 2396,
      "##aux": 2397,
      "land": 2398,
      "ball": 2399,
      "gab": 2400,
      "conrad": 2401,
      "anne": 2402,
      "##cher": 2403,
      "inc": 2404,
      "##aki": 2405,
      "atlan": 2406,
      "atlanta": 2407,
      "fed": 2408,
      "rico": 2409,
      "##bc": 2410,
      "##amin": 2411,
      "##ardo": 2412,
      "michelangelo": 2413,
      "trat": 2414,
      "chanh": 2415,
      "##ora": 2416,
      "inch": 2417,
      "columbus": 2418,
      "jacob": 2419,
      "val": 2420,
      "bit": 2421,
      "##ala": 2422,
      "##ally": 2423,
      "##esque": 2424,
      "##own": 2425,
      "wtp": 2426,
      "lar": 2427,
      "nepal": 2428,
      "call": 2429,
      "latin": 2430,
      "##air": 2431,
      "osaka": 2432,
      "ny": 2433,
      "xiec": 2434,
      "##shire": 2435,
      "spr": 2436,
      "##mere": 2437,
      "jesus": 2438,
      "##las": 2439,
      "##zo": 2440,
      "visa": 2441,
      "2005": 2442,
      "120": 2443,
      "sk": 2444,
      "##vic": 2445,
      "cont": 2446,
      "##ght": 2447,
      "1989": 2448,
      "fo": 2449,
      "ry": 2450,
      "giot": 2451,
      "tor": 2452,
      "##raham": 2453,
      "##ouse": 2454,
      "65": 2455,
      "##mul": 2456,
      "conn": 2457,
      "##ime": 2458,
      "mos": 2459,
      "đut": 2460,
      "dioxide": 2461,
      "xoan": 2462,
      "nhun": 2463,
      "book": 2464,
      "ohio": 2465,
      "steven": 2466,
      "##ments": 2467,
      "39": 2468,
      "xach": 2469,
      "##vard": 2470,
      "##old": 2471,
      "prudie": 2472,
      "42": 2473,
      "700": 2474,
      "dim": 2475,
      "istan": 2476,
      "##zan": 2477,
      "##achu": 2478,
      "##app": 2479,
      "argent": 2480,
      "istanbul": 2481,
      "99": 2482,
      "##dg": 2483,
      "##po": 2484,
      "nghiet": 2485,
      "nghieng": 2486,
      "kg": 2487,
      "##har": 2488,
      "##ene": 2489,
      "##itar": 2490,
      "##mandu": 2491,
      "shiva": 2492,
      "rand": 2493,
      "##syl": 2494,
      "##10": 2495,
      "##illy": 2496,
      "alab": 2497,
      "adam": 2498,
      "##vania": 2499,
      "##sylvania": 2500,
      "cd": 2501,
      "porto": 2502,
      "az": 2503,
      "fbi": 2504,
      "##ric": 2505,
      "##omo": 2506,
      "##tha": 2507,
      "kathmandu": 2508,
      "id": 2509,
      "lit": 2510,
      "sadd": 2511,
      "188": 2512,
      "##mont": 2513,
      "retrofits": 2514,
      "will": 2515,
      "joe": 2516,
      "pennsylvania": 2517,
      "aic": 2518,
      "gov": 2519,
      "macau": 2520,
      "lewis": 2521,
      "conserv": 2522,
      "2020": 2523,
      "sav": 2524,
      "medicaid": 2525,
      "francisco": 2526,
      "mult": 2527,
      "48": 2528,
      "dar": 2529,
      "xiv": 2530,
      "##bor": 2531,
      "scandal": 2532,
      "bale": 2533,
      "hast": 2534,
      "rus": 2535,
      "##ink": 2536,
      "diu": 2537,
      "##ouri": 2538,
      "saddam": 2539,
      "ceter": 2540,
      "##fell": 2541,
      "soan": 2542,
      "##ova": 2543,
      "aicpa": 2544,
      "pok": 2545,
      "##sm": 2546,
      "##cel": 2547,
      "tripp": 2548,
      "moor": 2549,
      "##tered": 2550,
      "180": 2551,
      "barnes": 2552,
      "merc": 2553,
      "59": 2554,
      "cete": 2555,
      "ins": 2556,
      "sinai": 2557,
      "havana": 2558,
      "43": 2559,
      "fel": 2560,
      "fem": 2561,
      "gall": 2562,
      "pass": 2563,
      "##igan": 2564,
      "joseph": 2565,
      "aerob": 2566,
      "rel": 2567,
      "west": 2568,
      "##din": 2569,
      "##ont": 2570,
      "gold": 2571,
      "##ound": 2572,
      "##line": 2573,
      "##agg": 2574,
      "granite": 2575,
      "ell": 2576,
      "đui": 2577,
      "##tro": 2578,
      "madon": 2579,
      "stephen": 2580,
      "generaliz": 2581,
      "hastings": 2582,
      "madonna": 2583,
      "vinc": 2584,
      "##icit": 2585,
      "bop": 2586,
      "nike": 2587,
      "47": 2588,
      "eu": 2589,
      "king": 2590,
      "kle": 2591,
      "via": 2592,
      "ghen": 2593,
      "county": 2594,
      "hc": 2595,
      "word": 2596,
      "##rel": 2597,
      "moham": 2598,
      "clar": 2599,
      "##place": 2600,
      "comm": 2601,
      "49": 2602,
      "up": 2603,
      "vba": 2604,
      "##66": 2605,
      "cour": 2606,
      "dean": 2607,
      "##itchell": 2608,
      "38": 2609,
      "gsa": 2610,
      "tw": 2611,
      "wat": 2612,
      "##ium": 2613,
      "##kes": 2614,
      "##rav": 2615,
      "##ersey": 2616,
      "boilermakers": 2617,
      "44": 2618,
      "af": 2619,
      "kam": 2620,
      "##kh": 2621,
      "rome": 2622,
      "stan": 2623,
      "crose": 2624,
      "arthur": 2625,
      "argentina": 2626,
      "hcfa": 2627,
      "eth": 2628,
      "ker": 2629,
      "sic": 2630,
      "##isk": 2631,
      "missouri": 2632,
      "jersey": 2633,
      "sq": 2634,
      "top": 2635,
      "davis": 2636,
      "massachu": 2637,
      "dy": 2638,
      "jul": 2639,
      "nic": 2640,
      "##less": 2641,
      "##tone": 2642,
      "ass": 2643,
      "gro": 2644,
      "##bers": 2645,
      "##ting": 2646,
      "##zab": 2647,
      "goa": 2648,
      "##ederal": 2649,
      "elizab": 2650,
      "elizabeth": 2651,
      "liv": 2652,
      "##ilia": 2653,
      "carbon": 2654,
      "##iers": 2655,
      "orle": 2656,
      "muss": 2657,
      "##press": 2658,
      "romanesque": 2659,
      "##lm": 2660,
      "trac": 2661,
      "prov": 2662,
      "##ogr": 2663,
      "naples": 2664,
      "harvard": 2665,
      "##uel": 2666,
      "##cus": 2667,
      "##val": 2668,
      "##ount": 2669,
      "##ably": 2670,
      "park": 2671,
      "black": 2672,
      "luxor": 2673,
      "athens": 2674,
      "massachuset": 2675,
      "fort": 2676,
      "him": 2677,
      "pow": 2678,
      "##dhi": 2679,
      "##ux": 2680,
      "##gon": 2681,
      "##ison": 2682,
      "mailer": 2683,
      "##ular": 2684,
      "##istic": 2685,
      "picass": 2686,
      "##eg": 2687,
      "178": 2688,
      "250": 2689,
      "conservativ": 2690,
      "picasso": 2691,
      "fox": 2692,
      "kil": 2693,
      "##60": 2694,
      "resp": 2695,
      "##vision": 2696,
      "massachusetts": 2697,
      "fly": 2698,
      "##apore": 2699,
      "rocky": 2700,
      "cbo": 2701,
      "jun": 2702,
      "##wak": 2703,
      "mohammed": 2704,
      "98": 2705,
      "cent": 2706,
      "kash": 2707,
      "vill": 2708,
      "bour": 2709,
      "##ava": 2710,
      "34": 2711,
      "##vre": 2712,
      "cop": 2713,
      "rom": 2714,
      "riu": 2715,
      "orleans": 2716,
      "ford": 2717,
      "lake": 2718,
      "##atra": 2719,
      "philip": 2720,
      "nuot": 2721,
      "steward": 2722,
      "utah": 2723,
      "stewardship": 2724,
      "mun": 2725,
      "##ken": 2726,
      "contr": 2727,
      "bern": 2728,
      "agenc": 2729,
      "kurd": 2730,
      "piano": 2731,
      "##rin": 2732,
      "##lini": 2733,
      "##donald": 2734,
      "singapore": 2735,
      "alabama": 2736,
      "aerobics": 2737,
      "kashmir": 2738,
      "tig": 2739,
      "##bou": 2740,
      "##terbox": 2741,
      "gauve": 2742,
      "forbes": 2743,
      "della": 2744,
      "ze": 2745,
      "##do": 2746,
      "##dale": 2747,
      "##oli": 2748,
      "##ati": 2749,
      "##aire": 2750,
      "##ern": 2751,
      "hus": 2752,
      "defic": 2753,
      "beat": 2754,
      "sher": 2755,
      "##mann": 2756,
      "oklah": 2757,
      "ot": 2758,
      "##bot": 2759,
      "##den": 2760,
      "##pos": 2761,
      "thoc": 2762,
      "##olta": 2763,
      "she": 2764,
      "worksharing": 2765,
      "900": 2766,
      "rach": 2767,
      "reb": 2768,
      "##ank": 2769,
      "cale": 2770,
      "casa": 2771,
      "gin": 2772,
      "nov": 2773,
      "scott": 2774,
      "pierre": 2775,
      ".-": 2776,
      "dick": 2777,
      "fy": 2778,
      "lim": 2779,
      "wor": 2780,
      "##ues": 2781,
      "max": 2782,
      "santo": 2783,
      "promul": 2784,
      "##look": 2785,
      "grande": 2786,
      "caes": 2787,
      "rou": 2788,
      "donald": 2789,
      "abraham": 2790,
      "linda": 2791,
      "gabr": 2792,
      "##hen": 2793,
      "kheo": 2794,
      "##eness": 2795,
      "lev": 2796,
      "##asa": 2797,
      "chatterbox": 2798,
      "apache": 2799,
      "augus": 2800,
      "##osevic": 2801,
      "respond": 2802,
      "ele": 2803,
      "pa": 2804,
      "##field": 2805,
      "##pan": 2806,
      "phac": 2807,
      "sou": 2808,
      "due": 2809,
      "balear": 2810,
      "moorish": 2811,
      "##enberg": 2812,
      "stein": 2813,
      "milosevic": 2814,
      "##ific": 2815,
      "##awa": 2816,
      "deficits": 2817,
      "##aff": 2818,
      "##wai": 2819,
      "conc": 2820,
      "barry": 2821,
      "super": 2822,
      "milan": 2823,
      "series": 2824,
      "##bourg": 2825,
      "##ef": 2826,
      "##gen": 2827,
      "##70": 2828,
      "##par": 2829,
      "##ust": 2830,
      "kan": 2831,
      "##hem": 2832,
      "##aus": 2833,
      "##ograph": 2834,
      "eng": 2835,
      "trin": 2836,
      "division": 2837,
      "##ople": 2838,
      "##see": 2839,
      "hamp": 2840,
      "##owa": 2841,
      "##ingston": 2842,
      "braz": 2843,
      "usps": 2844,
      "gor": 2845,
      "nich": 2846,
      "##ho": 2847,
      "thiec": 2848,
      "schu": 2849,
      "brill": 2850,
      "pun": 2851,
      "##ws": 2852,
      "##act": 2853,
      "bayl": 2854,
      "##adel": 2855,
      "shar": 2856,
      "barb": 2857,
      "bieng": 2858,
      "trump": 2859,
      "##idge": 2860,
      "under": 2861,
      "eff": 2862,
      "hot": 2863,
      "mit": 2864,
      "ranh": 2865,
      "##fs": 2866,
      "##ays": 2867,
      "ark": 2868,
      "louvre": 2869,
      "bell": 2870,
      "##esford": 2871,
      "##ider": 2872,
      "show": 2873,
      "michigan": 2874,
      "beresford": 2875,
      "louisiana": 2876,
      "61": 2877,
      "aus": 2878,
      "iowa": 2879,
      "##ery": 2880,
      "khuya": 2881,
      "gandhi": 2882,
      "reg": 2883,
      "blo": 2884,
      "1920": 2885,
      "leonardo": 2886,
      "rhod": 2887,
      "lisbon": 2888,
      "larry": 2889,
      "oklahoma": 2890,
      "gabriel": 2891,
      "buong": 2892,
      "dem": 2893,
      "amb": 2894,
      "##olis": 2895,
      "mut": 2896,
      "149": 2897,
      "poly": 2898,
      "bre": 2899,
      "kansas": 2900,
      "sw": 2901,
      "##tim": 2902,
      "202": 2903,
      "179": 2904,
      "mandates": 2905,
      "melaka": 2906,
      "41": 2907,
      "old": 2908,
      "xit": 2909,
      "khuy": 2910,
      "dei": 2911,
      "##sein": 2912,
      "##utant": 2913,
      "##mond": 2914,
      "columbia": 2915,
      "##vernment": 2916,
      "##ga": 2917,
      "##augh": 2918,
      "182": 2919,
      "184": 2920,
      "##lls": 2921,
      "willey": 2922,
      "xiu": 2923,
      "outlook": 2924,
      "62": 2925,
      "ob": 2926,
      "toled": 2927,
      "##ando": 2928,
      "mosaic": 2929,
      "respondents": 2930,
      "osan": 2931,
      "thun": 2932,
      "tut": 2933,
      "beach": 2934,
      "1974": 2935,
      "nonfederal": 2936,
      "osanic": 2937,
      "##ony": 2938,
      "##aluat": 2939,
      "##illo": 2940,
      "##kefell": 2941,
      "##nett": 2942,
      "1988": 2943,
      "rockefell": 2944,
      "gord": 2945,
      "xv": 2946,
      "##ci": 2947,
      "tusc": 2948,
      "cup": 2949,
      "##ques": 2950,
      "130": 2951,
      "##mark": 2952,
      "rockefeller": 2953,
      "72": 2954,
      "##ias": 2955,
      "toai": 2956,
      "##alay": 2957,
      "burg": 2958,
      "bond": 2959,
      "salad": 2960,
      "eg": 2961,
      "mas": 2962,
      "dud": 2963,
      "##edic": 2964,
      "##oster": 2965,
      "##iga": 2966,
      "##illa": 2967,
      "pont": 2968,
      "apple": 2969,
      "philadel": 2970,
      "mallorca": 2971,
      "hussein": 2972,
      "cer": 2973,
      "sand": 2974,
      "loang": 2975,
      "....": 2976,
      "mike": 2977,
      "##maker": 2978,
      "christop": 2979,
      "feet": 2980,
      "mt": 2981,
      "##hr": 2982,
      "##ped": 2983,
      "annette": 2984,
      "##enth": 2985,
      "workplace": 2986,
      "1930": 2987,
      "conservatives": 2988,
      "96": 2989,
      "##icy": 2990,
      "dut": 2991,
      "##tinople": 2992,
      "mcdonald": 2993,
      "pak": 2994,
      "##vent": 2995,
      "georgia": 2996,
      "nar": 2997,
      "nara": 2998,
      "uop": 2999,
      "##ania": 3000,
      "viking": 3001,
      "##alan": 3002,
      "##aska": 3003,
      "stewart": 3004,
      "andre": 3005,
      "##scape": 3006,
      "##bac": 3007,
      "severn": 3008,
      "##aye": 3009,
      "andrew": 3010,
      "syria": 3011,
      "review": 3012,
      "constantinople": 3013,
      "philadelphia": 3014,
      "est": 3015,
      "iolta": 3016,
      "##30": 3017,
      "##ote": 3018,
      "##ami": 3019,
      "##uce": 3020,
      "bauer": 3021,
      "hampshire": 3022,
      "67": 3023,
      "##15": 3024,
      "##ware": 3025,
      "chen": 3026,
      "gion": 3027,
      "##aco": 3028,
      "phili": 3029,
      "##cho": 3030,
      "---": 3031,
      "175": 3032,
      "125": 3033,
      "1987": 3034,
      "novak": 3035,
      "bh": 3036,
      "sba": 3037,
      "##tol": 3038,
      "##iman": 3039,
      "benj": 3040,
      "##she": 3041,
      "unf": 3042,
      "##ippi": 3043,
      "agencie": 3044,
      "christopher": 3045,
      "ku": 3046,
      "##nhe": 3047,
      "tour": 3048,
      "##orth": 3049,
      "##ros": 3050,
      "##rom": 3051,
      "bull": 3052,
      "victoria": 3053,
      "hil": 3054,
      "lin": 3055,
      "mir": 3056,
      "pis": 3057,
      "##wa": 3058,
      "temp": 3059,
      "bayliss": 3060,
      "arkansas": 3061,
      "toledo": 3062,
      "mam": 3063,
      "corn": 3064,
      "maine": 3065,
      "##ller": 3066,
      "##ize": 3067,
      "jerry": 3068,
      "promulg": 3069,
      "benjamin": 3070,
      "sorb": 3071,
      "##change": 3072,
      "int": 3073,
      "nel": 3074,
      "pad": 3075,
      "##wide": 3076,
      "##era": 3077,
      "##esia": 3078,
      "dom": 3079,
      "hugh": 3080,
      "colon": 3081,
      "penang": 3082,
      "mes": 3083,
      "yard": 3084,
      "sel": 3085,
      "rub": 3086,
      "tennes": 3087,
      "carl": 3088,
      "henri": 3089,
      "1982": 3090,
      "wells": 3091,
      "studio": 3092,
      "46": 3093,
      "cz": 3094,
      "##ble": 3095,
      "##lon": 3096,
      "ross": 3097,
      "##ilat": 3098,
      "apol": 3099,
      "185": 3100,
      "1000": 3101,
      "alexandria": 3102,
      "sicilia": 3103,
      "58": 3104,
      "got": 3105,
      "meth": 3106,
      "ritz": 3107,
      "##bu": 3108,
      "##bell": 3109,
      "chambers": 3110,
      "reed": 3111,
      "alan": 3112,
      "wallace": 3113,
      "brook": 3114,
      "annie": 3115,
      "asw": 3116,
      "ped": 3117,
      "ted": 3118,
      "good": 3119,
      "rum": 3120,
      "##rak": 3121,
      "bup": 3122,
      "2003": 3123,
      "jud": 3124,
      "harris": 3125,
      "grantee": 3126,
      "world": 3127,
      "aswan": 3128,
      "73": 3129,
      "aim": 3130,
      "ern": 3131,
      "##mins": 3132,
      "trau": 3133,
      "phuoc": 3134,
      "moore": 3135,
      "vol": 3136,
      "##osh": 3137,
      "ariz": 3138,
      "1986": 3139,
      "##ously": 3140,
      "esp": 3141,
      "callie": 3142,
      "tennessee": 3143,
      "eilat": 3144,
      "pc": 3145,
      "##roi": 3146,
      "##pur": 3147,
      "##ered": 3148,
      "đun": 3149,
      "##iesel": 3150,
      "bron": 3151,
      "nheo": 3152,
      "loren": 3153,
      "explor": 3154,
      "himalay": 3155,
      "brazil": 3156,
      "cia": 3157,
      "java": 3158,
      "jaff": 3159,
      "kitchell": 3160,
      "oli": 3161,
      "squa": 3162,
      "seo": 3163,
      "honda": 3164,
      "cun": 3165,
      "##ition": 3166,
      "tony": 3167,
      "rubin": 3168,
      "##agh": 3169,
      "mumb": 3170,
      "170": 3171,
      "##ights": 3172,
      "oxide": 3173,
      "vinci": 3174,
      "fle": 3175,
      "gard": 3176,
      "pul": 3177,
      "##fo": 3178,
      "##iest": 3179,
      "nhoi": 3180,
      "##oro": 3181,
      "lech": 3182,
      "##ela": 3183,
      "##out": 3184,
      "##book": 3185,
      "netscape": 3186,
      "pakistan": 3187,
      "arizona": 3188,
      "##mo": 3189,
      "##car": 3190,
      "##ying": 3191,
      "vap": 3192,
      "allen": 3193,
      "##ops": 3194,
      "spa": 3195,
      "##rado": 3196,
      "miller": 3197,
      "provence": 3198,
      "52": 3199,
      "yan": 3200,
      "##dan": 3201,
      "##fman": 3202,
      "tud": 3203,
      "chui": 3204,
      "##omon": 3205,
      "shin": 3206,
      "colt": 3207,
      "gordon": 3208,
      "jaffa": 3209,
      "yanke": 3210,
      "71": 3211,
      "org": 3212,
      "zel": 3213,
      "##kk": 3214,
      "##col": 3215,
      "##ges": 3216,
      "costa": 3217,
      "anti": 3218,
      "##orm": 3219,
      "##rant": 3220,
      "paula": 3221,
      "cs": 3222,
      "kua": 3223,
      "py": 3224,
      "##oo": 3225,
      "##war": 3226,
      "vut": 3227,
      "recon": 3228,
      "##ther": 3229,
      "##sees": 3230,
      "shah": 3231,
      "##str": 3232,
      "##ively": 3233,
      "herod": 3234,
      "ip": 3235,
      "kau": 3236,
      "keu": 3237,
      "##gu": 3238,
      "tar": 3239,
      "victorian": 3240,
      "fal": 3241,
      "##rus": 3242,
      "##rick": 3243,
      "##fia": 3244,
      "##ims": 3245,
      "##alism": 3246,
      "160": 3247,
      "##issippi": 3248,
      "francois": 3249,
      "williams": 3250,
      "mississippi": 3251,
      "poste": 3252,
      "bloom": 3253,
      "mosaics": 3254,
      "xao": 3255,
      "##oir": 3256,
      "nhai": 3257,
      "##inas": 3258,
      "nghenh": 3259,
      "robot": 3260,
      "beau": 3261,
      "##akes": 3262,
      "##emon": 3263,
      "solicit": 3264,
      "farm": 3265,
      "presort": 3266,
      "opm": 3267,
      "kieng": 3268,
      "cohen": 3269,
      "##oney": 3270,
      "theu": 3271,
      "tok": 3272,
      "thom": 3273,
      "1900": 3274,
      "bennett": 3275,
      "aids": 3276,
      "##lyn": 3277,
      "wilson": 3278,
      "greco": 3279,
      "reno": 3280,
      "fema": 3281,
      "hal": 3282,
      "high": 3283,
      "pav": 3284,
      "##rch": 3285,
      "vatican": 3286,
      "fred": 3287,
      "baltim": 3288,
      "titian": 3289,
      "springs": 3290,
      "baltimore": 3291,
      "bet": 3292,
      "prot": 3293,
      "##tur": 3294,
      "##jo": 3295,
      "leg": 3296,
      "moder": 3297,
      "##els": 3298,
      "amiga": 3299,
      "##olia": 3300,
      "nonex": 3301,
      "normand": 3302,
      "jesse": 3303,
      "##attan": 3304,
      "passaic": 3305,
      "die": 3306,
      "kios": 3307,
      "##si": 3308,
      "nhuong": 3309,
      "khuay": 3310,
      "evaluat": 3311,
      "square": 3312,
      "dell": 3313,
      "diesel": 3314,
      "##yd": 3315,
      "tubac": 3316,
      "chip": 3317,
      "##esco": 3318,
      "doug": 3319,
      "##chio": 3320,
      "maria": 3321,
      "margar": 3322,
      "alps": 3323,
      "##alls": 3324,
      "barr": 3325,
      "128": 3326,
      "##quirer": 3327,
      "england": 3328,
      "aimd": 3329,
      "bass": 3330,
      "lic": 3331,
      "mort": 3332,
      "osc": 3333,
      "##su": 3334,
      "##mos": 3335,
      "##ving": 3336,
      "lak": 3337,
      "capit": 3338,
      "##edly": 3339,
      "mann": 3340,
      "##urai": 3341,
      "acc": 3342,
      "gruz": 3343,
      "##ghan": 3344,
      "disc": 3345,
      "##cons": 3346,
      "walter": 3347,
      "caesar": 3348,
      "gruzia": 3349,
      "kep": 3350,
      "sip": 3351,
      "martha": 3352,
      "##ovitz": 3353,
      "peel": 3354,
      "##workers": 3355,
      "stephan": 3356,
      "afghan": 3357,
      "csr": 3358,
      "cef": 3359,
      "gent": 3360,
      "##win": 3361,
      "lag": 3362,
      "holy": 3363,
      "##igg": 3364,
      "house": 3365,
      "tubacca": 3366,
      "77": 3367,
      "nbc": 3368,
      "rick": 3369,
      "##ual": 3370,
      "quin": 3371,
      "anth": 3372,
      "lyon": 3373,
      "ital": 3374,
      "##ethe": 3375,
      "island": 3376,
      "nelson": 3377,
      "gra": 3378,
      "##iac": 3379,
      "##sur": 3380,
      "##mad": 3381,
      "hue": 3382,
      "cather": 3383,
      "greens": 3384,
      "glass": 3385,
      "kaufman": 3386,
      "evaluators": 3387,
      "78": 3388,
      "nia": 3389,
      "turn": 3390,
      "##onia": 3391,
      "soda": 3392,
      "cut": 3393,
      "hugo": 3394,
      "rober": 3395,
      "##chi": 3396,
      "sign": 3397,
      "##izes": 3398,
      "enquirer": 3399,
      "ec": 3400,
      "nass": 3401,
      "roth": 3402,
      "sara": 3403,
      "##ding": 3404,
      "##ral": 3405,
      "##38": 3406,
      "vac": 3407,
      "##onom": 3408,
      "sun": 3409,
      "##ory": 3410,
      "phoen": 3411,
      "##bbock": 3412,
      "vsl": 3413,
      "euro": 3414,
      "ms": 3415,
      "ore": 3416,
      "wai": 3417,
      "win": 3418,
      "##ees": 3419,
      "##hman": 3420,
      "##amen": 3421,
      "##elle": 3422,
      "1500": 3423,
      "##ipe": 3424,
      "mini": 3425,
      "janet": 3426,
      "dudovitz": 3427,
      "catherine": 3428,
      "eh": 3429,
      "jf": 3430,
      "jenn": 3431,
      "jalan": 3432,
      "##rent": 3433,
      "##hael": 3434,
      "veron": 3435,
      "memp": 3436,
      "##olo": 3437,
      "##akura": 3438,
      "raphael": 3439,
      "##arek": 3440,
      "minnes": 3441,
      "fern": 3442,
      "boilermaker": 3443,
      "woodward": 3444,
      "mumbai": 3445,
      "pu": 3446,
      "zion": 3447,
      "##des": 3448,
      "##ior": 3449,
      "khay": 3450,
      "##otte": 3451,
      "duomo": 3452,
      "##orts": 3453,
      "##ittany": 3454,
      "richardson": 3455,
      "comptro": 3456,
      "aviv": 3457,
      "calle": 3458,
      "nonexchange": 3459,
      "minnesota": 3460,
      "57": 3461,
      "54": 3462,
      "hack": 3463,
      "ile": 3464,
      "obel": 3465,
      "prado": 3466,
      "176": 3467,
      "##shn": 3468,
      "pointe": 3469,
      "1983": 3470,
      "##antly": 3471,
      "albright": 3472,
      "menorca": 3473,
      "zelon": 3474,
      "greenspan": 3475,
      "memphis": 3476,
      "88": 3477,
      "93": 3478,
      "##sace": 3479,
      "##48": 3480,
      "##ente": 3481,
      "##amb": 3482,
      "vel": 3483,
      "nhut": 3484,
      "domin": 3485,
      "tel": 3486,
      "beng": 3487,
      "aphis": 3488,
      "mugh": 3489,
      "bruce": 3490,
      "policy": 3491,
      "hills": 3492,
      "promulgated": 3493,
      "explorer": 3494,
      "68": 3495,
      "aol": 3496,
      "beth": 3497,
      "oro": 3498,
      "oly": 3499,
      "##kt": 3500,
      "khe": 3501,
      "##ators": 3502,
      "kelly": 3503,
      "##alists": 3504,
      "thomp": 3505,
      "lubbock": 3506,
      "arl": 3507,
      "##ugawa": 3508,
      "##iously": 3509,
      "oscar": 3510,
      "thompson": 3511,
      "##duc": 3512,
      "##ress": 3513,
      "##yp": 3514,
      "##elli": 3515,
      "manhattan": 3516,
      "indon": 3517,
      "##phy": 3518,
      "603": 3519,
      "schwart": 3520,
      "##clos": 3521,
      "##stone": 3522,
      "schwartz": 3523,
      "rot": 3524,
      "##sch": 3525,
      "seg": 3526,
      "cole": 3527,
      "##eria": 3528,
      "hel": 3529,
      "emily": 3530,
      "##lins": 3531,
      "edo": 3532,
      "medici": 3533,
      "1940": 3534,
      "outl": 3535,
      "anderson": 3536,
      "czarek": 3537,
      "olymp": 3538,
      "cet": 3539,
      "hac": 3540,
      "way": 3541,
      "yel": 3542,
      "##ught": 3543,
      "##ces": 3544,
      "##gers": 3545,
      "##nger": 3546,
      "hoy": 3547,
      "baby": 3548,
      "##ches": 3549,
      "##ador": 3550,
      "##une": 3551,
      "acrose": 3552,
      "brittany": 3553,
      "1984": 3554,
      "blan": 3555,
      "whit": 3556,
      "charlotte": 3557,
      "tokugawa": 3558,
      "turner": 3559,
      "89": 3560,
      "ol": 3561,
      "coco": 3562,
      "##ient": 3563,
      "tele": 3564,
      "meg": 3565,
      "dak": 3566,
      "mahal": 3567,
      "kuala": 3568,
      "ech": 3569,
      "##lli": 3570,
      "##cies": 3571,
      "##wi": 3572,
      "nhet": 3573,
      "dun": 3574,
      "##ermere": 3575,
      "##imb": 3576,
      "hand": 3577,
      "stal": 3578,
      "151": 3579,
      "castle": 3580,
      "windermere": 3581,
      "rubens": 3582,
      "66": 3583,
      "##rand": 3584,
      "##no": 3585,
      "##fat": 3586,
      "##yce": 3587,
      "##esa": 3588,
      "##ali": 3589,
      "theod": 3590,
      "##ures": 3591,
      "ronald": 3592,
      "##eck": 3593,
      "krug": 3594,
      "##atory": 3595,
      "ceteau": 3596,
      "relie": 3597,
      "austin": 3598,
      "anthony": 3599,
      "85": 3600,
      "fas": 3601,
      "hhs": 3602,
      "pund": 3603,
      "##ms": 3604,
      "##cul": 3605,
      "##fi": 3606,
      "##ym": 3607,
      "##pit": 3608,
      "cover": 3609,
      "dol": 3610,
      "##raw": 3611,
      "##ardy": 3612,
      "##ills": 3613,
      "edger": 3614,
      "abd": 3615,
      "##atively": 3616,
      "panama": 3617,
      "denver": 3618,
      "lorenzo": 3619,
      "79": 3620,
      "ali": 3621,
      "bus": 3622,
      "flem": 3623,
      "lc": 3624,
      "nyt": 3625,
      "oak": 3626,
      "vent": 3627,
      "##rian": 3628,
      "##got": 3629,
      "gins": 3630,
      "##iencies": 3631,
      "##etta": 3632,
      "##orial": 3633,
      "##ils": 3634,
      "buff": 3635,
      "##ently": 3636,
      "1800": 3637,
      "shakes": 3638,
      "##ational": 3639,
      "brand": 3640,
      "whis": 3641,
      "##ative": 3642,
      "windows": 3643,
      "charlie": 3644,
      "randy": 3645,
      "dakota": 3646,
      "shakespe": 3647,
      "ave": 3648,
      "sale": 3649,
      "##tis": 3650,
      "##rs": 3651,
      "##wan": 3652,
      "##vy": 3653,
      "##vas": 3654,
      "boom": 3655,
      "goya": 3656,
      "trum": 3657,
      "marco": 3658,
      "##opol": 3659,
      "148": 3660,
      "warner": 3661,
      "jimmy": 3662,
      "zeal": 3663,
      "comptroller": 3664,
      "ear": 3665,
      "rf": 3666,
      "vin": 3667,
      "##ee": 3668,
      "##aig": 3669,
      "phot": 3670,
      "roose": 3671,
      "back": 3672,
      "##aded": 3673,
      "##iane": 3674,
      "bartol": 3675,
      "##odolog": 3676,
      "145": 3677,
      "berg": 3678,
      "mino": 3679,
      "1967": 3680,
      "2015": 3681,
      "##class": 3682,
      "albania": 3683,
      "roch": 3684,
      "guom": 3685,
      "felipe": 3686,
      "methodolog": 3687,
      "ernest": 3688,
      "indonesia": 3689,
      "pundit": 3690,
      "shakespeare": 3691,
      "japp": 3692,
      "pac": 3693,
      "##etti": 3694,
      "huyet": 3695,
      "mosc": 3696,
      "lush": 3697,
      "marsh": 3698,
      "##tsin": 3699,
      "gaul": 3700,
      "##itzer": 3701,
      "##velt": 3702,
      "pooh": 3703,
      "margaret": 3704,
      "yeltsin": 3705,
      "roosevelt": 3706,
      "moscow": 3707,
      "69": 3708,
      "jard": 3709,
      "nfl": 3710,
      "pbs": 3711,
      "##iji": 3712,
      "##kian": 3713,
      "##red": 3714,
      "##wh": 3715,
      "##iera": 3716,
      "##iciencies": 3717,
      "rale": 3718,
      "##eries": 3719,
      "##asts": 3720,
      "##rood": 3721,
      "trans": 3722,
      "##anda": 3723,
      "181": 3724,
      "barik": 3725,
      "##ourt": 3726,
      "landscap": 3727,
      "rhode": 3728,
      "flea": 3729,
      "holyrood": 3730,
      "raleigh": 3731,
      "ever": 3732,
      "eiff": 3733,
      "ic": 3734,
      "##mel": 3735,
      "vishn": 3736,
      "teen": 3737,
      "ros": 3738,
      "##aker": 3739,
      "##tsburgh": 3740,
      "irish": 3741,
      "patrick": 3742,
      "castro": 3743,
      "celtic": 3744,
      "philipp": 3745,
      "reliefs": 3746,
      "eiffel": 3747,
      "vishnu": 3748,
      "ki": 3749,
      "pra": 3750,
      "##ule": 3751,
      "nhen": 3752,
      "bomb": 3753,
      "##aro": 3754,
      "hey": 3755,
      "bul": 3756,
      "##liani": 3757,
      "##terp": 3758,
      "##olas": 3759,
      "##opou": 3760,
      "##illes": 3761,
      "##rises": 3762,
      "terrac": 3763,
      "market": 3764,
      "hh": 3765,
      "kab": 3766,
      "yad": 3767,
      "##eine": 3768,
      "##hed": 3769,
      "##hol": 3770,
      "chot": 3771,
      "##otz": 3772,
      "đom": 3773,
      "nobel": 3774,
      "magn": 3775,
      "thought": 3776,
      "degas": 3777,
      "##iles": 3778,
      "monet": 3779,
      "##ads": 3780,
      "marcus": 3781,
      "##inned": 3782,
      "terre": 3783,
      "oregon": 3784,
      "krugman": 3785,
      "fig": 3786,
      "fore": 3787,
      "kingston": 3788,
      "wp": 3789,
      "##log": 3790,
      "cur": 3791,
      "##ase": 3792,
      "##iah": 3793,
      "##rake": 3794,
      "##ikoff": 3795,
      "stras": 3796,
      "cycl": 3797,
      "wolf": 3798,
      "modern": 3799,
      "bengal": 3800,
      "thoughtfully": 3801,
      "cry": 3802,
      "ses": 3803,
      "cow": 3804,
      "cook": 3805,
      "alican": 3806,
      "##unt": 3807,
      "168": 3808,
      "carlos": 3809,
      "play": 3810,
      "watergate": 3811,
      "roberts": 3812,
      "din": 3813,
      "font": 3814,
      "foster": 3815,
      "gary": 3816,
      "hip": 3817,
      "nasa": 3818,
      "piet": 3819,
      "pitt": 3820,
      "##tion": 3821,
      "##je": 3822,
      "seatt": 3823,
      "nhuom": 3824,
      "troy": 3825,
      "government": 3826,
      "diana": 3827,
      "##oll": 3828,
      "sainte": 3829,
      "##aga": 3830,
      "##ement": 3831,
      "plotz": 3832,
      "salon": 3833,
      "##sworth": 3834,
      "fax": 3835,
      "edgerton": 3836,
      "seattle": 3837,
      "92": 3838,
      "fuji": 3839,
      "gur": 3840,
      "rita": 3841,
      "yok": 3842,
      "##bas": 3843,
      "##ders": 3844,
      "lal": 3845,
      "chris": 3846,
      "##aster": 3847,
      "robin": 3848,
      "rooney": 3849,
      "nev": 3850,
      "alp": 3851,
      "##ulation": 3852,
      "##undy": 3853,
      "##nect": 3854,
      "156": 3855,
      "##iki": 3856,
      "normandy": 3857,
      "bb": 3858,
      "ps": 3859,
      "wa": 3860,
      "##back": 3861,
      "##rat": 3862,
      "##iness": 3863,
      "##apur": 3864,
      "meh": 3865,
      "amp": 3866,
      "129": 3867,
      "1948": 3868,
      "comprises": 3869,
      "joyce": 3870,
      "solomon": 3871,
      "akbar": 3872,
      "potter": 3873,
      "obelisk": 3874,
      "63": 3875,
      "aff": 3876,
      "of": 3877,
      "reu": 3878,
      "stone": 3879,
      "wright": 3880,
      "##bet": 3881,
      "##rit": 3882,
      "##fish": 3883,
      "##35": 3884,
      "sem": 3885,
      "phanh": 3886,
      "##onne": 3887,
      "canal": 3888,
      "moses": 3889,
      "##sha": 3890,
      "##rys": 3891,
      "##uda": 3892,
      "galile": 3893,
      "##bridge": 3894,
      "rajp": 3895,
      "generalizability": 3896,
      "fernando": 3897,
      "ginsburg": 3898,
      "alicante": 3899,
      "84": 3900,
      "##bson": 3901,
      "##uki": 3902,
      "##veland": 3903,
      "madel": 3904,
      "kells": 3905,
      "loire": 3906,
      "nebr": 3907,
      "##ander": 3908,
      "##lion": 3909,
      "shi": 3910,
      "samurai": 3911,
      "gram": 3912,
      "univ": 3913,
      "##obe": 3914,
      "genova": 3915,
      "##iyre": 3916,
      "craw": 3917,
      "bowling": 3918,
      "kamakura": 3919,
      "strasbourg": 3920,
      "02": 3921,
      "jain": 3922,
      "nagas": 3923,
      "rit": 3924,
      "wan": 3925,
      "##lock": 3926,
      "##fig": 3927,
      "trot": 3928,
      "sev": 3929,
      "ral": 3930,
      "ganga": 3931,
      "marie": 3932,
      "gaz": 3933,
      "##oku": 3934,
      "##astic": 3935,
      "##anni": 3936,
      "bbq": 3937,
      "madeleine": 3938,
      "liem": 3939,
      "nash": 3940,
      "nav": 3941,
      "sky": 3942,
      "uso": 3943,
      "vanh": 3944,
      "##uff": 3945,
      "##wich": 3946,
      "cher": 3947,
      "caps": 3948,
      "marg": 3949,
      "2004": 3950,
      "##ables": 3951,
      "##enner": 3952,
      "##burger": 3953,
      "blum": 3954,
      "1975": 3955,
      "##trap": 3956,
      "kramen": 3957,
      "beatty": 3958,
      "stephanopou": 3959,
      "olympic": 3960,
      "rfp": 3961,
      "kramenin": 3962,
      "64": 3963,
      "cir": 3964,
      "pf": 3965,
      "##fel": 3966,
      "##zen": 3967,
      "treu": 3968,
      "##inja": 3969,
      "##apar": 3970,
      "##ark": 3971,
      "##arch": 3972,
      "##ason": 3973,
      "bum": 3974,
      "##ides": 3975,
      "grinned": 3976,
      "1981": 3977,
      "cru": 3978,
      "mint": 3979,
      "##banes": 3980,
      "wordsworth": 3981,
      "powell": 3982,
      "sorbent": 3983,
      "ig": 3984,
      "rain": 3985,
      "vot": 3986,
      "xon": 3987,
      "carav": 3988,
      "lav": 3989,
      "nghich": 3990,
      "mag": 3991,
      "##apolis": 3992,
      "##ilello": 3993,
      "ami": 3994,
      "##uration": 3995,
      "##ake": 3996,
      "hamil": 3997,
      "##ells": 3998,
      "##oka": 3999,
      "##law": 4000,
      "subia": 4001,
      "pompe": 4002,
      "##nheim": 4003,
      "univers": 4004,
      "350": 4005,
      "51": 4006,
      "jod": 4007,
      "kat": 4008,
      "zuc": 4009,
      "##bed": 4010,
      "##ste": 4011,
      "##rc": 4012,
      "##ram": 4013,
      "##nie": 4014,
      "##jman": 4015,
      "##ucher": 4016,
      "vec": 4017,
      "mafia": 4018,
      "giov": 4019,
      "taylor": 4020,
      "reese": 4021,
      "ngoat": 4022,
      "sha": 4023,
      "##uted": 4024,
      "salt": 4025,
      "1944": 4026,
      "##form": 4027,
      "wolfe": 4028,
      "jefferson": 4029,
      "tuscany": 4030,
      "tudjman": 4031,
      "zealand": 4032,
      "56": 4033,
      "74": 4034,
      "bed": 4035,
      "iz": 4036,
      "let": 4037,
      "syn": 4038,
      "ud": 4039,
      "cafe": 4040,
      "holl": 4041,
      "sophia": 4042,
      "boy": 4043,
      "##erg": 4044,
      "##asse": 4045,
      "##ured": 4046,
      "alsace": 4047,
      "aud": 4048,
      "arm": 4049,
      "yorker": 4050,
      "##unded": 4051,
      "campbell": 4052,
      "burgundy": 4053,
      "nebraska": 4054,
      "kaz": 4055,
      "##say": 4056,
      "##sad": 4057,
      "##lu": 4058,
      "##gue": 4059,
      "maj": 4060,
      "##aper": 4061,
      "##use": 4062,
      "amer": 4063,
      "hamburger": 4064,
      "scul": 4065,
      "##solini": 4066,
      "mussolini": 4067,
      "norm": 4068,
      "cleveland": 4069,
      "nevada": 4070,
      "cit": 4071,
      "cli": 4072,
      "ft": 4073,
      "fre": 4074,
      "fenner": 4075,
      "hk": 4076,
      "##non": 4077,
      "##hor": 4078,
      "##part": 4079,
      "mad": 4080,
      "kef": 4081,
      "##aries": 4082,
      "##asu": 4083,
      "##iled": 4084,
      "##ury": 4085,
      "##agon": 4086,
      "##oper": 4087,
      "158": 4088,
      "palma": 4089,
      "##instein": 4090,
      "##ynes": 4091,
      "florent": 4092,
      "##ified": 4093,
      "stream": 4094,
      "aven": 4095,
      "farrak": 4096,
      "klein": 4097,
      "colonn": 4098,
      "gentilello": 4099,
      "italiane": 4100,
      "fin": 4101,
      "fwi": 4102,
      "pur": 4103,
      "rio": 4104,
      "wis": 4105,
      "##top": 4106,
      "##cta": 4107,
      "##etown": 4108,
      "##iner": 4109,
      "lane": 4110,
      "beck": 4111,
      "ghim": 4112,
      "##osa": 4113,
      "reh": 4114,
      "shal": 4115,
      "act": 4116,
      "gaulle": 4117,
      "morgan": 4118,
      "1929": 4119,
      "georgetown": 4120,
      "pollock": 4121,
      "##--------": 4122,
      "willie": 4123,
      "pokemon": 4124,
      "ethn": 4125,
      "##ification": 4126,
      "ipm": 4127,
      "diego": 4128,
      "nagasaki": 4129,
      "farrakhan": 4130,
      "ey": 4131,
      "inh": 4132,
      "pers": 4133,
      "##ray": 4134,
      "##mart": 4135,
      "##34": 4136,
      "##pro": 4137,
      "##jon": 4138,
      "nhts": 4139,
      "phiem": 4140,
      "##onso": 4141,
      "taj": 4142,
      "##icle": 4143,
      "##ohama": 4144,
      "##trus": 4145,
      "porte": 4146,
      "disneyland": 4147,
      "mills": 4148,
      "remsad": 4149,
      "pittsburgh": 4150,
      "farmworkers": 4151,
      "ely": 4152,
      "esc": 4153,
      "flex": 4154,
      "hard": 4155,
      "mr": 4156,
      "wo": 4157,
      "wy": 4158,
      "wto": 4159,
      "##ries": 4160,
      "##acc": 4161,
      "tur": 4162,
      "##ality": 4163,
      "lomb": 4164,
      "##isse": 4165,
      "##itan": 4166,
      "stua": 4167,
      "##aho": 4168,
      "##emor": 4169,
      "140": 4170,
      "express": 4171,
      "cros": 4172,
      "walker": 4173,
      "garland": 4174,
      "yadda": 4175,
      "governmentwide": 4176,
      "pompeii": 4177,
      "fac": 4178,
      "gut": 4179,
      "had": 4180,
      "sit": 4181,
      "yo": 4182,
      "##oint": 4183,
      "##ance": 4184,
      "##aud": 4185,
      "baker": 4186,
      "##rah": 4187,
      "stro": 4188,
      "##adem": 4189,
      "nancy": 4190,
      "##stal": 4191,
      "##ution": 4192,
      "##keep": 4193,
      "##athan": 4194,
      "enc": 4195,
      "merr": 4196,
      "montana": 4197,
      "##swick": 4198,
      "franciscan": 4199,
      "hmos": 4200,
      "multip": 4201,
      "schumer": 4202,
      "barbara": 4203,
      "abdul": 4204,
      "ventura": 4205,
      "rajput": 4206,
      "nhtsa": 4207,
      "fir": 4208,
      "kend": 4209,
      "krist": 4210,
      "##aa": 4211,
      "##ump": 4212,
      "##aise": 4213,
      "lump": 4214,
      "rod": 4215,
      "##outh": 4216,
      "ngop": 4217,
      "algar": 4218,
      "##opy": 4219,
      "barcel": 4220,
      "172": 4221,
      "proser": 4222,
      "craig": 4223,
      "1964": 4224,
      "laser": 4225,
      "oxley": 4226,
      "arafat": 4227,
      "petit": 4228,
      "constantine": 4229,
      "pavil": 4230,
      "douglas": 4231,
      "yokohama": 4232,
      "denn": 4233,
      "pto": 4234,
      "zero": 4235,
      "##sis": 4236,
      "##vo": 4237,
      "maz": 4238,
      "santor": 4239,
      "##elyn": 4240,
      "amato": 4241,
      "transe": 4242,
      "##lining": 4243,
      "ref": 4244,
      "101": 4245,
      "##ower": 4246,
      "whip": 4247,
      "perug": 4248,
      "##ouses": 4249,
      "1945": 4250,
      "byzan": 4251,
      "guitar": 4252,
      "warren": 4253,
      "330": 4254,
      "bowl": 4255,
      "commemor": 4256,
      "afghanistan": 4257,
      "stuart": 4258,
      "byzantine": 4259,
      "fil": 4260,
      "kor": 4261,
      "##ax": 4262,
      "##nell": 4263,
      "##water": 4264,
      "tret": 4265,
      "khanh": 4266,
      "##icut": 4267,
      "virus": 4268,
      "kel": 4269,
      "anna": 4270,
      "hecta": 4271,
      "mep": 4272,
      "##usa": 4273,
      "##room": 4274,
      "ruot": 4275,
      "reims": 4276,
      "hatch": 4277,
      "franco": 4278,
      "1985": 4279,
      "1972": 4280,
      "karn": 4281,
      "kenneth": 4282,
      "titan": 4283,
      "decis": 4284,
      "montego": 4285,
      "savoy": 4286,
      "khuynh": 4287,
      "linux": 4288,
      "temple": 4289,
      "yankees": 4290,
      "##consin": 4291,
      "landscaped": 4292,
      "zucker": 4293,
      "giovanni": 4294,
      "wisconsin": 4295,
      "aba": 4296,
      "##nam": 4297,
      "##vi": 4298,
      "##onos": 4299,
      "keswick": 4300,
      "##iston": 4301,
      "lucas": 4302,
      "159": 4303,
      "steele": 4304,
      "delos": 4305,
      "cocaine": 4306,
      "borne": 4307,
      "riviera": 4308,
      "balearic": 4309,
      "lumpur": 4310,
      "dj": 4311,
      "nit": 4312,
      "overs": 4313,
      "##far": 4314,
      "##75": 4315,
      "##pper": 4316,
      "##eus": 4317,
      "billy": 4318,
      "cano": 4319,
      "##oria": 4320,
      "##alt": 4321,
      "##eled": 4322,
      "def": 4323,
      "##rome": 4324,
      "amar": 4325,
      "remb": 4326,
      "catal": 4327,
      "shog": 4328,
      "##cept": 4329,
      "isikoff": 4330,
      "tiber": 4331,
      "##ather": 4332,
      "##bury": 4333,
      "##ogne": 4334,
      "604": 4335,
      "1968": 4336,
      "grey": 4337,
      "frie": 4338,
      "panthe": 4339,
      "murd": 4340,
      "##ways": 4341,
      "horus": 4342,
      "connell": 4343,
      "trinity": 4344,
      "gorb": 4345,
      "##enthal": 4346,
      "##roit": 4347,
      "stephanopoulos": 4348,
      "algarve": 4349,
      "shogun": 4350,
      "oas": 4351,
      "##hes": 4352,
      "tak": 4353,
      "soho": 4354,
      "##imin": 4355,
      "leith": 4356,
      "logg": 4357,
      "lun": 4358,
      "camii": 4359,
      "##asth": 4360,
      "voucher": 4361,
      "##ili": 4362,
      "##ardt": 4363,
      "##thy": 4364,
      "##izz": 4365,
      "aut": 4366,
      "##ffman": 4367,
      "122": 4368,
      "166": 4369,
      "nathan": 4370,
      "##ender": 4371,
      "spec": 4372,
      "clos": 4373,
      "minar": 4374,
      "##econom": 4375,
      "evelyn": 4376,
      "kentuckian": 4377,
      "##achev": 4378,
      "caleornia": 4379,
      "##market": 4380,
      "brooklyn": 4381,
      "gorbachev": 4382,
      "gwe": 4383,
      "kay": 4384,
      "##kie": 4385,
      "##sel": 4386,
      "##uit": 4387,
      "##low": 4388,
      "##ced": 4389,
      "gigot": 4390,
      "quint": 4391,
      "kevin": 4392,
      "matt": 4393,
      "lex": 4394,
      "deb": 4395,
      "##chester": 4396,
      "bey": 4397,
      "chem": 4398,
      "##agin": 4399,
      "##ages": 4400,
      "blm": 4401,
      "##saw": 4402,
      "##plic": 4403,
      "resort": 4404,
      "christian": 4405,
      "dowd": 4406,
      "torrent": 4407,
      "mughal": 4408,
      "wayne": 4409,
      "avenger": 4410,
      "jardin": 4411,
      "kabuki": 4412,
      "mehmet": 4413,
      "borneo": 4414,
      "450": 4415,
      "94": 4416,
      "fau": 4417,
      "nc": 4418,
      "rip": 4419,
      "ts": 4420,
      "ure": 4421,
      "##shu": 4422,
      "tad": 4423,
      "matisse": 4424,
      "tech": 4425,
      "##eling": 4426,
      "mart": 4427,
      "##ionist": 4428,
      "##ems": 4429,
      "173": 4430,
      "118": 4431,
      "##acks": 4432,
      "##antan": 4433,
      "osi": 4434,
      "detroit": 4435,
      "vermont": 4436,
      "murphy": 4437,
      "lisa": 4438,
      "solicited": 4439,
      "minoan": 4440,
      "philippines": 4441,
      "##figuration": 4442,
      "multipoll": 4443,
      "81": 4444,
      "dia": 4445,
      "etrus": 4446,
      "##cia": 4447,
      "##fts": 4448,
      "##yre": 4449,
      "cod": 4450,
      "##ame": 4451,
      "đoat": 4452,
      "thebes": 4453,
      "boul": 4454,
      "connect": 4455,
      "##lehem": 4456,
      "homer": 4457,
      "##agar": 4458,
      "##ival": 4459,
      "barth": 4460,
      "##vey": 4461,
      "abb": 4462,
      "xiii": 4463,
      "401": 4464,
      "ferr": 4465,
      "##uku": 4466,
      "pollutant": 4467,
      "sabah": 4468,
      "##eurs": 4469,
      "apollo": 4470,
      "phoenix": 4471,
      "bethlehem": 4472,
      "##keeping": 4473,
      "multipollutant": 4474,
      "connecticut": 4475,
      "cpa": 4476,
      "ill": 4477,
      "ninja": 4478,
      "ric": 4479,
      "zar": 4480,
      "##bly": 4481,
      "##tit": 4482,
      "##mund": 4483,
      "##nik": 4484,
      "##etto": 4485,
      "master": 4486,
      "duke": 4487,
      "##achi": 4488,
      "##ited": 4489,
      "##terman": 4490,
      "newt": 4491,
      "##beria": 4492,
      "##stit": 4493,
      "acro": 4494,
      "griff": 4495,
      "prop": 4496,
      "pred": 4497,
      "110": 4498,
      "harry": 4499,
      "1934": 4500,
      "##sert": 4501,
      "warsaw": 4502,
      "muller": 4503,
      "pitre": 4504,
      "poker": 4505,
      "##waite": 4506,
      "flemish": 4507,
      "murdoch": 4508,
      "das": 4509,
      "oct": 4510,
      "pico": 4511,
      "tet": 4512,
      "zen": 4513,
      "##day": 4514,
      "##ike": 4515,
      "##side": 4516,
      "##fico": 4517,
      "##via": 4518,
      "##200": 4519,
      "##jah": 4520,
      "matthe": 4521,
      "maison": 4522,
      "buck": 4523,
      "chech": 4524,
      "##oun": 4525,
      "##ados": 4526,
      "205": 4527,
      "hamlet": 4528,
      "155": 4529,
      "byz": 4530,
      "verd": 4531,
      "imper": 4532,
      "burton": 4533,
      "germ": 4534,
      "morrison": 4535,
      "##uchia": 4536,
      "campuchia": 4537,
      "record": 4538,
      "sarbanes": 4539,
      "adams": 4540,
      "flytrap": 4541,
      "tutank": 4542,
      "vecchio": 4543,
      "pantheon": 4544,
      "octagon": 4545,
      "fh": 4546,
      "fol": 4547,
      "kiep": 4548,
      "winn": 4549,
      "##bl": 4550,
      "##bia": 4551,
      "##eff": 4552,
      "##kn": 4553,
      "##kak": 4554,
      "##house": 4555,
      "thur": 4556,
      "##amp": 4557,
      "##etan": 4558,
      "##uck": 4559,
      "vis": 4560,
      "ville": 4561,
      "##esi": 4562,
      "leban": 4563,
      "##isc": 4564,
      "bagh": 4565,
      "##ushu": 4566,
      "ster": 4567,
      "##oss": 4568,
      "##berman": 4569,
      "##ives": 4570,
      "164": 4571,
      "carn": 4572,
      "carth": 4573,
      "##azon": 4574,
      "wilde": 4575,
      "1976": 4576,
      "disco": 4577,
      "miles": 4578,
      "gene": 4579,
      "rajasth": 4580,
      "pm2": 4581,
      "ryan": 4582,
      "bernini": 4583,
      "khuyu": 4584,
      "mortg": 4585,
      "bartolome": 4586,
      "bombay": 4587,
      "cruise": 4588,
      "lebanon": 4589,
      "fitz": 4590,
      "nba": 4591,
      "opra": 4592,
      "wes": 4593,
      "##eng": 4594,
      "##rale": 4595,
      "##fu": 4596,
      "##25": 4597,
      "##oin": 4598,
      "troc": 4599,
      "seine": 4600,
      "hol": 4601,
      "nora": 4602,
      "tow": 4603,
      "boong": 4604,
      "bobb": 4605,
      "##erie": 4606,
      "##ori": 4607,
      "teod": 4608,
      "##ila": 4609,
      "emer": 4610,
      "##verly": 4611,
      "##burn": 4612,
      "##udge": 4613,
      "##ifer": 4614,
      "##ency": 4615,
      "simp": 4616,
      "oxy": 4617,
      "clark": 4618,
      "betty": 4619,
      "kiosks": 4620,
      "cyclades": 4621,
      "ralph": 4622,
      "tutankham": 4623,
      "oprah": 4624,
      "asc": 4625,
      "cv": 4626,
      "cran": 4627,
      "glor": 4628,
      "hale": 4629,
      "nick": 4630,
      "sien": 4631,
      "xen": 4632,
      "##dal": 4633,
      "##cut": 4634,
      "cali": 4635,
      "cass": 4636,
      "seu": 4637,
      "hoffman": 4638,
      "tul": 4639,
      "truu": 4640,
      "##lemy": 4641,
      "tone": 4642,
      "dijon": 4643,
      "prim": 4644,
      "119": 4645,
      "##icket": 4646,
      "wilkins": 4647,
      "##arten": 4648,
      "lsny": 4649,
      "courbet": 4650,
      "##hru": 4651,
      "ehfico": 4652,
      "##randt": 4653,
      "ptolemy": 4654,
      "rembrandt": 4655,
      "clip": 4656,
      "fu": 4657,
      "fen": 4658,
      "kag": 4659,
      "osha": 4660,
      "pied": 4661,
      "voc": 4662,
      "yale": 4663,
      "##mat": 4664,
      "##gli": 4665,
      "##fect": 4666,
      "##wara": 4667,
      "lach": 4668,
      "##ienne": 4669,
      "##amat": 4670,
      "mae": 4671,
      "toy": 4672,
      "cult": 4673,
      "kyushu": 4674,
      "keynes": 4675,
      "tina": 4676,
      "bailey": 4677,
      "daw": 4678,
      "amy": 4679,
      "stat": 4680,
      "bonapar": 4681,
      "aldon": 4682,
      "##oph": 4683,
      "##llen": 4684,
      "##ennial": 4685,
      "priv": 4686,
      "abu": 4687,
      "dissa": 4688,
      "morrow": 4689,
      "crom": 4690,
      "##ences": 4691,
      "klay": 4692,
      "##itarian": 4693,
      "russert": 4694,
      "sherman": 4695,
      "##minster": 4696,
      "simpson": 4697,
      "bonaparte": 4698,
      "aldonka": 4699,
      "dhs": 4700,
      "eb": 4701,
      "rinh": 4702,
      "##lers": 4703,
      "##nc": 4704,
      "##pay": 4705,
      "##ots": 4706,
      "##ened": 4707,
      "vienna": 4708,
      "led": 4709,
      "tucker": 4710,
      "stu": 4711,
      "##thor": 4712,
      "shr": 4713,
      "carr": 4714,
      "##sses": 4715,
      "##antium": 4716,
      "salv": 4717,
      "1947": 4718,
      "dereg": 4719,
      "##ukk": 4720,
      "transept": 4721,
      "byzantium": 4722,
      "germain": 4723,
      "fhwa": 4724,
      "teodoro": 4725,
      "klayman": 4726,
      "eug": 4727,
      "pall": 4728,
      "##kel": 4729,
      "##cise": 4730,
      "##nch": 4731,
      "##gic": 4732,
      "##anne": 4733,
      "##uard": 4734,
      "dos": 4735,
      "##isi": 4736,
      "baza": 4737,
      "##eda": 4738,
      "##iveness": 4739,
      "##kee": 4740,
      "outs": 4741,
      "1952": 4742,
      "satheri": 4743,
      "murray": 4744,
      "1868": 4745,
      "workshared": 4746,
      "sandwich": 4747,
      "unfunded": 4748,
      "hughes": 4749,
      "reconfiguration": 4750,
      "glassware": 4751,
      "sarawak": 4752,
      "foreclos": 4753,
      "decision": 4754,
      "ast": 4755,
      "hes": 4756,
      "##sburg": 4757,
      "##cast": 4758,
      "##ni": 4759,
      "##nia": 4760,
      "##fan": 4761,
      "solo": 4762,
      "key": 4763,
      "anat": 4764,
      "air": 4765,
      "deo": 4766,
      "macro": 4767,
      "##izer": 4768,
      "aux": 4769,
      "arte": 4770,
      "brian": 4771,
      "blues": 4772,
      "mormon": 4773,
      "lotus": 4774,
      "evie": 4775,
      "##comp": 4776,
      "bourbon": 4777,
      "philippe": 4778,
      "bernard": 4779,
      "balearics": 4780,
      "policymakers": 4781,
      "cowley": 4782,
      "tutankhamun": 4783,
      "ale": 4784,
      "fow": 4785,
      "pil": 4786,
      "une": 4787,
      "##dson": 4788,
      "##more": 4789,
      "co2": 4790,
      "phich": 4791,
      "tuil": 4792,
      "mali": 4793,
      "andy": 4794,
      "haifa": 4795,
      "danvers": 4796,
      "giuliani": 4797,
      "##asi": 4798,
      "benid": 4799,
      "road": 4800,
      "lana": 4801,
      "##ching": 4802,
      "amen": 4803,
      "##ough": 4804,
      "state": 4805,
      "cathed": 4806,
      "brun": 4807,
      "605": 4808,
      "##loyd": 4809,
      "offs": 4810,
      "lsm": 4811,
      "pollard": 4812,
      "##ignon": 4813,
      "556": 4814,
      "foot": 4815,
      "galleria": 4816,
      "##aggio": 4817,
      "contrasts": 4818,
      "arlington": 4819,
      "galilee": 4820,
      "recordkeeping": 4821,
      "fowler": 4822,
      "ced": 4823,
      "diep": 4824,
      "ent": 4825,
      "hid": 4826,
      "hist": 4827,
      "kid": 4828,
      "mls": 4829,
      "pam": 4830,
      "pes": 4831,
      "past": 4832,
      "yam": 4833,
      "##oke": 4834,
      "##tm": 4835,
      "##nard": 4836,
      "##var": 4837,
      "##ayed": 4838,
      "huou": 4839,
      "rosen": 4840,
      "trailer": 4841,
      "amon": 4842,
      "##reg": 4843,
      "##ader": 4844,
      "hyd": 4845,
      "armen": 4846,
      "unp": 4847,
      "mckin": 4848,
      "clay": 4849,
      "1979": 4850,
      "1978": 4851,
      "1966": 4852,
      "##bbish": 4853,
      "greg": 4854,
      "evans": 4855,
      "mccar": 4856,
      "antoni": 4857,
      "loral": 4858,
      "##ancial": 4859,
      "efficiencies": 4860,
      "muttered": 4861,
      "andrea": 4862,
      "crystal": 4863,
      "barcelona": 4864,
      "dissaving": 4865,
      "tuileries": 4866,
      "armenia": 4867,
      "750": 4868,
      "87": 4869,
      "86": 4870,
      "bast": 4871,
      "gn": 4872,
      "iey": 4873,
      "sf": 4874,
      "sz": 4875,
      "uk": 4876,
      "vie": 4877,
      "##ea": 4878,
      "##ku": 4879,
      "##fri": 4880,
      "tun": 4881,
      "chios": 4882,
      "khuan": 4883,
      "hur": 4884,
      "benedic": 4885,
      "beverly": 4886,
      "amazon": 4887,
      "sid": 4888,
      "##reen": 4889,
      "infl": 4890,
      "jonathan": 4891,
      "##ista": 4892,
      "154": 4893,
      "arn": 4894,
      "##ether": 4895,
      "163": 4896,
      "##quer": 4897,
      "palm": 4898,
      "##ainer": 4899,
      "##tors": 4900,
      "indig": 4901,
      "##ction": 4902,
      "##alization": 4903,
      "eric": 4904,
      "##renees": 4905,
      "##wait": 4906,
      "niche": 4907,
      "kuwait": 4908,
      "himalayas": 4909,
      "pyrenees": 4910,
      "outlays": 4911,
      "rochester": 4912,
      "sevilla": 4913,
      "sculpt": 4914,
      "ethnograph": 4915,
      "ieyasu": 4916,
      "512": 4917,
      "einstein": 4918,
      "jus": 4919,
      "lid": 4920,
      "ori": 4921,
      "uon": 4922,
      "yu": 4923,
      "##nath": 4924,
      "##vens": 4925,
      "##jab": 4926,
      "cost": 4927,
      "gill": 4928,
      "bird": 4929,
      "saudi": 4930,
      "heav": 4931,
      "bec": 4932,
      "##leg": 4933,
      "##leiman": 4934,
      "##ree": 4935,
      "chevy": 4936,
      "myk": 4937,
      "marx": 4938,
      "##ths": 4939,
      "##shaw": 4940,
      "gras": 4941,
      "##pha": 4942,
      "brink": 4943,
      "1965": 4944,
      "jacks": 4945,
      "1871": 4946,
      "ashoka": 4947,
      "ballet": 4948,
      "goldberg": 4949,
      "dylan": 4950,
      "cromwell": 4951,
      "gy": 4952,
      "hiv": 4953,
      "yue": 4954,
      "##tus": 4955,
      "##lie": 4956,
      "##rest": 4957,
      "##gam": 4958,
      "##fus": 4959,
      "##path": 4960,
      "##vos": 4961,
      "##22": 4962,
      "cobb": 4963,
      "##ensees": 4964,
      "##acio": 4965,
      "##icia": 4966,
      "##eum": 4967,
      "roll": 4968,
      "reo": 4969,
      "real": 4970,
      "##oles": 4971,
      "marina": 4972,
      "2007": 4973,
      "##ented": 4974,
      "183": 4975,
      "##dea": 4976,
      "1600": 4977,
      "edit": 4978,
      "blair": 4979,
      "berns": 4980,
      "perak": 4981,
      "irak": 4982,
      "maxim": 4983,
      "licensees": 4984,
      "##mosis": 4985,
      "brandon": 4986,
      "octagonal": 4987,
      "mccarthy": 4988,
      "mykonos": 4989,
      "xuoc": 4990,
      "##eing": 4991,
      "##ski": 4992,
      "##lise": 4993,
      "##cro": 4994,
      "##anta": 4995,
      "carey": 4996,
      "cand": 4997,
      "canopy": 4998,
      "##ored": 4999,
      "##orde": 5000,
      "##eless": 5001,
      "##sex": 5002,
      "##llo": 5003,
      "##quit": 5004,
      "metrop": 5005,
      "spiel": 5006,
      "venus": 5007,
      "##issions": 5008,
      "sonora": 5009,
      "martini": 5010,
      "admin": 5011,
      "1922": 5012,
      "1936": 5013,
      "1917": 5014,
      "1890": 5015,
      "creole": 5016,
      "pomp": 5017,
      "container": 5018,
      "##relink": 5019,
      "centrelink": 5020,
      "concorde": 5021,
      "punjab": 5022,
      "goodman": 5023,
      "##oshima": 5024,
      "bronx": 5025,
      "capitol": 5026,
      "lalley": 5027,
      "anatolia": 5028,
      "cathedrale": 5029,
      "brinkley": 5030,
      "iraklion": 5031,
      "spielberg": 5032,
      "nl": 5033,
      "sier": 5034,
      "zip": 5035,
      "##fc": 5036,
      "##pend": 5037,
      "##port": 5038,
      "##vara": 5039,
      "cabin": 5040,
      "##ately": 5041,
      "##edes": 5042,
      "trek": 5043,
      "##ild": 5044,
      "neg": 5045,
      "dayton": 5046,
      "##ident": 5047,
      "##uram": 5048,
      "##temp": 5049,
      "scu": 5050,
      "muot": 5051,
      "126": 5052,
      "grace": 5053,
      "unl": 5054,
      "blow": 5055,
      "elastic": 5056,
      "##rise": 5057,
      "end": 5058,
      "##master": 5059,
      "##etting": 5060,
      "sinatra": 5061,
      "kirk": 5062,
      "##ible": 5063,
      "rivers": 5064,
      "gerald": 5065,
      "horton": 5066,
      "silic": 5067,
      "valenc": 5068,
      "ellison": 5069,
      "himalaya": 5070,
      "quinta": 5071,
      "griffith": 5072,
      "benidorm": 5073,
      "sierra": 5074,
      "76": 5075,
      "gie": 5076,
      "hak": 5077,
      "naz": 5078,
      "pel": 5079,
      "sard": 5080,
      "voth": 5081,
      "wick": 5082,
      "##bit": 5083,
      "##nic": 5084,
      "cos": 5085,
      "coll": 5086,
      "suleiman": 5087,
      "sofa": 5088,
      "bip": 5089,
      "dana": 5090,
      "##elly": 5091,
      "bah": 5092,
      "##iago": 5093,
      "meiji": 5094,
      "##omin": 5095,
      "##elles": 5096,
      "165": 5097,
      "isa": 5098,
      "isab": 5099,
      "##leside": 5100,
      "##quez": 5101,
      "mcl": 5102,
      "##othy": 5103,
      "berlin": 5104,
      "##plan": 5105,
      "freder": 5106,
      "hilltop": 5107,
      "hercul": 5108,
      "pepper": 5109,
      "montpar": 5110,
      "ivy": 5111,
      "massage": 5112,
      "malla": 5113,
      "ballmer": 5114,
      "ambleside": 5115,
      "dennis": 5116,
      "rajasthan": 5117,
      "toyota": 5118,
      "bernstein": 5119,
      "montparn": 5120,
      "53": 5121,
      "bry": 5122,
      "ful": 5123,
      "hipp": 5124,
      "kod": 5125,
      "nac": 5126,
      "pod": 5127,
      "wach": 5128,
      "##dge": 5129,
      "##til": 5130,
      "##ru": 5131,
      "##mod": 5132,
      "##went": 5133,
      "##von": 5134,
      "sever": 5135,
      "sulli": 5136,
      "##eux": 5137,
      "hudson": 5138,
      "nebbish": 5139,
      "buzz": 5140,
      "##lian": 5141,
      "##ophis": 5142,
      "177": 5143,
      "cart": 5144,
      "brac": 5145,
      "1977": 5146,
      "ribe": 5147,
      "1969": 5148,
      "##tif": 5149,
      "##works": 5150,
      "arched": 5151,
      "counter": 5152,
      "drudge": 5153,
      "stanley": 5154,
      "rouen": 5155,
      "judith": 5156,
      "jfk": 5157,
      "blanca": 5158,
      "marshall": 5159,
      "kristol": 5160,
      "macroeconom": 5161,
      "ade": 5162,
      "aqua": 5163,
      "cp": 5164,
      "cbs": 5165,
      "jai": 5166,
      "jol": 5167,
      "lie": 5168,
      "nag": 5169,
      "ple": 5170,
      "##aj": 5171,
      "cooper": 5172,
      "magg": 5173,
      "##euil": 5174,
      "helm": 5175,
      "beaux": 5176,
      "##ersen": 5177,
      "marath": 5178,
      "##omet": 5179,
      "##akusa": 5180,
      "muham": 5181,
      "samuel": 5182,
      "gray": 5183,
      "##estic": 5184,
      "malcol": 5185,
      "huang": 5186,
      "##tyle": 5187,
      "cockt": 5188,
      "complex": 5189,
      "carol": 5190,
      "##alizing": 5191,
      "##aido": 5192,
      "prudence": 5193,
      "creek": 5194,
      "faa": 5195,
      "groves": 5196,
      "manning": 5197,
      "fasab": 5198,
      "boomers": 5199,
      "caravaggio": 5200,
      "##oints": 5201,
      "karnak": 5202,
      "montparnasse": 5203,
      "malcolm": 5204,
      "cocktail": 5205,
      "cite": 5206,
      "glo": 5207,
      "mg": 5208,
      "wr": 5209,
      "##sid": 5210,
      "##tu": 5211,
      "##lus": 5212,
      "##ras": 5213,
      "##mi": 5214,
      "##chu": 5215,
      "##ieux": 5216,
      "noel": 5217,
      "##aume": 5218,
      "trib": 5219,
      "##edi": 5220,
      "##inge": 5221,
      "##lide": 5222,
      "##tery": 5223,
      "montr": 5224,
      "marse": 5225,
      "hypos": 5226,
      "alf": 5227,
      "quayle": 5228,
      "##eman": 5229,
      "##ements": 5230,
      "suyt": 5231,
      "1200": 5232,
      "eds": 5233,
      "115": 5234,
      "spe": 5235,
      "##ovia": 5236,
      "enron": 5237,
      "great": 5238,
      "must": 5239,
      "adj": 5240,
      "agra": 5241,
      "##ggy": 5242,
      "lsfo": 5243,
      "craft": 5244,
      "santiago": 5245,
      "##dgers": 5246,
      "darje": 5247,
      "eglise": 5248,
      "hadrian": 5249,
      "isaac": 5250,
      "hypostyle": 5251,
      "darjeeling": 5252,
      "has": 5253,
      "ji": 5254,
      "tc": 5255,
      "xot": 5256,
      "##of": 5257,
      "##zes": 5258,
      "##23": 5259,
      "cosm": 5260,
      "tal": 5261,
      "quo": 5262,
      "conner": 5263,
      "##erford": 5264,
      "bois": 5265,
      "big": 5266,
      "##esh": 5267,
      "dolly": 5268,
      "low": 5269,
      "luk": 5270,
      "nehru": 5271,
      "##ouin": 5272,
      "##tering": 5273,
      "##ols": 5274,
      "ineff": 5275,
      "hyper": 5276,
      "##ards": 5277,
      "johor": 5278,
      "hungerford": 5279,
      "1700": 5280,
      "parc": 5281,
      "gond": 5282,
      "indian": 5283,
      "scheck": 5284,
      "montmart": 5285,
      "halles": 5286,
      "ferdin": 5287,
      "welles": 5288,
      "belle": 5289,
      "basil": 5290,
      "lakeland": 5291,
      "babylon": 5292,
      "##based": 5293,
      "marguer": 5294,
      "elysees": 5295,
      "zarco": 5296,
      "grasmere": 5297,
      "editorial": 5298,
      "pk": 5299,
      "pound": 5300,
      "ski": 5301,
      "ward": 5302,
      "##born": 5303,
      "##dar": 5304,
      "##nick": 5305,
      "##zi": 5306,
      "##zy": 5307,
      "##ayan": 5308,
      "##oni": 5309,
      "##inancial": 5310,
      "bohem": 5311,
      "##edonia": 5312,
      "dah": 5313,
      "##ilyn": 5314,
      "blanc": 5315,
      "cricket": 5316,
      "harlem": 5317,
      "peru": 5318,
      "milli": 5319,
      "derwent": 5320,
      "andersen": 5321,
      "popular": 5322,
      "##gged": 5323,
      "##ologists": 5324,
      "1919": 5325,
      "arawak": 5326,
      "oliver": 5327,
      "nassau": 5328,
      "whiskey": 5329,
      "malibu": 5330,
      "offsetting": 5331,
      "muhammad": 5332,
      "gara": 5333,
      "kannon": 5334,
      "nrc": 5335,
      "siet": 5336,
      "##iore": 5337,
      "##cott": 5338,
      "##fton": 5339,
      "cad": 5340,
      "##ayama": 5341,
      "church": 5342,
      "rav": 5343,
      "gogh": 5344,
      "##iti": 5345,
      "chuck": 5346,
      "amun": 5347,
      "##oshi": 5348,
      "manchester": 5349,
      "##oming": 5350,
      "157": 5351,
      "##....": 5352,
      "miami": 5353,
      "clinger": 5354,
      "enterp": 5355,
      "1941": 5356,
      "patan": 5357,
      "1923": 5358,
      "3000": 5359,
      "joan": 5360,
      "1955": 5361,
      "##caster": 5362,
      "serra": 5363,
      "butler": 5364,
      "291": 5365,
      "##crimin": 5366,
      "arcinas": 5367,
      "idaho": 5368,
      "grafton": 5369,
      "##luent": 5370,
      "avenida": 5371,
      "salvador": 5372,
      "fish": 5373,
      "ggd": 5374,
      "hab": 5375,
      "hagh": 5376,
      "kud": 5377,
      "##yle": 5378,
      "##aman": 5379,
      "##aps": 5380,
      "##arn": 5381,
      "hann": 5382,
      "manson": 5383,
      "##ids": 5384,
      "##ental": 5385,
      "##rans": 5386,
      "alaska": 5387,
      "judy": 5388,
      "##mbo": 5389,
      "##ashi": 5390,
      "brock": 5391,
      "proc": 5392,
      "prime": 5393,
      "clois": 5394,
      "harold": 5395,
      "exxon": 5396,
      "##mons": 5397,
      "scho": 5398,
      "croat": 5399,
      "aksa": 5400,
      "paseo": 5401,
      "antoi": 5402,
      "julia": 5403,
      "south": 5404,
      "blumenthal": 5405,
      "tadminster": 5406,
      "siena": 5407,
      "piedmont": 5408,
      "##ukkah": 5409,
      "mckinney": 5410,
      "sullivan": 5411,
      "gondola": 5412,
      "montmartre": 5413,
      "hilly": 5414,
      "jay": 5415,
      "mitchell": 5416,
      "noc": 5417,
      "ody": 5418,
      "pub": 5419,
      "sr": 5420,
      "wend": 5421,
      "##af": 5422,
      "##dic": 5423,
      "##kans": 5424,
      "##uous": 5425,
      "##has": 5426,
      "##yer": 5427,
      "##otam": 5428,
      "##ening": 5429,
      "lamar": 5430,
      "vun": 5431,
      "##orio": 5432,
      "gosh": 5433,
      "rogers": 5434,
      "##iting": 5435,
      "mec": 5436,
      "macedonia": 5437,
      "eman": 5438,
      "marilyn": 5439,
      "##ione": 5440,
      "##ula": 5441,
      "##lands": 5442,
      "127": 5443,
      "unins": 5444,
      "blue": 5445,
      "mile": 5446,
      "elche": 5447,
      "louisville": 5448,
      "2018": 5449,
      "pear": 5450,
      "broad": 5451,
      "nepdg": 5452,
      "lesvos": 5453,
      "nonfinancial": 5454,
      "waters": 5455,
      "jennings": 5456,
      "segovia": 5457,
      "florentine": 5458,
      "kendal": 5459,
      "santorini": 5460,
      "kagoshima": 5461,
      "hydro": 5462,
      "complexes": 5463,
      "haghia": 5464,
      "cim": 5465,
      "dal": 5466,
      "fid": 5467,
      "ling": 5468,
      "vieux": 5469,
      "xuoi": 5470,
      "##28": 5471,
      "hokk": 5472,
      "sop": 5473,
      "tox": 5474,
      "boud": 5475,
      "##ert": 5476,
      "kemp": 5477,
      "camer": 5478,
      "##rol": 5479,
      "##tern": 5480,
      "##tech": 5481,
      "alpha": 5482,
      "##opotam": 5483,
      "autor": 5484,
      "174": 5485,
      "texoma": 5486,
      "##pher": 5487,
      "uncon": 5488,
      "138": 5489,
      "135": 5490,
      "1973": 5491,
      "hawk": 5492,
      "georges": 5493,
      "puerta": 5494,
      "shuger": 5495,
      "stevenson": 5496,
      "##boro": 5497,
      "ellen": 5498,
      "donaldson": 5499,
      "theodore": 5500,
      "majestic": 5501,
      "loggia": 5502,
      "matthew": 5503,
      "carthagin": 5504,
      "kodak": 5505,
      "ferdinand": 5506,
      "hokkaido": 5507,
      "91": 5508,
      "brew": 5509,
      "fon": 5510,
      "gul": 5511,
      "hagg": 5512,
      "ris": 5513,
      "rider": 5514,
      "xop": 5515,
      "##ihan": 5516,
      "##kan": 5517,
      "##rice": 5518,
      "##raine": 5519,
      "##ming": 5520,
      "##yll": 5521,
      "##vie": 5522,
      "##jima": 5523,
      "##xt": 5524,
      "talm": 5525,
      "##etz": 5526,
      "dur": 5527,
      "cons": 5528,
      "bing": 5529,
      "leh": 5530,
      "moyn": 5531,
      "hanukkah": 5532,
      "ruth": 5533,
      "##rag": 5534,
      "##ebo": 5535,
      "##ioned": 5536,
      "##abor": 5537,
      "##istically": 5538,
      "arche": 5539,
      "139": 5540,
      "click": 5541,
      "aga": 5542,
      "flash": 5543,
      "##uez": 5544,
      "overh": 5545,
      "butter": 5546,
      "cyber": 5547,
      "knox": 5548,
      "litva": 5549,
      "pedro": 5550,
      "tarzan": 5551,
      "crawfish": 5552,
      "specul": 5553,
      "emerald": 5554,
      "amenophis": 5555,
      "cobbled": 5556,
      "frederick": 5557,
      "moynihan": 5558,
      "get": 5559,
      "kobe": 5560,
      "pay": 5561,
      "ruong": 5562,
      "rest": 5563,
      "##dad": 5564,
      "##tapur": 5565,
      "##ried": 5566,
      "##mig": 5567,
      "##mip": 5568,
      "##ning": 5569,
      "##yan": 5570,
      "##wall": 5571,
      "cadd": 5572,
      "var": 5573,
      "gil": 5574,
      "giza": 5575,
      "##aint": 5576,
      "quantit": 5577,
      "xeng": 5578,
      "cambridge": 5579,
      "##elieu": 5580,
      "row": 5581,
      "roger": 5582,
      "sikh": 5583,
      "reilly": 5584,
      "ngoac": 5585,
      "##aktapur": 5586,
      "gaoas": 5587,
      "##agua": 5588,
      "##leyman": 5589,
      "colom": 5590,
      "colum": 5591,
      "mailers": 5592,
      "perennial": 5593,
      "jeep": 5594,
      "richelieu": 5595,
      "##ially": 5596,
      "##alized": 5597,
      "##ibility": 5598,
      "etienne": 5599,
      "##ropri": 5600,
      "studios": 5601,
      "giotto": 5602,
      "copd": 5603,
      "sharon": 5604,
      "bhaktapur": 5605,
      "##classes": 5606,
      "gutenberg": 5607,
      "verdant": 5608,
      "marguerite": 5609,
      "fann": 5610,
      "fair": 5611,
      "gw": 5612,
      "ie": 5613,
      "ide": 5614,
      "iberia": 5615,
      "joc": 5616,
      "vcr": 5617,
      "##eves": 5618,
      "##iation": 5619,
      "##rich": 5620,
      "##gore": 5621,
      "varan": 5622,
      "hoanh": 5623,
      "##aca": 5624,
      "##amud": 5625,
      "sulf": 5626,
      "vitt": 5627,
      "canvas": 5628,
      "##aria": 5629,
      "##outs": 5630,
      "champs": 5631,
      "emissions": 5632,
      "##aha": 5633,
      "##adi": 5634,
      "##iant": 5635,
      "prc": 5636,
      "##endo": 5637,
      "mix": 5638,
      "collins": 5639,
      "##plant": 5640,
      "jew": 5641,
      "terry": 5642,
      "arches": 5643,
      "##ochet": 5644,
      "portico": 5645,
      "12866": 5646,
      "jfmip": 5647,
      "##opolitan": 5648,
      "gloria": 5649,
      "indigent": 5650,
      "cosmopolitan": 5651,
      "enterprise": 5652,
      "varanasi": 5653,
      "pack": 5654,
      "rica": 5655,
      "test": 5656,
      "##dol": 5657,
      "##sell": 5658,
      "##ugh": 5659,
      "##rith": 5660,
      "##anor": 5661,
      "##ieg": 5662,
      "coch": 5663,
      "##ener": 5664,
      "##acter": 5665,
      "##aob": 5666,
      "maro": 5667,
      "bod": 5668,
      "dukak": 5669,
      "confer": 5670,
      "sante": 5671,
      "##esc": 5672,
      "moz": 5673,
      "giun": 5674,
      "rodin": 5675,
      "lance": 5676,
      "##rec": 5677,
      "##osses": 5678,
      "acre": 5679,
      "ephes": 5680,
      "judea": 5681,
      "167": 5682,
      "##irac": 5683,
      "raptor": 5684,
      "sports": 5685,
      "cruz": 5686,
      "colle": 5687,
      "polo": 5688,
      "orn": 5689,
      "orrin": 5690,
      "wales": 5691,
      "1939": 5692,
      "forrest": 5693,
      "impress": 5694,
      "##lenborn": 5695,
      "erlenborn": 5696,
      "penrith": 5697,
      "##comm": 5698,
      "livel": 5699,
      "eleanor": 5700,
      "tutmosis": 5701,
      "espn": 5702,
      "pcaob": 5703,
      "pulitzer": 5704,
      "##feld": 5705,
      "decisionmaking": 5706,
      "amoniac": 5707,
      "maroon": 5708,
      "dukakis": 5709,
      "ephesus": 5710,
      "83": 5711,
      "brant": 5712,
      "cites": 5713,
      "jen": 5714,
      "kiss": 5715,
      "mm": 5716,
      "nas": 5717,
      "##sing": 5718,
      "##gro": 5719,
      "##pers": 5720,
      "laz": 5721,
      "chlor": 5722,
      "##iens": 5723,
      "##acy": 5724,
      "##ape": 5725,
      "visc": 5726,
      "viii": 5727,
      "##acha": 5728,
      "danny": 5729,
      "helen": 5730,
      "##chrome": 5731,
      "diane": 5732,
      "##ands": 5733,
      "huyt": 5734,
      "##opia": 5735,
      "hungary": 5736,
      "acid": 5737,
      "##sher": 5738,
      "brit": 5739,
      "1971": 5740,
      "##boats": 5741,
      "##psut": 5742,
      "##encies": 5743,
      "subclasses": 5744,
      "702": 5745,
      "teresa": 5746,
      "avid": 5747,
      "overpay": 5748,
      "lorraine": 5749,
      "juanito": 5750,
      "sumatra": 5751,
      "polychrome": 5752,
      "sitcom": 5753,
      "firth": 5754,
      "titanic": 5755,
      "thurmond": 5756,
      "rosenberg": 5757,
      "elasticities": 5758,
      "marseilles": 5759,
      "talmud": 5760,
      "kissinger": 5761,
      "gung": 5762,
      "lil": 5763,
      "##oa": 5764,
      "##over": 5765,
      "##mouth": 5766,
      "##nbc": 5767,
      "sean": 5768,
      "turin": 5769,
      "##ones": 5770,
      "##amo": 5771,
      "suyen": 5772,
      "toob": 5773,
      "bos": 5774,
      "##ermo": 5775,
      "bias": 5776,
      "##alo": 5777,
      "##alities": 5778,
      "##elm": 5779,
      "bench": 5780,
      "rous": 5781,
      "tanf": 5782,
      "##olds": 5783,
      "marc": 5784,
      "##ional": 5785,
      "##ento": 5786,
      "##rano": 5787,
      "ship": 5788,
      "##abal": 5789,
      "oira": 5790,
      "##uting": 5791,
      "##ested": 5792,
      "1300": 5793,
      "palermo": 5794,
      "##asser": 5795,
      "mcg": 5796,
      "cris": 5797,
      "##life": 5798,
      "perot": 5799,
      "walt": 5800,
      "ucla": 5801,
      "avignon": 5802,
      "calcut": 5803,
      "popul": 5804,
      "##ologist": 5805,
      "##ibil": 5806,
      "gerth": 5807,
      "leonard": 5808,
      "lindsay": 5809,
      "pomona": 5810,
      "torre": 5811,
      "##ounding": 5812,
      "kleiman": 5813,
      "flynt": 5814,
      "effluent": 5815,
      "pisa": 5816,
      "##books": 5817,
      "rainfor": 5818,
      "universal": 5819,
      "koran": 5820,
      "kelantan": 5821,
      "stupa": 5822,
      "cedar": 5823,
      "montreuil": 5824,
      "calcutta": 5825,
      "bin": 5826,
      "draw": 5827,
      "eul": 5828,
      "gem": 5829,
      "jet": 5830,
      "pud": 5831,
      "ul": 5832,
      "##bath": 5833,
      "##iat": 5834,
      "##kman": 5835,
      "##kiki": 5836,
      "##ude": 5837,
      "##twork": 5838,
      "##pat": 5839,
      "##ping": 5840,
      "##post": 5841,
      "##jou": 5842,
      "seti": 5843,
      "##onic": 5844,
      "##oning": 5845,
      "suh": 5846,
      "chow": 5847,
      "sox": 5848,
      "coniston": 5849,
      "bak": 5850,
      "##itomo": 5851,
      "##uss": 5852,
      "mace": 5853,
      "haute": 5854,
      "num": 5855,
      "##tec": 5856,
      "ductwork": 5857,
      "##abar": 5858,
      "texaco": 5859,
      "edmund": 5860,
      "grim": 5861,
      "stevens": 5862,
      "mets": 5863,
      "venez": 5864,
      "endp": 5865,
      "robertson": 5866,
      "##head": 5867,
      "essex": 5868,
      "subpart": 5869,
      "270": 5870,
      "cors": 5871,
      "corp": 5872,
      "woody": 5873,
      "royko": 5874,
      "summer": 5875,
      "mercedes": 5876,
      "kerr": 5877,
      "olive": 5878,
      "##struc": 5879,
      "kiosk": 5880,
      "waikiki": 5881,
      "##holder": 5882,
      "streamlining": 5883,
      "inhouse": 5884,
      "baghdad": 5885,
      "cloister": 5886,
      "endpoints": 5887,
      "bran": 5888,
      "dap": 5889,
      "dist": 5890,
      "deter": 5891,
      "koh": 5892,
      "kota": 5893,
      "krake": 5894,
      "nist": 5895,
      "pines": 5896,
      "unt": 5897,
      "##ture": 5898,
      "##lass": 5899,
      "##court": 5900,
      "##fuk": 5901,
      "##jar": 5902,
      "##anya": 5903,
      "trim": 5904,
      "##otti": 5905,
      "##otyp": 5906,
      "sepul": 5907,
      "##enot": 5908,
      "tara": 5909,
      "vern": 5910,
      "tosh": 5911,
      "lem": 5912,
      "luther": 5913,
      "lucy": 5914,
      "yeats": 5915,
      "alc": 5916,
      "##opf": 5917,
      "##stat": 5918,
      "##ryn": 5919,
      "iron": 5920,
      "produc": 5921,
      "##ums": 5922,
      "saintes": 5923,
      "harvey": 5924,
      "berkel": 5925,
      "fringe": 5926,
      "1946": 5927,
      "esplan": 5928,
      "madei": 5929,
      "netanya": 5930,
      "glen": 5931,
      "1953": 5932,
      "1915": 5933,
      "greenberg": 5934,
      "rouge": 5935,
      "dutch": 5936,
      "hamilton": 5937,
      "izmir": 5938,
      "pavilion": 5939,
      "mustang": 5940,
      "odys": 5941,
      "mecca": 5942,
      "column": 5943,
      "toobin": 5944,
      "krakew": 5945,
      "##fukuji": 5946,
      "berkeley": 5947,
      "esplanade": 5948,
      "bm": 5949,
      "bald": 5950,
      "fsis": 5951,
      "iq": 5952,
      "kas": 5953,
      "litt": 5954,
      "y2": 5955,
      "##bos": 5956,
      "##ded": 5957,
      "##oley": 5958,
      "##vingly": 5959,
      "##zek": 5960,
      "##ju": 5961,
      "##ject": 5962,
      "##juku": 5963,
      "caen": 5964,
      "lakes": 5965,
      "corb": 5966,
      "cokie": 5967,
      "vii": 5968,
      "torah": 5969,
      "bol": 5970,
      "cause": 5971,
      "trop": 5972,
      "rodr": 5973,
      "hauss": 5974,
      "satan": 5975,
      "##lid": 5976,
      "shaw": 5977,
      "##abo": 5978,
      "epit": 5979,
      "aryan": 5980,
      "169": 5981,
      "##quist": 5982,
      "##gev": 5983,
      "und": 5984,
      "##ained": 5985,
      "##ortion": 5986,
      "##perfect": 5987,
      "albu": 5988,
      "caletta": 5989,
      "balkans": 5990,
      "garm": 5991,
      "baptis": 5992,
      "weis": 5993,
      "arab": 5994,
      "campo": 5995,
      "##ances": 5996,
      "##pool": 5997,
      "augustus": 5998,
      "showroom": 5999,
      "veronese": 6000,
      "everest": 6001,
      "pfizer": 6002,
      "bastille": 6003,
      "justin": 6004,
      "heavy": 6005,
      "nlada": 6006,
      "lieberman": 6007,
      "milliken": 6008,
      "lehrer": 6009,
      "y2k": 6010,
      "causeway": 6011,
      "asp": 6012,
      "east": 6013,
      "fur": 6014,
      "four": 6015,
      "gus": 6016,
      "##ute": 6017,
      "##lit": 6018,
      "##lia": 6019,
      "##nier": 6020,
      "##pap": 6021,
      "##job": 6022,
      "cald": 6023,
      "##ocr": 6024,
      "sands": 6025,
      "dante": 6026,
      "dodge": 6027,
      "mou": 6028,
      "##leau": 6029,
      "##leboro": 6030,
      "ammon": 6031,
      "##rem": 6032,
      "stake": 6033,
      "chate": 6034,
      "##ope": 6035,
      "203": 6036,
      "##bered": 6037,
      "##berland": 6038,
      "##ody": 6039,
      "171": 6040,
      "isis": 6041,
      "palacio": 6042,
      "##icks": 6043,
      "##atha": 6044,
      "xii": 6045,
      "##lae": 6046,
      "1942": 6047,
      "herman": 6048,
      "galata": 6049,
      "attleboro": 6050,
      "brava": 6051,
      "##feit": 6052,
      "##quacy": 6053,
      "bellini": 6054,
      "maple": 6055,
      "petra": 6056,
      "sarah": 6057,
      "gallon": 6058,
      "dyck": 6059,
      "1789": 6060,
      "shinjuku": 6061,
      "legis": 6062,
      "methodological": 6063,
      "psy": 6064,
      "wyoming": 6065,
      "commemorates": 6066,
      "kayak": 6067,
      "winnie": 6068,
      "ebay": 6069,
      "pallad": 6070,
      "sculpted": 6071,
      "blowjob": 6072,
      "riverside": 6073,
      "mclaugh": 6074,
      "adequacy": 6075,
      "stakeholder": 6076,
      "bhar": 6077,
      "fra": 6078,
      "nico": 6079,
      "pao": 6080,
      "rid": 6081,
      "ull": 6082,
      "yup": 6083,
      "##bre": 6084,
      "##ked": 6085,
      "##tau": 6086,
      "##lies": 6087,
      "##rl": 6088,
      "##made": 6089,
      "##cm": 6090,
      "##gom": 6091,
      "##pc": 6092,
      "seleyman": 6093,
      "suez": 6094,
      "tali": 6095,
      "quach": 6096,
      "conf": 6097,
      "philae": 6098,
      "total": 6099,
      "##imp": 6100,
      "##alon": 6101,
      "levin": 6102,
      "##itions": 6103,
      "truman": 6104,
      "##roe": 6105,
      "neil": 6106,
      "##oute": 6107,
      "##ahang": 6108,
      "##uring": 6109,
      "##agement": 6110,
      "123": 6111,
      "rapids": 6112,
      "sax": 6113,
      "##ishna": 6114,
      "134": 6115,
      "cram": 6116,
      "sala": 6117,
      "##tile": 6118,
      "renoir": 6119,
      "herb": 6120,
      "north": 6121,
      "croses": 6122,
      "##masters": 6123,
      "fergus": 6124,
      "cumberland": 6125,
      "1959": 6126,
      "1958": 6127,
      "imputed": 6128,
      "stanford": 6129,
      "yankee": 6130,
      "guru": 6131,
      "circ": 6132,
      "predomin": 6133,
      "bazaars": 6134,
      "outsour": 6135,
      "sfas": 6136,
      "silicon": 6137,
      "indianapolis": 6138,
      "antoinette": 6139,
      "autoroute": 6140,
      "liveliest": 6141,
      "odyssey": 6142,
      "mclaughlin": 6143,
      "nicole": 6144,
      "82": 6145,
      "a50": 6146,
      "dic": 6147,
      "econ": 6148,
      "fut": 6149,
      "mp": 6150,
      "ubi": 6151,
      "was": 6152,
      "wig": 6153,
      "##ih": 6154,
      "##ring": 6155,
      "##11": 6156,
      "##mers": 6157,
      "##haye": 6158,
      "##yers": 6159,
      "##29": 6160,
      "##oire": 6161,
      "chrys": 6162,
      "how": 6163,
      "hold": 6164,
      "##atr": 6165,
      "##angk": 6166,
      "phen": 6167,
      "##auville": 6168,
      "##ering": 6169,
      "##imon": 6170,
      "##uated": 6171,
      "##alin": 6172,
      "deauville": 6173,
      "umb": 6174,
      "bonnie": 6175,
      "monarch": 6176,
      "laura": 6177,
      "##adena": 6178,
      "2009": 6179,
      "hatshe": 6180,
      "damas": 6181,
      "##iview": 6182,
      "##owled": 6183,
      "121": 6184,
      "parque": 6185,
      "##ashed": 6186,
      "unesco": 6187,
      "frana": 6188,
      "##ssi": 6189,
      "cretan": 6190,
      "malabar": 6191,
      "##pless": 6192,
      "character": 6193,
      "richards": 6194,
      "vicente": 6195,
      "appropri": 6196,
      "picnic": 6197,
      "jacques": 6198,
      "windsur": 6199,
      "360": 6200,
      "##iffer": 6201,
      "knosses": 6202,
      "pasadena": 6203,
      "cityel": 6204,
      "huntington": 6205,
      "wordperfect": 6206,
      "nicar": 6207,
      "assisi": 6208,
      "##uela": 6209,
      "junior": 6210,
      "levi": 6211,
      "masada": 6212,
      "bullf": 6213,
      "terraced": 6214,
      "ethnographic": 6215,
      "##quitous": 6216,
      "scuba": 6217,
      "unlv": 6218,
      "parcells": 6219,
      "churchill": 6220,
      "sepulcher": 6221,
      "columnist": 6222,
      "lakeside": 6223,
      "ubiquitous": 6224,
      "hatshepsut": 6225,
      "650": 6226,
      "ci": 6227,
      "ein": 6228,
      "eve": 6229,
      "egus": 6230,
      "gm": 6231,
      "jess": 6232,
      "kon": 6233,
      "nab": 6234,
      "##bek": 6235,
      "##muda": 6236,
      "##gy": 6237,
      "##ged": 6238,
      "##hall": 6239,
      "##wau": 6240,
      "##zac": 6241,
      "hooc": 6242,
      "##enos": 6243,
      "##ono": 6244,
      "##icana": 6245,
      "durb": 6246,
      "haiti": 6247,
      "##ares": 6248,
      "dodgers": 6249,
      "hoavon": 6250,
      "thatcher": 6251,
      "golan": 6252,
      "maureen": 6253,
      "##iling": 6254,
      "rugged": 6255,
      "main": 6256,
      "did": 6257,
      "##lips": 6258,
      "repr": 6259,
      "##teau": 6260,
      "all": 6261,
      "##una": 6262,
      "107": 6263,
      "accl": 6264,
      "carlo": 6265,
      "##essed": 6266,
      "unders": 6267,
      "##ished": 6268,
      "point": 6269,
      "imm": 6270,
      "clun": 6271,
      "malamud": 6272,
      "hart": 6273,
      "harg": 6274,
      "harper": 6275,
      "harrer": 6276,
      "1962": 6277,
      "##loge": 6278,
      "1943": 6279,
      "scrub": 6280,
      "##aiser": 6281,
      "simone": 6282,
      "cort": 6283,
      "cummins": 6284,
      "picardy": 6285,
      "deciview": 6286,
      "wolff": 6287,
      "livingston": 6288,
      "##ounted": 6289,
      "handmade": 6290,
      "synerg": 6291,
      "##plicable": 6292,
      "##itarianism": 6293,
      "tcn": 6294,
      "mozart": 6295,
      "chlorine": 6296,
      "overpayments": 6297,
      "rodrig": 6298,
      "gusta": 6299,
      "##papers": 6300,
      "moulin": 6301,
      "legisl": 6302,
      "windsurf": 6303,
      "##waukee": 6304,
      "bash": 6305,
      "falls": 6306,
      "hag": 6307,
      "jos": 6308,
      "jag": 6309,
      "kaiser": 6310,
      "miec": 6311,
      "##roc": 6312,
      "##mill": 6313,
      "##ging": 6314,
      "##ved": 6315,
      "##vitz": 6316,
      "##view": 6317,
      "thor": 6318,
      "##ocrat": 6319,
      "giles": 6320,
      "##acz": 6321,
      "##eted": 6322,
      "madd": 6323,
      "toron": 6324,
      "birch": 6325,
      "lynch": 6326,
      "doub": 6327,
      "mount": 6328,
      "god": 6329,
      "lenin": 6330,
      "maui": 6331,
      "##rog": 6332,
      "##raft": 6333,
      "stems": 6334,
      "##ersh": 6335,
      "##ellow": 6336,
      "scop": 6337,
      "##shops": 6338,
      "carville": 6339,
      "146": 6340,
      "1400": 6341,
      "spl": 6342,
      "##inski": 6343,
      "block": 6344,
      "##rik": 6345,
      "##rix": 6346,
      "clich": 6347,
      "mals": 6348,
      "bergen": 6349,
      "609": 6350,
      "607": 6351,
      "milwaukee": 6352,
      "smi": 6353,
      "walcott": 6354,
      "##swater": 6355,
      "brah": 6356,
      "snow": 6357,
      "singh": 6358,
      "gasped": 6359,
      "nye": 6360,
      "xvii": 6361,
      "##oteca": 6362,
      "mesopotam": 6363,
      "falwell": 6364,
      "discos": 6365,
      "buffet": 6366,
      "flexibil": 6367,
      "##2001": 6368,
      "deregulation": 6369,
      "arnold": 6370,
      "valencia": 6371,
      "cameron": 6372,
      "brantley": 6373,
      "ullswater": 6374,
      "hargarten": 6375,
      "miecz": 6376,
      "toronto": 6377,
      "812": 6378,
      "dre": 6379,
      "diss": 6380,
      "grow": 6381,
      "ise": 6382,
      "lion": 6383,
      "muong": 6384,
      "nig": 6385,
      "yor": 6386,
      "##eva": 6387,
      "##oji": 6388,
      "##gie": 6389,
      "##zed": 6390,
      "##hus": 6391,
      "hosses": 6392,
      "##etically": 6393,
      "##inem": 6394,
      "maal": 6395,
      "kech": 6396,
      "anc": 6397,
      "cape": 6398,
      "##ories": 6399,
      "logo": 6400,
      "hew": 6401,
      "rolls": 6402,
      "maurice": 6403,
      "monroe": 6404,
      "##ionally": 6405,
      "2008": 6406,
      "##aking": 6407,
      "##emp": 6408,
      "108": 6409,
      "106": 6410,
      "##oda": 6411,
      "jupit": 6412,
      "##quis": 6413,
      "116": 6414,
      "palhe": 6415,
      "plath": 6416,
      "spar": 6417,
      "inglis": 6418,
      "rios": 6419,
      "ibic": 6420,
      "angelico": 6421,
      "##inness": 6422,
      "1949": 6423,
      "eva": 6424,
      "appro": 6425,
      "##urebox": 6426,
      "##yslaw": 6427,
      "basse": 6428,
      "dramat": 6429,
      "##adesh": 6430,
      "bookshops": 6431,
      "insur": 6432,
      "femin": 6433,
      "##presses": 6434,
      "dominica": 6435,
      "terraces": 6436,
      "alpine": 6437,
      "katz": 6438,
      "letterman": 6439,
      "actua": 6440,
      "bobby": 6441,
      "culturebox": 6442,
      "alfonso": 6443,
      "bohemian": 6444,
      "nrcs": 6445,
      "conferees": 6446,
      "rousse": 6447,
      "rainforest": 6448,
      "haussmann": 6449,
      "weisberg": 6450,
      "taliban": 6451,
      "a504": 6452,
      "nicaragua": 6453,
      "flexibilities": 6454,
      "mieczyslaw": 6455,
      "growers": 6456,
      "aeo": 6457,
      "fat": 6458,
      "graham": 6459,
      "ign": 6460,
      "jar": 6461,
      "oce": 6462,
      "pd": 6463,
      "wins": 6464,
      "zo": 6465,
      "zai": 6466,
      "##kill": 6467,
      "##tions": 6468,
      "##rum": 6469,
      "##fall": 6470,
      "##wind": 6471,
      "##worth": 6472,
      "##prop": 6473,
      "##huela": 6474,
      "##ense": 6475,
      "##actic": 6476,
      "thet": 6477,
      "##icism": 6478,
      "mason": 6479,
      "mob": 6480,
      "moss": 6481,
      "lum": 6482,
      "time": 6483,
      "##elot": 6484,
      "chand": 6485,
      "chant": 6486,
      "aix": 6487,
      "neon": 6488,
      "##term": 6489,
      "chapelle": 6490,
      "arb": 6491,
      "##deaux": 6492,
      "carib": 6493,
      "147": 6494,
      "princ": 6495,
      "predic": 6496,
      "##oga": 6497,
      "raikes": 6498,
      "frug": 6499,
      "bordeaux": 6500,
      "liber": 6501,
      "libert": 6502,
      "workpapers": 6503,
      "termin": 6504,
      "avis": 6505,
      "charleston": 6506,
      "porter": 6507,
      "corso": 6508,
      "##ological": 6509,
      "##marking": 6510,
      "sersa": 6511,
      "##zzi": 6512,
      "krishna": 6513,
      "president": 6514,
      "crafts": 6515,
      "juliet": 6516,
      "1492": 6517,
      "unfiled": 6518,
      "mamel": 6519,
      "rothsch": 6520,
      "hacker": 6521,
      "earl": 6522,
      "hollings": 6523,
      "american": 6524,
      "orihuela": 6525,
      "##elleschi": 6526,
      "getty": 6527,
      "palladio": 6528,
      "rothschild": 6529,
      "dna": 6530,
      "urb": 6531,
      "wag": 6532,
      "yellow": 6533,
      "##uter": 6534,
      "##lic": 6535,
      "##fills": 6536,
      "##wat": 6537,
      "##vier": 6538,
      "##xos": 6539,
      "##oil": 6540,
      "##ancy": 6541,
      "chag": 6542,
      "##atur": 6543,
      "gibson": 6544,
      "vesu": 6545,
      "raf": 6546,
      "dust": 6547,
      "##eud": 6548,
      "mod": 6549,
      "taco": 6550,
      "emp": 6551,
      "##lines": 6552,
      "bud": 6553,
      "##eba": 6554,
      "1812": 6555,
      "hapsburg": 6556,
      "param": 6557,
      "carmel": 6558,
      "iso": 6559,
      "##ended": 6560,
      "spike": 6561,
      "kimono": 6562,
      "##athos": 6563,
      "##ogen": 6564,
      "berman": 6565,
      "berry": 6566,
      "bermuda": 6567,
      "abil": 6568,
      "newsday": 6569,
      "mickey": 6570,
      "##nya": 6571,
      "herbert": 6572,
      "heroin": 6573,
      "croaker": 6574,
      "##government": 6575,
      "lawn": 6576,
      "outlet": 6577,
      "casting": 6578,
      "corre": 6579,
      "ils": 6580,
      "sinan": 6581,
      "rhine": 6582,
      "celt": 6583,
      "generalization": 6584,
      "kilgore": 6585,
      "bourg": 6586,
      "trinfan": 6587,
      "nicholas": 6588,
      "sharm": 6589,
      "nasser": 6590,
      "veronica": 6591,
      "zionism": 6592,
      "gaulois": 6593,
      "hamilcar": 6594,
      "proserous": 6595,
      "techn": 6596,
      "mortgage": 6597,
      "gnp": 6598,
      "wicklow": 6599,
      "maggiore": 6600,
      "skiathos": 6601,
      "croatia": 6602,
      "ferguson": 6603,
      "wigand": 6604,
      "durbar": 6605,
      "jupiter": 6606,
      "aur": 6607,
      "fc": 6608,
      "htm": 6609,
      "pai": 6610,
      "syl": 6611,
      "##ball": 6612,
      "##die": 6613,
      "##uman": 6614,
      "##mus": 6615,
      "##yon": 6616,
      "##wether": 6617,
      "##zer": 6618,
      "##zter": 6619,
      "##26": 6620,
      "##jan": 6621,
      "##xing": 6622,
      "##oie": 6623,
      "##ants": 6624,
      "##huri": 6625,
      "##uali": 6626,
      "##oci": 6627,
      "sul": 6628,
      "chum": 6629,
      "##aude": 6630,
      "##icians": 6631,
      "quart": 6632,
      "boaz": 6633,
      "dui": 6634,
      "##arian": 6635,
      "##aly": 6636,
      "logic": 6637,
      "##isters": 6638,
      "chania": 6639,
      "lantau": 6640,
      "tapas": 6641,
      "vos": 6642,
      "volt": 6643,
      "ams": 6644,
      "hetel": 6645,
      "##reci": 6646,
      "nea": 6647,
      "inf": 6648,
      "yem": 6649,
      "##opatra": 6650,
      "samos": 6651,
      "##quet": 6652,
      "##mbria": 6653,
      "edgar": 6654,
      "grass": 6655,
      "united": 6656,
      "137": 6657,
      "114": 6658,
      "gonzo": 6659,
      "mcgr": 6660,
      "##anti": 6661,
      "elicit": 6662,
      "dori": 6663,
      "abs": 6664,
      "minim": 6665,
      "##merc": 6666,
      "perkins": 6667,
      "##iko": 6668,
      "##loo": 6669,
      "fried": 6670,
      "eszter": 6671,
      "1931": 6672,
      "guadal": 6673,
      "christie": 6674,
      "omaha": 6675,
      "##kinson": 6676,
      "##mente": 6677,
      "1914": 6678,
      "workshare": 6679,
      "##iousness": 6680,
      "cleopatra": 6681,
      "vitamin": 6682,
      "landfills": 6683,
      "connor": 6684,
      "powers": 6685,
      "village": 6686,
      "hilton": 6687,
      "harrison": 6688,
      "prototyp": 6689,
      "outlay": 6690,
      "robinson": 6691,
      "##horetz": 6692,
      "young": 6693,
      "tiberias": 6694,
      "friezes": 6695,
      "##selas": 6696,
      "privat": 6697,
      "##querque": 6698,
      "gyps": 6699,
      "podhoretz": 6700,
      "ribeira": 6701,
      "jolanta": 6702,
      "lukas": 6703,
      "netanyahu": 6704,
      "baptistery": 6705,
      "heavywether": 6706,
      "palheiro": 6707,
      "abilene": 6708,
      "cez": 6709,
      "gle": 6710,
      "gug": 6711,
      "ix": 6712,
      "ipo": 6713,
      "jc": 6714,
      "mess": 6715,
      "nanh": 6716,
      "od": 6717,
      "ooh": 6718,
      "ocho": 6719,
      "pap": 6720,
      "yong": 6721,
      "yah": 6722,
      "##kaw": 6723,
      "##uth": 6724,
      "##tar": 6725,
      "##rid": 6726,
      "##hal": 6727,
      "##hill": 6728,
      "##from": 6729,
      "##pin": 6730,
      "##vius": 6731,
      "caterp": 6732,
      "##eta": 6733,
      "##ication": 6734,
      "##icho": 6735,
      "boone": 6736,
      "trent": 6737,
      "contin": 6738,
      "ked": 6739,
      "anson": 6740,
      "##aron": 6741,
      "##este": 6742,
      "lola": 6743,
      "bayeux": 6744,
      "bab": 6745,
      "dev": 6746,
      "deir": 6747,
      "##ustr": 6748,
      "stand": 6749,
      "##idou": 6750,
      "newton": 6751,
      "alz": 6752,
      "##oped": 6753,
      "shel": 6754,
      "##bern": 6755,
      "##stre": 6756,
      "scalia": 6757,
      "##ffer": 6758,
      "##illar": 6759,
      "##ennes": 6760,
      "parnell": 6761,
      "metro": 6762,
      "##athe": 6763,
      "ext": 6764,
      "##heng": 6765,
      "adobe": 6766,
      "##ailing": 6767,
      "herz": 6768,
      "schwar": 6769,
      "##aisal": 6770,
      "queen": 6771,
      "heming": 6772,
      "1957": 6773,
      "broder": 6774,
      "rivas": 6775,
      "1905": 6776,
      "menhir": 6777,
      "shuman": 6778,
      "villette": 6779,
      "tuscan": 6780,
      "philips": 6781,
      "phoenicia": 6782,
      "stalin": 6783,
      "bedouin": 6784,
      "lombard": 6785,
      "perugia": 6786,
      "minaret": 6787,
      "szary": 6788,
      "sidney": 6789,
      "pompidou": 6790,
      "cpk": 6791,
      "uninsured": 6792,
      "epitom": 6793,
      "albuquerque": 6794,
      "bullfights": 6795,
      "maalok": 6796,
      "caterpillar": 6797,
      "schwarz": 6798,
      ".--": 6799,
      "asan": 6800,
      "biem": 6801,
      "dw": 6802,
      "dnc": 6803,
      "fall": 6804,
      "hass": 6805,
      "ll": 6806,
      "nest": 6807,
      "nint": 6808,
      "oig": 6809,
      "pich": 6810,
      "tua": 6811,
      "wyn": 6812,
      "##dam": 6813,
      "##96": 6814,
      "##16": 6815,
      "##nos": 6816,
      "##pta": 6817,
      "##oid": 6818,
      "##oise": 6819,
      "##iello": 6820,
      "ngong": 6821,
      "valer": 6822,
      "##otine": 6823,
      "##etr": 6824,
      "topless": 6825,
      "##eras": 6826,
      "##erine": 6827,
      "##imo": 6828,
      "tamil": 6829,
      "thia": 6830,
      "chancel": 6831,
      "bend": 6832,
      "tiepolo": 6833,
      "##uild": 6834,
      "tyson": 6835,
      "##ched": 6836,
      "##roll": 6837,
      "stau": 6838,
      "##olution": 6839,
      "apt": 6840,
      "marais": 6841,
      "alice": 6842,
      "204": 6843,
      "##ige": 6844,
      "##bergh": 6845,
      "##stick": 6846,
      "##ivity": 6847,
      "author": 6848,
      "104": 6849,
      "arles": 6850,
      "##ips": 6851,
      "kmart": 6852,
      "##iri": 6853,
      "gaza": 6854,
      "unad": 6855,
      "niko": 6856,
      "riley": 6857,
      "1961": 6858,
      "##astro": 6859,
      "##ikh": 6860,
      "5000": 6861,
      "orrer": 6862,
      "esk": 6863,
      "##ront": 6864,
      "gupta": 6865,
      "queens": 6866,
      "forfeit": 6867,
      "naxos": 6868,
      "katherine": 6869,
      "brahman": 6870,
      "bursa": 6871,
      "normans": 6872,
      "multirac": 6873,
      "croseng": 6874,
      "nicolas": 6875,
      "nicotine": 6876,
      "##roix": 6877,
      "highland": 6878,
      "signoria": 6879,
      "mintie": 6880,
      "##accio": 6881,
      "proserity": 6882,
      "greyfri": 6883,
      "crane": 6884,
      "costner": 6885,
      "##paths": 6886,
      "isabella": 6887,
      "hercules": 6888,
      "mileage": 6889,
      "gilbert": 6890,
      "damascus": 6891,
      "mesopotamia": 6892,
      "aeo2001": 6893,
      "chagall": 6894,
      "yahoo": 6895,
      "nintendo": 6896,
      "multiracial": 6897,
      "greyfriars": 6898,
      "08": 6899,
      "05": 6900,
      "aj": 6901,
      "clif": 6902,
      "eris": 6903,
      "gte": 6904,
      "hig": 6905,
      "lt": 6906,
      "lock": 6907,
      "lloyd": 6908,
      "m3": 6909,
      "miet": 6910,
      "nca": 6911,
      "rim": 6912,
      "view": 6913,
      "đgh": 6914,
      "##oon": 6915,
      "##ofr": 6916,
      "##sky": 6917,
      "##gra": 6918,
      "##hara": 6919,
      "##ually": 6920,
      "laf": 6921,
      "##otes": 6922,
      "##atma": 6923,
      "##ault": 6924,
      "##eto": 6925,
      "##apstick": 6926,
      "nhoang": 6927,
      "dode": 6928,
      "amos": 6929,
      "##ebelly": 6930,
      "##urs": 6931,
      "##urred": 6932,
      "##agna": 6933,
      "##oden": 6934,
      "##shi": 6935,
      "124": 6936,
      "##quel": 6937,
      "144": 6938,
      "slapstick": 6939,
      "##endra": 6940,
      "plac": 6941,
      "env": 6942,
      "malaya": 6943,
      "cross": 6944,
      "flat": 6945,
      "##pped": 6946,
      "1924": 6947,
      "bradshaw": 6948,
      "calm": 6949,
      "##swell": 6950,
      "260": 6951,
      "##ettes": 6952,
      "1951": 6953,
      "braque": 6954,
      "mahatma": 6955,
      "##heimer": 6956,
      "##bank": 6957,
      "pm10": 6958,
      "sabbath": 6959,
      "jeffrey": 6960,
      "ethi": 6961,
      "##lessly": 6962,
      "burger": 6963,
      "pisano": 6964,
      "gardens": 6965,
      "signpost": 6966,
      "jennifer": 6967,
      "whitney": 6968,
      "whitebelly": 6969,
      "methodologists": 6970,
      "##produc": 6971,
      "whipmasters": 6972,
      "ledford": 6973,
      "heston": 6974,
      "brunelleschi": 6975,
      "gregory": 6976,
      "lido": 6977,
      "administers": 6978,
      "negara": 6979,
      "bryant": 6980,
      "fannie": 6981,
      "jenkins": 6982,
      "saxton": 6983,
      "chrysler": 6984,
      "presidentas": 6985,
      "wagner": 6986,
      "erisa": 6987,
      "340": 6988,
      "aw": 6989,
      "csa": 6990,
      "dicle": 6991,
      "fai": 6992,
      "his": 6993,
      "ioc": 6994,
      "ist": 6995,
      "jaisal": 6996,
      "kwan": 6997,
      "pj": 6998,
      "pia": 6999,
      "tier": 7000,
      "vote": 7001,
      "you": 7002,
      "##sas": 7003,
      "##uh": 7004,
      "##mler": 7005,
      "##cing": 7006,
      "##jid": 7007,
      "##hua": 7008,
      "coal": 7009,
      "vall": 7010,
      "##enay": 7011,
      "##onian": 7012,
      "sudan": 7013,
      "nghet": 7014,
      "##icant": 7015,
      "sor": 7016,
      "viu": 7017,
      "bolog": 7018,
      "##erted": 7019,
      "keb": 7020,
      "mol": 7021,
      "lus": 7022,
      "hellen": 7023,
      "##elers": 7024,
      "##road": 7025,
      "rey": 7026,
      "recy": 7027,
      "##adia": 7028,
      "alk": 7029,
      "##aging": 7030,
      "##igot": 7031,
      "##unted": 7032,
      "barts": 7033,
      "##ipt": 7034,
      "parad": 7035,
      "##genheim": 7036,
      "bris": 7037,
      "##isha": 7038,
      "##ishness": 7039,
      "iras": 7040,
      "steam": 7041,
      "117": 7042,
      "metabo": 7043,
      "chinat": 7044,
      "jericho": 7045,
      "##ains": 7046,
      "##ploy": 7047,
      "##incourt": 7048,
      "##bbed": 7049,
      "2017": 7050,
      "2016": 7051,
      "flag": 7052,
      "##encing": 7053,
      "karen": 7054,
      "simova": 7055,
      "castillo": 7056,
      "garnier": 7057,
      "murcia": 7058,
      "##ippo": 7059,
      "basque": 7060,
      "asakusa": 7061,
      "azur": 7062,
      "savoie": 7063,
      "beatrix": 7064,
      "limous": 7065,
      "auguste": 7066,
      "soutine": 7067,
      "masjid": 7068,
      "##osterone": 7069,
      "padua": 7070,
      "carlton": 7071,
      "judah": 7072,
      "lakers": 7073,
      "coleman": 7074,
      "madison": 7075,
      "rodman": 7076,
      "quintiles": 7077,
      "durham": 7078,
      "buttermere": 7079,
      "caddesi": 7080,
      "testosterone": 7081,
      "yoritomo": 7082,
      "vesuvius": 7083,
      "voltaire": 7084,
      "guggenheim": 7085,
      "ncaa": 7086,
      "diclemente": 7087,
      "pjff": 7088,
      "bologna": 7089,
      "metabolife": 7090,
      "ain": 7091,
      "bets": 7092,
      "lip": 7093,
      "ment": 7094,
      "nt": 7095,
      "nation": 7096,
      "ow": 7097,
      "pant": 7098,
      "##bat": 7099,
      "##bra": 7100,
      "##bol": 7101,
      "##bow": 7102,
      "##ket": 7103,
      "##sters": 7104,
      "##lett": 7105,
      "##rland": 7106,
      "##19": 7107,
      "##hpur": 7108,
      "##vet": 7109,
      "##jj": 7110,
      "thre": 7111,
      "##enco": 7112,
      "##aio": 7113,
      "##auer": 7114,
      "##etna": 7115,
      "##ices": 7116,
      "lama": 7117,
      "honshu": 7118,
      "viol": 7119,
      "conso": 7120,
      "antic": 7121,
      "lynn": 7122,
      "tintor": 7123,
      "khuat": 7124,
      "camacha": 7125,
      "hanuman": 7126,
      "##ilit": 7127,
      "negr": 7128,
      "daimler": 7129,
      "rein": 7130,
      "reyn": 7131,
      "inval": 7132,
      "marion": 7133,
      "marian": 7134,
      "hydr": 7135,
      "alca": 7136,
      "hathor": 7137,
      "ghirland": 7138,
      "##embourg": 7139,
      "shim": 7140,
      "shir": 7141,
      "##bera": 7142,
      "haz": 7143,
      "##iver": 7144,
      "103": 7145,
      "acros": 7146,
      "##ationist": 7147,
      "carne": 7148,
      "##iris": 7149,
      "##essing": 7150,
      "saf": 7151,
      "saw": 7152,
      "brando": 7153,
      "##ishly": 7154,
      "interl": 7155,
      "136": 7156,
      "112": 7157,
      "spenc": 7158,
      "whe": 7159,
      "excise": 7160,
      "medi": 7161,
      "commons": 7162,
      "orth": 7163,
      "fret": 7164,
      "##tres": 7165,
      "francaise": 7166,
      "##clav": 7167,
      "montgom": 7168,
      "osiris": 7169,
      "guard": 7170,
      "joao": 7171,
      "230": 7172,
      "usda": 7173,
      "titans": 7174,
      "hirose": 7175,
      "arcaded": 7176,
      "rusty": 7177,
      "josephine": 7178,
      "power": 7179,
      "paella": 7180,
      "cornell": 7181,
      "intel": 7182,
      "carlson": 7183,
      "marketplace": 7184,
      "fujiwara": 7185,
      "chechnya": 7186,
      "footpaths": 7187,
      "benedictine": 7188,
      "pleas": 7189,
      "ravenna": 7190,
      "wendy": 7191,
      "paolo": 7192,
      "umbria": 7193,
      "cluny": 7194,
      "alzheimer": 7195,
      "ethiopia": 7196,
      "tintoretto": 7197,
      "ghirlandaio": 7198,
      "civ": 7199,
      "cec": 7200,
      "fang": 7201,
      "fam": 7202,
      "fif": 7203,
      "field": 7204,
      "geth": 7205,
      "kum": 7206,
      "lily": 7207,
      "ml": 7208,
      "opt": 7209,
      "usc": 7210,
      "url": 7211,
      "wel": 7212,
      "yak": 7213,
      "##ave": 7214,
      "##bach": 7215,
      "##kay": 7216,
      "##crop": 7217,
      "##hy": 7218,
      "##was": 7219,
      "vau": 7220,
      "##applicable": 7221,
      "đit": 7222,
      "canton": 7223,
      "tinos": 7224,
      "##ores": 7225,
      "loy": 7226,
      "haut": 7227,
      "umeda": 7228,
      "diver": 7229,
      "stall": 7230,
      "inapplicable": 7231,
      "##ionale": 7232,
      "short": 7233,
      "shik": 7234,
      "##igmat": 7235,
      "ace": 7236,
      "parried": 7237,
      "unc": 7238,
      "brune": 7239,
      "##umin": 7240,
      "##umer": 7241,
      "palat": 7242,
      "plato": 7243,
      "spac": 7244,
      "crock": 7245,
      "1963": 7246,
      "indo": 7247,
      "1927": 7248,
      "##umbents": 7249,
      "warlock": 7250,
      "ponta": 7251,
      "funic": 7252,
      "impat": 7253,
      "1870": 7254,
      "luxembourg": 7255,
      "summar": 7256,
      "incumbents": 7257,
      "skid": 7258,
      "1889": 7259,
      "stanis": 7260,
      "shear": 7261,
      "rhodes": 7262,
      "putin": 7263,
      "stalag": 7264,
      "oakland": 7265,
      "whisky": 7266,
      "marketing": 7267,
      "modernization": 7268,
      "pietro": 7269,
      "cherpit": 7270,
      "kazan": 7271,
      "colonnade": 7272,
      "lombardy": 7273,
      "mazda": 7274,
      "etruscan": 7275,
      "chechen": 7276,
      "tulare": 7277,
      "nazionale": 7278,
      "##tifying": 7279,
      "vittorio": 7280,
      "pudding": 7281,
      "psych": 7282,
      "friedman": 7283,
      "orrery": 7284,
      "reynolds": 7285,
      "brunei": 7286,
      "cf": 7287,
      "dh": 7288,
      "dsm": 7289,
      "fis": 7290,
      "jaume": 7291,
      "nero": 7292,
      "pec": 7293,
      "wu": 7294,
      "##een": 7295,
      "##ech": 7296,
      "##dare": 7297,
      "##sy": 7298,
      "##uits": 7299,
      "##18": 7300,
      "##mes": 7301,
      "##cad": 7302,
      "##cers": 7303,
      "##gui": 7304,
      "##pack": 7305,
      "##jp": 7306,
      "##qs": 7307,
      "serg": 7308,
      "sens": 7309,
      "kheu": 7310,
      "chal": 7311,
      "chron": 7312,
      "copp": 7313,
      "giuc": 7314,
      "tulip": 7315,
      "##onin": 7316,
      "theres": 7317,
      "quir": 7318,
      "##apr": 7319,
      "vila": 7320,
      "kell": 7321,
      "dolor": 7322,
      "moma": 7323,
      "timbered": 7324,
      "camar": 7325,
      "tyler": 7326,
      "amal": 7327,
      "mona": 7328,
      "##urn": 7329,
      "marino": 7330,
      "marigot": 7331,
      "##ultur": 7332,
      "shap": 7333,
      "##igi": 7334,
      "##stud": 7335,
      "scar": 7336,
      "barney": 7337,
      "parv": 7338,
      "jumbo": 7339,
      "##phren": 7340,
      "111": 7341,
      "spor": 7342,
      "##area": 7343,
      "mcm": 7344,
      "scotch": 7345,
      "class": 7346,
      "berth": 7347,
      "delaw": 7348,
      "403": 7349,
      "fresco": 7350,
      "patric": 7351,
      "801": 7352,
      "1935": 7353,
      "tereng": 7354,
      "##fax": 7355,
      "prem": 7356,
      "burke": 7357,
      "4000": 7358,
      "##lets": 7359,
      "##atsu": 7360,
      "titus": 7361,
      "repub": 7362,
      "kinabal": 7363,
      "##ganu": 7364,
      "##canese": 7365,
      "midi": 7366,
      "waterloo": 7367,
      "##poon": 7368,
      "topk": 7369,
      "julie": 7370,
      "caesarea": 7371,
      "busing": 7372,
      "fontain": 7373,
      "armey": 7374,
      "perugino": 7375,
      "carnival": 7376,
      "dawson": 7377,
      "foreclosure": 7378,
      "tribune": 7379,
      "toxicant": 7380,
      "benchmarking": 7381,
      "didion": 7382,
      "scrubber": 7383,
      "rodriguez": 7384,
      "hemingway": 7385,
      "dwp": 7386,
      "dodecanese": 7387,
      "chinatown": 7388,
      "cherpitel": 7389,
      "theresa": 7390,
      "delaware": 7391,
      "terengganu": 7392,
      "kinabalu": 7393,
      "cb": 7394,
      "fp": 7395,
      "fork": 7396,
      "hach": 7397,
      "kut": 7398,
      "kings": 7399,
      "ou": 7400,
      "oss": 7401,
      "peb": 7402,
      "pous": 7403,
      "rele": 7404,
      "sak": 7405,
      "sri": 7406,
      "wit": 7407,
      "with": 7408,
      "zer": 7409,
      "##ae": 7410,
      "##aver": 7411,
      "##bir": 7412,
      "##bles": 7413,
      "##ein": 7414,
      "##kopf": 7415,
      "##mua": 7416,
      "##mine": 7417,
      "##most": 7418,
      "##front": 7419,
      "##ype": 7420,
      "##wick": 7421,
      "##washed": 7422,
      "##anon": 7423,
      "cabar": 7424,
      "caselas": 7425,
      "hog": 7426,
      "choles": 7427,
      "tabul": 7428,
      "noec": 7429,
      "nova": 7430,
      "##inav": 7431,
      "##ucci": 7432,
      "vista": 7433,
      "conve": 7434,
      "trope": 7435,
      "capri": 7436,
      "giorg": 7437,
      "##arm": 7438,
      "trianon": 7439,
      "lone": 7440,
      "neuf": 7441,
      "##alistic": 7442,
      "lemann": 7443,
      "hun": 7444,
      "mom": 7445,
      "luom": 7446,
      "##ised": 7447,
      "##asos": 7448,
      "gour": 7449,
      "##itas": 7450,
      "xavier": 7451,
      "nueva": 7452,
      "##terol": 7453,
      "regg": 7454,
      "inn": 7455,
      "##teer": 7456,
      "##agency": 7457,
      "shad": 7458,
      "##izen": 7459,
      "giacom": 7460,
      "##depend": 7461,
      "##oway": 7462,
      "##ceiv": 7463,
      "unab": 7464,
      "##ishes": 7465,
      "##enda": 7466,
      "##eyoshi": 7467,
      "##azquez": 7468,
      "bla": 7469,
      "##ssa": 7470,
      "elway": 7471,
      "clo": 7472,
      "##ission": 7473,
      "exley": 7474,
      "disbur": 7475,
      "##aven": 7476,
      "##boy": 7477,
      "orsay": 7478,
      "##pping": 7479,
      "subsid": 7480,
      "##alize": 7481,
      "jesuits": 7482,
      "bromua": 7483,
      "river": 7484,
      "rosewind": 7485,
      "whitewashed": 7486,
      "##cred": 7487,
      "denis": 7488,
      "poli": 7489,
      "1903": 7490,
      "1904": 7491,
      "pinto": 7492,
      "peters": 7493,
      "royal": 7494,
      "scandinav": 7495,
      "clear": 7496,
      "goldman": 7497,
      "ellora": 7498,
      "contrast": 7499,
      "sherry": 7500,
      "sheikh": 7501,
      "trumpet": 7502,
      "swing": 7503,
      "bhai": 7504,
      "ipoh": 7505,
      "bloomberg": 7506,
      "protein": 7507,
      "velazquez": 7508,
      "mughals": 7509,
      "theodos": 7510,
      "##ademia": 7511,
      "pavilions": 7512,
      "takayama": 7513,
      "minarets": 7514,
      "lexus": 7515,
      "keyes": 7516,
      "hideyoshi": 7517,
      "inefficiencies": 7518,
      "summerhaye": 7519,
      "determin": 7520,
      "scopus": 7521,
      "##ualized": 7522,
      "##ociates": 7523,
      "grassmarket": 7524,
      "herzl": 7525,
      "youells": 7526,
      "hellenistic": 7527,
      "betsy": 7528,
      "alcazar": 7529,
      "hirosema": 7530,
      "cholesterol": 7531,
      "tropez": 7532,
      "aaron": 7533,
      "ff": 7534,
      "gedi": 7535,
      "if": 7536,
      "jas": 7537,
      "jia": 7538,
      "ka": 7539,
      "kai": 7540,
      "mund": 7541,
      "ole": 7542,
      "sieng": 7543,
      "sag": 7544,
      "swe": 7545,
      "##bal": 7546,
      "##bus": 7547,
      "##bour": 7548,
      "##cule": 7549,
      "##gi": 7550,
      "##hon": 7551,
      "##wire": 7552,
      "thasos": 7553,
      "sere": 7554,
      "chern": 7555,
      "##amer": 7556,
      "chora": 7557,
      "mast": 7558,
      "tort": 7559,
      "cumbria": 7560,
      "dunn": 7561,
      "convers": 7562,
      "##ercise": 7563,
      "batu": 7564,
      "tate": 7565,
      "##imia": 7566,
      "doge": 7567,
      "camx": 7568,
      "bea": 7569,
      "vogue": 7570,
      "hans": 7571,
      "stacks": 7572,
      "##like": 7573,
      "monsan": 7574,
      "reeves": 7575,
      "inv": 7576,
      "newsh": 7577,
      "##entin": 7578,
      "alt": 7579,
      "onofr": 7580,
      "##aged": 7581,
      "##agena": 7582,
      "##seman": 7583,
      "clintons": 7584,
      "##ulated": 7585,
      "isid": 7586,
      "unve": 7587,
      "brack": 7588,
      "prolif": 7589,
      "prin": 7590,
      "133": 7591,
      "##ends": 7592,
      "1100": 7593,
      "##ument": 7594,
      "##ogu": 7595,
      "wilshire": 7596,
      "crud": 7597,
      "elli": 7598,
      "dorothy": 7599,
      "design": 7600,
      "##itting": 7601,
      "sonny": 7602,
      "##bya": 7603,
      "##away": 7604,
      "outcrop": 7605,
      "brady": 7606,
      "avalon": 7607,
      "##swald": 7608,
      "menes": 7609,
      "##ggio": 7610,
      "guam": 7611,
      "strate": 7612,
      "##yste": 7613,
      "cypresses": 7614,
      "1902": 7615,
      "##staver": 7616,
      "1898": 7617,
      "sno": 7618,
      "jazzercise": 7619,
      "elijah": 7620,
      "nyc": 7621,
      "bookstaver": 7622,
      "vincent": 7623,
      "##related": 7624,
      "twin": 7625,
      "9000": 7626,
      "augustine": 7627,
      "shahjah": 7628,
      "accademia": 7629,
      "cetel": 7630,
      "bergman": 7631,
      "magnolia": 7632,
      "jodie": 7633,
      "commemorated": 7634,
      "eugene": 7635,
      "cartagena": 7636,
      "connery": 7637,
      "wellesley": 7638,
      "boudoir": 7639,
      "acclim": 7640,
      "synergies": 7641,
      "doubt": 7642,
      "insurers": 7643,
      "feminism": 7644,
      "chantilly": 7645,
      "aurel": 7646,
      "vosges": 7647,
      "eskdale": 7648,
      "jaisalmer": 7649,
      "kebap": 7650,
      "gethseman": 7651,
      "funicular": 7652,
      "stalagm": 7653,
      "monsanto": 7654,
      "newshour": 7655,
      "onofrio": 7656,
      "shahjahan": 7657,
      "gethsemane": 7658,
      "aber": 7659,
      "dender": 7660,
      "equi": 7661,
      "fount": 7662,
      "gel": 7663,
      "ionia": 7664,
      "kok": 7665,
      "kastro": 7666,
      "mie": 7667,
      "oswald": 7668,
      "pi": 7669,
      "pent": 7670,
      "pele": 7671,
      "slide": 7672,
      "sieg": 7673,
      "tm": 7674,
      "wi": 7675,
      "wago": 7676,
      "ym": 7677,
      "##lat": 7678,
      "##lington": 7679,
      "##13": 7680,
      "##mitt": 7681,
      "##ciano": 7682,
      "##hart": 7683,
      "##falls": 7684,
      "##zena": 7685,
      "##jc": 7686,
      "##xter": 7687,
      "##ongate": 7688,
      "lax": 7689,
      "lady": 7690,
      "cox": 7691,
      "##nhaus": 7692,
      "chor": 7693,
      "tarn": 7694,
      "##eton": 7695,
      "##uchi": 7696,
      "##iche": 7697,
      "magd": 7698,
      "cul": 7699,
      "canongate": 7700,
      "mats": 7701,
      "dobson": 7702,
      "##ister": 7703,
      "##isner": 7704,
      "bent": 7705,
      "benedy": 7706,
      "##chers": 7707,
      "##ingo": 7708,
      "##leen": 7709,
      "chenh": 7710,
      "myst": 7711,
      "gangster": 7712,
      "##ebleau": 7713,
      "monde": 7714,
      "marin": 7715,
      "longab": 7716,
      "##ulate": 7717,
      "shop": 7718,
      "##management": 7719,
      "109": 7720,
      "105": 7721,
      "##ffey": 7722,
      "dock": 7723,
      "parody": 7724,
      "carly": 7725,
      "##ghada": 7726,
      "##verley": 7727,
      "303": 7728,
      "practic": 7729,
      "plat": 7730,
      "gonz": 7731,
      "bls": 7732,
      "##rial": 7733,
      "##ierre": 7734,
      "jerem": 7735,
      "club": 7736,
      "##ynski": 7737,
      "##oven": 7738,
      "##ecut": 7739,
      "##income": 7740,
      "ribera": 7741,
      "##pert": 7742,
      "herald": 7743,
      "##cls": 7744,
      "liffey": 7745,
      "guinness": 7746,
      "glenn": 7747,
      "osman": 7748,
      "fertil": 7749,
      "ponte": 7750,
      "appal": 7751,
      "1956": 7752,
      "kathar": 7753,
      "kathleen": 7754,
      "piccad": 7755,
      "rivera": 7756,
      "michelle": 7757,
      "##graph": 7758,
      "postmod": 7759,
      "##etsu": 7760,
      "snork": 7761,
      "royale": 7762,
      "sumo": 7763,
      "gabled": 7764,
      "randall": 7765,
      "darwin": 7766,
      "ruskin": 7767,
      "brea": 7768,
      "##shev": 7769,
      "sorbonne": 7770,
      "accord": 7771,
      "##iggs": 7772,
      "msnbc": 7773,
      "praha": 7774,
      "waverley": 7775,
      "colonnaded": 7776,
      "califf": 7777,
      "hurghada": 7778,
      "inflows": 7779,
      "mmstud": 7780,
      "toshogu": 7781,
      "justinian": 7782,
      "ammoniac": 7783,
      "chateaux": 7784,
      "mossad": 7785,
      "craftsmen": 7786,
      "fcic": 7787,
      "piazz": 7788,
      "consolid": 7789,
      "spencer": 7790,
      "fontainebleau": 7791,
      "denderah": 7792,
      "wagonheim": 7793,
      "ymca": 7794,
      "magdal": 7795,
      "benedykt": 7796,
      "piccadilly": 7797,
      "mmstudio": 7798,
      "06": 7799,
      "a1": 7800,
      "dent": 7801,
      "eq": 7802,
      "grose": 7803,
      "jou": 7804,
      "kad": 7805,
      "lik": 7806,
      "pfe": 7807,
      "paper": 7808,
      "smy": 7809,
      "sist": 7810,
      "tion": 7811,
      "tse": 7812,
      "wann": 7813,
      "yasser": 7814,
      "##build": 7815,
      "##iot": 7816,
      "##iya": 7817,
      "##sari": 7818,
      "##ued": 7819,
      "##uber": 7820,
      "##cle": 7821,
      "##witz": 7822,
      "##vd": 7823,
      "##55": 7824,
      "##anji": 7825,
      "thot": 7826,
      "khal": 7827,
      "chenn": 7828,
      "coca": 7829,
      "ngach": 7830,
      "##ochi": 7831,
      "##ience": 7832,
      "##amon": 7833,
      "##amar": 7834,
      "nghin": 7835,
      "lamma": 7836,
      "toul": 7837,
      "ras": 7838,
      "bolt": 7839,
      "boxing": 7840,
      "canyon": 7841,
      "capito": 7842,
      "lehman": 7843,
      "loe": 7844,
      "hect": 7845,
      "heights": 7846,
      "robi": 7847,
      "bag": 7848,
      "##iter": 7849,
      "##itive": 7850,
      "defl": 7851,
      "degli": 7852,
      "##lement": 7853,
      "##roach": 7854,
      "rudy": 7855,
      "sikk": 7856,
      "##andra": 7857,
      "bug": 7858,
      "##olly": 7859,
      "invent": 7860,
      "##ential": 7861,
      "##agio": 7862,
      "##ague": 7863,
      "##opo": 7864,
      "clinicians": 7865,
      "scan": 7866,
      "##izu": 7867,
      "ard": 7868,
      "##tino": 7869,
      "edfu": 7870,
      "##uts": 7871,
      "##utes": 7872,
      "##very": 7873,
      "##phine": 7874,
      "##phardt": 7875,
      "brass": 7876,
      "prix": 7877,
      "gephardt": 7878,
      "##eye": 7879,
      "donat": 7880,
      "palmer": 7881,
      "##udi": 7882,
      "miata": 7883,
      "nons": 7884,
      "##enstein": 7885,
      "louisian": 7886,
      "perry": 7887,
      "##isme": 7888,
      "freud": 7889,
      "agatha": 7890,
      "1925": 7891,
      "1933": 7892,
      "240": 7893,
      "resorts": 7894,
      "retiro": 7895,
      "jesuit": 7896,
      "preamb": 7897,
      "oxford": 7898,
      "funer": 7899,
      "strong": 7900,
      "lsu": 7901,
      "lsn": 7902,
      "##upi": 7903,
      "paso": 7904,
      "passe": 7905,
      "bowness": 7906,
      "down": 7907,
      "1885": 7908,
      "##borough": 7909,
      "commission": 7910,
      "blackpool": 7911,
      "junction": 7912,
      "narayan": 7913,
      "1707": 7914,
      "helena": 7915,
      "acrosefrom": 7916,
      "lc50": 7917,
      "pitti": 7918,
      "reuters": 7919,
      "jainism": 7920,
      "mintz": 7921,
      "kazin": 7922,
      "crosethe": 7923,
      "merrion": 7924,
      "amarillo": 7925,
      "illustr": 7926,
      "ricard": 7927,
      "keynesian": 7928,
      "endow": 7929,
      "wachter": 7930,
      "kudupi": 7931,
      "sopran": 7932,
      "quantitative": 7933,
      "bosnia": 7934,
      "mcgwire": 7935,
      "corpus": 7936,
      "eastwood": 7937,
      "winston": 7938,
      "prototyping": 7939,
      "signposted": 7940,
      "ainu": 7941,
      "chronicle": 7942,
      "shapiro": 7943,
      "sporades": 7944,
      "forks": 7945,
      "conveying": 7946,
      "chennai": 7947,
      "sikkim": 7948,
      "jesuitical": 7949,
      "07": 7950,
      "afr": 7951,
      "bes": 7952,
      "dll": 7953,
      "ee": 7954,
      "eco": 7955,
      "gta": 7956,
      "jaw": 7957,
      "nim": 7958,
      "pb": 7959,
      "qa": 7960,
      "rssi": 7961,
      "salem": 7962,
      "wadi": 7963,
      "##bli": 7964,
      "##bio": 7965,
      "##kr": 7966,
      "##uele": 7967,
      "##rina": 7968,
      "##gna": 7969,
      "##ye": 7970,
      "##yr": 7971,
      "##wise": 7972,
      "seth": 7973,
      "larg": 7974,
      "motiv": 7975,
      "##amachi": 7976,
      "##aun": 7977,
      "##etic": 7978,
      "##ici": 7979,
      "##icat": 7980,
      "##ucester": 7981,
      "boeing": 7982,
      "curb": 7983,
      "curt": 7984,
      "##erv": 7985,
      "bibli": 7986,
      "bangal": 7987,
      "hopkins": 7988,
      "mathe": 7989,
      "loec": 7990,
      "##issa": 7991,
      "heb": 7992,
      "rob": 7993,
      "##itte": 7994,
      "hank": 7995,
      "hankinson": 7996,
      "##roux": 7997,
      "amel": 7998,
      "amber": 7999,
      "ghat": 8000,
      "##ouk": 8001,
      "monopol": 8002,
      "revis": 8003,
      "manley": 8004,
      "laut": 8005,
      "trois": 8006,
      "marley": 8007,
      "one": 8008,
      "##agne": 8009,
      "1850": 8010,
      "dual": 8011,
      "##alla": 8012,
      "scro": 8013,
      "##unds": 8014,
      "carson": 8015,
      "##ession": 8016,
      "##phin": 8017,
      "brick": 8018,
      "spok": 8019,
      "spraw": 8020,
      "mckay": 8021,
      "crist": 8022,
      "enclos": 8023,
      "disin": 8024,
      "davidson": 8025,
      "comed": 8026,
      "comment": 8027,
      "##lave": 8028,
      "salinger": 8029,
      "##tific": 8030,
      "richland": 8031,
      "##heads": 8032,
      "flav": 8033,
      "scrip": 8034,
      "##gerald": 8035,
      "caltech": 8036,
      "##nning": 8037,
      "glend": 8038,
      "popeye": 8039,
      "retire": 8040,
      "hawail": 8041,
      "kofukuji": 8042,
      "brooke": 8043,
      "game": 8044,
      "##leness": 8045,
      "##bein": 8046,
      "celeste": 8047,
      "1895": 8048,
      "1863": 8049,
      "snap": 8050,
      "janina": 8051,
      "retrofit": 8052,
      "springer": 8053,
      "randi": 8054,
      "alabaster": 8055,
      "mercury": 8056,
      "nicola": 8057,
      "juno": 8058,
      "kanch": 8059,
      "brooks": 8060,
      "rothko": 8061,
      "brandy": 8062,
      "cherry": 8063,
      "clive": 8064,
      "enclave": 8065,
      "oasdi": 8066,
      "barthol": 8067,
      "fitzgerald": 8068,
      "sardinia": 8069,
      "##ometric": 8070,
      "gloucester": 8071,
      "editorialists": 8072,
      "emanuele": 8073,
      "fairfax": 8074,
      "impressionist": 8075,
      "chowk": 8076,
      "rousseau": 8077,
      "pdfa": 8078,
      "dustin": 8079,
      "clift": 8080,
      "lusit": 8081,
      "stanislas": 8082,
      "fpas": 8083,
      "zercher": 8084,
      "strateg": 8085,
      "stalagmites": 8086,
      "preambles": 8087,
      "bangalore": 8088,
      "retirees": 8089,
      "fi": 8090,
      "fado": 8091,
      "floyd": 8092,
      "gari": 8093,
      "hd": 8094,
      "hds": 8095,
      "jahang": 8096,
      "pine": 8097,
      "pete": 8098,
      "ws": 8099,
      "wak": 8100,
      "wade": 8101,
      "##bald": 8102,
      "##dition": 8103,
      "##kish": 8104,
      "##ladesh": 8105,
      "##miss": 8106,
      "##card": 8107,
      "##cini": 8108,
      "##houses": 8109,
      "##wald": 8110,
      "##vill": 8111,
      "##jack": 8112,
      "##acon": 8113,
      "vem": 8114,
      "soub": 8115,
      "tol": 8116,
      "bols": 8117,
      "rata": 8118,
      "bir": 8119,
      "anjou": 8120,
      "bangladesh": 8121,
      "##esth": 8122,
      "taman": 8123,
      "##alus": 8124,
      "hubb": 8125,
      "##iso": 8126,
      "##isan": 8127,
      "camara": 8128,
      "hein": 8129,
      "rowe": 8130,
      "##iad": 8131,
      "##leju": 8132,
      "##rod": 8133,
      "ames": 8134,
      "##raki": 8135,
      "----------": 8136,
      "##olf": 8137,
      "##idy": 8138,
      "marta": 8139,
      "hyde": 8140,
      "1830": 8141,
      "##emaking": 8142,
      "shield": 8143,
      "soci": 8144,
      "sca": 8145,
      "##fford": 8146,
      "##illac": 8147,
      "##illing": 8148,
      "##owed": 8149,
      "edific": 8150,
      "grill": 8151,
      "##irts": 8152,
      "slav": 8153,
      "pret": 8154,
      "meta": 8155,
      "span": 8156,
      "miya": 8157,
      "perd": 8158,
      "greider": 8159,
      "sally": 8160,
      "##tric": 8161,
      "220": 8162,
      "flower": 8163,
      "walsh": 8164,
      "1938": 8165,
      "atlas": 8166,
      "glam": 8167,
      "carolyn": 8168,
      "kathie": 8169,
      "##leton": 8170,
      "ers": 8171,
      "##ferencing": 8172,
      "1907": 8173,
      "phillips": 8174,
      "##uching": 8175,
      "1860": 8176,
      "##iyama": 8177,
      "misstat": 8178,
      "1880": 8179,
      "kildare": 8180,
      "maxwell": 8181,
      "routha": 8182,
      "1845": 8183,
      "1857": 8184,
      "##guin": 8185,
      "blooming": 8186,
      "##iently": 8187,
      "fasb": 8188,
      "nashville": 8189,
      "##zenji": 8190,
      "escorial": 8191,
      "canoeing": 8192,
      "tsui": 8193,
      "##stitution": 8194,
      "macroeconomic": 8195,
      "cadillac": 8196,
      "overhang": 8197,
      "bolshev": 8198,
      "ocean": 8199,
      "patricia": 8200,
      "giorgio": 8201,
      "longabaugh": 8202,
      "motivational": 8203,
      "jahangir": 8204,
      "soubise": 8205,
      "dit": 8206,
      "drey": 8207,
      "drake": 8208,
      "fm": 8209,
      "fay": 8210,
      "hare": 8211,
      "kun": 8212,
      "kaye": 8213,
      "kwh": 8214,
      "lian": 8215,
      "mitch": 8216,
      "opp": 8217,
      "pole": 8218,
      "rig": 8219,
      "tanh": 8220,
      "tic": 8221,
      "ug": 8222,
      "ups": 8223,
      "xui": 8224,
      "zheng": 8225,
      "##bashi": 8226,
      "##eim": 8227,
      "##uge": 8228,
      "##lk": 8229,
      "##lich": 8230,
      "##litz": 8231,
      "##88": 8232,
      "##mounted": 8233,
      "##west": 8234,
      "##aned": 8235,
      "casey": 8236,
      "vale": 8237,
      "vaub": 8238,
      "##nhardt": 8239,
      "##acroix": 8240,
      "noah": 8241,
      "##ucco": 8242,
      "lamb": 8243,
      "vest": 8244,
      "maver": 8245,
      "rag": 8246,
      "kyc": 8247,
      "canon": 8248,
      "##arly": 8249,
      "##imi": 8250,
      "##imas": 8251,
      "team": 8252,
      "huff": 8253,
      "luo": 8254,
      "luis": 8255,
      "heath": 8256,
      "##eli": 8257,
      "##asing": 8258,
      "##rob": 8259,
      "##ilian": 8260,
      "amster": 8261,
      "rupert": 8262,
      "div": 8263,
      "dion": 8264,
      "stucco": 8265,
      "##light": 8266,
      "marne": 8267,
      "##tea": 8268,
      "2006": 8269,
      "##omen": 8270,
      "newman": 8271,
      "##igin": 8272,
      "##manu": 8273,
      "bart": 8274,
      "##izations": 8275,
      "gopnik": 8276,
      "mum": 8277,
      "sammy": 8278,
      "1660": 8279,
      "edith": 8280,
      "##esses": 8281,
      "promen": 8282,
      "geng": 8283,
      "plus": 8284,
      "rutgers": 8285,
      "elabor": 8286,
      "colgate": 8287,
      "##ensed": 8288,
      "harland": 8289,
      "##iths": 8290,
      "delacroix": 8291,
      "chartres": 8292,
      "flora": 8293,
      "orient": 8294,
      "##heater": 8295,
      "2011": 8296,
      "cocker": 8297,
      "este": 8298,
      "albany": 8299,
      "madras": 8300,
      "evangel": 8301,
      "1921": 8302,
      "redgra": 8303,
      "preheater": 8304,
      "##zzo": 8305,
      "archite": 8306,
      "syrac": 8307,
      "##iye": 8308,
      "hiu": 8309,
      "##ships": 8310,
      "revaluat": 8311,
      "antilles": 8312,
      "valent": 8313,
      "clarence": 8314,
      "jules": 8315,
      "tracy": 8316,
      "sheen": 8317,
      "promulgate": 8318,
      "elements": 8319,
      "obama": 8320,
      "apollon": 8321,
      "tudor": 8322,
      "presorting": 8323,
      "bassenth": 8324,
      "playboy": 8325,
      "##beds": 8326,
      "audley": 8327,
      "hkta": 8328,
      "stereo": 8329,
      "cassidy": 8330,
      "primer": 8331,
      "gillette": 8332,
      "metropolis": 8333,
      "hydrogen": 8334,
      "jockey": 8335,
      "corsica": 8336,
      "mcgrath": 8337,
      "continental": 8338,
      "menhirs": 8339,
      "viollet": 8340,
      "stallone": 8341,
      "camargue": 8342,
      "topkape": 8343,
      "giacometti": 8344,
      "siegel": 8345,
      "postmodern": 8346,
      "hectare": 8347,
      "donatello": 8348,
      "illustrating": 8349,
      "ricardian": 8350,
      "ditka": 8351,
      "amsterdam": 8352,
      "redgrave": 8353,
      "syracuse": 8354,
      "bhu": 8355,
      "bess": 8356,
      "bbc": 8357,
      "cenot": 8358,
      "dsp": 8359,
      "guat": 8360,
      "ghuri": 8361,
      "hier": 8362,
      "icon": 8363,
      "kap": 8364,
      "kitch": 8365,
      "lico": 8366,
      "npr": 8367,
      "pinsky": 8368,
      "rer": 8369,
      "sis": 8370,
      "wer": 8371,
      "wren": 8372,
      "yates": 8373,
      "##bility": 8374,
      "##derson": 8375,
      "##kit": 8376,
      "##sl": 8377,
      "##utin": 8378,
      "##tb": 8379,
      "##nem": 8380,
      "##fair": 8381,
      "##yas": 8382,
      "##woman": 8383,
      "##pol": 8384,
      "##pell": 8385,
      "##pierre": 8386,
      "##zon": 8387,
      "thr": 8388,
      "sears": 8389,
      "##enat": 8390,
      "gim": 8391,
      "##onn": 8392,
      "sunn": 8393,
      "suwak": 8394,
      "nolan": 8395,
      "qui": 8396,
      "qutb": 8397,
      "##auss": 8398,
      "quantifying": 8399,
      "quar": 8400,
      "toll": 8401,
      "bou": 8402,
      "bosch": 8403,
      "conj": 8404,
      "anah": 8405,
      "capella": 8406,
      "##eson": 8407,
      "trip": 8408,
      "neuhar": 8409,
      "leland": 8410,
      "loet": 8411,
      "lund": 8412,
      "heian": 8413,
      "##eler": 8414,
      "##elos": 8415,
      "##elcher": 8416,
      "##aste": 8417,
      "gow": 8418,
      "lennon": 8419,
      "rox": 8420,
      "rolex": 8421,
      "robes": 8422,
      "##edral": 8423,
      "mead": 8424,
      "choicers": 8425,
      "toner": 8426,
      "itiner": 8427,
      "negev": 8428,
      "digen": 8429,
      "##liners": 8430,
      "dayak": 8431,
      "layoff": 8432,
      "mons": 8433,
      "gaya": 8434,
      "catedral": 8435,
      "##uri": 8436,
      "marlin": 8437,
      "##scri": 8438,
      "##akov": 8439,
      "guild": 8440,
      "##empt": 8441,
      "henderson": 8442,
      "##taz": 8443,
      "grunted": 8444,
      "unix": 8445,
      "143": 8446,
      "slump": 8447,
      "irre": 8448,
      "irrad": 8449,
      "irving": 8450,
      "progr": 8451,
      "intervent": 8452,
      "plo": 8453,
      "plate": 8454,
      "spir": 8455,
      "mcteer": 8456,
      "cola": 8457,
      "##issos": 8458,
      "exuber": 8459,
      "discrimin": 8460,
      "salsa": 8461,
      "saletan": 8462,
      "225": 8463,
      "agora": 8464,
      "flam": 8465,
      "floss": 8466,
      "##clud": 8467,
      "##ppi": 8468,
      "gujar": 8469,
      "1937": 8470,
      "baltic": 8471,
      "wellington": 8472,
      "##owski": 8473,
      "1874": 8474,
      "petite": 8475,
      "reclining": 8476,
      "##otting": 8477,
      "portland": 8478,
      "squat": 8479,
      "##lessness": 8480,
      "romeo": 8481,
      "beatles": 8482,
      "dickens": 8483,
      "levy": 8484,
      "apollin": 8485,
      "beaune": 8486,
      "schwartzkopf": 8487,
      "telecon": 8488,
      "everg": 8489,
      "hipaa": 8490,
      "popularly": 8491,
      "schoelcher": 8492,
      "fidel": 8493,
      "carthaginian": 8494,
      "outsourcing": 8495,
      "underst": 8496,
      "lionel": 8497,
      "arbois": 8498,
      "predict": 8499,
      "elicited": 8500,
      "placid": 8501,
      "safari": 8502,
      "sawyer": 8503,
      "impatiently": 8504,
      "disbursing": 8505,
      "pfeiffer": 8506,
      "sistine": 8507,
      "toulouse": 8508,
      "inventories": 8509,
      "vauban": 8510,
      "huffington": 8511,
      "architect": 8512,
      "bassenthwaite": 8513,
      "cenotaph": 8514,
      "dspb": 8515,
      "guatem": 8516,
      "anaheim": 8517,
      "neuharth": 8518,
      "robespierre": 8519,
      "itineraries": 8520,
      "digenova": 8521,
      "950": 8522,
      "ccc": 8523,
      "deu": 8524,
      "eile": 8525,
      "eust": 8526,
      "fong": 8527,
      "fire": 8528,
      "hitt": 8529,
      "kang": 8530,
      "kol": 8531,
      "kom": 8532,
      "kans": 8533,
      "kkr": 8534,
      "md": 8535,
      "mist": 8536,
      "ost": 8537,
      "sad": 8538,
      "tir": 8539,
      "twe": 8540,
      "urs": 8541,
      "xat": 8542,
      "##bian": 8543,
      "##eor": 8544,
      "##stein": 8545,
      "##uor": 8546,
      "##uke": 8547,
      "##lc": 8548,
      "##lai": 8549,
      "##mis": 8550,
      "##cian": 8551,
      "##nip": 8552,
      "##gger": 8553,
      "##frey": 8554,
      "##writ": 8555,
      "##phur": 8556,
      "##paper": 8557,
      "##zzar": 8558,
      "##zko": 8559,
      "##21": 8560,
      "##oils": 8561,
      "##ief": 8562,
      "cas": 8563,
      "seman": 8564,
      "laden": 8565,
      "##otta": 8566,
      "##ateness": 8567,
      "##angor": 8568,
      "##aia": 8569,
      "phyll": 8570,
      "##amine": 8571,
      "conde": 8572,
      "naomi": 8573,
      "##imer": 8574,
      "##impress": 8575,
      "##uates": 8576,
      "##ales": 8577,
      "##iski": 8578,
      "lands": 8579,
      "dew": 8580,
      "dexter": 8581,
      "tuyt": 8582,
      "stern": 8583,
      "champ": 8584,
      "bonnard": 8585,
      "##olson": 8586,
      "mante": 8587,
      "marvel": 8588,
      "ducal": 8589,
      "alger": 8590,
      "##akers": 8591,
      "guill": 8592,
      "longterm": 8593,
      "sheba": 8594,
      "##ivism": 8595,
      "##dressed": 8596,
      "##odan": 8597,
      "##def": 8598,
      "##vez": 8599,
      "##shin": 8600,
      "cardo": 8601,
      "edge": 8602,
      "grat": 8603,
      "grized": 8604,
      "slob": 8605,
      "ird": 8606,
      "##estim": 8607,
      "geisha": 8608,
      "##azi": 8609,
      "bottic": 8610,
      "plug": 8611,
      "spend": 8612,
      "blois": 8613,
      "blank": 8614,
      "supers": 8615,
      "croc": 8616,
      "crochet": 8617,
      "##daw": 8618,
      "##risk": 8619,
      "colmar": 8620,
      "##yna": 8621,
      "##ensky": 8622,
      "deliver": 8623,
      "pergam": 8624,
      "##bby": 8625,
      "gauguin": 8626,
      "rams": 8627,
      "musings": 8628,
      "##tych": 8629,
      "##rnin": 8630,
      "agon": 8631,
      "byron": 8632,
      "scrs": 8633,
      "madrasa": 8634,
      "rede": 8635,
      "##ubs": 8636,
      "respa": 8637,
      "illeg": 8638,
      "##arium": 8639,
      "murm": 8640,
      "strat": 8641,
      "farr": 8642,
      "belg": 8643,
      "lindsey": 8644,
      "1897": 8645,
      "##upas": 8646,
      "snider": 8647,
      "veneto": 8648,
      "midland": 8649,
      "pierce": 8650,
      "landmark": 8651,
      "valley": 8652,
      "darn": 8653,
      "mercado": 8654,
      "watteau": 8655,
      "kerensky": 8656,
      "bournem": 8657,
      "muncaster": 8658,
      "tigon": 8659,
      "soufri": 8660,
      "sharp": 8661,
      "##shead": 8662,
      "hilary": 8663,
      "cornwall": 8664,
      "selana": 8665,
      "pcs": 8666,
      "normandie": 8667,
      "olathe": 8668,
      "rochelle": 8669,
      "bulbs": 8670,
      "shalit": 8671,
      "hardkn": 8672,
      "merrill": 8673,
      "codification": 8674,
      "histoire": 8675,
      "##fusion": 8676,
      "bracero": 8677,
      "macroeconomics": 8678,
      "marathon": 8679,
      "spear": 8680,
      "speculators": 8681,
      "talmudic": 8682,
      "populist": 8683,
      "crammond": 8684,
      "actuarial": 8685,
      "correggio": 8686,
      "sulphur": 8687,
      "powerscourt": 8688,
      "unaddressed": 8689,
      "alkimia": 8690,
      "invalides": 8691,
      "carnegie": 8692,
      "parvati": 8693,
      "subsidizing": 8694,
      "bhairav": 8695,
      "katharine": 8696,
      "wanniski": 8697,
      "sopranos": 8698,
      "garibald": 8699,
      "edifices": 8700,
      "eileen": 8701,
      "grizedale": 8702,
      "slobodan": 8703,
      "botticelli": 8704,
      "bournemouth": 8705,
      "soufriyre": 8706,
      "hardknott": 8707,
      "garibaldi": 8708,
      "ais": 8709,
      "are": 8710,
      "bland": 8711,
      "ces": 8712,
      "cinc": 8713,
      "fro": 8714,
      "found": 8715,
      "ida": 8716,
      "jing": 8717,
      "kate": 8718,
      "kuching": 8719,
      "loth": 8720,
      "mh": 8721,
      "nand": 8722,
      "nago": 8723,
      "oils": 8724,
      "pug": 8725,
      "rv": 8726,
      "reth": 8727,
      "rph": 8728,
      "sway": 8729,
      "tpc": 8730,
      "use": 8731,
      "vuoc": 8732,
      "xer": 8733,
      "zane": 8734,
      "##sore": 8735,
      "##tler": 8736,
      "##lad": 8737,
      "##mu": 8738,
      "##mm": 8739,
      "##mone": 8740,
      "##cal": 8741,
      "##fn": 8742,
      "##wed": 8743,
      "##ointe": 8744,
      "##iele": 8745,
      "cales": 8746,
      "colin": 8747,
      "coli": 8748,
      "coven": 8749,
      "nhong": 8750,
      "hook": 8751,
      "##atri": 8752,
      "##aya": 8753,
      "##amines": 8754,
      "suff": 8755,
      "banning": 8756,
      "##uct": 8757,
      "tori": 8758,
      "rahman": 8759,
      "duff": 8760,
      "##esis": 8761,
      "##imming": 8762,
      "##orique": 8763,
      "lobos": 8764,
      "hockey": 8765,
      "timothy": 8766,
      "##aser": 8767,
      "rohan": 8768,
      "lancaster": 8769,
      "bad": 8770,
      "tread": 8771,
      "decc": 8772,
      "##lect": 8773,
      "##rous": 8774,
      "##rough": 8775,
      "ruy": 8776,
      "rudol": 8777,
      "nefer": 8778,
      "neander": 8779,
      "chekh": 8780,
      "dior": 8781,
      "diwan": 8782,
      "mysore": 8783,
      "##andt": 8784,
      "sto": 8785,
      "##ahs": 8786,
      "reor": 8787,
      "refr": 8788,
      "manet": 8789,
      "##adas": 8790,
      "infer": 8791,
      "##ural": 8792,
      "marm": 8793,
      "aldr": 8794,
      "altea": 8795,
      "hatfield": 8796,
      "##agi": 8797,
      "##ults": 8798,
      "shant": 8799,
      "##elled": 8800,
      "##neapolis": 8801,
      "##odox": 8802,
      "arp": 8803,
      "arno": 8804,
      "##ipuram": 8805,
      "##ationists": 8806,
      "1650": 8807,
      "edif": 8808,
      "##phone": 8809,
      "saff": 8810,
      "saxon": 8811,
      "##kyu": 8812,
      "##ishi": 8813,
      "301": 8814,
      "##lesia": 8815,
      "##associates": 8816,
      "mci": 8817,
      "##ethorpe": 8818,
      "cron": 8819,
      "els": 8820,
      "claude": 8821,
      "naple": 8822,
      "##ortable": 8823,
      "minisk": 8824,
      "minneapolis": 8825,
      "##plethorpe": 8826,
      "##lder": 8827,
      "exc": 8828,
      "examines": 8829,
      "##ikes": 8830,
      "ibn": 8831,
      "##artney": 8832,
      "212": 8833,
      "depreci": 8834,
      "flop": 8835,
      "scrutin": 8836,
      "compost": 8837,
      "computer": 8838,
      "jackie": 8839,
      "mccartney": 8840,
      "kenny": 8841,
      "atm": 8842,
      "calvin": 8843,
      "##pret": 8844,
      "kooning": 8845,
      "332": 8846,
      "appointe": 8847,
      "overc": 8848,
      "burgh": 8849,
      "usat": 8850,
      "roseanne": 8851,
      "jacopo": 8852,
      "gerry": 8853,
      "1910": 8854,
      "winds": 8855,
      "raja": 8856,
      "kosovars": 8857,
      "aragon": 8858,
      "1894": 8859,
      "mapplethorpe": 8860,
      "downt": 8861,
      "skimming": 8862,
      "multis": 8863,
      "1805": 8864,
      "dyson": 8865,
      "conservatively": 8866,
      "villena": 8867,
      "copyp": 8868,
      "rachel": 8869,
      "mitter": 8870,
      "1793": 8871,
      "oldsm": 8872,
      "egal": 8873,
      "ceracz": 8874,
      "hughe": 8875,
      "beta": 8876,
      "dominic": 8877,
      "##ymnon": 8878,
      "1814": 8879,
      "cookie": 8880,
      "1688": 8881,
      "gazu": 8882,
      "navig": 8883,
      "cirque": 8884,
      "iglesia": 8885,
      "dawkins": 8886,
      "astro": 8887,
      "alec": 8888,
      "unex": 8889,
      "dalai": 8890,
      "carthaginians": 8891,
      "colombia": 8892,
      "vernon": 8893,
      "kasich": 8894,
      "little": 8895,
      "windsurfing": 8896,
      "yellowstone": 8897,
      "eszterhas": 8898,
      "negril": 8899,
      "acrosethe": 8900,
      "orthodox": 8901,
      "berthelot": 8902,
      "doubtfully": 8903,
      "lsnj": 8904,
      "dreyfus": 8905,
      "promenades": 8906,
      "revaluation": 8907,
      "##writers": 8908,
      "darnley": 8909,
      "cincinn": 8910,
      "nagoya": 8911,
      "oilskin": 8912,
      "rethymnon": 8913,
      "deccan": 8914,
      "neanderth": 8915,
      "chekhov": 8916,
      "edifice": 8917,
      "miniskirts": 8918,
      "orthodoxy": 8919,
      "09": 8920,
      "640": 8921,
      "akin": 8922,
      "bett": 8923,
      "eid": 8924,
      "echo": 8925,
      "fag": 8926,
      "fate": 8927,
      "guoc": 8928,
      "gate": 8929,
      "imb": 8930,
      "jui": 8931,
      "kow": 8932,
      "pand": 8933,
      "pain": 8934,
      "peck": 8935,
      "tes": 8936,
      "won": 8937,
      "yoga": 8938,
      "##bro": 8939,
      "##uli": 8940,
      "##lal": 8941,
      "##ration": 8942,
      "##cod": 8943,
      "##nut": 8944,
      "##fac": 8945,
      "##pi": 8946,
      "##oist": 8947,
      "##huda": 8948,
      "truat": 8949,
      "seng": 8950,
      "##atic": 8951,
      "theban": 8952,
      "##aum": 8953,
      "##ucks": 8954,
      "##icher": 8955,
      "rabb": 8956,
      "boon": 8957,
      "ratemaking": 8958,
      "##erre": 8959,
      "bis": 8960,
      "cana": 8961,
      "canary": 8962,
      "teat": 8963,
      "leng": 8964,
      "league": 8965,
      "hui": 8966,
      "hell": 8967,
      "benny": 8968,
      "rosa": 8969,
      "##itter": 8970,
      "##itical": 8971,
      "demon": 8972,
      "##char": 8973,
      "##lee": 8974,
      "##usi": 8975,
      "macdonald": 8976,
      "maury": 8977,
      "##reja": 8978,
      "buick": 8979,
      "##liker": 8980,
      "##ahi": 8981,
      "manuel": 8982,
      "##ided": 8983,
      "##urg": 8984,
      "##omy": 8985,
      "yehuda": 8986,
      "allah": 8987,
      "##aky": 8988,
      "ghibert": 8989,
      "##ffles": 8990,
      "##drick": 8991,
      "##ipates": 8992,
      "parker": 8993,
      "162": 8994,
      "carto": 8995,
      "##quita": 8996,
      "bray": 8997,
      "##ords": 8998,
      "irca": 8999,
      "proust": 9000,
      "natur": 9001,
      "palace": 9002,
      "spark": 9003,
      "spikes": 9004,
      "##inster": 9005,
      "##ogue": 9006,
      "##antes": 9007,
      "##ension": 9008,
      "##otha": 9009,
      "berger": 9010,
      "bertha": 9011,
      "desira": 9012,
      "dispar": 9013,
      "##astes": 9014,
      "ramsey": 9015,
      "angelenos": 9016,
      "##anning": 9017,
      "schw": 9018,
      "schro": 9019,
      "schol": 9020,
      "fluct": 9021,
      "patna": 9022,
      "##zariello": 9023,
      "##ostro": 9024,
      "atl": 9025,
      "atir": 9026,
      "##chez": 9027,
      "pond": 9028,
      "##ology": 9029,
      "##ukes": 9030,
      "usd": 9031,
      "reagents": 9032,
      "##fulness": 9033,
      "mandar": 9034,
      "mandir": 9035,
      "##thex": 9036,
      "##ignano": 9037,
      "1869": 9038,
      "1875": 9039,
      "knum": 9040,
      "cmws": 9041,
      "jeffords": 9042,
      "connolly": 9043,
      "azule": 9044,
      "590": 9045,
      "ellis": 9046,
      "flynn": 9047,
      "concurred": 9048,
      "##ography": 9049,
      "1490": 9050,
      "narthex": 9051,
      "tourisme": 9052,
      "hilliker": 9053,
      "587": 9054,
      "##buh": 9055,
      "broncons": 9056,
      "##dance": 9057,
      "quintile": 9058,
      "##ambhu": 9059,
      "help": 9060,
      "boomer": 9061,
      "1453": 9062,
      "igreja": 9063,
      "streamline": 9064,
      "rehn": 9065,
      "mazzariello": 9066,
      "frieze": 9067,
      "abbaye": 9068,
      "cassette": 9069,
      "kidron": 9070,
      "gieo": 9071,
      "mgm": 9072,
      "sulfates": 9073,
      "viscusi": 9074,
      "madeiran": 9075,
      "baldwin": 9076,
      "aspen": 9077,
      "sandstone": 9078,
      "nigeria": 9079,
      "guadalest": 9080,
      "kedah": 9081,
      "tiered": 9082,
      "anticipates": 9083,
      "rosewindow": 9084,
      "unveiled": 9085,
      "fountain": 9086,
      "ardennes": 9087,
      "funerary": 9088,
      "bolstered": 9089,
      "cockermouth": 9090,
      "irradiation": 9091,
      "predictably": 9092,
      "guatemala": 9093,
      "hittite": 9094,
      "swayambhu": 9095,
      "saffron": 9096,
      "ghiberti": 9097,
      "320": 9098,
      "ach": 9099,
      "cic": 9100,
      "cell": 9101,
      "crow": 9102,
      "dord": 9103,
      "eia": 9104,
      "file": 9105,
      "folia": 9106,
      "gott": 9107,
      "hp": 9108,
      "ios": 9109,
      "kiy": 9110,
      "line": 9111,
      "ligg": 9112,
      "nad": 9113,
      "nipp": 9114,
      "oim": 9115,
      "ovitz": 9116,
      "put": 9117,
      "ruoc": 9118,
      "tg": 9119,
      "vine": 9120,
      "wid": 9121,
      "xien": 9122,
      "xoai": 9123,
      "yas": 9124,
      "điec": 9125,
      "##bane": 9126,
      "##dka": 9127,
      "##oads": 9128,
      "##lom": 9129,
      "##lce": 9130,
      "##maid": 9131,
      "##cans": 9132,
      "##hold": 9133,
      "##fta": 9134,
      "##74": 9135,
      "cave": 9136,
      "cash": 9137,
      "lah": 9138,
      "chel": 9139,
      "##atas": 9140,
      "##eno": 9141,
      "##angu": 9142,
      "gifford": 9143,
      "##ayun": 9144,
      "##iento": 9145,
      "##amiento": 9146,
      "noir": 9147,
      "chir": 9148,
      "mara": 9149,
      "vip": 9150,
      "boa": 9151,
      "ayunt": 9152,
      "dulce": 9153,
      "##eration": 9154,
      "phill": 9155,
      "anita": 9156,
      "lyn": 9157,
      "##arily": 9158,
      "##imbur": 9159,
      "khuong": 9160,
      "dolm": 9161,
      "##alys": 9162,
      "leaf": 9163,
      "moj": 9164,
      "log": 9165,
      "lour": 9166,
      "trav": 9167,
      "traste": 9168,
      "gol": 9169,
      "rop": 9170,
      "roul": 9171,
      "##iavel": 9172,
      "vodka": 9173,
      "langkaw": 9174,
      "amort": 9175,
      "nguu": 9176,
      "umbr": 9177,
      "##rakes": 9178,
      "neal": 9179,
      "stupas": 9180,
      "emile": 9181,
      "bukit": 9182,
      "##liano": 9183,
      "rex": 9184,
      "reason": 9185,
      "##olith": 9186,
      "lauren": 9187,
      "webster": 9188,
      "inacc": 9189,
      "baux": 9190,
      "##akuji": 9191,
      "##ianino": 9192,
      "##emy": 9193,
      "##igny": 9194,
      "##igma": 9195,
      "##abl": 9196,
      "##ableness": 9197,
      "##stas": 9198,
      "johns": 9199,
      "scala": 9200,
      "scowled": 9201,
      "##ffany": 9202,
      "##illas": 9203,
      "parmig": 9204,
      "samoth": 9205,
      "##quest": 9206,
      "edok": 9207,
      "##ashiyama": 9208,
      "issu": 9209,
      "bret": 9210,
      "brent": 9211,
      "tiffany": 9212,
      "profusion": 9213,
      "donna": 9214,
      "palaw": 9215,
      "sper": 9216,
      "elvis": 9217,
      "##rism": 9218,
      "clara": 9219,
      "malo": 9220,
      "##oths": 9221,
      "abe": 9222,
      "medina": 9223,
      "ombo": 9224,
      "##ikan": 9225,
      "morant": 9226,
      "##obile": 9227,
      "salz": 9228,
      "##loon": 9229,
      "frances": 9230,
      "esth": 9231,
      "esque": 9232,
      "thornton": 9233,
      "crop": 9234,
      "##ife": 9235,
      "##ifying": 9236,
      "pataki": 9237,
      "##zaa": 9238,
      "subpr": 9239,
      "nafta": 9240,
      "porches": 9241,
      "##worker": 9242,
      "append": 9243,
      "sink": 9244,
      "garuda": 9245,
      "##brai": 9246,
      "wee": 9247,
      "mandrakes": 9248,
      "1918": 9249,
      "archie": 9250,
      "##rera": 9251,
      "denby": 9252,
      "1909": 9253,
      "1906": 9254,
      "##ective": 9255,
      "horloge": 9256,
      "1865": 9257,
      "1872": 9258,
      "crepe": 9259,
      "santana": 9260,
      "sarnath": 9261,
      "drap": 9262,
      "dcs": 9263,
      "foals": 9264,
      "##borne": 9265,
      "cours": 9266,
      "kamp": 9267,
      "##ounts": 9268,
      "levada": 9269,
      "##gener": 9270,
      "obser": 9271,
      "pedest": 9272,
      "717": 9273,
      "faludi": 9274,
      "presorted": 9275,
      "##onomics": 9276,
      "waivers": 9277,
      "verona": 9278,
      "1763": 9279,
      "alpaugh": 9280,
      "stonework": 9281,
      "iznik": 9282,
      "kleinman": 9283,
      "santorum": 9284,
      "oasis": 9285,
      "artemis": 9286,
      "yupp": 9287,
      "##lieb": 9288,
      "perakia": 9289,
      "hippie": 9290,
      "lowincome": 9291,
      "ineffect": 9292,
      "hawkshead": 9293,
      "gwen": 9294,
      "cochin": 9295,
      "bodh": 9296,
      "grimly": 9297,
      "mpg": 9298,
      "hewlett": 9299,
      "kwanzaa": 9300,
      "brisbane": 9301,
      "limousine": 9302,
      "pleasantly": 9303,
      "skiddaw": 9304,
      "prolific": 9305,
      "carlyle": 9306,
      "khalili": 9307,
      "deflation": 9308,
      "wsj": 9309,
      "flowerbeds": 9310,
      "misstatements": 9311,
      "triptych": 9312,
      "exuberant": 9313,
      "teleconferencing": 9314,
      "mantegna": 9315,
      "guillaume": 9316,
      "croce": 9317,
      "kowloon": 9318,
      "rehnquist": 9319,
      "dordogne": 9320,
      "gottlieb": 9321,
      "liggett": 9322,
      "ayuntamiento": 9323,
      "trastever": 9324,
      "roulette": 9325,
      "langkawi": 9326,
      "parmigianino": 9327,
      "edokko": 9328,
      "palawatr": 9329,
      "subprime": 9330,
      "866": 9331,
      "a12": 9332,
      "diem": 9333,
      "eut": 9334,
      "fah": 9335,
      "fact": 9336,
      "jung": 9337,
      "jau": 9338,
      "lig": 9339,
      "lille": 9340,
      "mish": 9341,
      "nil": 9342,
      "panh": 9343,
      "pah": 9344,
      "pir": 9345,
      "rx": 9346,
      "sle": 9347,
      "uly": 9348,
      "##bun": 9349,
      "##bind": 9350,
      "##bome": 9351,
      "##baugh": 9352,
      "##dkey": 9353,
      "##oese": 9354,
      "##time": 9355,
      "##lman": 9356,
      "##lath": 9357,
      "##rie": 9358,
      "##rai": 9359,
      "##rig": 9360,
      "##rate": 9361,
      "##rna": 9362,
      "##rics": 9363,
      "##ridge": 9364,
      "##mith": 9365,
      "##cz": 9366,
      "##gant": 9367,
      "##fort": 9368,
      "##four": 9369,
      "##yama": 9370,
      "##yria": 9371,
      "##ante": 9372,
      "##anters": 9373,
      "cauc": 9374,
      "khieng": 9375,
      "vasari": 9376,
      "##nham": 9377,
      "##aters": 9378,
      "##unge": 9379,
      "quer": 9380,
      "##infeld": 9381,
      "##uche": 9382,
      "vega": 9383,
      "sound": 9384,
      "##iecki": 9385,
      "honey": 9386,
      "vid": 9387,
      "toh": 9388,
      "bose": 9389,
      "bout": 9390,
      "borg": 9391,
      "phuot": 9392,
      "bipart": 9393,
      "xeo": 9394,
      "##org": 9395,
      "dog": 9396,
      "lowell": 9397,
      "##eles": 9398,
      "##elheim": 9399,
      "goog": 9400,
      "benign": 9401,
      "root": 9402,
      "##itud": 9403,
      "baccar": 9404,
      "nubian": 9405,
      "##tones": 9406,
      "##renhe": 9407,
      "maidan": 9408,
      "emery": 9409,
      "burn": 9410,
      "reass": 9411,
      "##idem": 9412,
      "ina": 9413,
      "inca": 9414,
      "inform": 9415,
      "hyp": 9416,
      "##rana": 9417,
      "lacquer": 9418,
      "##tham": 9419,
      "2075": 9420,
      "##ulous": 9421,
      "shep": 9422,
      "##aba": 9423,
      "##sts": 9424,
      "##stand": 9425,
      "scal": 9426,
      "havel": 9427,
      "##istry": 9428,
      "hutch": 9429,
      "1540": 9430,
      "gopuram": 9431,
      "1715": 9432,
      "##deka": 9433,
      "parochi": 9434,
      "judg": 9435,
      "##quin": 9436,
      "##asha": 9437,
      "unre": 9438,
      "brist": 9439,
      "prior": 9440,
      "steep": 9441,
      "131": 9442,
      "##endlath": 9443,
      "botan": 9444,
      "donnell": 9445,
      "blaz": 9446,
      "##rib": 9447,
      "mcph": 9448,
      "whar": 9449,
      "cred": 9450,
      "clancy": 9451,
      "##ovak": 9452,
      "execut": 9453,
      "como": 9454,
      "comart": 9455,
      "##ocked": 9456,
      "kali": 9457,
      "##bbie": 9458,
      "mori": 9459,
      "orange": 9460,
      "browning": 9461,
      "franks": 9462,
      "adsl": 9463,
      "milken": 9464,
      "genoese": 9465,
      "schor": 9466,
      "##iform": 9467,
      "compet": 9468,
      "evan": 9469,
[...]
