{
  "version": "1.0",
  "truncation": null,
  "padding": null,
  "added_tokens": [
    {
      "id": 0,
      "content": "[UNK]",
      "single_word": false,
      "lstrip": false,
      "rstrip": false,
      "normalized": false,
      "special": true
    },
    {
      "id": 1,
      "content": "[CLS]",
      "single_word": false,
      "lstrip": false,
      "rstrip": false,
      "normalized": false,
      "special": true
    },
    {
      "id": 2,
      "content": "[SEP]",
      "single_word": false,
      "lstrip": false,
      "rstrip": false,
      "normalized": false,
      "special": true
    },
    {
      "id": 3,
      "content": "[PAD]",
      "single_word": false,
      "lstrip": false,
      "rstrip": false,
      "normalized": false,
      "special": true
    },
    {
      "id": 4,
      "content": "[MASK]",
      "single_word": false,
      "lstrip": false,
      "rstrip": false,
      "normalized": false,
      "special": true
    }
  ],
  "normalizer": null,
  "pre_tokenizer": {
    "type": "Whitespace"
  },
  "post_processor": null,
  "decoder": null,
  "model": {
    "type": "BPE",
    "dropout": null,
    "unk_token": "[UNK]",
    "continuing_subword_prefix": null,
    "end_of_word_suffix": null,
    "fuse_unk": false,
    "byte_fallback": false,
    "ignore_merges": false,
    "vocab": {
      "[UNK]": 0,
      "[CLS]": 1,
      "[SEP]": 2,
      "[PAD]": 3,
      "[MASK]": 4,
      "\b": 5,
      "\u0010": 6,
      "!": 7,
      "\"": 8,
      "#": 9,
      "$": 10,
      "%": 11,
      "&": 12,
      "'": 13,
      "(": 14,
      ")": 15,
      "*": 16,
      "+": 17,
      ",": 18,
      "-": 19,
      ".": 20,
      "/": 21,
      "0": 22,
      "1": 23,
      "2": 24,
      "3": 25,
      "4": 26,
      "5": 27,
      "6": 28,
      "7": 29,
      "8": 30,
      "9": 31,
      ":": 32,
      ";": 33,
      "<": 34,
      "=": 35,
      ">": 36,
      "?": 37,
      "@": 38,
      "A": 39,
      "B": 40,
      "C": 41,
      "D": 42,
      "E": 43,
      "F": 44,
      "G": 45,
      "H": 46,
      "I": 47,
      "J": 48,
      "K": 49,
      "L": 50,
      "M": 51,
      "N": 52,
      "O": 53,
      "P": 54,
      "Q": 55,
      "R": 56,
      "S": 57,
      "T": 58,
      "U": 59,
      "V": 60,
      "W": 61,
      "X": 62,
      "Y": 63,
      "Z": 64,
      "[": 65,
      "\\": 66,
      "]": 67,
      "^": 68,
      "_": 69,
      "`": 70,
      "a": 71,
      "b": 72,
      "c": 73,
      "d": 74,
      "e": 75,
      "f": 76,
      "g": 77,
      "h": 78,
      "i": 79,
      "j": 80,
      "k": 81,
      "l": 82,
      "m": 83,
      "n": 84,
      "o": 85,
      "p": 86,
      "q": 87,
      "r": 88,
      "s": 89,
      "t": 90,
      "u": 91,
      "v": 92,
      "w": 93,
      "x": 94,
      "y": 95,
      "z": 96,
      "{": 97,
      "|": 98,
      "}": 99,
      "~": 100,
      "": 101,
      "": 102,
      "": 103,
      "": 104,
      "": 105,
      "": 106,
      "": 107,
      "": 108,
      "": 109,
      "": 110,
      "¡": 111,
      "¢": 112,
      "£": 113,
      "¤": 114,
      "¦": 115,
      "§": 116,
      "¨": 117,
      "©": 118,
      "ª": 119,
      "«": 120,
      "­": 121,
      "®": 122,
      "°": 123,
      "³": 124,
      "´": 125,
      "·": 126,
      "º": 127,
      "»": 128,
      "½": 129,
      "¾": 130,
      "¿": 131,
      "À": 132,
      "Á": 133,
      "Â": 134,
      "Ã": 135,
      "Ä": 136,
      "Å": 137,
      "Æ": 138,
      "Ç": 139,
      "È": 140,
      "É": 141,
      "Ê": 142,
      "Ï": 143,
      "Ð": 144,
      "Ó": 145,
      "Õ": 146,
      "Ö": 147,
      "Ø": 148,
      "Ü": 149,
      "Þ": 150,
      "ß": 151,
      "à": 152,
      "á": 153,
      "â": 154,
      "ã": 155,
      "ä": 156,
      "å": 157,
      "æ": 158,
      "ç": 159,
      "è": 160,
      "é": 161,
      "ê": 162,
      "ë": 163,
      "ì": 164,
      "í": 165,
      "î": 166,
      "ï": 167,
      "ð": 168,
      "ñ": 169,
      "ò": 170,
      "ó": 171,
      "ô": 172,
      "õ": 173,
      "ö": 174,
      "ø": 175,
      "ù": 176,
      "ú": 177,
      "û": 178,
      "ü": 179,
      "ý": 180,
      "ğ": 181,
      "ı": 182,
      "ō": 183,
      "Ż": 184,
      "א": 185,
      "ג": 186,
      "ו": 187,
      "י": 188,
      "כ": 189,
      "ל": 190,
      "מ": 191,
      "ן": 192,
      "ר": 193,
      "–": 194,
      "‘": 195,
      "’": 196,
      "“": 197,
      "”": 198,
      "…": 199,
      "″": 200,
      "₤": 201,
      "▼": 202,
      "★": 203,
      "、": 204,
      "": 205,
      "，": 206,
      "th": 207,
      "in": 208,
      "er": 209,
      "an": 210,
      "the": 211,
      "is": 212,
      "re": 213,
      "on": 214,
      "en": 215,
      "at": 216,
      "to": 217,
      "ou": 218,
      "ing": 219,
      "es": 220,
      "al": 221,
      "as": 222,
      "and": 223,
      "or": 224,
      "it": 225,
      "of": 226,
      "ar": 227,
      "ed": 228,
      "il": 229,
      "st": 230,
      "ly": 231,
      "br": 232,
      "he": 233,
      "om": 234,
      "le": 235,
      "se": 236,
      "ch": 237,
      "/>": 238,
      "mo": 239,
      "ac": 240,
      "be": 241,
      "ic": 242,
      "wh": 243,
      "ve": 244,
      "ie": 245,
      "ad": 246,
      "that": 247,
      "ow": 248,
      "ot": 249,
      "ut": 250,
      "ver": 251,
      "ent": 252,
      "this": 253,
      "ion": 254,
      "for": 255,
      "im": 256,
      "ay": 257,
      "ter": 258,
      "gh": 259,
      "li": 260,
      "am": 261,
      "mov": 262,
      "id": 263,
      "was": 264,
      "ith": 265,
      "/><": 266,
      "fil": 267,
      "un": 268,
      "The": 269,
      "film": 270,
      "el": 271,
      "ere": 272,
      "ke": 273,
      "with": 274,
      "oo": 275,
      "ab": 276,
      "ld": 277,
      "his": 278,
      "are": 279,
      "movie": 280,
      "one": 281,
      "ir": 282,
      "ha": 283,
      "out": 284,
      "you": 285,
      "ge": 286,
      "ri": 287,
      "su": 288,
      ".<": 289,
      "ro": 290,
      "sh": 291,
      "pe": 292,
      "all": 293,
      "ce": 294,
      "but": 295,
      "so": 296,
      "ome": 297,
      "ul": 298,
      "pl": 299,
      "de": 300,
      "ally": 301,
      "not": 302,
      "tor": 303,
      "fe": 304,
      "ther": 305,
      "ct": 306,
      "ne": 307,
      "ill": 308,
      "com": 309,
      "tr": 310,
      "sc": 311,
      "ma": 312,
      "ur": 313,
      "..": 314,
      "ould": 315,
      "act": 316,
      "ap": 317,
      "have": 318,
      "ex": 319,
      "man": 320,
      "ght": 321,
      "ust": 322,
      "do": 323,
      "lo": 324,
      "me": 325,
      "us": 326,
      "po": 327,
      "est": 328,
      "di": 329,
      "some": 330,
      "who": 331,
      "end": 332,
      "per": 333,
      "ess": 334,
      "rom": 335,
      "no": 336,
      "very": 337,
      "con": 338,
      "by": 339,
      "ant": 340,
      "ain": 341,
      "thing": 342,
      "nd": 343,
      "her": 344,
      "art": 345,
      "ood": 346,
      "au": 347,
      "ag": 348,
      "ell": 349,
      "wor": 350,
      "see": 351,
      "like": 352,
      "ol": 353,
      "up": 354,
      "ous": 355,
      "ple": 356,
      "It": 357,
      "tim": 358,
      "te": 359,
      "they": 360,
      "from": 361,
      "if": 362,
      "ven": 363,
      "we": 364,
      "ies": 365,
      "pre": 366,
      "qu": 367,
      "ast": 368,
      "ation": 369,
      "ack": 370,
      "get": 371,
      "ate": 372,
      "pro": 373,
      "ough": 374,
      "ist": 375,
      "has": 376,
      "ind": 377,
      "just": 378,
      "ers": 379,
      "char": 380,
      "about": 381,
      "way": 382,
      "other": 383,
      "atch": 384,
      "can": 385,
      "ig": 386,
      "ive": 387,
      "any": 388,
      "go": 389,
      "my": 390,
      "ard": 391,
      "ment": 392,
      "ook": 393,
      "This": 394,
      "acter": 395,
      "good": 396,
      "Th": 397,
      "more": 398,
      "ure": 399,
      "character": 400,
      "tory": 401,
      "der": 402,
      "ine": 403,
      "what": 404,
      "reat": 405,
      "bo": 406,
      "ong": 407,
      "ich": 408,
      "watch": 409,
      "able": 410,
      "now": 411,
      "ss": 412,
      "would": 413,
      "gr": 414,
      "ity": 415,
      "there": 416,
      "ound": 417,
      "time": 418,
      "int": 419,
      "our": 420,
      "ite": 421,
      "ame": 422,
      "ak": 423,
      "um": 424,
      "ck": 425,
      "story": 426,
      "et": 427,
      "ful": 428,
      "pt": 429,
      "ight": 430,
      "sp": 431,
      "most": 432,
      "aw": 433,
      "when": 434,
      "gu": 435,
      "ide": 436,
      "over": 437,
      "she": 438,
      "even": 439,
      "scen": 440,
      "which": 441,
      "own": 442,
      "had": 443,
      "uch": 444,
      "really": 445,
      "only": 446,
      "ble": 447,
      "their": 448,
      "him": 449,
      "ty": 450,
      "Wh": 451,
      "ever": 452,
      "than": 453,
      "bec": 454,
      "were": 455,
      "ink": 456,
      "av": 457,
      "play": 458,
      "its": 459,
      "cl": 460,
      "ious": 461,
      "ear": 462,
      "sel": 463,
      "ade": 464,
      "how": 465,
      "ick": 466,
      "did": 467,
      "bl": 468,
      "ep": 469,
      "show": 470,
      "op": 471,
      "af": 472,
      "does": 473,
      "itt": 474,
      "cr": 475,
      "ore": 476,
      "look": 477,
      "ish": 478,
      "ob": 479,
      "age": 480,
      "ence": 481,
      "ass": 482,
      "ci": 483,
      "them": 484,
      "ort": 485,
      "ause": 486,
      "off": 487,
      "ll": 488,
      "great": 489,
      "bad": 490,
      "...": 491,
      "ice": 492,
      "well": 493,
      "much": 494,
      "bet": 495,
      "know": 496,
      "will": 497,
      "could": 498,
      "been": 499,
      "pr": 500,
      "In": 501,
      "ople": 502,
      "too": 503,
      "ire": 504,
      "ud": 505,
      "irst": 506,
      "dis": 507,
      "thr": 508,
      "into": 509,
      "real": 510,
      "pp": 511,
      "tw": 512,
      "mak": 513,
      "people": 514,
      "part": 515,
      "think": 516,
      "ves": 517,
      "make": 518,
      "ff": 519,
      "dire": 520,
      "wr": 521,
      "fun": 522,
      "because": 523,
      "don": 524,
      "every": 525,
      "ert": 526,
      "son": 527,
      "made": 528,
      "ace": 529,
      "old": 530,
      "first": 531,
      "work": 532,
      "self": 533,
      "vie": 534,
      "And": 535,
      "ser": 536,
      "ny": 537,
      "ile": 538,
      "also": 539,
      "where": 540,
      "inter": 541,
      "nt": 542,
      "du": 543,
      "say": 544,
      "movies": 545,
      "cre": 546,
      "seem": 547,
      "ra": 548,
      "But": 549,
      "ated": 550,
      "ary": 551,
      "spe": 552,
      "jo": 553,
      "fa": 554,
      "ical": 555,
      "low": 556,
      "characters": 557,
      "dr": 558,
      "des": 559,
      "plot": 560,
      "actor": 561,
      "view": 562,
      "ach": 563,
      "ans": 564,
      "Ch": 565,
      "fect": 566,
      "films": 567,
      "less": 568,
      "back": 569,
      "seen": 570,
      "mer": 571,
      "then": 572,
      "ng": 573,
      "fl": 574,
      "He": 575,
      "ance": 576,
      "point": 577,
      "your": 578,
      "acting": 579,
      "want": 580,
      "many": 581,
      "year": 582,
      "ps": 583,
      "min": 584,
      "being": 585,
      "though": 586,
      "love": 587,
      "ving": 588,
      "after": 589,
      "ctor": 590,
      "ces": 591,
      "life": 592,
      "ang": 593,
      "),": 594,
      "co": 595,
      "two": 596,
      "hor": 597,
      "fin": 598,
      "ittle": 599,
      "ict": 600,
      "never": 601,
      "There": 602,
      "iz": 603,
      ").": 604,
      "str": 605,
      "ber": 606,
      "ens": 607,
      "ction": 608,
      "urn": 609,
      "day": 610,
      "through": 611,
      "try": 612,
      "bel": 613,
      "19": 614,
      "best": 615,
      "ose": 616,
      "tal": 617,
      "ually": 618,
      "little": 619,
      "ue": 620,
      "ved": 621,
      "fore": 622,
      "cent": 623,
      "--": 624,
      "ta": 625,
      "here": 626,
      "ily": 627,
      "better": 628,
      "ark": 629,
      "ise": 630,
      "ave": 631,
      "scene": 632,
      "ting": 633,
      "If": 634,
      "!!": 635,
      "kill": 636,
      "augh": 637,
      "mat": 638,
      "fri": 639,
      "gi": 640,
      "ought": 641,
      "ry": 642,
      "ph": 643,
      "ild": 644,
      "find": 645,
      "under": 646,
      "perfor": 647,
      "sur": 648,
      "should": 649,
      "od": 650,
      "ef": 651,
      "igh": 652,
      "won": 653,
      "scenes": 654,
      "feel": 655,
      "ase": 656,
      "ev": 657,
      "ertain": 658,
      "read": 659,
      "10": 660,
      "Al": 661,
      "ree": 662,
      "again": 663,
      "stand": 664,
      "interest": 665,
      "cast": 666,
      "set": 667,
      "che": 668,
      "lot": 669,
      "still": 670,
      "ath": 671,
      "ian": 672,
      "friend": 673,
      "something": 674,
      "gen": 675,
      "ars": 676,
      "cou": 677,
      "happ": 678,
      "such": 679,
      "irl": 680,
      "belie": 681,
      "may": 682,
      "ions": 683,
      "ning": 684,
      "ably": 685,
      "ense": 686,
      "turn": 687,
      "ror": 688,
      "ins": 689,
      "ating": 690,
      "these": 691,
      "em": 692,
      "new": 693,
      "vers": 694,
      "ason": 695,
      "cont": 696,
      "ip": 697,
      "joy": 698,
      "fam": 699,
      "mis": 700,
      "funny": 701,
      "down": 702,
      "imp": 703,
      "performan": 704,
      "scre": 705,
      "actors": 706,
      "az": 707,
      "got": 708,
      "pret": 709,
      "director": 710,
      "St": 711,
      "comm": 712,
      "Jo": 713,
      "sto": 714,
      "att": 715,
      "those": 716,
      "while": 717,
      "ents": 718,
      "wom": 719,
      "doesn": 720,
      "girl": 721,
      "mus": 722,
      "watching": 723,
      "dy": 724,
      "guy": 725,
      "mem": 726,
      "les": 727,
      "didn": 728,
      "tak": 729,
      "inal": 730,
      "ash": 731,
      "pos": 732,
      "years": 733,
      "times": 734,
      "ial": 735,
      "ater": 736,
      "makes": 737,
      "ways": 738,
      "pect": 739,
      "comed": 740,
      "going": 741,
      "enjoy": 742,
      "start": 743,
      "right": 744,
      "ult": 745,
      "ual": 746,
      "Br": 747,
      "bit": 748,
      "produ": 749,
      "long": 750,
      "put": 751,
      "actually": 752,
      "before": 753,
      "big": 754,
      "same": 755,
      "light": 756,
      "As": 757,
      "few": 758,
      "car": 759,
      "red": 760,
      "laugh": 761,
      "action": 762,
      "ool": 763,
      "let": 764,
      "why": 765,
      "hel": 766,
      "diff": 767,
      "ho": 768,
      "tri": 769,
      "orig": 770,
      "rel": 771,
      "sub": 772,
      "thought": 773,
      "young": 774,
      "mon": 775,
      "vi": 776,
      "**": 777,
      "exc": 778,
      "fact": 779,
      "ute": 780,
      "ste": 781,
      "vis": 782,
      "You": 783,
      "comes": 784,
      "nothing": 785,
      "another": 786,
      "appe": 787,
      "ript": 788,
      "comple": 789,
      "screen": 790,
      "high": 791,
      "ings": 792,
      "ren": 793,
      "bu": 794,
      "cle": 795,
      "sa": 796,
      "effect": 797,
      "cept": 798,
      "ress": 799,
      "hu": 800,
      "around": 801,
      "ner": 802,
      "come": 803,
      "aut": 804,
      "quite": 805,
      "arr": 806,
      "How": 807,
      "iting": 808,
      "things": 809,
      "world": 810,
      "seems": 811,
      "pretty": 812,
      "sm": 813,
      "cial": 814,
      "por": 815,
      "inv": 816,
      "hard": 817,
      "fort": 818,
      "mind": 819,
      "person": 820,
      "horror": 821,
      "original": 822,
      "ster": 823,
      "sing": 824,
      "fr": 825,
      "So": 826,
      "need": 827,
      "ten": 828,
      "ince": 829,
      "enough": 830,
      "script": 831,
      "kind": 832,
      "far": 833,
      "meric": 834,
      "Americ": 835,
      "ically": 836,
      "ia": 837,
      "kid": 838,
      "tell": 839,
      "ween": 840,
      "comp": 841,
      "ness": 842,
      "give": 843,
      "main": 844,
      "take": 845,
      "beg": 846,
      "gets": 847,
      "ations": 848,
      "What": 849,
      "wonder": 850,
      "bor": 851,
      "ward": 852,
      "oc": 853,
      "cor": 854,
      "ug": 855,
      "She": 856,
      "used": 857,
      "ately": 858,
      "They": 859,
      "expect": 860,
      "between": 861,
      "vel": 862,
      "must": 863,
      "worth": 864,
      "king": 865,
      "press": 866,
      "interesting": 867,
      "music": 868,
      "ular": 869,
      "saw": 870,
      "sex": 871,
      "done": 872,
      "care": 873,
      "ced": 874,
      "series": 875,
      "cour": 876,
      "lead": 877,
      "war": 878,
      "class": 879,
      "hand": 880,
      "reason": 881,
      "ks": 882,
      "role": 883,
      "vious": 884,
      "call": 885,
      "comedy": 886,
      "grap": 887,
      "cess": 888,
      "\",": 889,
      "expl": 890,
      "child": 891,
      "isn": 892,
      "ending": 893,
      "mom": 894,
      "wood": 895,
      "always": 896,
      "sequ": 897,
      "led": 898,
      "shot": 899,
      "ey": 900,
      "utes": 901,
      "whole": 902,
      "med": 903,
      "least": 904,
      "use": 905,
      "line": 906,
      "unt": 907,
      "sure": 908,
      "ased": 909,
      "sound": 910,
      "both": 911,
      "illi": 912,
      "De": 913,
      "je": 914,
      "hy": 915,
      "cam": 916,
      "beaut": 917,
      "differ": 918,
      "without": 919,
      "tru": 920,
      "head": 921,
      "app": 922,
      "almost": 923,
      "For": 924,
      "might": 925,
      "TV": 926,
      "cine": 927,
      "col": 928,
      "ale": 929,
      "pie": 930,
      "making": 931,
      "os": 932,
      "mot": 933,
      "complete": 934,
      "minutes": 935,
      "book": 936,
      "alo": 937,
      "add": 938,
      "land": 939,
      "rible": 940,
      "00": 941,
      "away": 942,
      "boy": 943,
      "hn": 944,
      "TH": 945,
      "audi": 946,
      "tem": 947,
      "last": 948,
      "bably": 949,
      "An": 950,
      "ible": 951,
      "clo": 952,
      "ouse": 953,
      "anything": 954,
      "dec": 955,
      "run": 956,
      "uring": 957,
      "ature": 958,
      "performance": 959,
      "ines": 960,
      "family": 961,
      "cond": 962,
      "peri": 963,
      "ms": 964,
      "ran": 965,
      "iful": 966,
      "mar": 967,
      "sol": 968,
      "found": 969,
      "fol": 970,
      "entertain": 971,
      "ign": 972,
      "Be": 973,
      "sent": 974,
      "ional": 975,
      "played": 976,
      "\".": 977,
      "ife": 978,
      "sid": 979,
      "ext": 980,
      "lack": 981,
      "woman": 982,
      "No": 983,
      "cially": 984,
      "espe": 985,
      "That": 986,
      "John": 987,
      "val": 988,
      "probably": 989,
      "dram": 990,
      "ked": 991,
      "era": 992,
      "poss": 993,
      "ted": 994,
      "ane": 995,
      "pris": 996,
      "sy": 997,
      "oney": 998,
      "stu": 999,
      "rest": 1000,
      "men": 1001,
      "dialo": 1002,
      "aster": 1003,
      "place": 1004,
      "top": 1005,
      "oot": 1006,
      "mean": 1007,
      "DV": 1008,
      "ER": 1009,
      "pol": 1010,
      "since": 1011,
      "ments": 1012,
      "cap": 1013,
      "sense": 1014,
      "We": 1015,
      "ying": 1016,
      "tit": 1017,
      "rather": 1018,
      "night": 1019,
      "hum": 1020,
      "gl": 1021,
      "DVD": 1022,
      "ative": 1023,
      "na": 1024,
      "each": 1025,
      "iso": 1026,
      "worst": 1027,
      "All": 1028,
      "When": 1029,
      ".\"": 1030,
      "poor": 1031,
      "ft": 1032,
      "course": 1033,
      "body": 1034,
      "different": 1035,
      "looking": 1036,
      "Hol": 1037,
      "My": 1038,
      "happen": 1039,
      "air": 1040,
      "sim": 1041,
      "keep": 1042,
      "believe": 1043,
      "side": 1044,
      "anyone": 1045,
      "cut": 1046,
      "Le": 1047,
      "pict": 1048,
      "trying": 1049,
      "ond": 1050,
      "alf": 1051,
      "beautiful": 1052,
      "istic": 1053,
      "episo": 1054,
      "bre": 1055,
      "commend": 1056,
      "spect": 1057,
      "direct": 1058,
      "help": 1059,
      "Se": 1060,
      "Re": 1061,
      "vo": 1062,
      "ither": 1063,
      "ingly": 1064,
      "bud": 1065,
      "job": 1066,
      "gether": 1067,
      "perfect": 1068,
      "ject": 1069,
      "goes": 1070,
      "member": 1071,
      "yet": 1072,
      "fan": 1073,
      "creat": 1074,
      "plays": 1075,
      "ilar": 1076,
      "shows": 1077,
      "One": 1078,
      "ange": 1079,
      "Mo": 1080,
      "sl": 1081,
      "especially": 1082,
      "together": 1083,
      "ru": 1084,
      "American": 1085,
      "Chr": 1086,
      "fully": 1087,
      "iter": 1088,
      "short": 1089,
      "stead": 1090,
      "sch": 1091,
      "proble": 1092,
      "ics": 1093,
      "ney": 1094,
      "sup": 1095,
      "half": 1096,
      "human": 1097,
      "posed": 1098,
      "ull": 1099,
      "certain": 1100,
      "sit": 1101,
      "watched": 1102,
      "effects": 1103,
      "Un": 1104,
      "looks": 1105,
      "Not": 1106,
      "arent": 1107,
      "Ar": 1108,
      "rele": 1109,
      "wasn": 1110,
      "Mar": 1111,
      "money": 1112,
      "cur": 1113,
      "recommend": 1114,
      "imag": 1115,
      "Ne": 1116,
      "understand": 1117,
      "ons": 1118,
      "ality": 1119,
      "fall": 1120,
      "having": 1121,
      "piece": 1122,
      "follow": 1123,
      "father": 1124,
      "vide": 1125,
      "cover": 1126,
      "bly": 1127,
      "ates": 1128,
      "ism": 1129,
      "fav": 1130,
      "....": 1131,
      "takes": 1132,
      "usu": 1133,
      "ah": 1134,
      "ship": 1135,
      "audience": 1136,
      "rid": 1137,
      "said": 1138,
      "version": 1139,
      "cu": 1140,
      "ts": 1141,
      "ences": 1142,
      "someone": 1143,
      "second": 1144,
      "ellent": 1145,
      "else": 1146,
      "To": 1147,
      "ele": 1148,
      "true": 1149,
      "gue": 1150,
      "word": 1151,
      "io": 1152,
      "tempt": 1153,
      "nice": 1154,
      "special": 1155,
      "tray": 1156,
      "review": 1157,
      "form": 1158,
      "Rob": 1159,
      "hour": 1160,
      "incl": 1161,
      "three": 1162,
      "wife": 1163,
      "ix": 1164,
      "als": 1165,
      "himself": 1166,
      "Ro": 1167,
      "begin": 1168,
      "sty": 1169,
      "anim": 1170,
      "ames": 1171,
      "left": 1172,
      "At": 1173,
      "lywood": 1174,
      "idea": 1175,
      "obvious": 1176,
      "upid": 1177,
      "everything": 1178,
      "invol": 1179,
      "itch": 1180,
      "fight": 1181,
      "came": 1182,
      "kes": 1183,
      "ists": 1184,
      "Some": 1185,
      "rent": 1186,
      "heart": 1187,
      "Ste": 1188,
      "mur": 1189,
      "star": 1190,
      "entire": 1191,
      "later": 1192,
      "ross": 1193,
      "seeing": 1194,
      "imply": 1195,
      "On": 1196,
      "gy": 1197,
      "ones": 1198,
      "ited": 1199,
      "ired": 1200,
      "house": 1201,
      "par": 1202,
      "excellent": 1203,
      "ling": 1204,
      "budget": 1205,
      "den": 1206,
      "Don": 1207,
      "during": 1208,
      "once": 1209,
      "ition": 1210,
      "miss": 1211,
      "reg": 1212,
      "everyone": 1213,
      "stupid": 1214,
      "Car": 1215,
      "cing": 1216,
      "cop": 1217,
      "ends": 1218,
      "super": 1219,
      "appoint": 1220,
      "loc": 1221,
      "0s": 1222,
      "However": 1223,
      "production": 1224,
      "partic": 1225,
      "using": 1226,
      "ref": 1227,
      "hero": 1228,
      "face": 1229,
      "attempt": 1230,
      "conv": 1231,
      "open": 1232,
      "pow": 1233,
      "IN": 1234,
      "ery": 1235,
      "death": 1236,
      "completely": 1237,
      "gener": 1238,
      "suc": 1239,
      "serious": 1240,
      "Well": 1241,
      "home": 1242,
      "uck": 1243,
      "friends": 1244,
      "portray": 1245,
      "others": 1246,
      "eng": 1247,
      "clear": 1248,
      "disappoint": 1249,
      "defin": 1250,
      "remember": 1251,
      "Pe": 1252,
      "solute": 1253,
      "simply": 1254,
      "pass": 1255,
      "cy": 1256,
      "fortun": 1257,
      "ese": 1258,
      "sort": 1259,
      "ared": 1260,
      "ries": 1261,
      "Hollywood": 1262,
      "ird": 1263,
      "school": 1264,
      "ake": 1265,
      "ier": 1266,
      "along": 1267,
      "eas": 1268,
      "ident": 1269,
      "wrong": 1270,
      "song": 1271,
      "omb": 1272,
      "given": 1273,
      "ned": 1274,
      "Bo": 1275,
      "ters": 1276,
      "cho": 1277,
      "tra": 1278,
      "mess": 1279,
      "ures": 1280,
      "sider": 1281,
      "camera": 1282,
      "graphy": 1283,
      "emot": 1284,
      "Af": 1285,
      "amp": 1286,
      "cer": 1287,
      "boring": 1288,
      "black": 1289,
      "xt": 1290,
      "mother": 1291,
      "supposed": 1292,
      "que": 1293,
      "either": 1294,
      "fair": 1295,
      "ley": 1296,
      "kids": 1297,
      "pain": 1298,
      "sk": 1299,
      "Gr": 1300,
      "performances": 1301,
      "fail": 1302,
      "near": 1303,
      "Sh": 1304,
      "dri": 1305,
      "absolute": 1306,
      "itten": 1307,
      "coun": 1308,
      "AN": 1309,
      "name": 1310,
      "small": 1311,
      "band": 1312,
      "surpris": 1313,
      "particular": 1314,
      "fel": 1315,
      "classic": 1316,
      "num": 1317,
      "couple": 1318,
      "lig": 1319,
      "except": 1320,
      "exam": 1321,
      "women": 1322,
      "stre": 1323,
      "Mr": 1324,
      "ready": 1325,
      "awful": 1326,
      "ory": 1327,
      "until": 1328,
      "favor": 1329,
      "flick": 1330,
      "haps": 1331,
      "getting": 1332,
      "live": 1333,
      "wa": 1334,
      "full": 1335,
      "humor": 1336,
      "ton": 1337,
      "nor": 1338,
      "viol": 1339,
      "allow": 1340,
      "ger": 1341,
      "ime": 1342,
      "itely": 1343,
      "tow": 1344,
      "Cl": 1345,
      "truly": 1346,
      "dead": 1347,
      "video": 1348,
      "feature": 1349,
      "ote": 1350,
      "velo": 1351,
      "lines": 1352,
      "sul": 1353,
      "playing": 1354,
      "moments": 1355,
      "sil": 1356,
      "present": 1357,
      "ities": 1358,
      "pu": 1359,
      "After": 1360,
      "experi": 1361,
      "sci": 1362,
      "bed": 1363,
      "itself": 1364,
      "consider": 1365,
      "iv": 1366,
      "power": 1367,
      "THE": 1368,
      "case": 1369,
      "instead": 1370,
      "amaz": 1371,
      "murder": 1372,
      "iness": 1373,
      "pa": 1374,
      "quest": 1375,
      "ides": 1376,
      "talent": 1377,
      "tern": 1378,
      "sever": 1379,
      "includ": 1380,
      "slow": 1381,
      "lish": 1382,
      "style": 1383,
      "Jack": 1384,
      "drama": 1385,
      "ize": 1386,
      "doing": 1387,
      "dist": 1388,
      "develo": 1389,
      "next": 1390,
      "Even": 1391,
      "ors": 1392,
      "mention": 1393,
      "ility": 1394,
      "sad": 1395,
      "ank": 1396,
      "male": 1397,
      "wal": 1398,
      "terrible": 1399,
      "ming": 1400,
      "ike": 1401,
      "however": 1402,
      "gives": 1403,
      "Man": 1404,
      "liked": 1405,
      "often": 1406,
      "aring": 1407,
      "Do": 1408,
      "written": 1409,
      "went": 1410,
      "although": 1411,
      "guess": 1412,
      "maybe": 1413,
      "episode": 1414,
      "unch": 1415,
      "His": 1416,
      "loved": 1417,
      "early": 1418,
      "non": 1419,
      "aged": 1420,
      "adv": 1421,
      "wonderful": 1422,
      "dialogue": 1423,
      "impress": 1424,
      "Sp": 1425,
      "bas": 1426,
      "coming": 1427,
      "hope": 1428,
      "ont": 1429,
      "stars": 1430,
      "room": 1431,
      "meet": 1432,
      "conf": 1433,
      "cinemat": 1434,
      "Dav": 1435,
      "felt": 1436,
      "couldn": 1437,
      "credi": 1438,
      "strong": 1439,
      "track": 1440,
      "teen": 1441,
      ",\"": 1442,
      "ages": 1443,
      "ys": 1444,
      "ains": 1445,
      "ler": 1446,
      "brilli": 1447,
      "gn": 1448,
      "Lo": 1449,
      "ST": 1450,
      "ended": 1451,
      "become": 1452,
      "supp": 1453,
      "called": 1454,
      "town": 1455,
      "cli": 1456,
      "ention": 1457,
      "mor": 1458,
      "gest": 1459,
      "tic": 1460,
      "turns": 1461,
      "With": 1462,
      "fant": 1463,
      "entertaining": 1464,
      "actress": 1465,
      "known": 1466,
      "children": 1467,
      "Ed": 1468,
      "ni": 1469,
      "ground": 1470,
      "Bl": 1471,
      "mid": 1472,
      "lear": 1473,
      "master": 1474,
      "fre": 1475,
      "Christ": 1476,
      "wish": 1477,
      "reme": 1478,
      "dark": 1479,
      "title": 1480,
      "ca": 1481,
      "spir": 1482,
      "relation": 1483,
      "develop": 1484,
      "ulous": 1485,
      "dou": 1486,
      "deli": 1487,
      "cred": 1488,
      "break": 1489,
      "spo": 1490,
      "possible": 1491,
      "sat": 1492,
      "mark": 1493,
      "Je": 1494,
      "thrill": 1495,
      "absolutely": 1496,
      "worse": 1497,
      "sho": 1498,
      "ael": 1499,
      "Char": 1500,
      "ax": 1501,
      "list": 1502,
      "guys": 1503,
      "ord": 1504,
      "ues": 1505,
      "beginning": 1506,
      "direction": 1507,
      "Tr": 1508,
      "ony": 1509,
      "mentary": 1510,
      "New": 1511,
      "definitely": 1512,
      "certainly": 1513,
      "waste": 1514,
      "Fran": 1515,
      "selves": 1516,
      "extreme": 1517,
      "problem": 1518,
      "success": 1519,
      "against": 1520,
      "vable": 1521,
      "Con": 1522,
      "wanted": 1523,
      "close": 1524,
      "picture": 1525,
      "fortunately": 1526,
      "cinema": 1527,
      "antly": 1528,
      "Then": 1529,
      "Eng": 1530,
      "RE": 1531,
      "win": 1532,
      "ret": 1533,
      "leg": 1534,
      "pri": 1535,
      "ude": 1536,
      "ief": 1537,
      "ized": 1538,
      "pite": 1539,
      "ied": 1540,
      "seemed": 1541,
      "Of": 1542,
      "Mich": 1543,
      "rif": 1544,
      "blood": 1545,
      "evil": 1546,
      "tot": 1547,
      "susp": 1548,
      "ub": 1549,
      "uni": 1550,
      "While": 1551,
      "deal": 1552,
      "appear": 1553,
      "log": 1554,
      "several": 1555,
      "Also": 1556,
      "fine": 1557,
      "dict": 1558,
      "game": 1559,
      "works": 1560,
      "Dr": 1561,
      "genre": 1562,
      "already": 1563,
      "ball": 1564,
      "becomes": 1565,
      "quality": 1566,
      "based": 1567,
      "vision": 1568,
      "example": 1569,
      "pop": 1570,
      "nam": 1571,
      "totally": 1572,
      "Now": 1573,
      "Michael": 1574,
      "ON": 1575,
      "ific": 1576,
      "pur": 1577,
      "lives": 1578,
      "Why": 1579,
      "ided": 1580,
      "psy": 1581,
      "fans": 1582,
      "deser": 1583,
      "dre": 1584,
      "und": 1585,
      "Mc": 1586,
      "cas": 1587,
      "past": 1588,
      "Just": 1589,
      "cult": 1590,
      "daugh": 1591,
      "port": 1592,
      "grou": 1593,
      "stuff": 1594,
      "support": 1595,
      "writing": 1596,
      "200": 1597,
      "Sc": 1598,
      "ino": 1599,
      "writer": 1600,
      "capt": 1601,
      "Her": 1602,
      "uses": 1603,
      "key": 1604,
      "bar": 1605,
      "hind": 1606,
      "ister": 1607,
      "days": 1608,
      "atic": 1609,
      "Robert": 1610,
      "import": 1611,
      "Dan": 1612,
      "hold": 1613,
      "touch": 1614,
      "lost": 1615,
      "wants": 1616,
      "foot": 1617,
      "uss": 1618,
      "Ger": 1619,
      "ago": 1620,
      "unk": 1621,
      "!<": 1622,
      "matter": 1623,
      "atur": 1624,
      "vill": 1625,
      "Ge": 1626,
      "ount": 1627,
      "viewer": 1628,
      ").<": 1629,
      "??": 1630,
      "parts": 1631,
      "hon": 1632,
      "crit": 1633,
      "May": 1634,
      "vic": 1635,
      "anno": 1636,
      "docu": 1637,
      "ali": 1638,
      "colle": 1639,
      "etc": 1640,
      "throughout": 1641,
      "ams": 1642,
      "NO": 1643,
      "aving": 1644,
      "orge": 1645,
      "Is": 1646,
      "dep": 1647,
      "aim": 1648,
      "level": 1649,
      "Every": 1650,
      "fac": 1651,
      "late": 1652,
      "history": 1653,
      "score": 1654,
      "type": 1655,
      "situ": 1656,
      "wise": 1657,
      "tries": 1658,
      "adm": 1659,
      "anger": 1660,
      "arch": 1661,
      "typ": 1662,
      "antic": 1663,
      "hilar": 1664,
      "gave": 1665,
      "Ri": 1666,
      "usual": 1667,
      "jor": 1668,
      "enjoyed": 1669,
      "final": 1670,
      "fig": 1671,
      "killed": 1672,
      "ried": 1673,
      "prom": 1674,
      "die": 1675,
      "lock": 1676,
      "War": 1677,
      "contin": 1678,
      "finally": 1679,
      "amazing": 1680,
      "intel": 1681,
      "novel": 1682,
      "today": 1683,
      "pick": 1684,
      "Lu": 1685,
      "sum": 1686,
      "favorite": 1687,
      "Co": 1688,
      "themselves": 1689,
      "killer": 1690,
      "horrible": 1691,
      "ung": 1692,
      "stay": 1693,
      "myster": 1694,
      "decent": 1695,
      "behind": 1696,
      "group": 1697,
      "ket": 1698,
      "moment": 1699,
      "ding": 1700,
      "looked": 1701,
      "AL": 1702,
      "starts": 1703,
      "eyes": 1704,
      "daughter": 1705,
      "ek": 1706,
      "prof": 1707,
      "exact": 1708,
      "speak": 1709,
      "myself": 1710,
      "shoot": 1711,
      "believable": 1712,
      "compl": 1713,
      "trans": 1714,
      "thinking": 1715,
      "chang": 1716,
      "stud": 1717,
      "heard": 1718,
      "bing": 1719,
      "ail": 1720,
      "aves": 1721,
      "God": 1722,
      "perhaps": 1723,
      "predict": 1724,
      "stop": 1725,
      "brilliant": 1726,
      "bus": 1727,
      "Any": 1728,
      "says": 1729,
      "took": 1730,
      "ridic": 1731,
      "white": 1732,
      "Har": 1733,
      "Bar": 1734,
      "ered": 1735,
      "Pa": 1736,
      "effort": 1737,
      "girls": 1738,
      "AT": 1739,
      "directed": 1740,
      "count": 1741,
      "voice": 1742,
      "experience": 1743,
      "aren": 1744,
      "ination": 1745,
      "mas": 1746,
      "hilarious": 1747,
      "ography": 1748,
      "order": 1749,
      "happens": 1750,
      "appro": 1751,
      "bers": 1752,
      "move": 1753,
      "desc": 1754,
      "Brit": 1755,
      "lan": 1756,
      "mag": 1757,
      "feeling": 1758,
      "soon": 1759,
      "incredi": 1760,
      "tail": 1761,
      "tech": 1762,
      "Ad": 1763,
      "ott": 1764,
      "told": 1765,
      "pose": 1766,
      "gun": 1767,
      "cool": 1768,
      "usband": 1769,
      "tele": 1770,
      "hop": 1771,
      "sle": 1772,
      "gar": 1773,
      "ering": 1774,
      "David": 1775,
      "apt": 1776,
      "involved": 1777,
      "ump": 1778,
      "Or": 1779,
      "taking": 1780,
      "dle": 1781,
      "var": 1782,
      "ured": 1783,
      "Per": 1784,
      "Me": 1785,
      "pay": 1786,
      "major": 1787,
      "tract": 1788,
      "lar": 1789,
      "turned": 1790,
      "ris": 1791,
      "hit": 1792,
      "ator": 1793,
      "ained": 1794,
      "ridiculous": 1795,
      ".)": 1796,
      "convin": 1797,
      "rating": 1798,
      "stories": 1799,
      "weak": 1800,
      "husband": 1801,
      "shock": 1802,
      "graph": 1803,
      "ene": 1804,
      "event": 1805,
      "astic": 1806,
      "umb": 1807,
      "opin": 1808,
      "roles": 1809,
      "ards": 1810,
      "cheap": 1811,
      "bring": 1812,
      "James": 1813,
      "Oh": 1814,
      "polit": 1815,
      "swe": 1816,
      "cannot": 1817,
      "ann": 1818,
      "rench": 1819,
      "memor": 1820,
      "crap": 1821,
      "makers": 1822,
      "ats": 1823,
      "change": 1824,
      "extremely": 1825,
      "chance": 1826,
      "including": 1827,
      "sym": 1828,
      "similar": 1829,
      "iss": 1830,
      "recent": 1831,
      "police": 1832,
      "20": 1833,
      "Tom": 1834,
      "resul": 1835,
      "inst": 1836,
      "violence": 1837,
      "ances": 1838,
      "realistic": 1839,
      "US": 1840,
      "leave": 1841,
      "els": 1842,
      "English": 1843,
      "quick": 1844,
      "sw": 1845,
      "OK": 1846,
      "shown": 1847,
      "urt": 1848,
      "wouldn": 1849,
      "expected": 1850,
      "roll": 1851,
      "particularly": 1852,
      "happened": 1853,
      "IL": 1854,
      "plan": 1855,
      "taken": 1856,
      "musical": 1857,
      "wit": 1858,
      "scar": 1859,
      "doub": 1860,
      "oto": 1861,
      "obviously": 1862,
      "ows": 1863,
      "simple": 1864,
      "vil": 1865,
      "pet": 1866,
      "itive": 1867,
      "vir": 1868,
      "country": 1869,
      "dies": 1870,
      "lad": 1871,
      "wards": 1872,
      "foc": 1873,
      "ational": 1874,
      "apparent": 1875,
      "subject": 1876,
      "Com": 1877,
      "ok": 1878,
      "jokes": 1879,
      "released": 1880,
      "brother": 1881,
      "First": 1882,
      "aris": 1883,
      "rated": 1884,
      "pleas": 1885,
      "forget": 1886,
      "annoying": 1887,
      "197": 1888,
      "Col": 1889,
      "moder": 1890,
      "reality": 1891,
      "sor": 1892,
      "career": 1893,
      "four": 1894,
      "across": 1895,
      "build": 1896,
      "enn": 1897,
      "opening": 1898,
      "mal": 1899,
      "odd": 1900,
      "ib": 1901,
      "Wor": 1902,
      "Although": 1903,
      "suspense": 1904,
      "iety": 1905,
      "IM": 1906,
      "alone": 1907,
      "highly": 1908,
      "ky": 1909,
      "AR": 1910,
      "deep": 1911,
      "ather": 1912,
      "ential": 1913,
      "dog": 1914,
      "relationship": 1915,
      "itting": 1916,
      "photo": 1917,
      "sometimes": 1918,
      "hot": 1919,
      "shots": 1920,
      "!!!": 1921,
      "clich": 1922,
      "words": 1923,
      "198": 1924,
      "dialog": 1925,
      "ina": 1926,
      "ield": 1927,
      "huge": 1928,
      "...<": 1929,
      "saying": 1930,
      "gore": 1931,
      "fut": 1932,
      "suff": 1933,
      "draw": 1934,
      "exactly": 1935,
      "ury": 1936,
      "hours": 1937,
      "documentary": 1938,
      "none": 1939,
      "ently": 1940,
      "important": 1941,
      "yourself": 1942,
      "respect": 1943,
      "whose": 1944,
      "Mor": 1945,
      "strange": 1946,
      "cause": 1947,
      "ric": 1948,
      "parent": 1949,
      "OR": 1950,
      "number": 1951,
      "rew": 1952,
      "fer": 1953,
      "ives": 1954,
      "Su": 1955,
      "started": 1956,
      "save": 1957,
      "Over": 1958,
      "opinion": 1959,
      "cost": 1960,
      "usually": 1961,
      "treat": 1962,
      "happy": 1963,
      "cinematography": 1964,
      "living": 1965,
      "mist": 1966,
      "check": 1967,
      "chard": 1968,
      "box": 1969,
      "Nor": 1970,
      "comment": 1971,
      "ili": 1972,
      "stra": 1973,
      "pot": 1974,
      "Willi": 1975,
      "enty": 1976,
      "Paul": 1977,
      "rodu": 1978,
      "narr": 1979,
      "honest": 1980,
      "Wal": 1981,
      "plac": 1982,
      "appears": 1983,
      "whe": 1984,
      "discover": 1985,
      "female": 1986,
      "running": 1987,
      "Pr": 1988,
      "modern": 1989,
      "fire": 1990,
      "outh": 1991,
      "exist": 1992,
      "learn": 1993,
      "ished": 1994,
      "ask": 1995,
      "despite": 1996,
      "sequence": 1997,
      "appre": 1998,
      "hell": 1999,
      "somewhat": 2000,
      "drug": 2001,
      "estern": 2002,
      "stick": 2003,
      "****": 2004,
      "sign": 2005,
      "disappointed": 2006,
      "abo": 2007,
      "detail": 2008,
      "straight": 2009,
      "predictable": 2010,
      "lect": 2011,
      "local": 2012,
      "acc": 2013,
      "finds": 2014,
      "knew": 2015,
      "pped": 2016,
      "wer": 2017,
      "thetic": 2018,
      "attention": 2019,
      "Richard": 2020,
      "knows": 2021,
      "lies": 2022,
      "silly": 2023,
      "ING": 2024,
      "talk": 2025,
      "sets": 2026,
      "la": 2027,
      "single": 2028,
      "talking": 2029,
      "mil": 2030,
      "apan": 2031,
      "sold": 2032,
      "natur": 2033,
      "aver": 2034,
      "ants": 2035,
      "199": 2036,
      "EN": 2037,
      "ined": 2038,
      "pres": 2039,
      "giving": 2040,
      "dest": 2041,
      "erial": 2042,
      "problems": 2043,
      "thor": 2044,
      "bal": 2045,
      "among": 2046,
      "famous": 2047,
      "remind": 2048,
      "!\"": 2049,
      "bey": 2050,
      "team": 2051,
      "suck": 2052,
      "gang": 2053,
      "mostly": 2054,
      "Cr": 2055,
      "prem": 2056,
      "middle": 2057,
      "ik": 2058,
      "IS": 2059,
      "due": 2060,
      "aby": 2061,
      "oid": 2062,
      "cru": 2063,
      "atmo": 2064,
      "gan": 2065,
      "agon": 2066,
      "episodes": 2067,
      "azy": 2068,
      "utter": 2069,
      "oud": 2070,
      "Japan": 2071,
      "prov": 2072,
      "appreci": 2073,
      "equ": 2074,
      "yes": 2075,
      "front": 2076,
      "Bro": 2077,
      "oul": 2078,
      "ral": 2079,
      "shi": 2080,
      "fast": 2081,
      "writ": 2082,
      "intellig": 2083,
      "ital": 2084,
      "atmosp": 2085,
      "eye": 2086,
      "British": 2087,
      "necess": 2088,
      "Can": 2089,
      "question": 2090,
      "cliché": 2091,
      "inc": 2092,
      "sequences": 2093,
      "iet": 2094,
      "eless": 2095,
      "ged": 2096,
      "events": 2097,
      "vol": 2098,
      "atter": 2099,
      "tells": 2100,
      "II": 2101,
      "moving": 2102,
      "ability": 2103,
      "scary": 2104,
      "television": 2105,
      "hol": 2106,
      "Go": 2107,
      "Dis": 2108,
      "prise": 2109,
      "ised": 2110,
      "Sam": 2111,
      "usion": 2112,
      "Ben": 2113,
      "Yes": 2114,
      "romantic": 2115,
      "George": 2116,
      "mix": 2117,
      "law": 2118,
      "sexual": 2119,
      "From": 2120,
      "hate": 2121,
      "soundtrack": 2122,
      "free": 2123,
      "thriller": 2124,
      "Maybe": 2125,
      "Gu": 2126,
      "ork": 2127,
      "upon": 2128,
      "previous": 2129,
      "stru": 2130,
      "Po": 2131,
      "falls": 2132,
      "otic": 2133,
      "cret": 2134,
      "Sha": 2135,
      "ceed": 2136,
      "kept": 2137,
      "rip": 2138,
      "seriously": 2139,
      "season": 2140,
      "El": 2141,
      "acy": 2142,
      "enjoyable": 2143,
      "search": 2144,
      "Who": 2145,
      "comic": 2146,
      "Pl": 2147,
      "dull": 2148,
      "songs": 2149,
      "Chris": 2150,
      "ots": 2151,
      "apart": 2152,
      "pat": 2153,
      "agree": 2154,
      "material": 2155,
      "By": 2156,
      "spoil": 2157,
      "res": 2158,
      "arely": 2159,
      "named": 2160,
      "issu": 2161,
      "diffic": 2162,
      "haven": 2163,
      "aught": 2164,
      "lie": 2165,
      "twist": 2166,
      "aspect": 2167,
      "setting": 2168,
      "Unfortunately": 2169,
      "beyond": 2170,
      "working": 2171,
      "carto": 2172,
      "Ph": 2173,
      "stage": 2174,
      "post": 2175,
      "Ex": 2176,
      "dro": 2177,
      "doubt": 2178,
      "attle": 2179,
      "accept": 2180,
      "dan": 2181,
      "Frank": 2182,
      "del": 2183,
      "easy": 2184,
      "release": 2185,
      "visual": 2186,
      "sequel": 2187,
      "message": 2188,
      "clearly": 2189,
      "above": 2190,
      "ibly": 2191,
      "easily": 2192,
      "publ": 2193,
      "fell": 2194,
      "victim": 2195,
      "future": 2196,
      "flaw": 2197,
      "Indi": 2198,
      "soc": 2199,
      "Fil": 2200,
      "surprised": 2201,
      "personal": 2202,
      "tried": 2203,
      "needs": 2204,
      "Mon": 2205,
      "sn": 2206,
      "zomb": 2207,
      "theat": 2208,
      "claim": 2209,
      "sug": 2210,
      "slight": 2211,
      "creep": 2212,
      "ension": 2213,
      "entertainment": 2214,
      "parents": 2215,
      "French": 2216,
      "acted": 2217,
      "Peter": 2218,
      "adult": 2219,
      "lim": 2220,
      "trou": 2221,
      "const": 2222,
      "rend": 2223,
      "state": 2224,
      "ban": 2225,
      "rich": 2226,
      "telling": 2227,
      "showing": 2228,
      "tom": 2229,
      "points": 2230,
      "har": 2231,
      "Most": 2232,
      "bunch": 2233,
      "asy": 2234,
      "50": 2235,
      "theme": 2236,
      "resp": 2237,
      "tle": 2238,
      "period": 2239,
      "viewing": 2240,
      "city": 2241,
      "match": 2242,
      "reve": 2243,
      "round": 2244,
      "storyline": 2245,
      "dam": 2246,
      "forward": 2247,
      "suggest": 2248,
      "large": 2249,
      "ening": 2250,
      "deed": 2251,
      "inno": 2252,
      "sem": 2253,
      "uro": 2254,
      "actual": 2255,
      "attack": 2256,
      "ctive": 2257,
      "Like": 2258,
      "?<": 2259,
      "pathetic": 2260,
      "minute": 2261,
      "meaning": 2262,
      "filmed": 2263,
      "pping": 2264,
      "hear": 2265,
      "!!!!": 2266,
      "Dire": 2267,
      "contro": 2268,
      "supporting": 2269,
      "oose": 2270,
      "repe": 2271,
      "ution": 2272,
      "30": 2273,
      "typical": 2274,
      "path": 2275,
      "',": 2276,
      "means": 2277,
      "Ber": 2278,
      "water": 2279,
      "within": 2280,
      "feels": 2281,
      "flu": 2282,
      "comments": 2283,
      "clim": 2284,
      "ially": 2285,
      "rock": 2286,
      "herself": 2287,
      "omin": 2288,
      "decided": 2289,
      "elements": 2290,
      "Jim": 2291,
      "tale": 2292,
      "dramatic": 2293,
      "difficult": 2294,
      "sister": 2295,
      "yp": 2296,
      "overall": 2297,
      "Ke": 2298,
      "!)": 2299,
      "kick": 2300,
      "teach": 2301,
      "Oscar": 2302,
      "hom": 2303,
      "ses": 2304,
      "viewers": 2305,
      "lin": 2306,
      "owing": 2307,
      "Qu": 2308,
      "five": 2309,
      "truth": 2310,
      "editing": 2311,
      "rob": 2312,
      "div": 2313,
      "Good": 2314,
      "Ho": 2315,
      "iment": 2316,
      "comb": 2317,
      "introdu": 2318,
      "net": 2319,
      "flash": 2320,
      "York": 2321,
      "kills": 2322,
      "buy": 2323,
      "LE": 2324,
      "sha": 2325,
      "hood": 2326,
      "rate": 2327,
      "Watch": 2328,
      "nearly": 2329,
      "mill": 2330,
      "ians": 2331,
      "board": 2332,
      "descri": 2333,
      "wind": 2334,
      "brought": 2335,
      "Its": 2336,
      "ampire": 2337,
      "figure": 2338,
      "express": 2339,
      "street": 2340,
      "Sch": 2341,
      "camp": 2342,
      "whether": 2343,
      "reviews": 2344,
      "Ital": 2345,
      "leads": 2346,
      "fi": 2347,
      "business": 2348,
      "Des": 2349,
      "asc": 2350,
      "rad": 2351,
      "accent": 2352,
      "America": 2353,
      "writers": 2354,
      "Ang": 2355,
      "ze": 2356,
      "ener": 2357,
      "van": 2358,
      "wo": 2359,
      "dream": 2360,
      "mel": 2361,
      "esy": 2362,
      "catch": 2363,
      "wait": 2364,
      "background": 2365,
      "jud": 2366,
      "ugh": 2367,
      "theater": 2368,
      "lier": 2369,
      "greatest": 2370,
      "cons": 2371,
      "begins": 2372,
      "refer": 2373,
      "basically": 2374,
      "King": 2375,
      "train": 2376,
      "crime": 2377,
      "conne": 2378,
      "iction": 2379,
      "gone": 2380,
      "premise": 2381,
      "ls": 2382,
      "atmosphere": 2383,
      "atever": 2384,
      "VER": 2385,
      "ron": 2386,
      "NOT": 2387,
      "forced": 2388,
      "German": 2389,
      "lots": 2390,
      "crew": 2391,
      "nature": 2392,
      "thy": 2393,
      "fantastic": 2394,
      "convincing": 2395,
      "apparently": 2396,
      "average": 2397,
      "advent": 2398,
      "surprise": 2399,
      "animation": 2400,
      "Aust": 2401,
      "Mart": 2402,
      "Overall": 2403,
      "medi": 2404,
      "liter": 2405,
      "prison": 2406,
      "PO": 2407,
      "natural": 2408,
      "amount": 2409,
      "These": 2410,
      "grand": 2411,
      "write": 2412,
      "situation": 2413,
      "unity": 2414,
      "rific": 2415,
      "emotional": 2416,
      "step": 2417,
      "killing": 2418,
      "Night": 2419,
      "weird": 2420,
      "80": 2421,
      "bother": 2422,
      "vent": 2423,
      "needed": 2424,
      "deliver": 2425,
      "IMD": 2426,
      "dden": 2427,
      "fit": 2428,
      "pure": 2429,
      "ye": 2430,
      "appeal": 2431,
      "Lee": 2432,
      "rap": 2433,
      "dem": 2434,
      "ugg": 2435,
      "Let": 2436,
      "stere": 2437,
      "interested": 2438,
      "clever": 2439,
      "Black": 2440,
      "zz": 2441,
      "monster": 2442,
      "?\"": 2443,
      "ring": 2444,
      "depict": 2445,
      "LO": 2446,
      "standing": 2447,
      "ham": 2448,
      "exe": 2449,
      "memorable": 2450,
      "public": 2451,
      "effective": 2452,
      "poorly": 2453,
      "pull": 2454,
      "week": 2455,
      "space": 2456,
      "reco": 2457,
      "profess": 2458,
      "leaves": 2459,
      "lame": 2460,
      "rac": 2461,
      "ously": 2462,
      "gay": 2463,
      "sick": 2464,
      "lying": 2465,
      "secret": 2466,
      "urther": 2467,
      "heav": 2468,
      "ultim": 2469,
      "became": 2470,
      "footage": 2471,
      "ilo": 2472,
      "field": 2473,
      "concept": 2474,
      "leading": 2475,
      "credits": 2476,
      "Here": 2477,
      "crim": 2478,
      "serv": 2479,
      "emb": 2480,
      "Star": 2481,
      "Am": 2482,
      "oper": 2483,
      "sudden": 2484,
      "ager": 2485,
      "bored": 2486,
      "pac": 2487,
      "Em": 2488,
      "dance": 2489,
      "aging": 2490,
      "mentioned": 2491,
      "ges": 2492,
      "mad": 2493,
      "/>\"": 2494,
      "note": 2495,
      "mach": 2496,
      "copy": 2497,
      "cted": 2498,
      "worked": 2499,
      "possibly": 2500,
      "tori": 2501,
      "Ser": 2502,
      "reading": 2503,
      "ana": 2504,
      "anyway": 2505,
      "gre": 2506,
      "'.": 2507,
      "society": 2508,
      "OU": 2509,
      "Other": 2510,
      "beat": 2511,
      "bul": 2512,
      "hair": 2513,
      "gotten": 2514,
      "shame": 2515,
      "inally": 2516,
      "emotion": 2517,
      "unique": 2518,
      "villain": 2519,
      "sens": 2520,
      "somehow": 2521,
      "meets": 2522,
      "ula": 2523,
      "mystery": 2524,
      "oun": 2525,
      "unlike": 2526,
      "studi": 2527,
      "Disney": 2528,
      "recogn": 2529,
      "perfectly": 2530,
      "stereot": 2531,
      "yn": 2532,
      "laughs": 2533,
      "hi": 2534,
      "boys": 2535,
      "whom": 2536,
      "features": 2537,
      "popular": 2538,
      "result": 2539,
      "ald": 2540,
      "cers": 2541,
      "Wood": 2542,
      "met": 2543,
      "cheesy": 2544,
      "ising": 2545,
      "Ear": 2546,
      "romance": 2547,
      "keeps": 2548,
      "roy": 2549,
      "Japanese": 2550,
      "ica": 2551,
      "third": 2552,
      "attract": 2553,
      "iliar": 2554,
      "apped": 2555,
      "meant": 2556,
      "quickly": 2557,
      "masterpiece": 2558,
      "ices": 2559,
      "Great": 2560,
      "196": 2561,
      "Che": 2562,
      "imagine": 2563,
      "superb": 2564,
      "Scott": 2565,
      "please": 2566,
      "bur": 2567,
      "akes": 2568,
      "hands": 2569,
      "distur": 2570,
      "aked": 2571,
      "Euro": 2572,
      "Will": 2573,
      "anti": 2574,
      "familiar": 2575,
      "general": 2576,
      "ches": 2577,
      "badly": 2578,
      "older": 2579,
      "scient": 2580,
      "realize": 2581,
      "IT": 2582,
      "girlfriend": 2583,
      "total": 2584,
      "satis": 2585,
      "Cor": 2586,
      "dumb": 2587,
      "reach": 2588,
      "edu": 2589,
      "Joe": 2590,
      "members": 2591,
      "ped": 2592,
      "earlier": 2593,
      "create": 2594,
      "screenplay": 2595,
      "Gre": 2596,
      "Ale": 2597,
      "demon": 2598,
      "trad": 2599,
      "trave": 2600,
      "ient": 2601,
      "aste": 2602,
      "concl": 2603,
      "joke": 2604,
      "Pat": 2605,
      "fest": 2606,
      "fasc": 2607,
      "trash": 2608,
      "sorry": 2609,
      "exper": 2610,
      "fairly": 2611,
      "William": 2612,
      "ging": 2613,
      "powerful": 2614,
      "IMDb": 2615,
      "bro": 2616,
      "dress": 2617,
      "cat": 2618,
      "jour": 2619,
      "?)": 2620,
      "imm": 2621,
      "adapt": 2622,
      "plain": 2623,
      "illy": 2624,
      "brings": 2625,
      "various": 2626,
      "histor": 2627,
      "flo": 2628,
      "doctor": 2629,
      "battle": 2630,
      "towards": 2631,
      "incredibly": 2632,
      "Fo": 2633,
      "admit": 2634,
      "lor": 2635,
      "inside": 2636,
      "concer": 2637,
      "ival": 2638,
      "directing": 2639,
      "avoid": 2640,
      "portrayed": 2641,
      "AD": 2642,
      "neg": 2643,
      "spent": 2644,
      "\")": 2645,
      "creepy": 2646,
      "En": 2647,
      "Hor": 2648,
      "development": 2649,
      "political": 2650,
      "cir": 2651,
      "arre": 2652,
      "nother": 2653,
      "store": 2654,
      "reasons": 2655,
      "Bill": 2656,
      "cock": 2657,
      "occas": 2658,
      "Another": 2659,
      "recor": 2660,
      "walk": 2661,
      "eventually": 2662,
      "necessary": 2663,
      "directors": 2664,
      "rit": 2665,
      "design": 2666,
      "talented": 2667,
      "unning": 2668,
      "accur": 2669,
      "La": 2670,
      "Mat": 2671,
      "Pro": 2672,
      "cute": 2673,
      "arring": 2674,
      "15": 2675,
      "project": 2676,
      "fighting": 2677,
      "fails": 2678,
      "langu": 2679,
      "bs": 2680,
      "offic": 2681,
      "cartoon": 2682,
      "sounds": 2683,
      "reveal": 2684,
      "Bet": 2685,
      "spirit": 2686,
      "sleep": 2687,
      "dev": 2688,
      "deserves": 2689,
      "execut": 2690,
      "ero": 2691,
      "ford": 2692,
      "wasted": 2693,
      "casting": 2694,
      "bert": 2695,
      "ush": 2696,
      "brain": 2697,
      "venge": 2698,
      "psycho": 2699,
      "return": 2700,
      "Sm": 2701,
      "ius": 2702,
      "flat": 2703,
      "beauty": 2704,
      "logical": 2705,
      "andy": 2706,
      "plenty": 2707,
      "table": 2708,
      "ES": 2709,
      "erson": 2710,
      "filled": 2711,
      "manages": 2712,
      "itted": 2713,
      "ague": 2714,
      "invest": 2715,
      "spl": 2716,
      "phys": 2717,
      "Russ": 2718,
      "anna": 2719,
      "lid": 2720,
      "created": 2721,
      "tre": 2722,
      "revol": 2723,
      "ideas": 2724,
      "194": 2725,
      "expecting": 2726,
      "attempts": 2727,
      "CH": 2728,
      "nud": 2729,
      "ares": 2730,
      "company": 2731,
      "missed": 2732,
      "AS": 2733,
      "social": 2734,
      "missing": 2735,
      "satisf": 2736,
      "insp": 2737,
      "elling": 2738,
      "Still": 2739,
      "explain": 2740,
      "accident": 2741,
      "died": 2742,
      "cape": 2743,
      "depth": 2744,
      "western": 2745,
      "Ab": 2746,
      "drag": 2747,
      "World": 2748,
      "indeed": 2749,
      "regard": 2750,
      "ican": 2751,
      "tort": 2752,
      "Tim": 2753,
      "Van": 2754,
      "stal": 2755,
      "psych": 2756,
      "extra": 2757,
      "whatever": 2758,
      "former": 2759,
      "90": 2760,
      "achie": 2761,
      "Ju": 2762,
      "idi": 2763,
      "outside": 2764,
      "mood": 2765,
      "caught": 2766,
      "produced": 2767,
      "iff": 2768,
      "Director": 2769,
      "Mur": 2770,
      "inary": 2771,
      "195": 2772,
      "biz": 2773,
      "row": 2774,
      "explo": 2775,
      "lady": 2776,
      "disc": 2777,
      "positive": 2778,
      "nie": 2779,
      "logy": 2780,
      "common": 2781,
      "(\"": 2782,
      "Instead": 2783,
      "laughing": 2784,
      "Italian": 2785,
      "pace": 2786,
      "remake": 2787,
      "olf": 2788,
      "Jane": 2789,
      "dim": 2790,
      "suit": 2791,
      "relig": 2792,
      "iel": 2793,
      "arrass": 2794,
      "bes": 2795,
      "Act": 2796,
      "Mad": 2797,
      "potential": 2798,
      "luck": 2799,
      "crazy": 2800,
      "contri": 2801,
      "ost": 2802,
      "remark": 2803,
      "subtle": 2804,
      "LY": 2805,
      "filmmakers": 2806,
      "escape": 2807,
      "wrote": 2808,
      "iced": 2809,
      "recently": 2810,
      "mes": 2811,
      "Love": 2812,
      "ships": 2813,
      "iously": 2814,
      "trail": 2815,
      "credit": 2816,
      "embarrass": 2817,
      "cei": 2818,
      "ders": 2819,
      "vampire": 2820,
      "brief": 2821,
      "prot": 2822,
      "izing": 2823,
      "fash": 2824,
      "suspect": 2825,
      "wed": 2826,
      "wart": 2827,
      "intri": 2828,
      "Movie": 2829,
      "following": 2830,
      "arri": 2831,
      "unless": 2832,
      "nudity": 2833,
      "Europe": 2834,
      "Big": 2835,
      "thus": 2836,
      "immedi": 2837,
      "stereotyp": 2838,
      "complex": 2839,
      "Dead": 2840,
      "cross": 2841,
      "oh": 2842,
      "acts": 2843,
      "actions": 2844,
      "Gar": 2845,
      "ai": 2846,
      "hardly": 2847,
      "approach": 2848,
      "upt": 2849,
      "married": 2850,
      "waiting": 2851,
      "sweet": 2852,
      "slightly": 2853,
      "Pol": 2854,
      "Ter": 2855,
      "gress": 2856,
      "color": 2857,
      "successful": 2858,
      "further": 2859,
      "mass": 2860,
      "worthy": 2861,
      "impressive": 2862,
      "Bel": 2863,
      "High": 2864,
      "sees": 2865,
      "House": 2866,
      "Li": 2867,
      "Park": 2868,
      "sess": 2869,
      "sters": 2870,
      "earth": 2871,
      "decides": 2872,
      "esome": 2873,
      "gram": 2874,
      "fantasy": 2875,
      "berg": 2876,
      "intelligent": 2877,
      "road": 2878,
      "exciting": 2879,
      "Lou": 2880,
      "force": 2881,
      "desper": 2882,
      "value": 2883,
      "stri": 2884,
      "sport": 2885,
      "appy": 2886,
      "Perhaps": 2887,
      "moves": 2888,
      "soul": 2889,
      "delight": 2890,
      "Where": 2891,
      "OM": 2892,
      "asher": 2893,
      "ito": 2894,
      "entirely": 2895,
      "uine": 2896,
      "maker": 2897,
      "pointless": 2898,
      "depend": 2899,
      "Fr": 2900,
      "tension": 2901,
      "doll": 2902,
      "deem": 2903,
      "Gold": 2904,
      "door": 2905,
      "god": 2906,
      "follows": 2907,
      "ples": 2908,
      "portrayal": 2909,
      "Red": 2910,
      "appreciate": 2911,
      "spot": 2912,
      "Lon": 2913,
      "language": 2914,
      "itation": 2915,
      "bling": 2916,
      "pack": 2917,
      "ech": 2918,
      "iers": 2919,
      "plo": 2920,
      "Ray": 2921,
      "mere": 2922,
      "genuine": 2923,
      "bizarre": 2924,
      "Pre": 2925,
      "Rom": 2926,
      "flict": 2927,
      "unfortunately": 2928,
      "choice": 2929,
      "ites": 2930,
      "culture": 2931,
      "Hitch": 2932,
      "gain": 2933,
      "aff": 2934,
      "craf": 2935,
      "pieces": 2936,
      "comput": 2937,
      "193": 2938,
      "elly": 2939,
      "younger": 2940,
      "lik": 2941,
      "smo": 2942,
      "ded": 2943,
      "def": 2944,
      "ensive": 2945,
      "fashion": 2946,
      "bage": 2947,
      "uster": 2948,
      "Sim": 2949,
      "rough": 2950,
      "ths": 2951,
      "requ": 2952,
      "tough": 2953,
      "Mic": 2954,
      "annel": 2955,
      "Mac": 2956,
      "ades": 2957,
      "critic": 2958,
      "Film": 2959,
      "bles": 2960,
      "party": 2961,
      "terror": 2962,
      "manner": 2963,
      "inger": 2964,
      "images": 2965,
      "biggest": 2966,
      "situations": 2967,
      "ker": 2968,
      "Rock": 2969,
      "involving": 2970,
      "danger": 2971,
      "fat": 2972,
      "jump": 2973,
      "solid": 2974,
      "strugg": 2975,
      "Christmas": 2976,
      "focus": 2977,
      "impro": 2978,
      "amusing": 2979,
      "survi": 2980,
      "100": 2981,
      "longer": 2982,
      "pul": 2983,
      "likes": 2984,
      "changed": 2985,
      "control": 2986,
      "wall": 2987,
      "incredible": 2988,
      "humour": 2989,
      "Mel": 2990,
      "bi": 2991,
      "presented": 2992,
      "science": 2993,
      "dub": 2994,
      "counter": 2995,
      "gover": 2996,
      "hang": 2997,
      "avail": 2998,
      "ashing": 2999,
      "decide": 3000,
      "violent": 3001,
      "trouble": 3002,
      "OF": 3003,
      "ened": 3004,
      "host": 3005,
      "baby": 3006,
      "rect": 3007,
      "purpose": 3008,
      "dancing": 3009,
      "finish": 3010,
      "slasher": 3011,
      "normal": 3012,
      "burn": 3013,
      "formation": 3014,
      "Wil": 3015,
      "test": 3016,
      "office": 3017,
      "brut": 3018,
      "ateur": 3019,
      "producers": 3020,
      "fake": 3021,
      "Ma": 3022,
      "bomb": 3023,
      "Best": 3024,
      "Sure": 3025,
      "otherwise": 3026,
      "spend": 3027,
      "gent": 3028,
      "continu": 3029,
      "Du": 3030,
      "anda": 3031,
      "aming": 3032,
      "irty": 3033,
      "college": 3034,
      "six": 3035,
      "ribly": 3036,
      "base": 3037,
      "affect": 3038,
      "Str": 3039,
      "Day": 3040,
      "pair": 3041,
      "glad": 3042,
      "consist": 3043,
      "Bur": 3044,
      "ises": 3045,
      "Stre": 3046,
      "fear": 3047,
      "proper": 3048,
      "BC": 3049,
      "values": 3050,
      "questions": 3051,
      "Cha": 3052,
      "Vic": 3053,
      "Alex": 3054,
      "taste": 3055,
      "weren": 3056,
      "Very": 3057,
      "hid": 3058,
      "pers": 3059,
      "appearance": 3060,
      "inating": 3061,
      "itary": 3062,
      "Anyway": 3063,
      "oft": 3064,
      "lover": 3065,
      "AND": 3066,
      "iny": 3067,
      "Mary": 3068,
      "loss": 3069,
      "respons": 3070,
      "ghost": 3071,
      "garbage": 3072,
      "opport": 3073,
      "shed": 3074,
      "showed": 3075,
      "bb": 3076,
      "added": 3077,
      "barely": 3078,
      "ken": 3079,
      "leng": 3080,
      "rema": 3081,
      "ED": 3082,
      "Hen": 3083,
      "compared": 3084,
      "Angel": 3085,
      "smart": 3086,
      "inspired": 3087,
      "mistry": 3088,
      "Charles": 3089,
      "amateur": 3090,
      "developed": 3091,
      "andom": 3092,
      "singing": 3093,
      "runs": 3094,
      "Ru": 3095,
      "assu": 3096,
      "books": 3097,
      "Afr": 3098,
      "Jones": 3099,
      "inner": 3100,
      "sell": 3101,
      "faith": 3102,
      "lets": 3103,
      "failed": 3104,
      "aven": 3105,
      "Ham": 3106,
      "arily": 3107,
      "Fe": 3108,
      "Two": 3109,
      "loud": 3110,
      "suddenly": 3111,
      "Bat": 3112,
      "bot": 3113,
      "awesome": 3114,
      "chemistry": 3115,
      "Bob": 3116,
      "ilt": 3117,
      "ization": 3118,
      "considered": 3119,
      "ordinary": 3120,
      "Bri": 3121,
      "ns": 3122,
      "Tar": 3123,
      "redeem": 3124,
      "Way": 3125,
      "ba": 3126,
      "bought": 3127,
      "City": 3128,
      "sav": 3129,
      "carry": 3130,
      "shooting": 3131,
      "issues": 3132,
      "enced": 3133,
      "cold": 3134,
      "disturbing": 3135,
      "insul": 3136,
      "thes": 3137,
      "Thom": 3138,
      "crow": 3139,
      "date": 3140,
      "Jer": 3141,
      "chase": 3142,
      "ires": 3143,
      "See": 3144,
      "gag": 3145,
      "aper": 3146,
      "phen": 3147,
      "standard": 3148,
      "studio": 3149,
      "favour": 3150,
      "pract": 3151,
      "Only": 3152,
      "fo": 3153,
      "leaving": 3154,
      "impossible": 3155,
      "aking": 3156,
      "adventure": 3157,
      "exception": 3158,
      "ison": 3159,
      "dete": 3160,
      "century": 3161,
      "umes": 3162,
      "za": 3163,
      "plane": 3164,
      "genius": 3165,
      "Stan": 3166,
      "appeared": 3167,
      "OO": 3168,
      "Ken": 3169,
      "nment": 3170,
      "ov": 3171,
      "island": 3172,
      "twists": 3173,
      "thinks": 3174,
      "nical": 3175,
      "minor": 3176,
      "immediately": 3177,
      "ID": 3178,
      "70": 3179,
      "Dou": 3180,
      "succeed": 3181,
      "London": 3182,
      "names": 3183,
      "remain": 3184,
      "belief": 3185,
      "considering": 3186,
      "SPO": 3187,
      "gory": 3188,
      "trip": 3189,
      "***": 3190,
      "audiences": 3191,
      "okay": 3192,
      "Earth": 3193,
      "ceived": 3194,
      "fu": 3195,
      "roc": 3196,
      "obsess": 3197,
      "literally": 3198,
      "pan": 3199,
      "author": 3200,
      "onic": 3201,
      "basic": 3202,
      "heavy": 3203,
      "Fred": 3204,
      "impression": 3205,
      "cry": 3206,
      "Despite": 3207,
      "sitting": 3208,
      "fresh": 3209,
      "innocent": 3210,
      "cell": 3211,
      "Though": 3212,
      "spec": 3213,
      "changes": 3214,
      "Dark": 3215,
      "GI": 3216,
      "notice": 3217,
      "pal": 3218,
      "moved": 3219,
      "contr": 3220,
      "Jeff": 3221,
      "investig": 3222,
      "Jul": 3223,
      "ILER": 3224,
      "available": 3225,
      "beha": 3226,
      "sexy": 3227,
      "11": 3228,
      "core": 3229,
      "uce": 3230,
      "onto": 3231,
      "phone": 3232,
      "000": 3233,
      "likable": 3234,
      "tend": 3235,
      "random": 3236,
      "likely": 3237,
      "occur": 3238,
      "Paris": 3239,
      "Sy": 3240,
      "plus": 3241,
      "SPOILER": 3242,
      "Because": 3243,
      "mission": 3244,
      "lay": 3245,
      "ands": 3246,
      "starring": 3247,
      "club": 3248,
      "threat": 3249,
      "stunning": 3250,
      "aine": 3251,
      "conclusion": 3252,
      "alive": 3253,
      "views": 3254,
      "steal": 3255,
      "motion": 3256,
      "Bad": 3257,
      "irth": 3258,
      "places": 3259,
      "computer": 3260,
      "stem": 3261,
      "throw": 3262,
      "Never": 3263,
      "sen": 3264,
      "passion": 3265,
      "Yet": 3266,
      "revenge": 3267,
      "indust": 3268,
      "criminal": 3269,
      "born": 3270,
      "dad": 3271,
      "sight": 3272,
      "animated": 3273,
      "climax": 3274,
      "intrigu": 3275,
      "wel": 3276,
      "neither": 3277,
      "iller": 3278,
      "zombie": 3279,
      "Sar": 3280,
      "depress": 3281,
      "Kr": 3282,
      "tone": 3283,
      "scenery": 3284,
      "Charlie": 3285,
      "itor": 3286,
      "squ": 3287,
      "icated": 3288,
      "program": 3289,
      "Jean": 3290,
      "current": 3291,
      "magic": 3292,
      "bol": 3293,
      "somewhere": 3294,
      "ody": 3295,
      "presence": 3296,
      "terms": 3297,
      "hun": 3298,
      "nu": 3299,
      "cinematic": 3300,
      "Steve": 3301,
      "witness": 3302,
      "wild": 3303,
      "intended": 3304,
      "rey": 3305,
      "verse": 3306,
      "journey": 3307,
      "13": 3308,
      "ena": 3309,
      "ified": 3310,
      "destroy": 3311,
      "mm": 3312,
      "shad": 3313,
      "void": 3314,
      "nowhere": 3315,
      "cks": 3316,
      "People": 3317,
      "soldiers": 3318,
      "flashback": 3319,
      "Ple": 3320,
      "surprisingly": 3321,
      "esh": 3322,
      "managed": 3323,
      "moral": 3324,
      "\".<": 3325,
      "eth": 3326,
      "conflict": 3327,
      "Ok": 3328,
      "anks": 3329,
      "neigh": 3330,
      "boyfriend": 3331,
      "enter": 3332,
      "loves": 3333,
      "watchable": 3334,
      "Ac": 3335,
      "Too": 3336,
      "icide": 3337,
      "Show": 3338,
      "pen": 3339,
      "idence": 3340,
      "gry": 3341,
      "affair": 3342,
      "bled": 3343,
      "thrown": 3344,
      "photography": 3345,
      "AM": 3346,
      "Dar": 3347,
      "Miss": 3348,
      "dom": 3349,
      "comedies": 3350,
      "curi": 3351,
      "Christian": 3352,
      "18": 3353,
      "rare": 3354,
      "mental": 3355,
      "ultimately": 3356,
      "remains": 3357,
      "gas": 3358,
      "riage": 3359,
      "izes": 3360,
      "million": 3361,
      "loy": 3362,
      "load": 3363,
      "adaptation": 3364,
      "Sci": 3365,
      "WW": 3366,
      "ify": 3367,
      "historical": 3368,
      "AC": 3369,
      "Hel": 3370,
      "mult": 3371,
      "ura": 3372,
      "plots": 3373,
      "correct": 3374,
      "Smith": 3375,
      "Life": 3376,
      "intent": 3377,
      "suppose": 3378,
      "divid": 3379,
      "vert": 3380,
      "charming": 3381,
      "gold": 3382,
      "narrative": 3383,
      "constantly": 3384,
      "commer": 3385,
      "Nothing": 3386,
      "Indian": 3387,
      "beautifully": 3388,
      "emotions": 3389,
      "military": 3390,
      "Bas": 3391,
      "tur": 3392,
      "offer": 3393,
      "details": 3394,
      "Mark": 3395,
      "Sun": 3396,
      "gg": 3397,
      "escap": 3398,
      "edge": 3399,
      "building": 3400,
      "drink": 3401,
      "utterly": 3402,
      "lab": 3403,
      "alien": 3404,
      "Harry": 3405,
      "abr": 3406,
      "professional": 3407,
      "protagon": 3408,
      "ining": 3409,
      "position": 3410,
      "40": 3411,
      "mouth": 3412,
      "influ": 3413,
      "feat": 3414,
      "loose": 3415,
      "individ": 3416,
      "theless": 3417,
      "ander": 3418,
      "shop": 3419,
      "urch": 3420,
      "exp": 3421,
      "appropri": 3422,
      "nast": 3423,
      "ties": 3424,
      "terrific": 3425,
      "Bruce": 3426,
      "drawn": 3427,
      "chall": 3428,
      "Ra": 3429,
      "aint": 3430,
      "laughable": 3431,
      "ledge": 3432,
      "Ry": 3433,
      "len": 3434,
      "stands": 3435,
      "producer": 3436,
      "Tony": 3437,
      "fool": 3438,
      "prop": 3439,
      "Many": 3440,
      "Pal": 3441,
      "raid": 3442,
      "Austral": 3443,
      "tt": 3444,
      "wis": 3445,
      "ico": 3446,
      "recommended": 3447,
      "HO": 3448,
      "More": 3449,
      "ively": 3450,
      "disappointing": 3451,
      "pun": 3452,
      "feelings": 3453,
      "touching": 3454,
      "arts": 3455,
      "government": 3456,
      "chick": 3457,
      "lia": 3458,
      "qual": 3459,
      "boss": 3460,
      "generally": 3461,
      "pil": 3462,
      "init": 3463,
      "unbelievable": 3464,
      "aware": 3465,
      "ride": 3466,
      "charm": 3467,
      "costumes": 3468,
      "painful": 3469,
      "lived": 3470,
      "filming": 3471,
      "puts": 3472,
      "Boy": 3473,
      "Hitchcock": 3474,
      "tun": 3475,
      "12": 3476,
      "comfort": 3477,
      "surround": 3478,
      "ched": 3479,
      "absur": 3480,
      "amed": 3481,
      "willing": 3482,
      "titles": 3483,
      "gust": 3484,
      "mir": 3485,
      "bear": 3486,
      "spital": 3487,
      "lovely": 3488,
      "medio": 3489,
      "themes": 3490,
      "hoping": 3491,
      "placed": 3492,
      "Spe": 3493,
      "flow": 3494,
      "difference": 3495,
      "Once": 3496,
      "attractive": 3497,
      "wide": 3498,
      "intense": 3499,
      "South": 3500,
      "via": 3501,
      "EVER": 3502,
      "andon": 3503,
      "excuse": 3504,
      "slowly": 3505,
      "aspects": 3506,
      "awk": 3507,
      "content": 3508,
      "walking": 3509,
      "aus": 3510,
      "fiction": 3511,
      "drive": 3512,
      "mistake": 3513,
      "Shak": 3514,
      "Hard": 3515,
      "inspir": 3516,
      "ante": 3517,
      "knowing": 3518,
      "commercial": 3519,
      "disappointment": 3520,
      "silent": 3521,
      "student": 3522,
      "individual": 3523,
      "itude": 3524,
      "mysterious": 3525,
      "West": 3526,
      "tar": 3527,
      "zy": 3528,
      "tired": 3529,
      "Cam": 3530,
      "subst": 3531,
      "laughter": 3532,
      "clean": 3533,
      "ior": 3534,
      "drunk": 3535,
      "race": 3536,
      "lighting": 3537,
      "expectations": 3538,
      "Stewart": 3539,
      "Super": 3540,
      "behavi": 3541,
      "lose": 3542,
      "topher": 3543,
      "lyn": 3544,
      "inj": 3545,
      "equally": 3546,
      "held": 3547,
      "legend": 3548,
      "ady": 3549,
      "graphic": 3550,
      "ki": 3551,
      "Martin": 3552,
      "Sand": 3553,
      "ape": 3554,
      "mine": 3555,
      "outstanding": 3556,
      "fascinating": 3557,
      "circ": 3558,
      "opportunity": 3559,
      "cal": 3560,
      "resem": 3561,
      "entially": 3562,
      "system": 3563,
      "contains": 3564,
      "image": 3565,
      "Christopher": 3566,
      "?!": 3567,
      "Lar": 3568,
      "mart": 3569,
      "agic": 3570,
      "grad": 3571,
      "evin": 3572,
      "Fox": 3573,
      "SE": 3574,
      "ider": 3575,
      "thank": 3576,
      "crack": 3577,
      "absurd": 3578,
      "nic": 3579,
      "Ali": 3580,
      "location": 3581,
      "Harr": 3582,
      "inn": 3583,
      "collection": 3584,
      "faces": 3585,
      "impressed": 3586,
      "justice": 3587,
      "serial": 3588,
      "laughed": 3589,
      "accurate": 3590,
      "IG": 3591,
      "Ram": 3592,
      "pictures": 3593,
      "include": 3594,
      "East": 3595,
      "Kelly": 3596,
      "aside": 3597,
      "disaster": 3598,
      "desert": 3599,
      "critics": 3600,
      "hook": 3601,
      "mote": 3602,
      "trick": 3603,
      "aps": 3604,
      "decis": 3605,
      "flicks": 3606,
      "students": 3607,
      ".....": 3608,
      "mainly": 3609,
      "Out": 3610,
      "noir": 3611,
      "Robin": 3612,
      "Er": 3613,
      "Ir": 3614,
      "compelling": 3615,
      "happening": 3616,
      "confusing": 3617,
      "Far": 3618,
      "bits": 3619,
      "Both": 3620,
      "Did": 3621,
      "process": 3622,
      "allowed": 3623,
      "Jon": 3624,
      "termin": 3625,
      "breath": 3626,
      "dig": 3627,
      "Everything": 3628,
      "holes": 3629,
      "broad": 3630,
      "Pow": 3631,
      "disgust": 3632,
      "fault": 3633,
      "soft": 3634,
      "helps": 3635,
      "melo": 3636,
      "irrit": 3637,
      "paid": 3638,
      "Kar": 3639,
      "Americans": 3640,
      "marriage": 3641,
      "da": 3642,
      "soci": 3643,
      "niest": 3644,
      "virt": 3645,
      "Men": 3646,
      "naked": 3647,
      "information": 3648,
      "Young": 3649,
      "lacks": 3650,
      "Billy": 3651,
      "Steven": 3652,
      "relationships": 3653,
      "trust": 3654,
      "porn": 3655,
      "onna": 3656,
      "vey": 3657,
      "shing": 3658,
      "prim": 3659,
      "phy": 3660,
      "lights": 3661,
      "Val": 3662,
      "intention": 3663,
      "Bor": 3664,
      "spectac": 3665,
      "confused": 3666,
      "drugs": 3667,
      "dread": 3668,
      "minis": 3669,
      "Mus": 3670,
      "ini": 3671,
      "een": 3672,
      "han": 3673,
      "resc": 3674,
      "folks": 3675,
      "creative": 3676,
      "Shakespe": 3677,
      "IE": 3678,
      "Naz": 3679,
      "thur": 3680,
      "cher": 3681,
      "gem": 3682,
      "ills": 3683,
      "Girl": 3684,
      "Little": 3685,
      "sal": 3686,
      "ases": 3687,
      "ado": 3688,
      "Dick": 3689,
      "lif": 3690,
      "share": 3691,
      "ural": 3692,
      "tood": 3693,
      "giant": 3694,
      "news": 3695,
      "actresses": 3696,
      "struct": 3697,
      "Story": 3698,
      "dreams": 3699,
      "Part": 3700,
      "edy": 3701,
      "emplo": 3702,
      "record": 3703,
      "Di": 3704,
      "Gi": 3705,
      "rout": 3706,
      "compet": 3707,
      "traged": 3708,
      "victims": 3709,
      "Ant": 3710,
      "seemingly": 3711,
      "adds": 3712,
      "ibility": 3713,
      "Mex": 3714,
      "gorge": 3715,
      "independ": 3716,
      "compan": 3717,
      "zo": 3718,
      "sey": 3719,
      "object": 3720,
      "hospital": 3721,
      "dated": 3722,
      "seg": 3723,
      "forgotten": 3724,
      "forever": 3725,
      "safe": 3726,
      "ablish": 3727,
      "Russian": 3728,
      "remote": 3729,
      "argu": 3730,
      "station": 3731,
      "Mal": 3732,
      "offers": 3733,
      "anted": 3734,
      "leader": 3735,
      "Canad": 3736,
      "negative": 3737,
      "delivers": 3738,
      "fright": 3739,
      "thorough": 3740,
      "Please": 3741,
      "answer": 3742,
      "flaws": 3743,
      "mut": 3744,
      "nobody": 3745,
      "putting": 3746,
      "Den": 3747,
      "eat": 3748,
      "establish": 3749,
      "lessly": 3750,
      "zombies": 3751,
      "wondering": 3752,
      "superi": 3753,
      "loving": 3754,
      "ups": 3755,
      "igno": 3756,
      "anymore": 3757,
      "funniest": 3758,
      "finding": 3759,
      "warm": 3760,
      "progress": 3761,
      "explained": 3762,
      "Arthur": 3763,
      "Look": 3764,
      "itions": 3765,
      "heal": 3766,
      "everybody": 3767,
      "trailer": 3768,
      "Jackson": 3769,
      "industry": 3770,
      "hab": 3771,
      "iles": 3772,
      "explan": 3773,
      "----": 3774,
      "falling": 3775,
      "multi": 3776,
      "Fl": 3777,
      "inci": 3778,
      "hasn": 3779,
      "prote": 3780,
      "length": 3781,
      "artist": 3782,
      "frust": 3783,
      "possess": 3784,
      "stuck": 3785,
      "honestly": 3786,
      "adults": 3787,
      "Batman": 3788,
      "uts": 3789,
      "cele": 3790,
      "matic": 3791,
      "ita": 3792,
      "sky": 3793,
      "provides": 3794,
      "merely": 3795,
      "DO": 3796,
      "uous": 3797,
      "aries": 3798,
      "fellow": 3799,
      "detective": 3800,
      "ahead": 3801,
      "contem": 3802,
      "double": 3803,
      "neighbor": 3804,
      "60": 3805,
      "Jud": 3806,
      "Western": 3807,
      "becoming": 3808,
      "suicide": 3809,
      "prefer": 3810,
      "blind": 3811,
      "imagination": 3812,
      "element": 3813,
      "MO": 3814,
      "thin": 3815,
      "grow": 3816,
      "Jes": 3817,
      "kno": 3818,
      "ilities": 3819,
      "rog": 3820,
      "gorgeous": 3821,
      "BO": 3822,
      "Eli": 3823,
      "itional": 3824,
      "heads": 3825,
      "followed": 3826,
      "deserved": 3827,
      "Ms": 3828,
      "rape": 3829,
      "standards": 3830,
      "rented": 3831,
      "breaking": 3832,
      "pleasant": 3833,
      "reminded": 3834,
      "mediocre": 3835,
      "eper": 3836,
      "personality": 3837,
      "planet": 3838,
      "opera": 3839,
      "occasion": 3840,
      "LA": 3841,
      "kin": 3842,
      "asks": 3843,
      "Bond": 3844,
      "Lyn": 3845,
      "magn": 3846,
      "numbers": 3847,
      "Jason": 3848,
      "Tre": 3849,
      "shocking": 3850,
      "Shakespeare": 3851,
      "Bol": 3852,
      "latter": 3853,
      "va": 3854,
      "mob": 3855,
      "area": 3856,
      "soever": 3857,
      "twice": 3858,
      "emp": 3859,
      "Death": 3860,
      "iest": 3861,
      "picked": 3862,
      "teacher": 3863,
      "Les": 3864,
      "bum": 3865,
      "ping": 3866,
      "bell": 3867,
      "ama": 3868,
      "boat": 3869,
      "kidn": 3870,
      "cops": 3871,
      "drop": 3872,
      "scientist": 3873,
      "BE": 3874,
      "Having": 3875,
      "wearing": 3876,
      "whatsoever": 3877,
      "animals": 3878,
      "IC": 3879,
      "eight": 3880,
      "tran": 3881,
      "VE": 3882,
      "uff": 3883,
      "forgettable": 3884,
      "Their": 3885,
      "tragic": 3886,
      "helped": 3887,
      "supposedly": 3888,
      "streng": 3889,
      "pleasure": 3890,
      ".,": 3891,
      "evol": 3892,
      "stein": 3893,
      "sident": 3894,
      "icate": 3895,
      "addition": 3896,
      "Phil": 3897,
      "hide": 3898,
      "asked": 3899,
      "thanks": 3900,
      "Que": 3901,
      "bright": 3902,
      "UN": 3903,
      "boo": 3904,
      "Henry": 3905,
      "Lau": 3906,
      "gin": 3907,
      "fill": 3908,
      "comparis": 3909,
      "Sil": 3910,
      "shouldn": 3911,
      "empt": 3912,
      "slap": 3913,
      "imagin": 3914,
      "Thomas": 3915,
      "nasty": 3916,
      "Kevin": 3917,
      "sour": 3918,
      "text": 3919,
      "ules": 3920,
      "oppos": 3921,
      "achieve": 3922,
      "celebr": 3923,
      "quiet": 3924,
      "horse": 3925,
      "Ford": 3926,
      "Ryan": 3927,
      "formula": 3928,
      "Since": 3929,
      "artistic": 3930,
      "weap": 3931,
      "proves": 3932,
      "commun": 3933,
      "childhood": 3934,
      "Law": 3935,
      "/>-": 3936,
      "oted": 3937,
      "agger": 3938,
      "grace": 3939,
      "turning": 3940,
      "bottom": 3941,
      "Sad": 3942,
      "grade": 3943,
      "remarkable": 3944,
      "tragedy": 3945,
      "fish": 3946,
      "aton": 3947,
      "convers": 3948,
      "realized": 3949,
      "dying": 3950,
      "issue": 3951,
      "aining": 3952,
      "Blood": 3953,
      "thoroughly": 3954,
      "Sus": 3955,
      "itty": 3956,
      "illa": 3957,
      "seconds": 3958,
      "calls": 3959,
      "speaking": 3960,
      "hey": 3961,
      "grat": 3962,
      "afraid": 3963,
      "ugly": 3964,
      "regular": 3965,
      "discuss": 3966,
      "Par": 3967,
      "ju": 3968,
      "noticed": 3969,
      "apo": 3970,
      "realism": 3971,
      "sadly": 3972,
      "Space": 3973,
      "superior": 3974,
      "sed": 3975,
      "ctions": 3976,
      "symbol": 3977,
      "Mag": 3978,
      "fif": 3979,
      "punch": 3980,
      ".'": 3981,
      "reck": 3982,
      "ston": 3983,
      "gling": 3984,
      "fits": 3985,
      "sun": 3986,
      "commentary": 3987,
      "pra": 3988,
      "wooden": 3989,
      "Anne": 3990,
      "Oli": 3991,
      "fly": 3992,
      "began": 3993,
      "continue": 3994,
      "rupt": 3995,
      "epic": 3996,
      "finished": 3997,
      "surely": 3998,
      "fights": 3999,
      "murders": 4000,
      "Danny": 4001,
      "responsible": 4002,
      "Okay": 4003,
      "wolf": 4004,
      "army": 4005,
      "aud": 4006,
      "inese": 4007,
      "Second": 4008,
      "listen": 4009,
      "damn": 4010,
      "80s": 4011,
      "sin": 4012,
      "channel": 4013,
      "scare": 4014,
      "provide": 4015,
      "awn": 4016,
      "understanding": 4017,
      "physical": 4018,
      "Dor": 4019,
      "tes": 4020,
      "ella": 4021,
      "central": 4022,
      "creature": 4023,
      "CGI": 4024,
      "Dam": 4025,
      "Finally": 4026,
      "games": 4027,
      "crash": 4028,
      "winning": 4029,
      "birth": 4030,
      "national": 4031,
      "angry": 4032,
      "Gor": 4033,
      "mount": 4034,
      "stat": 4035,
      "insight": 4036,
      "stock": 4037,
      "clothes": 4038,
      "repeated": 4039,
      "describe": 4040,
      "Horror": 4041,
      "RA": 4042,
      "yle": 4043,
      "stunt": 4044,
      "Fi": 4045,
      "agent": 4046,
      "White": 4047,
      "perform": 4048,
      "azz": 4049,
      "introduced": 4050,
      "energy": 4051,
      "print": 4052,
      "relative": 4053,
      "apartment": 4054,
      "witch": 4055,
      "beth": 4056,
      "auto": 4057,
      "wee": 4058,
      "Moo": 4059,
      "wanting": 4060,
      "Mer": 4061,
      "VH": 4062,
      "bill": 4063,
      "motiv": 4064,
      "separ": 4065,
      "impact": 4066,
      "struggle": 4067,
      "Jerry": 4068,
      "Sher": 4069,
      "Ver": 4070,
      "fold": 4071,
      "prep": 4072,
      "religious": 4073,
      ")<": 4074,
      "Cra": 4075,
      "agers": 4076,
      "memory": 4077,
      "presents": 4078,
      "Kid": 4079,
      "block": 4080,
      "ya": 4081,
      "ency": 4082,
      "unexpected": 4083,
      "player": 4084,
      "Chan": 4085,
      "priv": 4086,
      "hat": 4087,
      "prec": 4088,
      "Ye": 4089,
      "vive": 4090,
      "ays": 4091,
      "compare": 4092,
      "redeeming": 4093,
      "manage": 4094,
      "account": 4095,
      "soldier": 4096,
      "Nick": 4097,
      "food": 4098,
      "teenage": 4099,
      "favourite": 4100,
      "holds": 4101,
      "cow": 4102,
      "fli": 4103,
      "asing": 4104,
      "youth": 4105,
      "Chinese": 4106,
      "comedic": 4107,
      "frame": 4108,
      "explos": 4109,
      "Johnny": 4110,
      "Williams": 4111,
      "brutal": 4112,
      "ben": 4113,
      "intriguing": 4114,
      "brothers": 4115,
      "creating": 4116,
      "limited": 4117,
      "aire": 4118,
      "pup": 4119,
      "zen": 4120,
      "erous": 4121,
      "Roy": 4122,
      "surprising": 4123,
      "Carr": 4124,
      "GE": 4125,
      "Jr": 4126,
      "Mi": 4127,
      "Allen": 4128,
      "techni": 4129,
      "conc": 4130,
      "ifer": 4131,
      "capable": 4132,
      "asure": 4133,
      "ousy": 4134,
      "anywhere": 4135,
      "interpret": 4136,
      "ski": 4137,
      "Master": 4138,
      "cable": 4139,
      "unknown": 4140,
      "filmmaker": 4141,
      "depart": 4142,
      "award": 4143,
      "Brother": 4144,
      "belong": 4145,
      "Stephen": 4146,
      "deserve": 4147,
      "rage": 4148,
      "irt": 4149,
      "knowledge": 4150,
      "clichés": 4151,
      "Brian": 4152,
      "contrast": 4153,
      "appropriate": 4154,
      "tack": 4155,
      "intelligence": 4156,
      "torture": 4157,
      "nal": 4158,
      "tears": 4159,
      "martial": 4160,
      "DE": 4161,
      "onder": 4162,
      "otes": 4163,
      "Those": 4164,
      "skin": 4165,
      "educ": 4166,
      "AY": 4167,
      "hic": 4168,
      "personally": 4169,
      "Was": 4170,
      "bland": 4171,
      "answ": 4172,
      "woods": 4173,
      "deeply": 4174,
      "uel": 4175,
      "nold": 4176,
      "Which": 4177,
      "sympath": 4178,
      "awkward": 4179,
      "Mike": 4180,
      "extr": 4181,
      "civil": 4182,
      "Joan": 4183,
      "explore": 4184,
      "Adam": 4185,
      "paced": 4186,
      "bank": 4187,
      "research": 4188,
      "engaging": 4189,
      "bbish": 4190,
      "Last": 4191,
      "fle": 4192,
      "wonderfully": 4193,
      "priest": 4194,
      "sucks": 4195,
      "Rus": 4196,
      "yer": 4197,
      "thous": 4198,
      "partner": 4199,
      "spective": 4200,
      "elect": 4201,
      "undred": 4202,
      "techno": 4203,
      "Green": 4204,
      "Hell": 4205,
      "anch": 4206,
      "resol": 4207,
      "assist": 4208,
      "Howard": 4209,
      "includes": 4210,
      "explanation": 4211,
      "hint": 4212,
      "sole": 4213,
      "cuts": 4214,
      "Tay": 4215,
      "Alan": 4216,
      "Moore": 4217,
      "card": 4218,
      "hotel": 4219,
      "70s": 4220,
      "nomin": 4221,
      "pse": 4222,
      "arm": 4223,
      "Thank": 4224,
      "cup": 4225,
      "Brook": 4226,
      "Before": 4227,
      "gags": 4228,
      "tour": 4229,
      "deb": 4230,
      "blame": 4231,
      "buff": 4232,
      "Eddie": 4233,
      "Everyone": 4234,
      "radio": 4235,
      "RO": 4236,
      "Sin": 4237,
      "Tal": 4238,
      "dimens": 4239,
      "magnific": 4240,
      "ils": 4241,
      "ilst": 4242,
      "friendship": 4243,
      "independent": 4244,
      "Tex": 4245,
      "fare": 4246,
      "mally": 4247,
      "nia": 4248,
      "abs": 4249,
      "heroes": 4250,
      "signific": 4251,
      "Ron": 4252,
      "jer": 4253,
      "unusual": 4254,
      "weight": 4255,
      "twenty": 4256,
      "reminds": 4257,
      "ka": 4258,
      "product": 4259,
      "captured": 4260,
      "bio": 4261,
      "sac": 4262,
      "VHS": 4263,
      "Lind": 4264,
      "bath": 4265,
      "flying": 4266,
      "hundred": 4267,
      "inct": 4268,
      "tight": 4269,
      "irk": 4270,
      "pacing": 4271,
      "entious": 4272,
      "wash": 4273,
      "angle": 4274,
      "locations": 4275,
      "capture": 4276,
      "rick": 4277,
      "sli": 4278,
      "nicely": 4279,
      "Max": 4280,
      "cus": 4281,
      "mild": 4282,
      "stink": 4283,
      "acqu": 4284,
      "accompl": 4285,
      "ademy": 4286,
      "discovered": 4287,
      "humanity": 4288,
      "bound": 4289,
      "returns": 4290,
      "scared": 4291,
      "crowd": 4292,
      "hurt": 4293,
      "ray": 4294,
      "represent": 4295,
      "iled": 4296,
      "thats": 4297,
      "soap": 4298,
      "anybody": 4299,
      "intellect": 4300,
      "itous": 4301,
      "Mid": 4302,
      "asp": 4303,
      "lied": 4304,
      "relev": 4305,
      "spectacular": 4306,
      ":<": 4307,
      "rarely": 4308,
      "ators": 4309,
      "learned": 4310,
      "memories": 4311,
      "machine": 4312,
      "dangerous": 4313,
      "opposite": 4314,
      "wing": 4315,
      "iro": 4316,
      "herent": 4317,
      "owner": 4318,
      "cording": 4319,
      "Span": 4320,
      "sympathetic": 4321,
      "judge": 4322,
      "Capt": 4323,
      "served": 4324,
      "insane": 4325,
      "Ann": 4326,
      "Eric": 4327,
      "hated": 4328,
      "aly": 4329,
      "advert": 4330,
      "scr": 4331,
      "lovers": 4332,
      "viewed": 4333,
      "ivity": 4334,
      "summer": 4335,
      "Im": 4336,
      "formed": 4337,
      "unnecessary": 4338,
      "debut": 4339,
      "Brown": 4340,
      "months": 4341,
      "nonsense": 4342,
      "references": 4343,
      "si": 4344,
      "prove": 4345,
      "blue": 4346,
      "Donald": 4347,
      "treated": 4348,
      "Und": 4349,
      "vit": 4350,
      "leep": 4351,
      "unting": 4352,
      "community": 4353,
      "Taylor": 4354,
      "incre": 4355,
      "proceed": 4356,
      "TO": 4357,
      "consc": 4358,
      "Mrs": 4359,
      "rical": 4360,
      "ication": 4361,
      "invent": 4362,
      "stream": 4363,
      "floor": 4364,
      "hidden": 4365,
      "Gl": 4366,
      "Spo": 4367,
      "ipul": 4368,
      "courage": 4369,
      "grapher": 4370,
      "yeah": 4371,
      "minim": 4372,
      "ville": 4373,
      "North": 4374,
      "lat": 4375,
      "mare": 4376,
      "visit": 4377,
      "technical": 4378,
      "ancy": 4379,
      "vehic": 4380,
      "players": 4381,
      "Barbar": 4382,
      "Jenn": 4383,
      "ga": 4384,
      "pretentious": 4385,
      "smile": 4386,
      "heroine": 4387,
      "stret": 4388,
      "edited": 4389,
      "lacking": 4390,
      "Bud": 4391,
      "dry": 4392,
      "range": 4393,
      "Lewis": 4394,
      "behavior": 4395,
      "knock": 4396,
      "Jose": 4397,
      "iling": 4398,
      "grave": 4399,
      "Sean": 4400,
      "comparison": 4401,
      "hits": 4402,
      "vs": 4403,
      "seat": 4404,
      "ption": 4405,
      "rubbish": 4406,
      "driving": 4407,
      "Cass": 4408,
      "bid": 4409,
      "impl": 4410,
      "compe": 4411,
      "saur": 4412,
      "osen": 4413,
      "keeping": 4414,
      "humans": 4415,
      "iloso": 4416,
      "gal": 4417,
      "lon": 4418,
      "py": 4419,
      "chore": 4420,
      "efforts": 4421,
      "brok": 4422,
      "murdered": 4423,
      "Davis": 4424,
      "mixed": 4425,
      "Louis": 4426,
      "Get": 4427,
      "arp": 4428,
      "raz": 4429,
      "unders": 4430,
      "theatre": 4431,
      "Ty": 4432,
      "deals": 4433,
      "atory": 4434,
      "hadn": 4435,
      "crappy": 4436,
      "specially": 4437,
      "Gary": 4438,
      "yed": 4439,
      "frequ": 4440,
      "spoof": 4441,
      "dealing": 4442,
      "pilot": 4443,
      "paper": 4444,
      "isters": 4445,
      "model": 4446,
      "serve": 4447,
      "constant": 4448,
      "satisfying": 4449,
      "aid": 4450,
      "eating": 4451,
      "wanna": 4452,
      "pless": 4453,
      "Andrew": 4454,
      "craft": 4455,
      "bian": 4456,
      "bird": 4457,
      "asts": 4458,
      "bigger": 4459,
      "sentiment": 4460,
      "England": 4461,
      "experiment": 4462,
      "cars": 4463,
      "instance": 4464,
      "Wayne": 4465,
      "cate": 4466,
      "gri": 4467,
      "hall": 4468,
      "ooper": 4469,
      "seless": 4470,
      "foreign": 4471,
      "survive": 4472,
      "bloody": 4473,
      "villains": 4474,
      "circum": 4475,
      "thern": 4476,
      "grown": 4477,
      "philoso": 4478,
      "Anth": 4479,
      "travel": 4480,
      "Again": 4481,
      "Sal": 4482,
      "reaction": 4483,
      ".\"<": 4484,
      "humorous": 4485,
      "forces": 4486,
      "wear": 4487,
      "tape": 4488,
      "protagonist": 4489,
      "Jennifer": 4490,
      "Vin": 4491,
      "cul": 4492,
      "goof": 4493,
      "related": 4494,
      "explic": 4495,
      "glass": 4496,
      "hearted": 4497,
      "passed": 4498,
      "Guy": 4499,
      "Hu": 4500,
      "Rose": 4501,
      "bag": 4502,
      "junk": 4503,
      "omen": 4504,
      "monsters": 4505,
      "included": 4506,
      "arded": 4507,
      "flesh": 4508,
      "context": 4509,
      "rence": 4510,
      "ugs": 4511,
      "green": 4512,
      "desperate": 4513,
      "idge": 4514,
      "iring": 4515,
      "growing": 4516,
      "Barry": 4517,
      "zan": 4518,
      "format": 4519,
      "therefore": 4520,
      "mini": 4521,
      "concerned": 4522,
      "European": 4523,
      "Avoid": 4524,
      "send": 4525,
      "below": 4526,
      "inder": 4527,
      "Uni": 4528,
      "numerous": 4529,
      "Spanish": 4530,
      "uc": 4531,
      "organ": 4532,
      "oph": 4533,
      "revealed": 4534,
      "Hit": 4535,
      "Sor": 4536,
      "stit": 4537,
      "guns": 4538,
      "hopes": 4539,
      "dimensional": 4540,
      "Jan": 4541,
      "speech": 4542,
      "finest": 4543,
      "witty": 4544,
      "irritating": 4545,
      "Lam": 4546,
      "envir": 4547,
      "relate": 4548,
      "animal": 4549,
      "Wow": 4550,
      "udo": 4551,
      "fortunate": 4552,
      "Hay": 4553,
      "anced": 4554,
      "encounter": 4555,
      "ambit": 4556,
      "urse": 4557,
      "reflect": 4558,
      "advice": 4559,
      "pulled": 4560,
      ");": 4561,
      "ato": 4562,
      "church": 4563,
      "freak": 4564,
      "Lynch": 4565,
      "finale": 4566,
      "singer": 4567,
      "lucky": 4568,
      "contribut": 4569,
      "kn": 4570,
      "ano": 4571,
      "speed": 4572,
      "results": 4573,
      "window": 4574,
      "France": 4575,
      "WH": 4576,
      "fal": 4577,
      "sea": 4578,
      "sett": 4579,
      "unted": 4580,
      "hur": 4581,
      "constru": 4582,
      "ift": 4583,
      "allows": 4584,
      "cruel": 4585,
      "officer": 4586,
      "Anthony": 4587,
      "hill": 4588,
      "pit": 4589,
      "isa": 4590,
      "talents": 4591,
      "corn": 4592,
      "media": 4593,
      "remembered": 4594,
      "incident": 4595,
      "assass": 4596,
      "types": 4597,
      "ALL": 4598,
      "stereotypes": 4599,
      "Street": 4600,
      "fate": 4601,
      "park": 4602,
      "skills": 4603,
      "study": 4604,
      "Texas": 4605,
      "Wr": 4606,
      "__": 4607,
      "terribly": 4608,
      "ender": 4609,
      "udes": 4610,
      "None": 4611,
      "chop": 4612,
      "bodies": 4613,
      "psychological": 4614,
      "circumst": 4615,
      "environ": 4616,
      "bow": 4617,
      "manipul": 4618,
      "ishing": 4619,
      "SPOILERS": 4620,
      "received": 4621,
      "peace": 4622,
      "ONE": 4623,
      "challeng": 4624,
      "atives": 4625,
      "abandon": 4626,
      "charis": 4627,
      "ears": 4628,
      "starting": 4629,
      "Anna": 4630,
      "statement": 4631,
      "African": 4632,
      "broken": 4633,
      "16": 4634,
      "Up": 4635,
      "sheer": 4636,
      "generation": 4637,
      "experienced": 4638,
      "EL": 4639,
      "vac": 4640,
      "Andy": 4641,
      "covered": 4642,
      "parody": 4643,
      "toward": 4644,
      "provo": 4645,
      "porary": 4646,
      "teenagers": 4647,
      "comfortable": 4648,
      "25": 4649,
      "Die": 4650,
      "Sur": 4651,
      "site": 4652,
      "associ": 4653,
      "ario": 4654,
      "somebody": 4655,
      "attitude": 4656,
      "Lord": 4657,
      "wound": 4658,
      "princi": 4659,
      "saved": 4660,
      "San": 4661,
      "unfold": 4662,
      "kinda": 4663,
      "convent": 4664,
      "levels": 4665,
      "Kill": 4666,
      "Tru": 4667,
      "oop": 4668,
      "rival": 4669,
      "???": 4670,
      "Mean": 4671,
      "bringing": 4672,
      "genuinely": 4673,
      "Dun": 4674,
      "Matt": 4675,
      "RI": 4676,
      "mate": 4677,
      "mary": 4678,
      "seven": 4679,
      "forms": 4680,
      "fet": 4681,
      "Jimmy": 4682,
      "Viet": 4683,
      "weal": 4684,
      "mature": 4685,
      "miser": 4686,
      "regret": 4687,
      "powers": 4688,
      "existence": 4689,
      "empty": 4690,
      "Time": 4691,
      "sons": 4692,
      "versal": 4693,
      "court": 4694,
      "creates": 4695,
      "breaks": 4696,
      "target": 4697,
      "Fer": 4698,
      "feet": 4699,
      "continues": 4700,
      "Morgan": 4701,
      "Julie": 4702,
      "Zomb": 4703,
      "cash": 4704,
      "alle": 4705,
      "altern": 4706,
      "unfunny": 4707,
      "failure": 4708,
      "edom": 4709,
      "morning": 4710,
      "satire": 4711,
      "rifying": 4712,
      "connection": 4713,
      "dressed": 4714,
      "strength": 4715,
      "14": 4716,
      "sharp": 4717,
      "built": 4718,
      "marry": 4719,
      "Leon": 4720,
      "cameo": 4721,
      "occasionally": 4722,
      "Cine": 4723,
      "Camp": 4724,
      "Lady": 4725,
      "chair": 4726,
      "veter": 4727,
      "determin": 4728,
      "opens": 4729,
      "famil": 4730,
      "relief": 4731,
      "Island": 4732,
      "hack": 4733,
      "tho": 4734,
      "Moon": 4735,
      "reviewers": 4736,
      "visuals": 4737,
      "Sant": 4738,
      "glas": 4739,
      "Are": 4740,
      "cant": 4741,
      "grew": 4742,
      "rise": 4743,
      "originally": 4744,
      "warning": 4745,
      "market": 4746,
      "described": 4747,
      "featuring": 4748,
      "Australian": 4749,
      "Gener": 4750,
      "Jess": 4751,
      "unrealistic": 4752,
      "apes": 4753,
      "desire": 4754,
      "frank": 4755,
      "sides": 4756,
      "simpl": 4757,
      "sucked": 4758,
      "Cast": 4759,
      "irm": 4760,
      "blown": 4761,
      "evidence": 4762,
      "Stu": 4763,
      "THIS": 4764,
      "decision": 4765,
      "aker": 4766,
      "Dian": 4767,
      "perspective": 4768,
      "overly": 4769,
      "alloween": 4770,
      "Douglas": 4771,
      "lum": 4772,
      "slo": 4773,
      "erotic": 4774,
      "plin": 4775,
      "---": 4776,
      "Asian": 4777,
      "Really": 4778,
      "REAL": 4779,
      "appealing": 4780,
      "demonstr": 4781,
      "magnificent": 4782,
      "vote": 4783,
      "cha": 4784,
      "unable": 4785,
      "........": 4786,
      "discovers": 4787,
      "festival": 4788,
      "Queen": 4789,
      "Barbara": 4790,
      "pin": 4791,
      "vul": 4792,
      "Keaton": 4793,
      "contrived": 4794,
      "Watching": 4795,
      "traditional": 4796,
      "Hall": 4797,
      "switch": 4798,
      "Hart": 4799,
      "Much": 4800,
      "Old": 4801,
      "Pac": 4802,
      "lesson": 4803,
      "surreal": 4804,
      "decade": 4805,
      "Being": 4806,
      "delivered": 4807,
      "ultimate": 4808,
      "dreadful": 4809,
      "Mont": 4810,
      "Ted": 4811,
      "athan": 4812,
      "bon": 4813,
      "ec": 4814,
      "nation": 4815,
      "anic": 4816,
      "shallow": 4817,
      "cares": 4818,
      "labor": 4819,
      "cis": 4820,
      "preh": 4821,
      "gangster": 4822,
      "provided": 4823,
      "flashbacks": 4824,
      "Hitler": 4825,
      "BBC": 4826,
      "ari": 4827,
      "whilst": 4828,
      "pity": 4829,
      "snow": 4830,
      "thent": 4831,
      "ribut": 4832,
      "Inter": 4833,
      "sake": 4834,
      "driven": 4835,
      "HA": 4836,
      "Vo": 4837,
      "eer": 4838,
      "gs": 4839,
      "ara": 4840,
      "agal": 4841,
      "higher": 4842,
      "football": 4843,
      "!).": 4844,
      "YOU": 4845,
      "ds": 4846,
      "involves": 4847,
      "refre": 4848,
      "gross": 4849,
      "inte": 4850,
      "corpor": 4851,
      "logic": 4852,
      "App": 4853,
      "essentially": 4854,
      "nox": 4855,
      "authent": 4856,
      "ette": 4857,
      "strict": 4858,
      "revolution": 4859,
      "Actually": 4860,
      "dubbed": 4861,
      "sche": 4862,
      "Three": 4863,
      "corny": 4864,
      "combination": 4865,
      "executed": 4866,
      "competent": 4867,
      "Jesus": 4868,
      "Yeah": 4869,
      "Halloween": 4870,
      "gonna": 4871,
      "stated": 4872,
      "iding": 4873,
      "pregn": 4874,
      "handed": 4875,
      "marvel": 4876,
      "teenager": 4877,
      "Anyone": 4878,
      "graphed": 4879,
      "Broad": 4880,
      "SO": 4881,
      "emer": 4882,
      "apping": 4883,
      "brilliantly": 4884,
      "suffering": 4885,
      "Kim": 4886,
      "Sto": 4887,
      "Tit": 4888,
      "gard": 4889,
      "iac": 4890,
      "proved": 4891,
      "delightful": 4892,
      "Min": 4893,
      "gers": 4894,
      "asking": 4895,
      "choose": 4896,
      "quir": 4897,
      "Alice": 4898,
      "truck": 4899,
      "conscious": 4900,
      "gor": 4901,
      "vin": 4902,
      "thro": 4903,
      "alling": 4904,
      "cient": 4905,
      "ppy": 4906,
      "rous": 4907,
      "pets": 4908,
      "rolling": 4909,
      "onde": 4910,
      "stum": 4911,
      "creatures": 4912,
      "theaters": 4913,
      "Cat": 4914,
      "uitous": 4915,
      "report": 4916,
      "ench": 4917,
      "loses": 4918,
      "document": 4919,
      "Chaplin": 4920,
      "Dem": 4921,
      "Sn": 4922,
      "Wat": 4923,
      "recall": 4924,
      "ende": 4925,
      "ache": 4926,
      "Brad": 4927,
      "walks": 4928,
      "meeting": 4929,
      "emotionally": 4930,
      "Academy": 4931,
      "curious": 4932,
      "families": 4933,
      "cook": 4934,
      "fict": 4935,
      "rain": 4936,
      "forth": 4937,
      "osex": 4938,
      "Does": 4939,
      "assume": 4940,
      "Bu": 4941,
      "Hop": 4942,
      "Tor": 4943,
      "rix": 4944,
      "underrated": 4945,
      "amateurish": 4946,
      "propag": 4947,
      "Rod": 4948,
      "UT": 4949,
      "ilty": 4950,
      "believes": 4951,
      "popul": 4952,
      "Plus": 4953,
      "Nich": 4954,
      "produce": 4955,
      "harsh": 4956,
      "service": 4957,
      "Larry": 4958,
      "BI": 4959,
      "Fest": 4960,
      "Take": 4961,
      "Wars": 4962,
      "offensive": 4963,
      "faced": 4964,
      "osexual": 4965,
      "LI": 4966,
      "Lin": 4967,
      "skill": 4968,
      "scale": 4969,
      "angles": 4970,
      "Albert": 4971,
      "visible": 4972,
      "village": 4973,
      "Eliza": 4974,
      "Mir": 4975,
      "cel": 4976,
      "rep": 4977,
      "talks": 4978,
      "claims": 4979,
      "rescue": 4980,
      "Full": 4981,
      "sedu": 4982,
      "ww": 4983,
      "guest": 4984,
      "colour": 4985,
      "treatment": 4986,
      "17": 4987,
      "Back": 4988,
      "Kate": 4989,
      "bra": 4990,
      "thoughts": 4991,
      "handsome": 4992,
      "majority": 4993,
      "IGH": 4994,
      "authentic": 4995,
      "Cas": 4996,
      "Fre": 4997,
      "Sw": 4998,
      "inated": 4999,
      "coherent": 5000,
      "naive": 5001,
      "freedom": 5002,
      "liners": 5003,
      "relevant": 5004,
      "Gene": 5005,
      "Plan": 5006,
      "icked": 5007,
      "cris": 5008,
      "serves": 5009,
      "sitcom": 5010,
      "expression": 5011,
      "Cap": 5012,
      "Evil": 5013,
      "MAN": 5014,
      "zero": 5015,
      "umbo": 5016,
      "corrupt": 5017,
      "transl": 5018,
      "controvers": 5019,
      "Sadly": 5020,
      "understood": 5021,
      "Del": 5022,
      "Sk": 5023,
      "ease": 5024,
      "itz": 5025,
      "chill": 5026,
      "urban": 5027,
      "inept": 5028,
      "portrays": 5029,
      "alifor": 5030,
      "Long": 5031,
      "agre": 5032,
      "blah": 5033,
      "caused": 5034,
      "Gordon": 5035,
      "saving": 5036,
      "compreh": 5037,
      "maint": 5038,
      "poster": 5039,
      "endless": 5040,
      "teens": 5041,
      "angers": 5042,
      "steals": 5043,
      "tedious": 5044,
      "Seagal": 5045,
      "descript": 5046,
      "shocked": 5047,
      "sports": 5048,
      "gratuitous": 5049,
      "Mil": 5050,
      "TER": 5051,
      "ration": 5052,
      "atroc": 5053,
      "versions": 5054,
      "screaming": 5055,
      "poses": 5056,
      "fron": 5057,
      "push": 5058,
      "Without": 5059,
      "suffer": 5060,
      "Captain": 5061,
      "Sat": 5062,
      "usive": 5063,
      "ummy": 5064,
      "blow": 5065,
      "excite": 5066,
      "normally": 5067,
      "ladies": 5068,
      "embarrassing": 5069,
      "thusi": 5070,
      "shadow": 5071,
      "Rick": 5072,
      "hes": 5073,
      "incess": 5074,
      "reput": 5075,
      "shall": 5076,
      "finitely": 5077,
      "promise": 5078,
      "spoilers": 5079,
      "Ve": 5080,
      "Child": 5081,
      "excited": 5082,
      "Jackie": 5083,
      "streets": 5084,
      "Trek": 5085,
      "circumstances": 5086,
      "oman": 5087,
      "involve": 5088,
      "rental": 5089,
      "Germany": 5090,
      "section": 5091,
      "ching": 5092,
      "river": 5093,
      "Chuck": 5094,
      "reviewer": 5095,
      "disgusting": 5096,
      "Nichol": 5097,
      "Air": 5098,
      "cro": 5099,
      "fame": 5100,
      "ners": 5101,
      "nine": 5102,
      "ando": 5103,
      "ament": 5104,
      "neck": 5105,
      "distr": 5106,
      "facts": 5107,
      "sequels": 5108,
      "cutting": 5109,
      "walked": 5110,
      "figured": 5111,
      "Ob": 5112,
      "shel": 5113,
      "commit": 5114,
      "entertained": 5115,
      "Francis": 5116,
      "fix": 5117,
      "lone": 5118,
      "tha": 5119,
      "aka": 5120,
      "Anderson": 5121,
      "nominated": 5122,
      "UK": 5123,
      "lousy": 5124,
      "repor": 5125,
      "spin": 5126,
      "identity": 5127,
      "admir": 5128,
      "Harris": 5129,
      "Bon": 5130,
      "Frid": 5131,
      "gree": 5132,
      "anity": 5133,
      "proud": 5134,
      "classics": 5135,
      "voices": 5136,
      "Comm": 5137,
      "costs": 5138,
      "routine": 5139,
      "Joseph": 5140,
      "Cent": 5141,
      "pic": 5142,
      "chosen": 5143,
      "necessarily": 5144,
      "Hope": 5145,
      "expert": 5146,
      "exploitation": 5147,
      "contemporary": 5148,
      "End": 5149,
      "Rad": 5150,
      "glo": 5151,
      "lower": 5152,
      "destru": 5153,
      "lesbian": 5154,
      "Victori": 5155,
      "Free": 5156,
      "Kong": 5157,
      "Scre": 5158,
      "atra": 5159,
      "Stone": 5160,
      "uggling": 5161,
      "hyster": 5162,
      "besides": 5163,
      "Simon": 5164,
      "obsessed": 5165,
      "technology": 5166,
      "vehicle": 5167,
      "Off": 5168,
      "Pict": 5169,
      "bond": 5170,
      "los": 5171,
      "anged": 5172,
      "horribly": 5173,
      "center": 5174,
      "porno": 5175,
      "ennis": 5176,
      "Anton": 5177,
      "Ha": 5178,
      "trade": 5179,
      "convey": 5180,
      "Through": 5181,
      "spell": 5182,
      "arently": 5183,
      "critical": 5184,
      "Patrick": 5185,
      "insult": 5186,
      "alifornia": 5187,
      "Come": 5188,
      "Dol": 5189,
      "NY": 5190,
      "Washing": 5191,
      "bour": 5192,
      "wy": 5193,
      "itiz": 5194,
      "stopped": 5195,
      "Wilson": 5196,
      "Bes": 5197,
      "vy": 5198,
      "enthusi": 5199,
      "ignor": 5200,
      "strongly": 5201,
      "Blue": 5202,
      "Play": 5203,
      "weeks": 5204,
      "Satur": 5205,
      "link": 5206,
      "directly": 5207,
      "holding": 5208,
      "focused": 5209,
      "religion": 5210,
      "intellectual": 5211,
      "Meanwhile": 5212,
      "kins": 5213,
      "ram": 5214,
      "ancient": 5215,
      "plans": 5216,
      "losing": 5217,
      "subtitles": 5218,
      "learns": 5219,
      "source": 5220,
      "Festival": 5221,
      "Gri": 5222,
      "domin": 5223,
      "hip": 5224,
      "ading": 5225,
      "sorts": 5226,
      "painfully": 5227,
      "theatrical": 5228,
      "depressing": 5229,
      "qualities": 5230,
      "Washington": 5231,
      "Dennis": 5232,
      "Kore": 5233,
      "ached": 5234,
      "matters": 5235,
      "highlight": 5236,
      "portraying": 5237,
      "Daniel": 5238,
      "largely": 5239,
      "ausible": 5240,
      "slapstick": 5241,
      "imaginative": 5242,
      "benef": 5243,
      "concert": 5244,
      "Under": 5245,
      "mates": 5246,
      "inosaur": 5247,
      "Apparently": 5248,
      "Saturday": 5249,
      "During": 5250,
      "Ker": 5251,
      "Our": 5252,
      "gam": 5253,
      "mic": 5254,
      "tast": 5255,
      "oting": 5256,
      "scape": 5257,
      "ungle": 5258,
      "Enter": 5259,
      "loyd": 5260,
      "Sid": 5261,
      "ws": 5262,
      "whel": 5263,
      "prostit": 5264,
      "whenever": 5265,
      "viv": 5266,
      "handled": 5267,
      "THING": 5268,
      "depicted": 5269,
      "dollars": 5270,
      "Fam": 5271,
      "lap": 5272,
      "hearing": 5273,
      "omed": 5274,
      "liber": 5275,
      "ruined": 5276,
      "atherine": 5277,
      "Michel": 5278,
      "Irish": 5279,
      "intentionally": 5280,
      "Canadian": 5281,
      "Cal": 5282,
      "Rain": 5283,
      "buster": 5284,
      "factor": 5285,
      "voc": 5286,
      "alco": 5287,
      "ques": 5288,
      "angel": 5289,
      "glor": 5290,
      "propaganda": 5291,
      "Greg": 5292,
      "LD": 5293,
      "enstein": 5294,
      "asleep": 5295,
      "ador": 5296,
      "notch": 5297,
      "ighter": 5298,
      "prior": 5299,
      "twisted": 5300,
      "faithful": 5301,
      "substance": 5302,
      "Scar": 5303,
      "cab": 5304,
      "spends": 5305,
      "ideal": 5306,
      "hole": 5307,
      "cartoons": 5308,
      "segment": 5309,
      "fed": 5310,
      "thod": 5311,
      "Roman": 5312,
      "latest": 5313,
      "clue": 5314,
      "bitter": 5315,
      "promising": 5316,
      "1st": 5317,
      "aust": 5318,
      "gig": 5319,
      "inevit": 5320,
      "believed": 5321,
      "stume": 5322,
      "enemy": 5323,
      "relatively": 5324,
      "\"),": 5325,
      "Fu": 5326,
      "makeup": 5327,
      "Later": 5328,
      "ube": 5329,
      "abuse": 5330,
      "evening": 5331,
      "surface": 5332,
      "appreciated": 5333,
      "Baby": 5334,
      "bin": 5335,
      "toler": 5336,
      "lection": 5337,
      "torm": 5338,
      "Beaut": 5339,
      "integr": 5340,
      "excitement": 5341,
      "aa": 5342,
      "rules": 5343,
      "revel": 5344,
      "guar": 5345,
      "display": 5346,
      "curity": 5347,
      "semi": 5348,
      "Murphy": 5349,
      "protect": 5350,
      "prepared": 5351,
      "Brothers": 5352,
      "Ret": 5353,
      "captures": 5354,
      "recognize": 5355,
      "Your": 5356,
      "ideo": 5357,
      "performed": 5358,
      "visually": 5359,
      "United": 5360,
      "convince": 5361,
      "experiences": 5362,
      "credible": 5363,
      "pursu": 5364,
      "speaks": 5365,
      "BS": 5366,
      "dirty": 5367,
      "tie": 5368,
      "wins": 5369,
      "umps": 5370,
      "cring": 5371,
      "funn": 5372,
      "Sometimes": 5373,
      "movement": 5374,
      "connect": 5375,
      "idiot": 5376,
      "Tarzan": 5377,
      "emphas": 5378,
      "Elizabeth": 5379,
      "stone": 5380,
      "mans": 5381,
      "price": 5382,
      "function": 5383,
      "Hey": 5384,
      "committed": 5385,
      "Vietnam": 5386,
      "mous": 5387,
      "amor": 5388,
      "decl": 5389,
      "fee": 5390,
      "blonde": 5391,
      "Edward": 5392,
      "Russell": 5393,
      "false": 5394,
      "Friday": 5395,
      "):": 5396,
      "GO": 5397,
      "rece": 5398,
      "achel": 5399,
      "beach": 5400,
      "aded": 5401,
      "aken": 5402,
      "reek": 5403,
      "THAT": 5404,
      "Roger": 5405,
      "virtually": 5406,
      "Gra": 5407,
      "Nat": 5408,
      "vague": 5409,
      "chief": 5410,
      "shut": 5411,
      "worthwhile": 5412,
      "Holmes": 5413,
      "changing": 5414,
      "resist": 5415,
      "structure": 5416,
      "praise": 5417,
      "rot": 5418,
      "ued": 5419,
      "sher": 5420,
      "featured": 5421,
      "Doctor": 5422,
      "Jewish": 5423,
      "Ever": 5424,
      "jail": 5425,
      "arms": 5426,
      "headed": 5427,
      "Johnson": 5428,
      "Drac": 5429,
      "suffers": 5430,
      "Broadway": 5431,
      "Da": 5432,
      "Tur": 5433,
      "ja": 5434,
      "till": 5435,
      "wrest": 5436,
      "betray": 5437,
      "ummer": 5438,
      "guilty": 5439,
      "demand": 5440,
      "MA": 5441,
      "cous": 5442,
      "itter": 5443,
      "mod": 5444,
      "outrage": 5445,
      "urns": 5446,
      "gentle": 5447,
      "multiple": 5448,
      ",'": 5449,
      "Especially": 5450,
      "Hal": 5451,
      "Hun": 5452,
      "Vi": 5453,
      "mend": 5454,
      "unfortunate": 5455,
      "legal": 5456,
      "alcohol": 5457,
      "Ba": 5458,
      "batt": 5459,
      "exagger": 5460,
      "States": 5461,
      "Lost": 5462,
      "Walter": 5463,
      "accents": 5464,
      "accidentally": 5465,
      "practically": 5466,
      "influence": 5467,
      "Pri": 5468,
      "Son": 5469,
      "sou": 5470,
      "vies": 5471,
      "umph": 5472,
      "Dean": 5473,
      "2001": 5474,
      "training": 5475,
      "Cru": 5476,
      "Had": 5477,
      "Te": 5478,
      "Wall": 5479,
      "spre": 5480,
      "oooo": 5481,
      "degree": 5482,
      "Carol": 5483,
      "suspenseful": 5484,
      "pati": 5485,
      "frankly": 5486,
      "Hon": 5487,
      "wil": 5488,
      "iner": 5489,
      "instru": 5490,
      "rub": 5491,
      "supernatural": 5492,
      "previously": 5493,
      "claimed": 5494,
      "ilogy": 5495,
      "zing": 5496,
      "strip": 5497,
      "chose": 5498,
      "haunting": 5499,
      "udic": 5500,
      "adding": 5501,
      "variety": 5502,
      "About": 5503,
      "Parker": 5504,
      "mirror": 5505,
      "Dre": 5506,
      "spark": 5507,
      "bothered": 5508,
      "initial": 5509,
      "!),": 5510,
      "Care": 5511,
      "Each": 5512,
      "Wonder": 5513,
      "wid": 5514,
      "guard": 5515,
      "addict": 5516,
      "skip": 5517,
      "clichéd": 5518,
      "sensitive": 5519,
      "sympathy": 5520,
      "MST": 5521,
      "upper": 5522,
      "gues": 5523,
      "versity": 5524,
      "mainstream": 5525,
      "favorites": 5526,
      "touches": 5527,
      "naturally": 5528,
      "wedding": 5529,
      "Besides": 5530,
      "wreck": 5531,
      "reminis": 5532,
      "ensu": 5533,
      "neat": 5534,
      "Unlike": 5535,
      "surprises": 5536,
      "confess": 5537,
      "continuity": 5538,
      "loyal": 5539,
      "California": 5540,
      "bust": 5541,
      "heck": 5542,
      "cases": 5543,
      "conversation": 5544,
      "category": 5545,
      "Ful": 5546,
      "Ka": 5547,
      "nest": 5548,
      "zed": 5549,
      "chan": 5550,
      "spite": 5551,
      "driver": 5552,
      "connected": 5553,
      "Dracula": 5554,
      "Ash": 5555,
      "Bul": 5556,
      "Hoff": 5557,
      "nically": 5558,
      "phis": 5559,
      "arrest": 5560,
      "ulli": 5561,
      "poign": 5562,
      "preach": 5563,
      "Africa": 5564,
      "melodrama": 5565,
      "refreshing": 5566,
      "SH": 5567,
      "isol": 5568,
      "mock": 5569,
      "realizes": 5570,
      "Beat": 5571,
      "Grand": 5572,
      "USA": 5573,
      "ENT": 5574,
      "extraordinary": 5575,
      "Julia": 5576,
      "stereotypical": 5577,
      "Basically": 5578,
      "habit": 5579,
      "trapped": 5580,
      "grab": 5581,
      "crying": 5582,
      "costume": 5583,
      "passing": 5584,
      "Roberts": 5585,
      "profound": 5586,
      "unlikely": 5587,
      "hanging": 5588,
      "mud": 5589,
      "ads": 5590,
      "outing": 5591,
      "minds": 5592,
      "rolled": 5593,
      "steps": 5594,
      "destroyed": 5595,
      "Helen": 5596,
      "private": 5597,
      "Lane": 5598,
      "sink": 5599,
      "aret": 5600,
      "everywhere": 5601,
      "Eastwood": 5602,
      "fictional": 5603,
      "CI": 5604,
      "shine": 5605,
      "method": 5606,
      "ets": 5607,
      "farm": 5608,
      "execution": 5609,
      "required": 5610,
      "ludic": 5611,
      "intim": 5612,
      "amer": 5613,
      "jeal": 5614,
      "effectively": 5615,
      "Dy": 5616,
      "bility": 5617,
      "term": 5618,
      "excess": 5619,
      "Carl": 5620,
      "suspic": 5621,
      "Victor": 5622,
      "Run": 5623,
      "Tri": 5624,
      "cence": 5625,
      "forgot": 5626,
      "tition": 5627,
      "complain": 5628,
      "politics": 5629,
      "India": 5630,
      "VERY": 5631,
      "pulls": 5632,
      "extras": 5633,
      "moon": 5634,
      "aces": 5635,
      "mont": 5636,
      "Betty": 5637,
      "Alien": 5638,
      "abandoned": 5639,
      "reporter": 5640,
      "Ren": 5641,
      "tong": 5642,
      "femin": 5643,
      "believ": 5644,
      "calling": 5645,
      "Movies": 5646,
      "Luke": 5647,
      "massive": 5648,
      "improve": 5649,
      "Jay": 5650,
      "aur": 5651,
      "pile": 5652,
      "raw": 5653,
      "sne": 5654,
      "sword": 5655,
      "aude": 5656,
      "gritty": 5657,
      "minded": 5658,
      "syn": 5659,
      "renting": 5660,
      "deaths": 5661,
      "convinced": 5662,
      "Otherwise": 5663,
      "frightening": 5664,
      "provoking": 5665,
      "Bre": 5666,
      "GM": 5667,
      "veteran": 5668,
      "bab": 5669,
      "tiny": 5670,
      "rights": 5671,
      "Add": 5672,
      "Sarah": 5673,
      "Ow": 5674,
      "sophis": 5675,
      "painting": 5676,
      "designed": 5677,
      "Sorry": 5678,
      "reputation": 5679,
      "Vampire": 5680,
      "fing": 5681,
      "kiss": 5682,
      "plant": 5683,
      "worry": 5684,
      "Channel": 5685,
      "imagery": 5686,
      "Carp": 5687,
      "Golden": 5688,
      "remotely": 5689,
      "\").": 5690,
      "Sho": 5691,
      "tain": 5692,
      "yell": 5693,
      "brick": 5694,
      "security": 5695,
      "uted": 5696,
      "avo": 5697,
      "appearing": 5698,
      "Clark": 5699,
      "narration": 5700,
      "homosexual": 5701,
      "Nazi": 5702,
      "Mexican": 5703,
      "status": 5704,
      "Cop": 5705,
      "bat": 5706,
      "bott": 5707,
      "ium": 5708,
      "rant": 5709,
      "according": 5710,
      "indul": 5711,
      "killers": 5712,
      "winner": 5713,
      "figures": 5714,
      "Brooks": 5715,
      "sophistic": 5716,
      "Gun": 5717,
      "nostal": 5718,
      "Something": 5719,
      "nibal": 5720,
      "seasons": 5721,
      "device": 5722,
      "MOV": 5723,
      "quirky": 5724,
      "Fun": 5725,
      "SS": 5726,
      "Vir": 5727,
      "hired": 5728,
      "creation": 5729,
      "stolen": 5730,
      "touched": 5731,
      "mistakes": 5732,
      "environment": 5733,
      "Hugh": 5734,
      "Person": 5735,
      "cure": 5736,
      "essential": 5737,
      "avy": 5738,
      "lands": 5739,
      "particip": 5740,
      "stayed": 5741,
      "complicated": 5742,
      "Fulci": 5743,
      "Hong": 5744,
      "Have": 5745,
      "Next": 5746,
      "Vis": 5747,
      "nut": 5748,
      "/>*": 5749,
      "acre": 5750,
      "greater": 5751,
      "friendly": 5752,
      "closer": 5753,
      "closing": 5754,
      "balls": 5755,
      "swim": 5756,
      "dogs": 5757,
      "spoiler": 5758,
      "Philli": 5759,
      "arrives": 5760,
      "weapons": 5761,
      "Hoffman": 5762,
      "Ti": 5763,
      "gle": 5764,
      "interviews": 5765,
      "raised": 5766,
      "buying": 5767,
      "tremend": 5768,
      "Sinatra": 5769,
      "Jam": 5770,
      "page": 5771,
      "une": 5772,
      "outs": 5773,
      "deeper": 5774,
      "concent": 5775,
      "mented": 5776,
      "grues": 5777,
      "contest": 5778,
      "warned": 5779,
      "advant": 5780,
      "1980": 5781,
      "harm": 5782,
      "Seriously": 5783,
      "Laura": 5784,
      "legendary": 5785,
      "Produ": 5786,
      "bone": 5787,
      "dut": 5788,
      "fab": 5789,
      "gie": 5790,
      "offered": 5791,
      "stomach": 5792,
      "Definitely": 5793,
      "ANY": 5794,
      "universe": 5795,
      "Music": 5796,
      "task": 5797,
      "vast": 5798,
      "chased": 5799,
      "Things": 5800,
      "screening": 5801,
      "ruin": 5802,
      "starred": 5803,
      "ILL": 5804,
      "vampires": 5805,
      "WWII": 5806,
      "department": 5807,
      "mildly": 5808,
      "Ku": 5809,
      "Whe": 5810,
      "astr": 5811,
      "Along": 5812,
      "originality": 5813,
      "spoken": 5814,
      "captiv": 5815,
      "focuses": 5816,
      "depiction": 5817,
      "funnier": 5818,
      "sisters": 5819,
      "west": 5820,
      "reun": 5821,
      "timing": 5822,
      "scenario": 5823,
      "disco": 5824,
      "viously": 5825,
      "explains": 5826,
      "Army": 5827,
      "heavily": 5828,
      "occasional": 5829,
      "Haw": 5830,
      "rup": 5831,
      "disagree": 5832,
      "cheese": 5833,
      "sounded": 5834,
      "address": 5835,
      "buddy": 5836,
      "choices": 5837,
      "puzz": 5838,
      "paying": 5839,
      "1970": 5840,
      "tradition": 5841,
      "Ell": 5842,
      "dinosaur": 5843,
      "chron": 5844,
      "China": 5845,
      "decades": 5846,
      "regarding": 5847,
      "gruesome": 5848,
      "Iron": 5849,
      "rebel": 5850,
      "kets": 5851,
      "mail": 5852,
      "dozen": 5853,
      "esty": 5854,
      "awa": 5855,
      "ashed": 5856,
      "explor": 5857,
      "colors": 5858,
      "paint": 5859,
      "amazed": 5860,
      "Sound": 5861,
      "pool": 5862,
      "arian": 5863,
      "adap": 5864,
      "charge": 5865,
      "obsc": 5866,
      "downright": 5867,
      "aze": 5868,
      "fortune": 5869,
      "Vincent": 5870,
      "atrocious": 5871,
      "Devil": 5872,
      "Res": 5873,
      "tons": 5874,
      "rig": 5875,
      "shr": 5876,
      "olic": 5877,
      "teeth": 5878,
      "bore": 5879,
      "throws": 5880,
      "tribut": 5881,
      "murderer": 5882,
      "reveals": 5883,
      "campy": 5884,
      "Mickey": 5885,
      "Susan": 5886,
      "nes": 5887,
      "chuck": 5888,
      "intens": 5889,
      "overwhel": 5890,
      "obnox": 5891,
      "throwing": 5892,
      "coach": 5893,
      "mond": 5894,
      "condition": 5895,
      "Art": 5896,
      "IGHT": 5897,
      "PG": 5898,
      "mit": 5899,
      "1950": 5900,
      "gia": 5901,
      "dynam": 5902,
      "Ama": 5903,
      "Braz": 5904,
      "haunted": 5905,
      "letter": 5906,
      "kinds": 5907,
      "camer": 5908,
      "capital": 5909,
      "trait": 5910,
      "listening": 5911,
      "hopeless": 5912,
      "Kurt": 5913,
      "MGM": 5914,
      "pitch": 5915,
      "ilton": 5916,
      "uninteresting": 5917,
      "trilogy": 5918,
      "CK": 5919,
      "Lisa": 5920,
      "lberg": 5921,
      "thed": 5922,
      "enge": 5923,
      "unconvincing": 5924,
      "rive": 5925,
      "noon": 5926,
      "caring": 5927,
      "handle": 5928,
      "mask": 5929,
      "Sunday": 5930,
      "Philip": 5931,
      "FBI": 5932,
      "Port": 5933,
      "nude": 5934,
      "acing": 5935,
      "scares": 5936,
      "seek": 5937,
      "crude": 5938,
      "interview": 5939,
      "magical": 5940,
      "consistent": 5941,
      "Miller": 5942,
      "Water": 5943,
      "gather": 5944,
      "native": 5945,
      "usc": 5946,
      "reward": 5947,
      "occup": 5948,
      "jobs": 5949,
      "anime": 5950,
      "Someone": 5951,
      "Welles": 5952,
      "Dog": 5953,
      "summary": 5954,
      "lawyer": 5955,
      "\"?": 5956,
      "Pen": 5957,
      "erc": 5958,
      "combined": 5959,
      "Acting": 5960,
      "President": 5961,
      "succeeds": 5962,
      "99": 5963,
      "Home": 5964,
      "UR": 5965,
      "Ul": 5966,
      "dile": 5967,
      "tense": 5968,
      "error": 5969,
      "uncle": 5970,
      "pled": 5971,
      "forest": 5972,
      "titled": 5973,
      "severe": 5974,
      "adventures": 5975,
      "official": 5976,
      "crafted": 5977,
      "significant": 5978,
      "pregnant": 5979,
      "Rol": 5980,
      "tag": 5981,
      "wand": 5982,
      "struggling": 5983,
      "evident": 5984,
      "mono": 5985,
      "paralle": 5986,
      "stays": 5987,
      "criticism": 5988,
      "goofy": 5989,
      "Santa": 5990,
      "jack": 5991,
      "tree": 5992,
      "phan": 5993,
      "contain": 5994,
      "Marie": 5995,
      "Berg": 5996,
      "Freddy": 5997,
      "Superman": 5998,
      "minimal": 5999,
      "ludicrous": 6000,
      "Gen": 6001,
      "Kane": 6002,
      "Lloyd": 6003,
      "Mol": 6004,
      "Swed": 6005,
      "Top": 6006,
      "brave": 6007,
      "prime": 6008,
      "Grant": 6009,
      "causes": 6010,
      "cultural": 6011,
      "honor": 6012,
      "divor": 6013,
      "Carpenter": 6014,
      "Sa": 6015,
      "Sir": 6016,
      "reject": 6017,
      "heaven": 6018,
      "acle": 6019,
      "mentally": 6020,
      "adequ": 6021,
      "franch": 6022,
      "folk": 6023,
      "aliens": 6024,
      "Cost": 6025,
      "racist": 6026,
      "welcome": 6027,
      "Brazil": 6028,
      "Fal": 6029,
      "iche": 6030,
      "tear": 6031,
      "prevent": 6032,
      "assion": 6033,
      "dude": 6034,
      "joint": 6035,
      "ashamed": 6036,
      "Sovie": 6037,
      "facial": 6038,
      "Warner": 6039,
      "Tommy": 6040,
      "Prince": 6041,
      "Cage": 6042,
      "Fin": 6043,
      "bare": 6044,
      "flight": 6045,
      "lust": 6046,
      "ware": 6047,
      "isher": 6048,
      "eness": 6049,
      "omer": 6050,
      "rail": 6051,
      "retarded": 6052,
      "metap": 6053,
      "60s": 6054,
      "AW": 6055,
      "Ak": 6056,
      "Dad": 6057,
      "Mom": 6058,
      "Pitt": 6059,
      "comical": 6060,
      "command": 6061,
      "incere": 6062,
      "drinking": 6063,
      "description": 6064,
      "24": 6065,
      "alter": 6066,
      "idly": 6067,
      "...\"": 6068,
      "struck": 6069,
      "shorts": 6070,
      "productions": 6071,
      "examples": 6072,
      "delivery": 6073,
      "True": 6074,
      "inspiration": 6075,
      "Dep": 6076,
      "ION": 6077,
      "Kath": 6078,
      "Such": 6079,
      "cand": 6080,
      "ope": 6081,
      "rat": 6082,
      "yard": 6083,
      "chy": 6084,
      "imit": 6085,
      "subsequ": 6086,
      "attempting": 6087,
      "balance": 6088,
      "nuclear": 6089,
      "Oliver": 6090,
      "answers": 6091,
      "Cath": 6092,
      "Catherine": 6093,
      "Four": 6094,
      "IR": 6095,
      "Por": 6096,
      "pian": 6097,
      "uk": 6098,
      "entry": 6099,
      "join": 6100,
      "carried": 6101,
      "amazingly": 6102,
      ".)<": 6103,
      "Columbo": 6104,
      "intentional": 6105,
      "Camer": 6106,
      "Der": 6107,
      "Knight": 6108,
      "Rating": 6109,
      "Ros": 6110,
      "blat": 6111,
      "Class": 6112,
      "Poor": 6113,
      "patient": 6114,
      "Family": 6115,
      "45": 6116,
      "Cry": 6117,
      "Dave": 6118,
      "Karen": 6119,
      "Rey": 6120,
      "iat": 6121,
      "phe": 6122,
      "intr": 6123,
      "chasing": 6124,
      "rol": 6125,
      "castle": 6126,
      "Anim": 6127,
      "helping": 6128,
      "Goth": 6129,
      "expressions": 6130,
      "Italy": 6131,
      "reference": 6132,
      "Sav": 6133,
      "dum": 6134,
      "loo": 6135,
      "alike": 6136,
      "vet": 6137,
      "abor": 6138,
      "maid": 6139,
      "extent": 6140,
      "rule": 6141,
      "introduction": 6142,
      "Michelle": 6143,
      "Ten": 6144,
      "dent": 6145,
      "theory": 6146,
      "everyday": 6147,
      "halfway": 6148,
      "marks": 6149,
      "Character": 6150,
      "Cole": 6151,
      "Police": 6152,
      "properly": 6153,
      "interpretation": 6154,
      "obnoxious": 6155,
      "Fort": 6156,
      "Jen": 6157,
      "fond": 6158,
      "elder": 6159,
      "screenwriter": 6160,
      "nery": 6161,
      "Soon": 6162,
      "clips": 6163,
      "weekend": 6164,
      "packed": 6165,
      "Burton": 6166,
      "assistant": 6167,
      "determined": 6168,
      "Obviously": 6169,
      "Cooper": 6170,
      "ripped": 6171,
      "trap": 6172,
      "exerc": 6173,
      "conven": 6174,
      "indie": 6175,
      "storytelling": 6176,
      "carries": 6177,
      "racism": 6178,
      "desperately": 6179,
      "Karl": 6180,
      "Spoil": 6181,
      "AA": 6182,
      "Len": 6183,
      "Wind": 6184,
      "dinner": 6185,
      "rious": 6186,
      "dign": 6187,
      "grim": 6188,
      "disbelief": 6189,
      "enjoying": 6190,
      "letting": 6191,
      "drives": 6192,
      "Flor": 6193,
      "Were": 6194,
      "jungle": 6195,
      "redu": 6196,
      "stab": 6197,
      "stair": 6198,
      "confront": 6199,
      "proof": 6200,
      "cheer": 6201,
      "novels": 6202,
      "Check": 6203,
      "Highly": 6204,
      "Call": 6205,
      "Nol": 6206,
      "aired": 6207,
      "og": 6208,
      "eral": 6209,
      "quar": 6210,
      "dramat": 6211,
      "basis": 6212,
      "journal": 6213,
      "baseball": 6214,
      "conventional": 6215,
      "Pret": 6216,
      "Would": 6217,
      "rist": 6218,
      "vig": 6219,
      "arc": 6220,
      "/>(": 6221,
      "adays": 6222,
      "shark": 6223,
      "devil": 6224,
      "aston": 6225,
      "Heaven": 6226,
      "Bron": 6227,
      "Atl": 6228,
      "picks": 6229,
      "laid": 6230,
      "Woody": 6231,
      "inspiring": 6232,
      "controversial": 6233,
      "guarante": 6234,
      "Ap": 6235,
      "cies": 6236,
      "pion": 6237,
      "cean": 6238,
      "actic": 6239,
      "appl": 6240,
      "ignore": 6241,
      "reminiscent": 6242,
      "MOVIE": 6243,
      "HE": 6244,
      "Tech": 6245,
      "hr": 6246,
      "tire": 6247,
      "ums": 6248,
      "warming": 6249,
      "stupidity": 6250,
      "Blair": 6251,
      "successfully": 6252,
      "Probably": 6253,
      "MST3": 6254,
      "Mass": 6255,
      "iven": 6256,
      "oth": 6257,
      "beit": 6258,
      "therland": 6259,
      "announ": 6260,
      "flawed": 6261,
      "purely": 6262,
      "striking": 6263,
      "turkey": 6264,
      "PS": 6265,
      "Turn": 6266,
      "Wes": 6267,
      "plastic": 6268,
      "Andre": 6269,
      "medical": 6270,
      "Grade": 6271,
      "install": 6272,
      "respond": 6273,
      "attacks": 6274,
      "criminals": 6275,
      "advantage": 6276,
      "UL": 6277,
      "beloved": 6278,
      "Thanks": 6279,
      "border": 6280,
      "elev": 6281,
      "opened": 6282,
      "credibility": 6283,
      "accepted": 6284,
      "carrying": 6285,
      "mountain": 6286,
      "Bell": 6287,
      "Witch": 6288,
      "alright": 6289,
      "nose": 6290,
      "elled": 6291,
      "deliber": 6292,
      "2005": 6293,
      "Gil": 6294,
      "Hill": 6295,
      "Mill": 6296,
      "nom": 6297,
      "feed": 6298,
      "wears": 6299,
      "assign": 6300,
      "underground": 6301,
      "scream": 6302,
      "comedian": 6303,
      "Marg": 6304,
      "Clint": 6305,
      "deadly": 6306,
      "ratings": 6307,
      "miles": 6308,
      "burst": 6309,
      "Australia": 6310,
      "Lat": 6311,
      "gic": 6312,
      "height": 6313,
      "international": 6314,
      "192": 6315,
      "topic": 6316,
      "perfection": 6317,
      "graphics": 6318,
      "Sutherland": 6319,
      "amongst": 6320,
      "Give": 6321,
      "Lion": 6322,
      "finger": 6323,
      "amond": 6324,
      "abilities": 6325,
      "awards": 6326,
      "disgu": 6327,
      "phr": 6328,
      "lett": 6329,
      "onda": 6330,
      "Walker": 6331,
      "settings": 6332,
      "Exc": 6333,
      "attacked": 6334,
      "Mexico": 6335,
      "technique": 6336,
      "lonely": 6337,
      "boun": 6338,
      "cave": 6339,
      "lake": 6340,
      "rates": 6341,
      "stro": 6342,
      "exists": 6343,
      "scripts": 6344,
      "dramas": 6345,
      "stylish": 6346,
      "exceptional": 6347,
      "confusion": 6348,
      "existent": 6349,
      "*****": 6350,
      "treasure": 6351,
      "revolves": 6352,
      "tongue": 6353,
      "Cle": 6354,
      "Pred": 6355,
      "TA": 6356,
      "cil": 6357,
      "albeit": 6358,
      "lian": 6359,
      "liday": 6360,
      "absor": 6361,
      "osity": 6362,
      "anticip": 6363,
      "equal": 6364,
      "escapes": 6365,
      "Pacino": 6366,
      "fabulous": 6367,
      "Actor": 6368,
      "Bal": 6369,
      "Caine": 6370,
      "PE": 6371,
      "Ral": 6372,
      "Right": 6373,
      "candy": 6374,
      "lam": 6375,
      "replaced": 6376,
      "icing": 6377,
      "torn": 6378,
      "poet": 6379,
      "selling": 6380,
      "Maria": 6381,
      "ibilities": 6382,
      "atmospher": 6383,
      "acceptable": 6384,
      "sinister": 6385,
      "wyck": 6386,
      "Bergman": 6387,
      "Lore": 6388,
      "Ven": 6389,
      "isms": 6390,
      "libr": 6391,
      "kicks": 6392,
      "immense": 6393,
      "struggles": 6394,
      "stealing": 6395,
      "tune": 6396,
      "separate": 6397,
      "Cinema": 6398,
      "Fri": 6399,
      "access": 6400,
      "afternoon": 6401,
      "contact": 6402,
      "learning": 6403,
      "countries": 6404,
      "sleazy": 6405,
      "repetit": 6406,
      "lynn": 6407,
      "General": 6408,
      "sheriff": 6409,
      "widow": 6410,
      "intensity": 6411,
      "Burt": 6412,
      "BLE": 6413,
      "Ca": 6414,
      "Killer": 6415,
      "Sex": 6416,
      "UP": 6417,
      "lovable": 6418,
      "mindless": 6419,
      "sentimental": 6420,
      "gripping": 6421,
      "Cameron": 6422,
      "Los": 6423,
      "lazy": 6424,
      "chain": 6425,
      "antino": 6426,
      "artists": 6427,
      "upset": 6428,
      "stops": 6429,
      "fairy": 6430,
      "appearances": 6431,
      "risk": 6432,
      "Kenned": 6433,
      "thousands": 6434,
      "frequently": 6435,
      "Cur": 6436,
      "Imag": 6437,
      "kung": 6438,
      "sincere": 6439,
      "dol": 6440,
      "aki": 6441,
      "greatly": 6442,
      "horrific": 6443,
      "guessing": 6444,
      "shape": 6445,
      "embarrassed": 6446,
      "Stanwyck": 6447,
      "established": 6448,
      "poignant": 6449,
      ":)": 6450,
      "Fire": 6451,
      "Fair": 6452,
      "Net": 6453,
      "National": 6454,
      "Nancy": 6455,
      "Wolf": 6456,
      "useless": 6457,
      "weet": 6458,
      "indu": 6459,
      "dislike": 6460,
      "cynical": 6461,
      "specific": 6462,
      "Satan": 6463,
      "Father": 6464,
      "Hud": 6465,
      "icy": 6466,
      "rial": 6467,
      "ouses": 6468,
      "opath": 6469,
      "chell": 6470,
      "innov": 6471,
      "robot": 6472,
      "School": 6473,
      "idiotic": 6474,
      "wealthy": 6475,
      "Jamie": 6476,
      "franchise": 6477,
      "Award": 6478,
      "hh": 6479,
      "arrog": 6480,
      "traction": 6481,
      "seeking": 6482,
      "solve": 6483,
      "nake": 6484,
      "innocence": 6485,
      "bearable": 6486,
      "Bollywood": 6487,
      "chilling": 6488,
      "Soviet": 6489,
      "Han": 6490,
      "Land": 6491,
      "Oz": 6492,
      "Rachel": 6493,
      "states": 6494,
      "Think": 6495,
      "spook": 6496,
      "happiness": 6497,
      "ception": 6498,
      "sleeping": 6499,
      "inja": 6500,
      "Victoria": 6501,
      "Cre": 6502,
      "Dev": 6503,
      "Hot": 6504,
      "Mit": 6505,
      "bull": 6506,
      "vice": 6507,
      "enor": 6508,
      "toil": 6509,
      "dear": 6510,
      "quis": 6511,
      "raise": 6512,
      "vised": 6513,
      "distribut": 6514,
      "listed": 6515,
      "magaz": 6516,
      "Comedy": 6517,
      "network": 6518,
      "challenge": 6519,
      "Hardy": 6520,
      "Wild": 6521,
      "hears": 6522,
      "ida": 6523,
      "sham": 6524,
      "illust": 6525,
      "scars": 6526,
      "pressed": 6527,
      "presentation": 6528,
      "Shaw": 6529,
      "robber": 6530,
      "torial": 6531,
      "Powell": 6532,
      "Reynold": 6533,
      "CO": 6534,
      "Sally": 6535,
      "Simp": 6536,
      "firm": 6537,
      "aron": 6538,
      "keys": 6539,
      "manager": 6540,
      "ishment": 6541,
      "finan": 6542,
      "Holly": 6543,
      "fallen": 6544,
      "Matth": 6545,
      "Zombie": 6546,
      "Kennedy": 6547,
      "Egy": 6548,
      "Greek": 6549,
      "WOR": 6550,
      "ault": 6551,
      "cé": 6552,
      "brand": 6553,
      "hem": 6554,
      "lift": 6555,
      "ironic": 6556,
      "boot": 6557,
      "convict": 6558,
      "searching": 6559,
      "suggests": 6560,
      "torious": 6561,
      "Personally": 6562,
      "dare": 6563,
      "lord": 6564,
      "terri": 6565,
      "ami": 6566,
      "Thing": 6567,
      "triumph": 6568,
      "riding": 6569,
      "Grace": 6570,
      "Connery": 6571,
      "locked": 6572,
      "consists": 6573,
      "Universal": 6574,
      "Griff": 6575,
      "Hy": 6576,
      "Sel": 6577,
      "UST": 6578,
      "blo": 6579,
      "bik": 6580,
      "conspir": 6581,
      "ampion": 6582,
      "logist": 6583,
      "factory": 6584,
      "1950s": 6585,
      "Bobby": 6586,
      "Flynn": 6587,
      "bast": 6588,
      "hunt": 6589,
      "editor": 6590,
      "shines": 6591,
      "iger": 6592,
      "reads": 6593,
      "posing": 6594,
      "2000": 6595,
      "chester": 6596,
      "hiding": 6597,
      "adopt": 6598,
      "Jac": 6599,
      "sket": 6600,
      "chases": 6601,
      "shy": 6602,
      "noted": 6603,
      "notable": 6604,
      "shell": 6605,
      "owns": 6606,
      "nightmare": 6607,
      "Leg": 6608,
      "shoots": 6609,
      "!!!!!!!!": 6610,
      "Leslie": 6611,
      "techniques": 6612,
      "?).": 6613,
      "BAD": 6614,
      "Niro": 6615,
      "jumps": 6616,
      "infect": 6617,
      "hett": 6618,
      "metal": 6619,
      "string": 6620,
      "borrow": 6621,
      "2006": 6622,
      "Britain": 6623,
      "spiritual": 6624,
      "breathtaking": 6625,
      "Freeman": 6626,
      "Ko": 6627,
      "Low": 6628,
      "ieve": 6629,
      "wasting": 6630,
      "ulate": 6631,
      "hase": 6632,
      "ourselves": 6633,
      "spy": 6634,
      "sexuality": 6635,
      "stunts": 6636,
      "scratch": 6637,
      "Hunter": 6638,
      "sophisticated": 6639,
      "Pretty": 6640,
      "MST3K": 6641,
      "==": 6642,
      "Sky": 6643,
      "ada": 6644,
      "suits": 6645,
      "tors": 6646,
      "Brid": 6647,
      "Myster": 6648,
      "covers": 6649,
      "attempted": 6650,
      "shoes": 6651,
      "suffered": 6652,
      "dollar": 6653,
      "initially": 6654,
      "Jessica": 6655,
      "Final": 6656,
      "Luck": 6657,
      "TW": 6658,
      "sings": 6659,
      "vest": 6660,
      "alleg": 6661,
      "buck": 6662,
      "restaur": 6663,
      "Franco": 6664,
      "Comp": 6665,
      "meaningful": 6666,
      "repeat": 6667,
      "homage": 6668,
      "weapon": 6669,
      "destruction": 6670,
      "cousin": 6671,
      "Reynolds": 6672,
      "nurse": 6673,
      "trau": 6674,
      "mann": 6675,
      "oles": 6676,
      "spector": 6677,
      "dys": 6678,
      "legs": 6679,
      "boredom": 6680,
      "physically": 6681,
      "psychiat": 6682,
      "Tarantino": 6683,
      "hooked": 6684,
      "tribute": 6685,
      "Fol": 6686,
      "Ghost": 6687,
      "oe": 6688,
      "size": 6689,
      "choo": 6690,
      "aced": 6691,
      "werewolf": 6692,
      "relax": 6693,
      "Arnold": 6694,
      "hopefully": 6695,
      "transfer": 6696,
      "troubled": 6697,
      "Murray": 6698,
      "Power": 6699,
      "Eve": 6700,
      "KE": 6701,
      "ti": 6702,
      "tied": 6703,
      "chap": 6704,
      "lip": 6705,
      "ambig": 6706,
      "irony": 6707,
      "allo": 6708,
      "meat": 6709,
      "corner": 6710,
      "videos": 6711,
      "umbs": 6712,
      "instantly": 6713,
      "achieved": 6714,
      "protagonists": 6715,
      "Andrews": 6716,
      "REALLY": 6717,
      "Virgin": 6718,
      "Curt": 6719,
      "PLE": 6720,
      "bury": 6721,
      "ique": 6722,
      "rum": 6723,
      "beer": 6724,
      "riot": 6725,
      "istan": 6726,
      "scientists": 6727,
      "Jonathan": 6728,
      "performers": 6729,
      "marvelous": 6730,
      "Ralph": 6731,
      "CE": 6732,
      "Ring": 6733,
      "eager": 6734,
      "gate": 6735,
      "uno": 6736,
      "essence": 6737,
      "consequences": 6738,
      "udge": 6739,
      "cheek": 6740,
      "trial": 6741,
      "month": 6742,
      "refuses": 6743,
      "queen": 6744,
      "destro": 6745,
      "hipp": 6746,
      "expensive": 6747,
      "belongs": 6748,
      "HBO": 6749,
      "Page": 6750,
      "TR": 6751,
      "thick": 6752,
      "stress": 6753,
      "usty": 6754,
      "overcome": 6755,
      "centric": 6756,
      "marke": 6757,
      "satisfied": 6758,
      "\"...": 6759,
      "Pier": 6760,
      "fic": 6761,
      "ggy": 6762,
      "pher": 6763,
      "elson": 6764,
      "oblig": 6765,
      "lowing": 6766,
      "caric": 6767,
      "warn": 6768,
      "ification": 6769,
      "surviv": 6770,
      "obsession": 6771,
      "surrounding": 6772,
      "thousand": 6773,
      "Diane": 6774,
      "Boo": 6775,
      "Kat": 6776,
      "Pot": 6777,
      "Penn": 6778,
      "Set": 6779,
      "ego": 6780,
      "rings": 6781,
      "restr": 6782,
      "orient": 6783,
      "quote": 6784,
      "ishes": 6785,
      "reasonable": 6786,
      "eyed": 6787,
      "lacked": 6788,
      "passes": 6789,
      "daughters": 6790,
      "broke": 6791,
      "Fle": 6792,
      "NE": 6793,
      "mi": 6794,
      "lean": 6795,
      "Whatever": 6796,
      "lesser": 6797,
      "closely": 6798,
      "weakness": 6799,
      "Norman": 6800,
      "Bern": 6801,
      "neighborhood": 6802,
      "metaphor": 6803,
      "exercise": 6804,
      "Mitchell": 6805,
      "Sup": 6806,
      "fitting": 6807,
      "gro": 6808,
      "lit": 6809,
      "sends": 6810,
      "vous": 6811,
      "rely": 6812,
      "elabor": 6813,
      "doors": 6814,
      "thrilling": 6815,
      "splend": 6816,
      "tender": 6817,
      "vacation": 6818,
      "outrageous": 6819,
      "Egypt": 6820,
      "Cow": 6821,
      "Drew": 6822,
      "Further": 6823,
      "Sou": 6824,
      "Spr": 6825,
      "Spie": 6826,
      "lav": 6827,
      "beating": 6828,
      "enda": 6829,
      "pred": 6830,
      "horrend": 6831,
      "happily": 6832,
      "bucks": 6833,
      "rooms": 6834,
      "thrillers": 6835,
      "20th": 6836,
      "musicals": 6837,
      "millions": 6838,
      "Sandra": 6839,
      "explicit": 6840,
      "cringe": 6841,
      "Isa": 6842,
      "dump": 6843,
      "mble": 6844,
      "saves": 6845,
      "thirty": 6846,
      "iments": 6847,
      "ultra": 6848,
      "urs": 6849,
      "nowadays": 6850,
      "stranger": 6851,
      "Emily": 6852,
      "hundreds": 6853,
      "Sidney": 6854,
      "sand": 6855,
      "enters": 6856,
      "lix": 6857,
      "shirt": 6858,
      "spots": 6859,
      "afford": 6860,
      "Need": 6861,
      "Lucy": 6862,
      "1970s": 6863,
      "males": 6864,
      "personalities": 6865,
      "madness": 6866,
      "Matthe": 6867,
      "jerk": 6868,
      "atmospheric": 6869,
      "?),": 6870,
      "Fat": 6871,
      "Rome": 6872,
      "rab": 6873,
      "inher": 6874,
      "omy": 6875,
      "oops": 6876,
      "active": 6877,
      "artic": 6878,
      "blance": 6879,
      "Almost": 6880,
      "enjoyment": 6881,
      "carefully": 6882,
      "III": 6883,
      "Matthau": 6884,
      "ee": 6885,
      "mund": 6886,
      "asingly": 6887,
      "stiff": 6888,
      "gosi": 6889,
      "tax": 6890,
      "impse": 6891,
      "glimpse": 6892,
      "allowing": 6893,
      "wishes": 6894,
      "darkness": 6895,
      "annoyed": 6896,
      "Lugosi": 6897,
      "raped": 6898,
      "colorful": 6899,
      "evolution": 6900,
      "assassin": 6901,
      "CA": 6902,
      "Cro": 6903,
      "dled": 6904,
      "iation": 6905,
      "ux": 6906,
      "unforgettable": 6907,
      "uncomfortable": 6908,
      "conce": 6909,
      "web": 6910,
      "opposed": 6911,
      "develops": 6912,
      "dealt": 6913,
      "Emma": 6914,
      "concerns": 6915,
      "Matrix": 6916,
      "briefly": 6917,
      "Living": 6918,
      "Special": 6919,
      "kidnapped": 6920,
      "battles": 6921,
      "caricature": 6922,
      "Bey": 6923,
      "Could": 6924,
      "Coun": 6925,
      "IF": 6926,
      "Wa": 6927,
      "bie": 6928,
      "ographer": 6929,
      "demo": 6930,
      "guilt": 6931,
      "pray": 6932,
      "illian": 6933,
      "Real": 6934,
      "Unless": 6935,
      "Germans": 6936,
      "ambitious": 6937,
      "GRE": 6938,
      "heist": 6939,
      "motor": 6940,
      "iron": 6941,
      "owned": 6942,
      "lessons": 6943,
      "pses": 6944,
      "beings": 6945,
      "miscast": 6946,
      "engine": 6947,
      "importance": 6948,
      "larger": 6949,
      "Pu": 6950,
      "fighter": 6951,
      "gger": 6952,
      "tto": 6953,
      "ellar": 6954,
      "selfish": 6955,
      "pointed": 6956,
      "ensemble": 6957,
      "Aside": 6958,
      "rushed": 6959,
      "identify": 6960,
      "importantly": 6961,
      "miserably": 6962,
      "Aw": 6963,
      "Mach": 6964,
      "Rep": 6965,
      "hitting": 6966,
      "pir": 6967,
      "uninspired": 6968,
      "activ": 6969,
      "spending": 6970,
      "distract": 6971,
      "workers": 6972,
      "iancé": 6973,
      "leton": 6974,
      "rified": 6975,
      "ghosts": 6976,
      "Korean": 6977,
      "2nd": 6978,
      "Mother": 6979,
      "Sub": 6980,
      "cake": 6981,
      "Indeed": 6982,
      "talked": 6983,
      "counters": 6984,
      "smooth": 6985,
      "fashioned": 6986,
      "tricks": 6987,
      "knife": 6988,
      "Hudson": 6989,
      "Bun": 6990,
      "Cub": 6991,
      "Say": 6992,
      "fiancé": 6993,
      "ji": 6994,
      "onse": 6995,
      "chest": 6996,
      "loser": 6997,
      "myst": 6998,
      "grows": 6999,
      "Chic": 7000,
      "drags": 7001,
      "dubbing": 7002,
      "basement": 7003,
      "ignored": 7004,
      "Spielberg": 7005,
      "Gal": 7006,
      "ae": 7007,
      "citiz": 7008,
      "tab": 7009,
      "craz": 7010,
      "Neil": 7011,
      "vices": 7012,
      "Isra": 7013,
      "dialogs": 7014,
      "strangely": 7015,
      "Honest": 7016,
      "Au": 7017,
      "Cus": 7018,
      "Jere": 7019,
      "Jake": 7020,
      "guts": 7021,
      "rics": 7022,
      "tick": 7023,
      "elli": 7024,
      "newsp": 7025,
      "superfic": 7026,
      "cycl": 7027,
      "cycle": 7028,
      "Consider": 7029,
      "Prof": 7030,
      "********": 7031,
      "affected": 7032,
      "repeatedly": 7033,
      "increasingly": 7034,
      "Down": 7035,
      "rhy": 7036,
      "zon": 7037,
      "infamous": 7038,
      "liking": 7039,
      "contract": 7040,
      "sticks": 7041,
      "dropped": 7042,
      "Indians": 7043,
      "revealing": 7044,
      "Juliet": 7045,
      "--------": 7046,
      "Laurel": 7047,
      "Certain": 7048,
      "Met": 7049,
      "Row": 7050,
      "TS": 7051,
      "inch": 7052,
      "staff": 7053,
      "ifies": 7054,
      "myth": 7055,
      "cia": 7056,
      "Josh": 7057,
      "sexually": 7058,
      "audio": 7059,
      "engaged": 7060,
      "melodramatic": 7061,
      "daily": 7062,
      "philosoph": 7063,
      "Apart": 7064,
      "Cinder": 7065,
      "Dow": 7066,
      "Event": 7067,
      "Has": 7068,
      "Lem": 7069,
      "toss": 7070,
      "beast": 7071,
      "antics": 7072,
      "agan": 7073,
      "ored": 7074,
      "hype": 7075,
      "......": 7076,
      "Trav": 7077,
      "hoped": 7078,
      "westerns": 7079,
      "abrupt": 7080,
      "electric": 7081,
      "competition": 7082,
      "endearing": 7083,
      "adapted": 7084,
      "!.": 7085,
      "Book": 7086,
      "Fro": 7087,
      "Mup": 7088,
      "Nelson": 7089,
      "Pan": 7090,
      "cats": 7091,
      "butt": 7092,
      "urb": 7093,
      "coinc": 7094,
      "Alt": 7095,
      "portrait": 7096,
      "Secret": 7097,
      "admire": 7098,
      "limit": 7099,
      "dragged": 7100,
      "Alexander": 7101,
      "believably": 7102,
      "Kubrick": 7103,
      "Az": 7104,
      "Bot": 7105,
      "Ice": 7106,
      "Lor": 7107,
      "nick": 7108,
      "attraction": 7109,
      "bridge": 7110,
      "eland": 7111,
      "aks": 7112,
      "Heart": 7113,
      "evo": 7114,
      "subplot": 7115,
      "River": 7116,
      "fourth": 7117,
      "dancer": 7118,
      "delic": 7119,
      "insulting": 7120,
      "Nevertheless": 7121,
      "possessed": 7122,
      "inevitable": 7123,
      "Beautiful": 7124,
      "ME": 7125,
      "Sing": 7126,
      "Video": 7127,
      "dd": 7128,
      "sar": 7129,
      "tap": 7130,
      "replace": 7131,
      "exter": 7132,
      "relent": 7133,
      "scripted": 7134,
      "closed": 7135,
      "easier": 7136,
      "wheel": 7137,
      "stretch": 7138,
      "udos": 7139,
      "eccentric": 7140,
      "Bac": 7141,
      "Bour": 7142,
      "Dal": 7143,
      "FX": 7144,
      "IV": 7145,
      "Know": 7146,
      "pound": 7147,
      "resort": 7148,
      "pover": 7149,
      "fancy": 7150,
      "ruth": 7151,
      "Rogers": 7152,
      "curiosity": 7153,
      "Linda": 7154,
      "vulner": 7155,
      "Dream": 7156,
      "Dirty": 7157,
      "Hurt": 7158,
      "Kirk": 7159,
      "Sol": 7160,
      "dar": 7161,
      "sque": 7162,
      "ental": 7163,
      "aws": 7164,
      "direc": 7165,
      "screw": 7166,
      "handful": 7167,
      "cameos": 7168,
      "Hero": 7169,
      "Morris": 7170,
      "ittedly": 7171,
      "remaining": 7172,
      "broadcast": 7173,
      "juven": 7174,
      "eerie": 7175,
      "Cour": 7176,
      "EX": 7177,
      "Fore": 7178,
      "Mitch": 7179,
      "Nice": 7180,
      "Saw": 7181,
      "cket": 7182,
      "stood": 7183,
      "argue": 7184,
      "accompan": 7185,
      "tery": 7186,
      "trite": 7187,
      "conceived": 7188,
      "horses": 7189,
      "attend": 7190,
      "Carter": 7191,
      "portion": 7192,
      "busy": 7193,
      "nonetheless": 7194,
      "Austen": 7195,
      "attracted": 7196,
      "split": 7197,
      "smoking": 7198,
      "phenomen": 7199,
      "Stanley": 7200,
      "charisma": 7201,
      "Planet": 7202,
      "Picture": 7203,
      "Return": 7204,
      "repetitive": 7205,
      "toilet": 7206,
      "Cinderella": 7207,
      "Dut": 7208,
      "Khan": 7209,
      "Scor": 7210,
      "wow": 7211,
      "wave": 7212,
      "redem": 7213,
      "terrifying": 7214,
      "Church": 7215,
      "Alf": 7216,
      "appalling": 7217,
      "mistaken": 7218,
      "Frankenstein": 7219,
      "returning": 7220,
      "requires": 7221,
      "intentions": 7222,
      "health": 7223,
      "Lawrence": 7224,
      "Chicago": 7225,
      "Woman": 7226,
      "threw": 7227,
      "asm": 7228,
      "icop": 7229,
      "confron": 7230,
      "blows": 7231,
      "afore": 7232,
      "Bruno": 7233,
      "crimes": 7234,
      "smoke": 7235,
      "Krist": 7236,
      "individuals": 7237,
      "Buddy": 7238,
      "Excellent": 7239,
      "Mah": 7240,
      "lur": 7241,
      "nel": 7242,
      "aser": 7243,
      "staged": 7244,
      "pleased": 7245,
      "goal": 7246,
      "rave": 7247,
      "creators": 7248,
      "Bog": 7249,
      "distinct": 7250,
      "Train": 7251,
      "picking": 7252,
      "1980s": 7253,
      "label": 7254,
      "response": 7255,
      "studios": 7256,
      "hibit": 7257,
      "FOR": 7258,
      "Mars": 7259,
      "Pho": 7260,
      "Ur": 7261,
      "Ward": 7262,
      "cig": 7263,
      "uct": 7264,
      "wan": 7265,
      "reactions": 7266,
      "brow": 7267,
      "ader": 7268,
      "lifest": 7269,
      "button": 7270,
      "logue": 7271,
      "watches": 7272,
      "backdrop": 7273,
      "insist": 7274,
      "possibility": 7275,
      "launch": 7276,
      "spoiled": 7277,
      "drops": 7278,
      "beaten": 7279,
      "demons": 7280,
      "Nazis": 7281,
      "motivation": 7282,
      "''": 7283,
      "Ball": 7284,
      "Yu": 7285,
      "etern": 7286,
      "trend": 7287,
      "wicked": 7288,
      "reel": 7289,
      "ila": 7290,
      "forgive": 7291,
      "observ": 7292,
      "ranks": 7293,
      "nail": 7294,
      "breasts": 7295,
      "Season": 7296,
      "devast": 7297,
      "Science": 7298,
      "commercials": 7299,
      "cardboard": 7300,
      "charismatic": 7301,
      "revelation": 7302,
      "Wallace": 7303,
      "Lots": 7304,
      "Nico": 7305,
      "Psy": 7306,
      "Sen": 7307,
      "hence": 7308,
      "oil": 7309,
      "inexplic": 7310,
      "album": 7311,
      "itar": 7312,
      "ieu": 7313,
      "eston": 7314,
      "attan": 7315,
      "Uncle": 7316,
      "elsewhere": 7317,
      "captain": 7318,
      "pleasantly": 7319,
      "checking": 7320,
      "grandfather": 7321,
      "professor": 7322,
      "investigation": 7323,
      "explosions": 7324,
      "Bow": 7325,
      "Ev": 7326,
      "FO": 7327,
      "patch": 7328,
      "ture": 7329,
      "wack": 7330,
      "ingu": 7331,
      "unpleasant": 7332,
      "inda": 7333,
      "internet": 7334,
      "Claire": 7335,
      "medium": 7336,
      "demands": 7337,
      "Russia": 7338,
      "Angeles": 7339,
      "occurs": 7340,
      "Imagine": 7341,
      "territory": 7342,
      "Gy": 7343,
      "bang": 7344,
      "cere": 7345,
      "unintentionally": 7346,
      "guide": 7347,
      "shower": 7348,
      "aft": 7349,
      "killings": 7350,
      "Monster": 7351,
      "pulling": 7352,
      "racial": 7353,
      "Amanda": 7354,
      "anagh": 7355,
      "fifteen": 7356,
      "Studi": 7357,
      "tremendous": 7358,
      "discovery": 7359,
      "piano": 7360,
      "Fant": 7361,
      "Oscars": 7362,
      "Plot": 7363,
      "WAR": 7364,
      "toy": 7365,
      "bleak": 7366,
      "....<": 7367,
      "wonders": 7368,
      "gotta": 7369,
      "Remember": 7370,
      "slick": 7371,
      "Arab": 7372,
      "eleg": 7373,
      "engage": 7374,
      "credited": 7375,
      "photographer": 7376,
      "accused": 7377,
      "threatening": 7378,
      "Glenn": 7379,
      "Ultim": 7380,
      "Mystery": 7381,
      "restaurant": 7382,
      "Mod": 7383,
      "Natur": 7384,
      "aunt": 7385,
      "eve": 7386,
      "econ": 7387,
      "fired": 7388,
      "iser": 7389,
      "pert": 7390,
      "worn": 7391,
      "clues": 7392,
      "realise": 7393,
      "serving": 7394,
      "interaction": 7395,
      "performing": 7396,
      "believing": 7397,
      "reasonably": 7398,
      "brilliance": 7399,
      "virus": 7400,
      "Films": 7401,
      "jumping": 7402,
      "precious": 7403,
      "precise": 7404,
      "resolution": 7405,
      "library": 7406,
      "horrendous": 7407,
      "35": 7408,
      "fro": 7409,
      "ien": 7410,
      "storm": 7411,
      "err": 7412,
      "isation": 7413,
      "roph": 7414,
      "uloid": 7415,
      "usions": 7416,
      "presum": 7417,
      "ipes": 7418,
      "Reg": 7419,
      "Gray": 7420,
      "nett": 7421,
      "Jeremy": 7422,
      "Civ": 7423,
      "Med": 7424,
      "Rid": 7425,
      "Rather": 7426,
      "hire": 7427,
      "pes": 7428,
      "encounters": 7429,
      "ingen": 7430,
      "uns": 7431,
      "areas": 7432,
      "geon": 7433,
      "mechan": 7434,
      "condu": 7435,
      "ifi": 7436,
      "horrid": 7437,
      "cared": 7438,
      "messages": 7439,
      "thrills": 7440,
      "providing": 7441,
      "scientific": 7442,
      "hunter": 7443,
      "documentaries": 7444,
      "duty": 7445,
      "Matthew": 7446,
      "Bry": 7447,
      "Cy": 7448,
      "Lang": 7449,
      "Rand": 7450,
      "othy": 7451,
      "ske": 7452,
      "wake": 7453,
      "onel": 7454,
      "anded": 7455,
      "ulp": 7456,
      "characterization": 7457,
      "bold": 7458,
      "merit": 7459,
      "Reed": 7460,
      "orders": 7461,
      "Dragon": 7462,
      "2004": 7463,
      "detailed": 7464,
      "Strange": 7465,
      "golden": 7466,
      "Dorothy": 7467,
      "associated": 7468,
      "Eri": 7469,
      "oon": 7470,
      "punk": 7471,
      "wig": 7472,
      "incoherent": 7473,
      "represents": 7474,
      "maniac": 7475,
      "whoever": 7476,
      "ensible": 7477,
      "helicop": 7478,
      "reland": 7479,
      "THER": 7480,
      "heroic": 7481,
      "morality": 7482,
      "Geor": 7483,
      "countless": 7484,
      "photographed": 7485,
      "tortured": 7486,
      "OME": 7487,
      "Miy": 7488,
      "pseudo": 7489,
      "accomplished": 7490,
      "hysterical": 7491,
      "jealous": 7492,
      "Owen": 7493,
      "CD": 7494,
      "Eye": 7495,
      "kov": 7496,
      "mour": 7497,
      "alas": 7498,
      "timeless": 7499,
      "ifying": 7500,
      "blast": 7501,
      "blowing": 7502,
      "displays": 7503,
      "attached": 7504,
      "farce": 7505,
      "sentence": 7506,
      "generous": 7507,
      "advance": 7508,
      "collect": 7509,
      "immig": 7510,
      "walls": 7511,
      "surrounded": 7512,
      "glasses": 7513,
      "elderly": 7514,
      "Honestly": 7515,
      "'.<": 7516,
      "Ireland": 7517,
      "Kay": 7518,
      "Wy": 7519,
      "cried": 7520,
      "gif": 7521,
      "returned": 7522,
      "oni": 7523,
      "ications": 7524,
      "eline": 7525,
      "outcome": 7526,
      "ola": 7527,
      "embr": 7528,
      "holiday": 7529,
      "unky": 7530,
      "1960": 7531,
      "arrive": 7532,
      "segments": 7533,
      "Craig": 7534,
      "wilder": 7535,
      "CIA": 7536,
      "Ast": 7537,
      "Cont": 7538,
      "Hanks": 7539,
      "Sulli": 7540,
      "dun": 7541,
      "tly": 7542,
      "secre": 7543,
      "aval": 7544,
      "avor": 7545,
      "ashes": 7546,
      "Brando": 7547,
      "reluct": 7548,
      "mons": 7549,
      "extended": 7550,
      "hearts": 7551,
      "combat": 7552,
      "escaped": 7553,
      "constructed": 7554,
      "adequate": 7555,
      "Based": 7556,
      "FE": 7557,
      "Fa": 7558,
      "Made": 7559,
      "Ze": 7560,
      "daring": 7561,
      "sam": 7562,
      "select": 7563,
      "/>'": 7564,
      "neth": 7565,
      "excl": 7566,
      "highlights": 7567,
      "definite": 7568,
      "Boys": 7569,
      "uniform": 7570,
      "Adams": 7571,
      "flawless": 7572,
      "Willis": 7573,
      "Madonna": 7574,
      "affection": 7575,
      "gradu": 7576,
      "Canada": 7577,
      "symbolism": 7578,
      "biography": 7579,
      "Whether": 7580,
      "jointed": 7581,
      "subsequent": 7582,
      "Sullivan": 7583,
      "Seven": 7584,
      "lly": 7585,
      "infer": 7586,
      "chant": 7587,
      "shif": 7588,
      "dece": 7589,
      "umber": 7590,
      "crook": 7591,
      "...)": 7592,
      "uded": 7593,
      "inters": 7594,
      "backs": 7595,
      "wondered": 7596,
      "landscape": 7597,
      "brea": 7598,
      "rush": 7599,
      "Ross": 7600,
      "itchen": 7601,
      "misses": 7602,
      "distance": 7603,
      "causing": 7604,
      "draws": 7605,
      "Frankie": 7606,
      "idiots": 7607,
      "continued": 7608,
      "Angela": 7609,
      "argument": 7610,
      "wannabe": 7611,
      "birds": 7612,
      "mansion": 7613,
      "receive": 7614,
      "directorial": 7615,
      "Civil": 7616,
      "ez": 7617,
      "indi": 7618,
      "eries": 7619,
      "sus": 7620,
      "conserv": 7621,
      "insert": 7622,
      "buried": 7623,
      "nearby": 7624,
      "pushed": 7625,
      "sadistic": 7626,
      "Blake": 7627,
      "aimed": 7628,
      "politic": 7629,
      "attered": 7630,
      "Hamlet": 7631,
      "hunting": 7632,
      "crisis": 7633,
      "Catholic": 7634,
      "Eventually": 7635,
      "Brend": 7636,
      "Case": 7637,
      "Hood": 7638,
      "Ned": 7639,
      "Stoo": 7640,
      "orc": 7641,
      "icity": 7642,
      "worker": 7643,
      "tales": 7644,
      "phony": 7645,
      "Argen": 7646,
      "Carrey": 7647,
      "distant": 7648,
      "complaint": 7649,
      "swear": 7650,
      "END": 7651,
      "meaningless": 7652,
      "burned": 7653,
      "Streep": 7654,
      "currently": 7655,
      "loosely": 7656,
      "resembles": 7657,
      "Gothic": 7658,
      "spooky": 7659,
      "Baker": 7660,
      "Clo": 7661,
      "Candy": 7662,
      "Fonda": 7663,
      "Lan": 7664,
      "Summer": 7665,
      "tall": 7666,
      "armed": 7667,
      "iels": 7668,
      "idy": 7669,
      "idal": 7670,
      "ifically": 7671,
      "worthless": 7672,
      "menacing": 7673,
      "Claude": 7674,
      "stronger": 7675,
      "Walken": 7676,
      "writes": 7677,
      "resour": 7678,
      "souls": 7679,
      "survival": 7680,
      "Days": 7681,
      "celluloid": 7682,
      "shadows": 7683,
      "throat": 7684,
      "Hopper": 7685,
      "Ian": 7686,
      "Oper": 7687,
      "gut": 7688,
      "rever": 7689,
      "deter": 7690,
      "horrors": 7691,
      "compassion": 7692,
      "warri": 7693,
      "drivel": 7694,
      "Tracy": 7695,
      "typically": 7696,
      "1990": 7697,
      "projects": 7698,
      "suspects": 7699,
      "calm": 7700,
      "frustrated": 7701,
      "Silver": 7702,
      "prostitute": 7703,
      "exaggerated": 7704,
      "Altman": 7705,
      "redemption": 7706,
      "Buck": 7707,
      "Gabr": 7708,
      "Liz": 7709,
      "Usu": 7710,
      "WAT": 7711,
      "iently": 7712,
      "opt": 7713,
      "ilted": 7714,
      "lem": 7715,
      "chi": 7716,
      "fears": 7717,
      "worried": 7718,
      "childish": 7719,
      "superbly": 7720,
      "cliff": 7721,
      "technically": 7722,
      "planning": 7723,
      "1999": 7724,
      "travels": 7725,
      "achievement": 7726,
      "discussion": 7727,
      "Cassave": 7728,
      "superficial": 7729,
      "Field": 7730,
      "dish": 7731,
      "pants": 7732,
      "xim": 7733,
      "beats": 7734,
      "icient": 7735,
      "forgiven": 7736,
      "ira": 7737,
      "plague": 7738,
      "peror": 7739,
      "whereas": 7740,
      "persona": 7741,
      "comprom": 7742,
      "builds": 7743,
      "matched": 7744,
      "concerning": 7745,
      "recorded": 7746,
      "thankfully": 7747,
      "Campbell": 7748,
      "Cusack": 7749,
      "\";": 7750,
      "AB": 7751,
      "Gard": 7752,
      "cingly": 7753,
      "gift": 7754,
      "redi": 7755,
      "ligh": 7756,
      "prejud": 7757,
      "goodness": 7758,
      "glory": 7759,
      "Godfather": 7760,
      "prisoners": 7761,
      "terrorist": 7762,
      "birthday": 7763,
      "____": 7764,
      "involvement": 7765,
      "obscure": 7766,
      "Fortun": 7767,
      "AV": 7768,
      "Dere": 7769,
      "Pie": 7770,
      "Try": 7771,
      "Wend": 7772,
      "ramp": 7773,
      "tones": 7774,
      "reli": 7775,
      "ata": 7776,
      "ingredi": 7777,
      "orches": 7778,
      "edly": 7779,
      "heim": 7780,
      "noise": 7781,
      "istically": 7782,
      "grav": 7783,
      "offended": 7784,
      "corpse": 7785,
      "careers": 7786,
      "sounding": 7787,
      "rank": 7788,
      "Club": 7789,
      "tracks": 7790,
      "2002": 7791,
      "subjects": 7792,
      "delivering": 7793,
      "LOVE": 7794,
      "Seeing": 7795,
      "washed": 7796,
      "magazine": 7797,
      "CR": 7798,
      "Dom": 7799,
      "NEVER": 7800,
      "Py": 7801,
      "Pur": 7802,
      "Tow": 7803,
      "rural": 7804,
      "det": 7805,
      "exposed": 7806,
      "lifetime": 7807,
      "!!!!!": 7808,
      "breed": 7809,
      "commended": 7810,
      "Arm": 7811,
      "promin": 7812,
      "Foster": 7813,
      "Given": 7814,
      "companion": 7815,
      "Children": 7816,
      "models": 7817,
      "Argento": 7818,
      "BUT": 7819,
      "Five": 7820,
      "kar": 7821,
      "tz": 7822,
      "isha": 7823,
      "tool": 7824,
      "trained": 7825,
      "offering": 7826,
      "disjointed": 7827,
      "Union": 7828,
      "ANT": 7829,
      "ridiculously": 7830,
      "convincingly": 7831,
      "traveling": 7832,
      "Carrie": 7833,
      "Count": 7834,
      "MY": 7835,
      "Navy": 7836,
      "Rich": 7837,
      "devoid": 7838,
      "notes": 7839,
      "user": 7840,
      "poison": 7841,
      "nops": 7842,
      "webs": 7843,
      "blend": 7844,
      "useum": 7845,
      "hypo": 7846,
      "Force": 7847,
      "Beck": 7848,
      "Shir": 7849,
      "rifice": 7850,
      "groups": 7851,
      "Code": 7852,
      "Except": 7853,
      "Grey": 7854,
      "investigate": 7855,
      "Scarlett": 7856,
      "stairs": 7857,
      "Ah": 7858,
      "Cold": 7859,
      "Rita": 7860,
      "dating": 7861,
      "sno": 7862,
      "anal": 7863,
      "anny": 7864,
      "unwatchable": 7865,
      "ello": 7866,
      "jection": 7867,
      "mighty": 7868,
      "Davies": 7869,
      "Lucas": 7870,
      "planned": 7871,
      "signs": 7872,
      "recognized": 7873,
      "Murder": 7874,
      "defend": 7875,
      "explored": 7876,
      "implausible": 7877,
      "population": 7878,
      "rubber": 7879,
      "Certainly": 7880,
      "Bottom": 7881,
      "Pick": 7882,
      "offee": 7883,
      "brains": 7884,
      "notably": 7885,
      "wet": 7886,
      "Manh": 7887,
      "ticket": 7888,
      "politically": 7889,
      "odds": 7890,
      "Point": 7891,
      "disturbed": 7892,
      "reached": 7893,
      "officers": 7894,
      "Absolute": 7895,
      "drunken": 7896,
      "conversations": 7897,
      "bathroom": 7898,
      "Titanic": 7899,
      "dignity": 7900,
      "Beyond": 7901,
      "aforementioned": 7902,
      "Derek": 7903,
      "Bay": 7904,
      "Tot": 7905,
      "Todd": 7906,
      "Win": 7907,
      "Wel": 7908,
      "cards": 7909,
      "tro": 7910,
      "suited": 7911,
      "earned": 7912,
      "kidding": 7913,
      "differences": 7914,
      "coln": 7915,
      "ERS": 7916,
      "sadness": 7917,
      "slightest": 7918,
      "Quite": 7919,
      "Quinn": 7920,
      "improved": 7921,
      "OOD": 7922,
      "influenced": 7923,
      "Lincoln": 7924,
      "isolated": 7925,
      "installment": 7926,
      "ruthless": 7927,
      "nopsis": 7928,
      "50s": 7929,
      "Amy": 7930,
      "Dill": 7931,
      "Eva": 7932,
      "Fay": 7933,
      "incar": 7934,
      "removed": 7935,
      "lyrics": 7936,
      "root": 7937,
      "ctic": 7938,
      "president": 7939,
      "overlooked": 7940,
      "ortal": 7941,
      "pretend": 7942,
      "stole": 7943,
      "producing": 7944,
      "popcorn": 7945,
      "Worst": 7946,
      "Princess": 7947,
      "immick": 7948,
      "Terry": 7949,
      "Syd": 7950,
      "strictly": 7951,
      "errors": 7952,
      "Griffith": 7953,
      "juvenile": 7954,
      "\"-": 7955,
      "Bates": 7956,
      "Fiction": 7957,
      "kish": 7958,
      "ype": 7959,
      "asion": 7960,
      "measure": 7961,
      "poe": 7962,
      "noble": 7963,
      "aga": 7964,
      "1930": 7965,
      "Branagh": 7966,
      "astern": 7967,
      "imagined": 7968,
      "2003": 7969,
      "2007": 7970,
      "narrator": 7971,
      "Craw": 7972,
      "Ruth": 7973,
      "stinker": 7974,
      "proceedings": 7975,
      "fetched": 7976,
      "corporate": 7977,
      "Throughout": 7978,
      "benefit": 7979,
      "Swedish": 7980,
      "ABC": 7981,
      "Ira": 7982,
      "Rex": 7983,
      "gimmick": 7984,
      "sive": 7985,
      "von": 7986,
      "inhabit": 7987,
      "scope": 7988,
      "goers": 7989,
      "Intern": 7990,
      "disease": 7991,
      "sail": 7992,
      "frag": 7993,
      "humili": 7994,
      "curse": 7995,
      "genres": 7996,
      "movements": 7997,
      "require": 7998,
      "primarily": 7999,
      "transport": 8000,
      "sacrifice": 8001,
      "90s": 8002,
      "Burns": 8003,
      "CT": 8004,
      "Gand": 8005,
      "Lake": 8006,
      "Make": 8007,
      "rd": 8008,
      "som": 8009,
      "resid": 8010,
      "itudes": 8011,
      "adul": 8012,
      "util": 8013,
      "uristic": 8014,
      "grain": 8015,
      "bless": 8016,
      "hardcore": 8017,
      "dialogues": 8018,
      "sidekick": 8019,
      "convol": 8020,
      "Spir": 8021,
      "scores": 8022,
      "Worth": 8023,
      "bullet": 8024,
      "devoted": 8025,
      "dedicated": 8026,
      "occurred": 8027,
      "digital": 8028,
      "hatred": 8029,
      "sacrific": 8030,
      "Ass": 8031,
      "Bart": 8032,
      "Bush": 8033,
      "Hust": 8034,
      "Oc": 8035,
      "Shad": 8036,
      "Sever": 8037,
      "ani": 8038,
      "thel": 8039,
      "rec": 8040,
      "ala": 8041,
      "orn": 8042,
      "sevent": 8043,
      "filling": 8044,
      "elic": 8045,
      "defe": 8046,
      "decess": 8047,
      "agents": 8048,
      "predecess": 8049,
      "spare": 8050,
      "duo": 8051,
      "code": 8052,
      "Deep": 8053,
      "collabor": 8054,
      "Nobody": 8055,
      "Martha": 8056,
      "vicious": 8057,
      "recognition": 8058,
      "intrigue": 8059,
      "fatal": 8060,
      "ACK": 8061,
      "lifting": 8062,
      "Interest": 8063,
      "Radio": 8064,
      "conspiracy": 8065,
      "poverty": 8066,
      "Fortunately": 8067,
      "Pam": 8068,
      "Six": 8069,
      "lins": 8070,
      "harder": 8071,
      "Note": 8072,
      "passeng": 8073,
      "mixture": 8074,
      "venture": 8075,
      "psychotic": 8076,
      "answered": 8077,
      "Castle": 8078,
      "distracting": 8079,
      "Massacre": 8080,
      "elaborate": 8081,
      "Dawn": 8082,
      "Hunt": 8083,
      "Nic": 8084,
      "Save": 8085,
      "kitchen": 8086,
      "encing": 8087,
      "altogether": 8088,
      "otion": 8089,
      "umsy": 8090,
      "obic": 8091,
      "wont": 8092,
      "empath": 8093,
      "trio": 8094,
      "hyp": 8095,
      "Mario": 8096,
      "generic": 8097,
      "defined": 8098,
      "Granted": 8099,
      "Justin": 8100,
      "opinions": 8101,
      "Sandler": 8102,
      "gradually": 8103,
      "decisions": 8104,
      "sales": 8105,
      "inventive": 8106,
      "philosophy": 8107,
      "settling": 8108,
      "Manhattan": 8109,
      "DON": 8110,
      "PR": 8111,
      "Pear": 8112,
      "Years": 8113,
      "bene": 8114,
      "flies": 8115,
      "zel": 8116,
      "terday": 8117,
      "unbearable": 8118,
      "itect": 8119,
      "overdone": 8120,
      "cope": 8121,
      "pression": 8122,
      "clothing": 8123,
      "slim": 8124,
      "murderous": 8125,
      "staying": 8126,
      "doubted": 8127,
      "oddly": 8128,
      "grandmother": 8129,
      "Julian": 8130,
      "Duke": 8131,
      "passionate": 8132,
      "sloppy": 8133,
      "Atlant": 8134,
      "Kris": 8135,
      "Pet": 8136,
      "coffee": 8137,
      "hou": 8138,
      "sadd": 8139,
      "slaughter": 8140,
      "relies": 8141,
      "adoles": 8142,
      "doz": 8143,
      "notorious": 8144,
      "artific": 8145,
      "acknow": 8146,
      "Third": 8147,
      "screams": 8148,
      "motives": 8149,
      "silver": 8150,
      "Spike": 8151,
      "spirited": 8152,
      "satir": 8153,
      "commented": 8154,
      "iko": 8155,
      "laws": 8156,
      "stereotype": 8157,
      "explaining": 8158,
      "mesmer": 8159,
      "agreed": 8160,
      "secrets": 8161,
      "Block": 8162,
      "Cob": 8163,
      "Squ": 8164,
      "Tan": 8165,
      "Tam": 8166,
      "fist": 8167,
      "houses": 8168,
      "musc": 8169,
      "pig": 8170,
      "analy": 8171,
      "omic": 8172,
      "imperson": 8173,
      "comics": 8174,
      "afterwards": 8175,
      "performer": 8176,
      "ocative": 8177,
      "temper": 8178,
      "distingu": 8179,
      "pressure": 8180,
      "rocks": 8181,
      "winds": 8182,
      "intrigued": 8183,
      "loads": 8184,
      "ACT": 8185,
      "Girls": 8186,
      "explosion": 8187,
      "arrogant": 8188,
      "Alfred": 8189,
      "lifestyle": 8190,
      "CON": 8191,
      "Fall": 8192,
      "Randy": 8193,
      "SC": 8194,
      "thief": 8195,
      "isto": 8196,
      "doomed": 8197,
      "estate": 8198,
      "eping": 8199,
      "contained": 8200,
      "steam": 8201,
      "legit": 8202,
      "abysm": 8203,
      "incest": 8204,
      "Nightmare": 8205,
      "reaches": 8206,
      "strike": 8207,
      "Leonard": 8208,
      "agrees": 8209,
      "wrestling": 8210,
      "captivating": 8211,
      "reduced": 8212,
      "Turner": 8213,
      "Profess": 8214,
      "Bourne": 8215,
      "Bach": 8216,
      "dust": 8217,
      "mum": 8218,
      "invisible": 8219,
      "illegal": 8220,
      "oms": 8221,
      "aggress": 8222,
      "ours": 8223,
      "orton": 8224,
      "Leo": 8225,
      "unior": 8226,
      "existed": 8227,
      "Enjoy": 8228,
      "Bette": 8229,
      "suitable": 8230,
      "subtlety": 8231,
      "burning": 8232,
      "Boll": 8233,
      "absence": 8234,
      "alternative": 8235,
      "Century": 8236,
      "phrase": 8237,
      "newspaper": 8238,
      "poetry": 8239,
      "foul": 8240,
      "lers": 8241,
      "uity": 8242,
      "assem": 8243,
      "ghan": 8244,
      "unintentional": 8245,
      "decor": 8246,
      "composed": 8247,
      "preview": 8248,
      "ptic": 8249,
      "clown": 8250,
      "Head": 8251,
      "Road": 8252,
      "Peck": 8253,
      "Blade": 8254,
      "darker": 8255,
      "pays": 8256,
      "virgin": 8257,
      "frustrating": 8258,
      "blockbuster": 8259,
      "construction": 8260,
      "simplistic": 8261,
      "arrested": 8262,
      "Bus": 8263,
      "Doo": 8264,
      "Gore": 8265,
      "Song": 8266,
      "Trom": 8267,
      "Von": 8268,
      "rational": 8269,
      "tte": 8270,
      "bearing": 8271,
      "unbelievably": 8272,
      "subl": 8273,
      "clumsy": 8274,
      "ciating": 8275,
      "centered": 8276,
      "classical": 8277,
      "mistress": 8278,
      "ELL": 8279,
      "iveness": 8280,
      "enormous": 8281,
      "Nicole": 8282,
      "Band": 8283,
      "Mis": 8284,
      "Mun": 8285,
      "cali": 8286,
      "french": 8287,
      "inse": 8288,
      "thet": 8289,
      "recru": 8290,
      "stellar": 8291,
      "aman": 8292,
      "assault": 8293,
      "funeral": 8294,
      "State": 8295,
      "thoughtful": 8296,
      "highest": 8297,
      "buddies": 8298,
      "towns": 8299,
      "Keith": 8300,
      "eighties": 8301,
      "solely": 8302,
      "unfolds": 8303,
      "cameras": 8304,
      "Margaret": 8305,
      "convoluted": 8306,
      "WAY": 8307,
      "gren": 8308,
      "jazz": 8309,
      "asto": 8310,
      "chances": 8311,
      "elim": 8312,
      "consu": 8313,
      "characteristic": 8314,
      "Forget": 8315,
      "instant": 8316,
      "honesty": 8317,
      "equip": 8318,
      "snakes": 8319,
      "introduces": 8320,
      "catches": 8321,
      "depicts": 8322,
      "secretary": 8323,
      "succeeded": 8324,
      "depressed": 8325,
      "EVERY": 8326,
      "choreography": 8327,
      "montage": 8328,
      "innovative": 8329,
      "presumably": 8330,
      "Half": 8331,
      "Macy": 8332,
      "Pi": 8333,
      "WE": 8334,
      "Year": 8335,
      "mares": 8336,
      "nause": 8337,
      "wine": 8338,
      "idel": 8339,
      "notion": 8340,
      "arty": 8341,
      "cannibal": 8342,
      "intro": 8343,
      "spring": 8344,
      "aneously": 8345,
      "fantas": 8346,
      "????": 8347,
      "photograph": 8348,
      "describes": 8349,
      "regardless": 8350,
      "Hamilton": 8351,
      "chaos": 8352,
      "scheme": 8353,
      "Scream": 8354,
      "Curtis": 8355,
      "GREAT": 8356,
      ",,": 8357,
      "Bak": 8358,
      "Cli": 8359,
      "FR": 8360,
      "Gone": 8361,
      "Glover": 8362,
      "PA": 8363,
      "Pris": 8364,
      "jam": 8365,
      "leck": 8366,
      "conve": 8367,
      "guitar": 8368,
      "synopsis": 8369,
      "painted": 8370,
      "failing": 8371,
      "countryside": 8372,
      "buildings": 8373,
      "profession": 8374,
      "1940": 8375,
      "psychopath": 8376,
      "witnessed": 8377,
      "employe": 8378,
      "emphasis": 8379,
      "blatant": 8380,
      "International": 8381,
      "Cag": 8382,
      "Hung": 8383,
      "Live": 8384,
      "Ric": 8385,
      "Tem": 8386,
      "eg": 8387,
      "lest": 8388,
      "ocean": 8389,
      "uable": 8390,
      "enem": 8391,
      "assum": 8392,
      "exotic": 8393,
      "dian": 8394,
      "Thunder": 8395,
      "blur": 8396,
      "opp": 8397,
      "wrapped": 8398,
      "shortly": 8399,
      "copies": 8400,
      "distin": 8401,
      "NOW": 8402,
      "damage": 8403,
      "neglect": 8404,
      "consistently": 8405,
      "responsibility": 8406,
      "Damme": 8407,
      "shelf": 8408,
      "Jacob": 8409,
      "enemies": 8410,
      "')": 8411,
      "Age": 8412,
      "Jord": 8413,
      "Put": 8414,
      "SN": 8415,
      "WAS": 8416,
      "ffect": 8417,
      "mouse": 8418,
      "rug": 8419,
      "sab": 8420,
      "tame": 8421,
      "vial": 8422,
      "orter": 8423,
      "lifel": 8424,
      "plate": 8425,
      "surg": 8426,
      "cheating": 8427,
      "Dee": 8428,
      "solution": 8429,
      "Myers": 8430,
      "smaller": 8431,
      "casual": 8432,
      "Cox": 8433,
      "amounts": 8434,
      "hammer": 8435,
      "terrorists": 8436,
      "specifically": 8437,
      "Kids": 8438,
      "Characters": 8439,
      "immensely": 8440,
      "robbery": 8441,
      "splendid": 8442,
      "dozens": 8443,
      "mou": 8444,
      "inate": 8445,
      "icon": 8446,
      "cliche": 8447,
      "earn": 8448,
      "despair": 8449,
      "slam": 8450,
      "Short": 8451,
      "1995": 8452,
      "cruciating": 8453,
      "bullets": 8454,
      "recording": 8455,
      "primary": 8456,
      "Muslim": 8457,
      "frequent": 8458,
      "Skip": 8459,
      "maintain": 8460,
      "Vegas": 8461,
      "Predator": 8462,
      "equipment": 8463,
      "3rd": 8464,
      "Bald": 8465,
      "Iran": 8466,
      "Wid": 8467,
      "hal": 8468,
      "san": 8469,
      "snake": 8470,
      "anx": 8471,
      "entin": 8472,
      "uneven": 8473,
      "aux": 8474,
      "craw": 8475,
      "coat": 8476,
      "ruins": 8477,
      "styles": 8478,
      "Garbo": 8479,
      "fooled": 8480,
      "HOW": 8481,
      "vivid": 8482,
      "philosophical": 8483,
      "Cassavetes": 8484,
      "Cagney": 8485,
      "Cross": 8486,
      "Mu": 8487,
      "Women": 8488,
      "hates": 8489,
      "iere": 8490,
      "isand": 8491,
      "defeat": 8492,
      "poon": 8493,
      "estic": 8494,
      "endings": 8495,
      "classes": 8496,
      "nails": 8497,
      "Marion": 8498,
      "paran": 8499,
      "Mann": 8500,
      "cinematographer": 8501,
      "STAR": 8502,
      "Norris": 8503,
      "kicked": 8504,
      "exploit": 8505,
      "strikes": 8506,
      "miserable": 8507,
      "glorious": 8508,
      "dynamic": 8509,
      "Florida": 8510,
      "journalist": 8511,
      "financial": 8512,
      "psychiatrist": 8513,
      "Psycho": 8514,
      "Miyaz": 8515,
      "..<": 8516,
      "SU": 8517,
      "Viv": 8518,
      "verted": 8519,
      "undoubted": 8520,
      "robe": 8521,
      "ulk": 8522,
      "plausible": 8523,
      "prepar": 8524,
      "justify": 8525,
      "grotes": 8526,
      "partly": 8527,
      "monkey": 8528,
      "retro": 8529,
      "ONG": 8530,
      "Boris": 8531,
      "employed": 8532,
      "cowboy": 8533,
      "liberal": 8534,
      "parallel": 8535,
      "Karloff": 8536,
      "accompanied": 8537,
      "Shirley": 8538,
      "Domin": 8539,
      "adine": 8540,
      "illness": 8541,
      "illog": 8542,
      "diamond": 8543,
      "vier": 8544,
      "Annie": 8545,
      "considerable": 8546,
      "Edgar": 8547,
      "Elli": 8548,
      "teaching": 8549,
      "Patric": 8550,
      "According": 8551,
      "custo": 8552,
      "Human": 8553,
      "vulgar": 8554,
      "poetic": 8555,
      "Det": 8556,
      "Mason": 8557,
      "MTV": 8558,
      "PP": 8559,
      "awe": 8560,
      "south": 8561,
      "thumbs": 8562,
      "unoriginal": 8563,
      "urge": 8564,
      "props": 8565,
      "nevertheless": 8566,
      "phant": 8567,
      "settle": 8568,
      "Shame": 8569,
      "purchase": 8570,
      "shake": 8571,
      "zzy": 8572,
      "historic": 8573,
      "Times": 8574,
      "Streisand": 8575,
      "practice": 8576,
      "Stevens": 8577,
      "Valent": 8578,
      "southern": 8579,
      "bottle": 8580,
      "Buster": 8581,
      "Miles": 8582,
      "TT": 8583,
      "jaw": 8584,
      "pi": 8585,
      "incompreh": 8586,
      "encour": 8587,
      "excruciating": 8588,
      "quel": 8589,
      "Joy": 8590,
      "nervous": 8591,
      "useful": 8592,
      "Shan": 8593,
      "silence": 8594,
      "advise": 8595,
      "Charlot": 8596,
      "architect": 8597,
      "prompt": 8598,
      "transformation": 8599,
      "similarities": 8600,
      "swing": 8601,
      "roller": 8602,
      "crucial": 8603,
      "homeless": 8604,
      "ASE": 8605,
      "contrary": 8606,
      "translation": 8607,
      "Natal": 8608,
      "website": 8609,
      "Ly": 8610,
      "inane": 8611,
      "bears": 8612,
      "amuse": 8613,
      "persu": 8614,
      "tea": 8615,
      "Recommended": 8616,
      "mentioning": 8617,
      "Scot": 8618,
      "instit": 8619,
      "1972": 8620,
      "signed": 8621,
      "Better": 8622,
      "survived": 8623,
      "Doug": 8624,
      "Raj": 8625,
      "resemblance": 8626,
      "apolog": 8627,
      "Talk": 8628,
      "beneath": 8629,
      "Charlotte": 8630,
      "(..": 8631,
      "Custer": 8632,
      "Mount": 8633,
      "Sab": 8634,
      "Simply": 8635,
      "Vel": 8636,
      "uge": 8637,
      "lips": 8638,
      "amber": 8639,
      "roof": 8640,
      "poser": 8641,
      "preced": 8642,
      "Thus": 8643,
      "blond": 8644,
      "displayed": 8645,
      "ravel": 8646,
      "izations": 8647,
      "enjoys": 8648,
      "bub": 8649,
      "nights": 8650,
      "creativity": 8651,
      "slave": 8652,
      "developing": 8653,
      "Harvey": 8654,
      "ivalent": 8655,
      "Syl": 8656,
      "Sheriff": 8657,
      "resolved": 8658,
      "wealth": 8659,
      "revolutionary": 8660,
      "Nicholson": 8661,
      "Graham": 8662,
      "Spoilers": 8663,
      "deliberately": 8664,
      "Stooges": 8665,
      "22": 8666,
      "Chase": 8667,
      "Either": 8668,
      "Snow": 8669,
      "Shel": 8670,
      "Tw": 8671,
      "hen": 8672,
      "hench": 8673,
      "ole": 8674,
      "sits": 8675,
      "taught": 8676,
      "chann": 8677,
      "liar": 8678,
      "absent": 8679,
      "scapes": 8680,
      "hash": 8681,
      "indic": 8682,
      "overrated": 8683,
      "disappeared": 8684,
      "horrifying": 8685,
      "izable": 8686,
      "pretending": 8687,
      "compar": 8688,
      "masterful": 8689,
      "Perry": 8690,
      "potentially": 8691,
      "crush": 8692,
      "trees": 8693,
      "itors": 8694,
      "Francisco": 8695,
      "dinosaurs": 8696,
      "divorce": 8697,
      "Bronson": 8698,
      "borrowed": 8699,
      "Troma": 8700,
      "ARE": 8701,
      "Gam": 8702,
      "HU": 8703,
      "Hick": 8704,
      "Mind": 8705,
      "Orig": 8706,
      "Scr": 8707,
      "tends": 8708,
      "inf": 8709,
      "uled": 8710,
      "guided": 8711,
      "affl": 8712,
      "joined": 8713,
      "Sheen": 8714,
      "directs": 8715,
      "drawing": 8716,
      "patri": 8717,
      "climactic": 8718,
      "ushing": 8719,
      "1930s": 8720,
      "rocket": 8721,
      "correctly": 8722,
      "hideous": 8723,
      "Tyler": 8724,
      "Falk": 8725,
      "astound": 8726,
      "Baldwin": 8727,
      "Hack": 8728,
      "Hills": 8729,
      "Var": 8730,
      "eff": 8731,
      "tv": 8732,
      "stir": 8733,
      "league": 8734,
      "whim": 8735,
      "unned": 8736,
      "detract": 8737,
      "posure": 8738,
      "blew": 8739,
      "mato": 8740,
      "cheated": 8741,
      "downhill": 8742,
      "helpless": 8743,
      "subplots": 8744,
      "compens": 8745,
      "campa": 8746,
      "ERE": 8747,
      "glamor": 8748,
      "generated": 8749,
      "hilariously": 8750,
      "Meg": 8751,
      "focusing": 8752,
      "gangsters": 8753,
      "OUT": 8754,
      "arrived": 8755,
      "Garfield": 8756,
      "brutally": 8757,
      "Hammer": 8758,
      "Robinson": 8759,
      "education": 8760,
      "Ellen": 8761,
      "overwhelming": 8762,
      "Friends": 8763,
      "Aug": 8764,
      "Cris": 8765,
      "echo": 8766,
      "lic": 8767,
      "brid": 8768,
      "vell": 8769,
      "trav": 8770,
      "nod": 8771,
      "igner": 8772,
      "gio": 8773,
      "couples": 8774,
      "relations": 8775,
      "staring": 8776,
      "reflection": 8777,
      "capturing": 8778,
      "splatter": 8779,
      "Jeffrey": 8780,
      "puppets": 8781,
      "advertising": 8782,
      "bidden": 8783,
      "choreo": 8784,
      "Watson": 8785,
      "guests": 8786,
      "Furthermore": 8787,
      "Southern": 8788,
      "Usually": 8789,
      "Absolutely": 8790,
      "Miyazaki": 8791,
      "Town": 8792,
      "Wag": 8793,
      "gall": 8794,
      "stark": 8795,
      "elo": 8796,
      "pops": 8797,
      "blank": 8798,
      "parties": 8799,
      "rake": 8800,
      "heading": 8801,
      "Price": 8802,
      "loaded": 8803,
      "progresses": 8804,
      "formulaic": 8805,
      "buffs": 8806,
      "thology": 8807,
      "adorable": 8808,
      "helicopter": 8809,
      "mile": 8810,
      "stilted": 8811,
      "chor": 8812,
      "acies": 8813,
      "ulty": 8814,
      "bog": 8815,
      "underlying": 8816,
      "understated": 8817,
      "monot": 8818,
      "possibilities": 8819,
      "covering": 8820,
      "guessed": 8821,
      "Elvis": 8822,
      "rendition": 8823,
      "suggested": 8824,
      "Jesse": 8825,
      "patients": 8826,
      "nostalgia": 8827,
      "Phillip": 8828,
      "astron": 8829,
      "Lemmon": 8830,
      "abysmal": 8831,
      "\"!": 8832,
      "COM": 8833,
      "Fear": 8834,
      "Gib": 8835,
      "Kaz": 8836,
      "Os": 8837,
      "amo": 8838,
      "fought": 8839,
      "recycl": 8840,
      "irrelevant": 8841,
      "sust": 8842,
      "span": 8843,
      "vibr": 8844,
      "nightmares": 8845,
      "Warren": 8846,
      "treats": 8847,
      "Quaid": 8848,
      "boarding": 8849,
      "proceeds": 8850,
      "pitiful": 8851,
      "principal": 8852,
      "Truly": 8853,
      "riveting": 8854,
      "marketing": 8855,
      "Gabriel": 8856,
      "ingredients": 8857,
      "Several": 8858,
      "illogical": 8859,
      "channels": 8860,
      "Cher": 8861,
      "Es": 8862,
      "Lone": 8863,
      "Mas": 8864,
      "egg": 8865,
      "mp": 8866,
      "ninja": 8867,
      "aling": 8868,
      "acid": 8869,
      "ooby": 8870,
      "illusion": 8871,
      "exchange": 8872,
      "seeks": 8873,
      "grasp": 8874,
      "ett": 8875,
      "offs": 8876,
      "fundam": 8877,
      "desired": 8878,
      "closet": 8879,
      "conditions": 8880,
      "schlock": 8881,
      "engross": 8882,
      "alongside": 8883,
      "wished": 8884,
      "undance": 8885,
      "NOTHING": 8886,
      "Everybody": 8887,
      "facing": 8888,
      "Luci": 8889,
      "Harold": 8890,
      "trashy": 8891,
      "flop": 8892,
      "Felix": 8893,
      "appropriately": 8894,
      "transc": 8895,
      "Carradine": 8896,
      "wounded": 8897,
      "intimate": 8898,
      "Timo": 8899,
      "rupted": 8900,
      "Considering": 8901,
      "inferior": 8902,
      "Huston": 8903,
      "legitim": 8904,
      "BL": 8905,
      "Duck": 8906,
      "Got": 8907,
      "OD": 8908,
      "tad": 8909,
      "wore": 8910,
      "zer": 8911,
      "arity": 8912,
      "heat": 8913,
      "acious": 8914,
      "endure": 8915,
      "cancel": 8916,
      "optim": 8917,
      "hyper": 8918,
      "understandable": 8919,
      "eryl": 8920,
      "futuristic": 8921,
      "boxing": 8922,
      "matches": 8923,
      "Major": 8924,
      "Secondly": 8925,
      "cabin": 8926,
      "citizens": 8927,
      "Frost": 8928,
      "Opera": 8929,
      "Crawford": 8930,
      "undoubtedly": 8931,
      "AF": 8932,
      "Aff": 8933,
      "Adri": 8934,
      "Bam": 8935,
      "Line": 8936,
      "Lev": 8937,
      "Pay": 8938,
      "Sold": 8939,
      "rang": 8940,
      "warr": 8941,
      "wives": 8942,
      "ela": 8943,
      "rier": 8944,
      "quer": 8945,
      "granted": 8946,
      "tooth": 8947,
      "disappear": 8948,
      "gene": 8949,
      "attitudes": 8950,
      "Neither": 8951,
      "ika": 8952,
      "prisoner": 8953,
      "1968": 8954,
      "1960s": 8955,
      "biased": 8956,
      "frustration": 8957,
      "sneak": 8958,
      "Funny": 8959,
      ",<": 8960,
      "AK": 8961,
      "Bible": 8962,
      "Kin": 8963,
      "Spain": 8964,
      "aes": 8965,
      "jac": 8966,
      "nons": 8967,
      "oples": 8968,
      "sest": 8969,
      "tank": 8970,
      "thread": 8971,
      "static": 8972,
      "contrad": 8973,
      "olves": 8974,
      "olds": 8975,
      "lowest": 8976,
      "strang": 8977,
      "ems": 8978,
      "laughably": 8979,
      "visiting": 8980,
      "voiced": 8981,
      "namely": 8982,
      "logically": 8983,
      "1996": 8984,
      "Woods": 8985,
      "ritual": 8986,
      "accuracy": 8987,
      "embarrassment": 8988,
      "Title": 8989,
      "corruption": 8990,
      "functional": 8991,
      "Dylan": 8992,
      "guarantee": 8993,
      "Dutch": 8994,
      "hypnot": 8995,
      "grotesque": 8996,
      "Eu": 8997,
      "Rene": 8998,
      "Vie": 8999,
      "WI": 9000,
      "kh": 9001,
      "yelling": 9002,
      "inappropriate": 9003,
      "react": 9004,
      "represented": 9005,
      "mode": 9006,
      "blic": 9007,
      "cream": 9008,
      "coast": 9009,
      "Jews": 9010,
      "Connor": 9011,
      "rett": 9012,
      "Barney": 9013,
      "weakest": 9014,
      "1979": 9015,
      "pattern": 9016,
      "fluff": 9017,
      "species": 9018,
      "Flash": 9019,
      "flir": 9020,
      "slip": 9021,
      "bonus": 9022,
      "reunion": 9023,
      "Naturally": 9024,
      "Iraq": 9025,
      "Timothy": 9026,
      "Fast": 9027,
      "Sud": 9028,
      "TC": 9029,
      "gloss": 9030,
      "nuts": 9031,
      "sappy": 9032,
      "tact": 9033,
      "topless": 9034,
      "forty": 9035,
      "unsettling": 9036,
      "Carly": 9037,
      "pushing": 9038,
      "promises": 9039,
      "sleaze": 9040,
      "Angels": 9041,
      "Corman": 9042,
      "floating": 9043,
      "executive": 9044,
      "trailers": 9045,
      "Party": 9046,
      "eaten": 9047,
      "challenging": 9048,
      "Bullock": 9049,
      "avoided": 9050,
      "seventies": 9051,
      "campaign": 9052,
      "Auss": 9053,
      "Blo": 9054,
      "Gent": 9055,
      "Gover": 9056,
      "Si": 9057,
      "ko": 9058,
      "lun": 9059,
      "pson": 9060,
      "incompetent": 9061,
      "resto": 9062,
      "repul": 9063,
      "behave": 9064,
      "eliness": 9065,
      "neur": 9066,
      "apoc": 9067,
      "condem": 9068,
      "pric": 9069,
      "flag": 9070,
      "jewel": 9071,
      "glim": 9072,
      "discovering": 9073,
      "banned": 9074,
      "judging": 9075,
      "remarkably": 9076,
      "Thompson": 9077,
      "remained": 9078,
      "spread": 9079,
      "nomination": 9080,
      "adolescent": 9081,
      "artificial": 9082,
      "Doc": 9083,
      "Fish": 9084,
      "bable": 9085,
      "bite": 9086,
      "cen": 9087,
      "faster": 9088,
      "pals": 9089,
      "vom": 9090,
      "thugs": 9091,
      "enh": 9092,
      "rian": 9093,
      "mankind": 9094,
      "bye": 9095,
      "aints": 9096,
      "obli": 9097,
      "flood": 9098,
      "newly": 9099,
      "worlds": 9100,
      "comparing": 9101,
      "careful": 9102,
      "ridden": 9103,
      "ysis": 9104,
      "counts": 9105,
      "Colin": 9106,
      "respected": 9107,
      "dropping": 9108,
      "limits": 9109,
      "ypse": 9110,
      "catching": 9111,
      "backgrounds": 9112,
      "historically": 9113,
      "regarded": 9114,
      "Terrible": 9115,
      "beliefs": 9116,
      "senseless": 9117,
      "ethnic": 9118,
      "faults": 9119,
      "kidnap": 9120,
      "motivations": 9121,
      "puppet": 9122,
      "hints": 9123,
      "demanding": 9124,
      "ensues": 9125,
      "swimming": 9126,
      "Bab": 9127,
      "GOOD": 9128,
      "Nathan": 9129,
      "dirt": 9130,
      "winter": 9131,
      "wars": 9132,
      "encies": 9133,
      "oured": 9134,
      "versus": 9135,
      "idents": 9136,
      "outfit": 9137,
      "plod": 9138,
      "exquis": 9139,
      "dod": 9140,
      "agues": 9141,
      "iffer": 9142,
      "astically": 9143,
      "owning": 9144,
      "desp": 9145,
      "Therefore": 9146,
      "Joel": 9147,
      "tripe": 9148,
      "visions": 9149,
      "Leigh": 9150,
      "Newman": 9151,
      "purposes": 9152,
      "Coy": 9153,
      "planes": 9154,
      "LOT": 9155,
      "senses": 9156,
      "opportun": 9157,
      "warmth": 9158,
      "mountains": 9159,
      "www": 9160,
      "global": 9161,
      "nostalgic": 9162,
      "Virginia": 9163,
      "survivors": 9164,
      "vulnerable": 9165,
      "Patricia": 9166,
      ")...": 9167,
      "Aaron": 9168,
      "Bark": 9169,
      "Cut": 9170,
      "Daw": 9171,
      "Eis": 9172,
      "Fans": 9173,
      "Gus": 9174,
      "TE": 9175,
      "ement": 9176,
      "rome": 9177,
      "enlight": 9178,
      "asha": 9179,
      "urai": 9180,
      "bleed": 9181,
      "pride": 9182,
      "tribe": 9183,
      "persons": 9184,
      "closest": 9185,
      "balanced": 9186,
      "dancers": 9187,
      "Directed": 9188,
      "popularity": 9189,
      "desperation": 9190,
      "authority": 9191,
      "educated": 9192,
      "Spock": 9193,
      "hesit": 9194,
      "Dig": 9195,
      "Dress": 9196,
      "Him": 9197,
      "Jol": 9198,
      "Kil": 9199,
      "eves": 9200,
      "inject": 9201,
      "whis": 9202,
      "composer": 9203,
      "exceed": 9204,
      "essa": 9205,
      "akin": 9206,
      "guards": 9207,
      "thru": 9208,
      "!!<": 9209,
      "!!!<": 9210,
      "clock": 9211,
      "simult": 9212,
      "Marshall": 9213,
      "INE": 9214,
      "passable": 9215,
      "amped": 9216,
      "waited": 9217,
      "wishing": 9218,
      "ordered": 9219,
      "checked": 9220,
      "cleverly": 9221,
      "Series": 9222,
      "arrival": 9223,
      "13th": 9224,
      "foolish": 9225,
      "behaviour": 9226,
      "challenged": 9227,
      "Wonderful": 9228,
      "Latin": 9229,
      "elegant": 9230,
      "Jordan": 9231,
      "priceless": 9232,
      "CG": 9233,
      "June": 9234,
      "Kent": 9235,
      "Kyle": 9236,
      "List": 9237,
      "Light": 9238,
      "Meryl": 9239,
      "awhile": 9240,
      "ponder": 9241,
      "resur": 9242,
      "abort": 9243,
      "urity": 9244,
      "blings": 9245,
      "greatness": 9246,
      "pron": 9247,
      "viewings": 9248,
      "performs": 9249,
      "bug": 9250,
      "invited": 9251,
      "Somehow": 9252,
      "refuge": 9253,
      "spoke": 9254,
      "Conrad": 9255,
      "summar": 9256,
      "yesterday": 9257,
      "questionable": 9258,
      "substit": 9259,
      "Judge": 9260,
      "Craven": 9261,
      "minimum": 9262,
      "Writer": 9263,
      "vaguely": 9264,
      "candid": 9265,
      "gifted": 9266,
      "conservative": 9267,
      "Professor": 9268,
      "Cu": 9269,
      "Dur": 9270,
      "Eyes": 9271,
      "Game": 9272,
      "Mos": 9273,
      "Sep": 9274,
      "Zero": 9275,
      "thirst": 9276,
      "keeper": 9277,
      "grate": 9278,
      "showcase": 9279,
      "cratic": 9280,
      "Inspector": 9281,
      "coll": 9282,
      "valuable": 9283,
      "Sea": 9284,
      "rude": 9285,
      "Pete": 9286,
      "skate": 9287,
      "wax": 9288,
      "purchased": 9289,
      "dreary": 9290,
      "Scooby": 9291,
      "1983": 9292,
      "appreciation": 9293,
      "equivalent": 9294,
      "introduce": 9295,
      "depicting": 9296,
      "affic": 9297,
      "tunes": 9298,
      "Maggie": 9299,
      "custom": 9300,
      "experimental": 9301,
      "Waters": 9302,
      "Pictures": 9303,
      "Turkish": 9304,
      "23": 9305,
      "AG": 9306,
      "HH": 9307,
      "Ind": 9308,
      "Rent": 9309,
      "Tat": 9310,
      "Vol": 9311,
      "bins": 9312,
      "museum": 9313,
      "rene": 9314,
      "ables": 9315,
      "aghett": 9316,
      "eller": 9317,
      "cancer": 9318,
      "matically": 9319,
      "controlled": 9320,
      "collap": 9321,
      "ixon": 9322,
      "traits": 9323,
      "Should": 9324,
      "barrel": 9325,
      "Luc": 9326,
      "ketball": 9327,
      "1997": 9328,
      "Poss": 9329,
      "kicking": 9330,
      "Austin": 9331,
      "recognizable": 9332,
      "defense": 9333,
      "sensu": 9334,
      "Foxx": 9335,
      "safety": 9336,
      "bumbling": 9337,
      "educational": 9338,
      "NYC": 9339,
      "ignorant": 9340,
      "austroph": 9341,
      "indulgent": 9342,
      "95": 9343,
      ":-": 9344,
      "Battle": 9345,
      "Cook": 9346,
      "Core": 9347,
      "Gere": 9348,
      "Gos": 9349,
      "Lie": 9350,
      "luster": 9351,
      "assure": 9352,
      "modest": 9353,
      "unreal": 9354,
      "wrap": 9355,
      "relatives": 9356,
      "landing": 9357,
      "lasting": 9358,
      "Carmen": 9359,
      "bands": 9360,
      "Christie": 9361,
      "Scary": 9362,
      "rising": 9363,
      "Marty": 9364,
      "dressing": 9365,
      "cracking": 9366,
      "rotten": 9367,
      "Classic": 9368,
      "tiresome": 9369,
      "Bernard": 9370,
      "3000": 9371,
      "Ele": 9372,
      "Rings": 9373,
      "cens": 9374,
      "tub": 9375,
      "yl": 9376,
      "zes": 9377,
      "Theater": 9378,
      "alled": 9379,
      "dose": 9380,
      "boom": 9381,
      "grass": 9382,
      "umm": 9383,
      "claustroph": 9384,
      "creen": 9385,
      "Stay": 9386,
      "hys": 9387,
      "secondary": 9388,
      "deni": 9389,
      "refused": 9390,
      "promised": 9391,
      "transition": 9392,
      "ATE": 9393,
      "resulting": 9394,
      "Ernest": 9395,
      "miniseries": 9396,
      "Spacey": 9397,
      "Diana": 9398,
      "Nicholas": 9399,
      "Central": 9400,
      "wandering": 9401,
      "Nolan": 9402,
      "choreographed": 9403,
      "Ritter": 9404,
      "kne": 9405,
      "ueless": 9406,
      "wrench": 9407,
      "lee": 9408,
      "leans": 9409,
      "champion": 9410,
      "acles": 9411,
      "unfair": 9412,
      "haust": 9413,
      "visits": 9414,
      "nerd": 9415,
      "Beth": 9416,
      "Wells": 9417,
      "bargain": 9418,
      "teaches": 9419,
      "expressed": 9420,
      "greed": 9421,
      "reaching": 9422,
      "adaptations": 9423,
      "Romero": 9424,
      "detect": 9425,
      "Aliens": 9426,
      "anoia": 9427,
      "incomprehensible": 9428,
      "Apr": 9429,
      "Cool": 9430,
      "Div": 9431,
      "OW": 9432,
      "Stra": 9433,
      "UE": 9434,
      "uated": 9435,
      "vak": 9436,
      "zard": 9437,
      "theart": 9438,
      "ona": 9439,
      "encourage": 9440,
      "forcing": 9441,
      "sume": 9442,
      "shod": 9443,
      "deaf": 9444,
      "este": 9445,
      "quit": 9446,
[...]
