<unk>	0
<s>	0
</s>	0
<pad>	0
[CLS]	0
[SEP]	0
[MASK]	0
▁t	-0
▁a	-1
he	-2
in	-3
▁the	-4
▁s	-5
re	-6
▁w	-7
▁o	-8
is	-9
er	-10
nd	-11
▁m	-12
▁f	-13
▁b	-14
it	-15
ha	-16
ing	-17
▁c	-18
en	-19
es	-20
or	-21
ou	-22
on	-23
ll	-24
▁and	-25
▁of	-26
▁to	-27
▁p	-28
▁d	-29
ed	-30
an	-31
at	-32
▁in	-33
▁l	-34
ar	-35
as	-36
▁I	-37
om	-38
▁is	-39
his	-40
br	-41
▁g	-42
ic	-43
▁/	-44
▁/>	-45
le	-46
▁e	-47
ot	-48
hat	-49
▁n	-50
ut	-51
▁it	-52
st	-53
ct	-54
il	-55
al	-56
▁T	-57
▁be	-58
ie	-59
▁mo	-60
ve	-61
ly	-62
▁ha	-63
▁on	-64
ho	-65
▁re	-66
▁that	-67
ver	-68
▁this	-69
ent	-70
ra	-71
ion	-72
▁he	-73
im	-74
se	-75
▁st	-76
ay	-77
et	-78
gh	-79
▁mov	-80
▁was	-81
id	-82
▁y	-83
▁/><	-84
ilm	-85
ith	-86
▁film	-87
ad	-88
▁for	-89
▁A	-90
ro	-91
ch	-92
▁u	-93
all	-94
▁as	-95
ce	-96
ke	-97
▁movie	-98
ld	-99
▁an	-100
▁with	-101
▁S	-102
▁se	-103
▁The	-104
oo	-105
▁you	-106
▁h	-107
ir	-108
ow	-109
.<	-110
ri	-111
▁th	-112
am	-113
▁B	-114
her	-115
▁li	-116
▁but	-117
▁M	-118
▁not	-119
ur	-120
▁we	-121
ally	-122
ill	-123
ter	-124
▁(	-125
▁"	-126
▁C	-127
ck	-128
▁H	-129
▁are	-130
..	-131
ome	-132
▁W	-133
pe	-134
ould	-135
ers	-136
▁at	-137
▁his	-138
▁have	-139
ul	-140
▁D	-141
ght	-142
un	-143
ust	-144
if	-145
▁sc	-146
▁j	-147
em	-148
▁su	-149
▁act	-150
out	-151
▁do	-152
▁fr	-153
ble	-154
▁one	-155
▁ex	-156
▁who	-157
ain	-158
ess	-159
very	-160
▁k	-161
▁so	-162
el	-163
▁pl	-164
▁com	-165
▁all	-166
ood	-167
ies	-168
▁ab	-169
how	-170
art	-171
pp	-172
us	-173
▁cha	-174
ant	-175
▁al	-176
▁by	-177
ag	-178
▁v	-179
ak	-180
ol	-181
est	-182
▁wh	-183
ous	-184
▁de	-185
▁P	-186
▁wor	-187
▁like	-188
▁R	-189
▁L	-190
one	-191
▁F	-192
▁they	-193
▁from	-194
▁out	-195
op	-196
ast	-197
▁ne	-198
ist	-199
and	-200
▁some	-201
ven	-202
th	-203
▁whe	-204
▁or	-205
▁int	-206
qu	-207
▁G	-208
fe	-209
▁J	-210
au	-211
▁It	-212
ough	-213
red	-214
um	-215
ation	-216
▁con	-217
▁me	-218
▁r	-219
▁just	-220
▁her	-221
▁about	-222
▁has	-223
ract	-224
ory	-225
ind	-226
res	-227
▁N	-228
▁pro	-229
ive	-230
▁can	-231
ort	-232
▁tim	-233
ack	-234
ate	-235
pt	-236
os	-237
▁E	-238
▁un	-239
reat	-240
ud	-241
▁wat	-242
▁good	-243
ig	-244
ire	-245
ake	-246
▁O	-247
▁charact	-248
▁le	-249
ight	-250
▁any	-251
▁lo	-252
ook	-253
ong	-254
▁man	-255
han	-256
▁get	-257
▁up	-258
▁more	-259
▁see	-260
ich	-261
▁go	-262
▁very	-263
▁my	-264
▁what	-265
▁would	-266
▁no	-267
▁fe	-268
The	-269
ound	-270
ry	-271
ity	-272
▁This	-273
▁sh	-274
▁there	-275
ther	-276
▁fa	-277
ite	-278
▁story	-279
nt	-280
ge	-281
ide	-282
▁time	-283
od	-284
▁bec	-285
▁1	-286
ard	-287
▁en	-288
hing	-289
ame	-290
▁when	-291
▁really	-292
▁-	-293
▁watch	-294
oy	-295
▁she	-296
▁were	-297
▁if	-298
▁had	-299
▁show	-300
▁scen	-301
able	-302
▁only	-303
lf	-304
ure	-305
ci	-306
ell	-307
itt	-308
ink	-309
▁even	-310
▁their	-311
ore	-312
▁other	-313
ick	-314
▁K	-315
▁per	-316
so	-317
▁did	-318
▁cl	-319
pl	-320
▁kn	-321
ine	-322
▁which	-323
man	-324
▁him	-325
ond	-326
our	-327
▁them	-328
▁than	-329
te	-330
▁end	-331
ment	-332
uch	-333
ious	-334
og	-335
ab	-336
...	-337
▁does	-338
▁great	-339
ars	-340
▁pe	-341
ru	-342
ays	-343
▁bad	-344
ause	-345
ves	-346
▁bet	-347
▁much	-348
▁look	-349
ade	-350
are	-351
ice	-352
▁could	-353
ople	-354
▁qu	-355
irect	-356
▁will	-357
▁been	-358
ert	-359
irst	-360
▁how	-361
ple	-362
▁ar	-363
▁over	-364
▁po	-365
▁im	-366
▁well	-367
▁pre	-368
▁think	-369
▁people	-370
ne	-371
▁ro	-372
▁know	-373
ence	-374
▁most	-375
▁into	-376
ass	-377
per	-378
int	-379
▁tw	-380
▁too	-381
for	-382
▁because	-383
ng	-384
other	-385
▁dis	-386
▁ad	-387
▁every	-388
age	-389
▁am	-390
ful	-391
▁us	-392
▁make	-393
ff	-394
ors	-395
▁ag	-396
ac	-397
▁fun	-398
▁made	-399
▁real	-400
▁thing	-401
fter	-402
▁direct	-403
ny	-404
▁part	-405
▁first	-406
▁off	-407
▁movies	-408
▁sa	-409
ull	-410
ish	-411
▁way	-412
ile	-413
ving	-414
▁don	-415
ere	-416
ty	-417
ict	-418
▁also	-419
▁wr	-420
▁'	-421
▁gu	-422
▁seem	-423
ian	-424
ep	-425
ary	-426
▁characters	-427
ap	-428
oll	-429
▁character	-430
iew	-431
▁its	-432
▁mak	-433
wn	-434
gin	-435
▁sp	-436
ical	-437
▁work	-438
▁bl	-439
▁Y	-440
▁seen	-441
ress	-442
ually	-443
▁plot	-444
ated	-445
hed	-446
ue	-447
▁te	-448
ob	-449
▁films	-450
▁And	-451
▁fl	-452
▁your	-453
fect	-454
▁play	-455
ial	-456
pect	-457
ces	-458
cc	-459
▁want	-460
▁then	-461
▁acting	-462
self	-463
▁V	-464
iz	-465
▁ye	-466
omet	-467
▁love	-468
▁aw	-469
ost	-470
▁But	-471
ittle	-472
▁say	-473
▁many	-474
▁being	-475
▁ser	-476
me	-477
ved	-478
rough	-479
get	-480
▁ho	-481
▁never	-482
▁after	-483
▁In	-484
▁two	-485
nder	-486
).	-487
mer	-488
),	-489
ran	-490
▁<	-491
▁best	-492
▁ever	-493
▁ent	-494
own	-495
▁He	-496
urn	-497
ens	-498
▁through	-499
▁little	-500
▁life	-501
▁where	-502
▁back	-503
ip	-504
▁hor	-505
!!	-506
▁somet	-507
▁better	-508
▁rem	-509
▁rec	-510
ark	-511
du	-512
ult	-513
ily	-514
ild	-515
▁i	-516
ever	-517
ris	-518
hy	-519
ber	-520
we	-521
▁des	-522
▁ra	-523
ach	-524
ather	-525
ought	-526
vel	-527
ace	-528
▁should	-529
▁St	-530
be	-531
thing	-532
ction	-533
▁perfor	-534
▁find	-535
ual	-536
▁spe	-537
▁scene	-538
les	-539
iend	-540
ertain	-541
▁2	-542
▁sl	-543
▁scenes	-544
▁br	-545
▁min	-546
▁There	-547
▁feel	-548
vers	-549
▁U	-550
lie	-551
less	-552
▁ch	-553
▁under	-554
erest	-555
ting	-556
▁att	-557
▁still	-558
▁again	-559
hose	-560
▁cont	-561
▁ri	-562
ents	-563
▁tra	-564
igh	-565
ree	-566
▁here	-567
▁interest	-568
▁something	-569
▁lot	-570
ance	-571
ren	-572
ning	-573
ense	-574
fore	-575
▁kill	-576
rd	-577
▁happ	-578
ia	-579
rap	-580
▁inc	-581
▁such	-582
▁19	-583
ating	-584
ason	-585
▁may	-586
ions	-587
ations	-588
ably	-589
▁these	-590
▁old	-591
▁If	-592
augh	-593
▁imp	-594
▁cast	-595
▁watching	-596
arly	-597
▁performan	-598
ase	-599
▁sur	-600
joy	-601
▁hum	-602
▁Al	-603
▁actors	-604
ror	-605
up	-606
the	-607
▁mus	-608
▁funny	-609
reen	-610
ans	-611
alk	-612
▁gi	-613
▁doesn	-614
▁didn	-615
ise	-616
▁che	-617
▁those	-618
sp	-619
▁fam	-620
▁enjoy	-621
▁guy	-622
ater	-623
▁point	-624
▁years	-625
▁gir	-626
iv	-627
▁sim	-628
▁dec	-629
▁ap	-630
▁wom	-631
▁gen	-632
▁try	-633
▁cou	-634
▁belie	-635
edy	-636
ute	-637
▁view	-638
▁makes	-639
ffect	-640
▁start	-641
▁set	-642
oth	-643
▁going	-644
erson	-645
▁fact	-646
▁few	-647
▁tru	-648
▁actually	-649
▁down	-650
▁same	-651
▁pret	-652
▁pr	-653
▁comp	-654
az	-655
▁got	-656
▁Jo	-657
ps	-658
▁ob	-659
▁before	-660
rit	-661
oss	-662
▁thought	-663
▁dra	-664
▁tak	-665
--	-666
iss	-667
▁long	-668
▁ter	-669
ath	-670
▁produ	-671
▁fin	-672
▁exce	-673
oc	-674
**	-675
cial	-676
▁young	-677
▁sub	-678
ript	-679
der	-680
▁Ch	-681
▁em	-682
▁big	-683
▁bit	-684
rigin	-685
▁ke	-686
▁ev	-687
▁why	-688
ience	-689
li	-690
▁now	-691
▁director	-692
▁dif	-693
ft	-694
ang	-695
▁though	-696
▁while	-697
av	-698
ale	-699
▁nothing	-700
ect	-701
aw	-702
▁tri	-703
ons	-704
▁origin	-705
aut	-706
▁supp	-707
ub	-708
▁friend	-709
hen	-710
▁own	-711
▁turn	-712
▁sm	-713
ible	-714
▁new	-715
▁pretty	-716
▁girl	-717
▁another	-718
ince	-719
▁comple	-720
de	-721
onder	-722
▁quite	-723
ched	-724
iting	-725
▁effect	-726
ose	-727
rent	-728
▁res	-729
▁rel	-730
ave	-731
▁things	-732
▁inv	-733
▁around	-734
▁script	-735
▁seems	-736
▁enough	-737
act	-738
ways	-739
▁As	-740
ings	-741
▁app	-742
▁screen	-743
most	-744
▁co	-745
ew	-746
▁hard	-747
▁kid	-748
00	-749
▁high	-750
meric	-751
▁far	-752
▁right	-753
▁need	-754
ib	-755
▁original	-756
▁give	-757
ically	-758
ween	-759
ced	-760
▁music	-761
▁gr	-762
ster	-763
rill	-764
▁world	-765
ness	-766
ign	-767
▁must	-768
▁kind	-769
▁tr	-770
▁saw	-771
▁wonder	-772
▁person	-773
▁acc	-774
▁take	-775
▁You	-776
utes	-777
inem	-778
▁horror	-779
ention	-780
▁sha	-781
ately	-782
ks	-783
▁She	-784
▁between	-785
▁es	-786
ead	-787
▁times	-788
▁role	-789
▁interesting	-790
▁appe	-791
▁reason	-792
▁comedy	-793
▁isn	-794
▁&	-795
▁gets	-796
▁whole	-797
▁op	-798
▁always	-799
▁action	-800
▁sec	-801
▁series	-802
ock	-803
vious	-804
ward	-805
▁least	-806
▁bu	-807
▁put	-808
",	-809
▁sex	-810
▁How	-811
▁read	-812
app	-813
rible	-814
hes	-815
icul	-816
▁main	-817
▁class	-818
▁done	-819
▁beaut	-820
▁tell	-821
▁mom	-822
▁Americ	-823
▁sound	-824
▁expect	-825
▁laugh	-826
ody	-827
▁ep	-828
ord	-829
ma	-830
▁child	-831
▁lead	-832
▁come	-833
▁worth	-834
row	-835
▁They	-836
its	-837
here	-838
▁minutes	-839
▁hel	-840
▁bas	-841
ife	-842
view	-843
▁might	-844
▁almost	-845
▁without	-846
▁sho	-847
▁cinem	-848
ok	-849
▁cam	-850
ully	-851
▁both	-852
▁ide	-853
gg	-854
hn	-855
ray	-856
bably	-857
▁bo	-858
▁complete	-859
▁shot	-860
▁diffe	-861
ash	-862
ines	-863
stand	-864
ner	-865
▁anything	-866
xt	-867
▁last	-868
▁3	-869
▁hand	-870
mend	-871
▁book	-872
▁family	-873
▁entertain	-874
▁performance	-875
ouse	-876
though	-877
ime	-878
▁expl	-879
cially	-880
▁aud	-881
uring	-882
".	-883
▁care	-884
▁TV	-885
▁war	-886
▁An	-887
pris	-888
▁found	-889
ialog	-890
▁begin	-891
▁cle	-892
▁since	-893
▁cons	-894
oney	-895
▁inst	-896
▁What	-897
▁cour	-898
ov	-899
▁el	-900
VD	-901
▁dialog	-902
ograp	-903
era	-904
▁10	-905
▁call	-906
This	-907
▁away	-908
▁probably	-909
▁worst	-910
▁sure	-911
▁ext	-912
▁car	-913
pecially	-914
▁DVD	-915
ail	-916
isod	-917
son	-918
▁sequ	-919
led	-920
ros	-921
ER	-922
ures	-923
▁art	-924
oint	-925
▁lik	-926
ative	-927
▁run	-928
ommend	-929
▁let	-930
aster	-931
▁abs	-932
ret	-933
arr	-934
▁woman	-935
als	-936
▁episod	-937
ms	-938
ling	-939
▁poor	-940
▁happen	-941
▁anyone	-942
ane	-943
▁cr	-944
co	-945
▁believe	-946
▁add	-947
wood	-948
▁chan	-949
▁bor	-950
▁rather	-951
▁So	-952
▁Be	-953
▁ins	-954
▁keep	-955
▁making	-956
▁mean	-957
ten	-958
apt	-959
▁beautif	-960
▁mat	-961
▁vers	-962
▁Se	-963
ither	-964
osed	-965
▁trying	-966
ition	-967
▁different	-968
▁course	-969
▁John	-970
▁De	-971
▁each	-972
▁recommend	-973
▁job	-974
▁ending	-975
."	-976
▁surpris	-977
▁mind	-978
▁watched	-979
umb	-980
▁our	-981
fin	-982
olly	-983
▁del	-984
istic	-985
dd	-986
ingly	-987
▁ty	-988
▁That	-989
▁shows	-990
▁played	-991
iece	-992
ont	-993
▁Not	-994
▁fan	-995
▁help	-996
ject	-997
▁cre	-998
▁goes	-999
▁short	-1000
hip	-1001
ollow	-1002
▁sense	-1003
▁comes	-1004
▁We	-1005
sc	-1006
▁boy	-1007
ney	-1008
....	-1009
ments	-1010
▁perfect	-1011
ilar	-1012
▁wasn	-1013
It	-1014
▁money	-1015
uck	-1016
▁place	-1017
▁rest	-1018
▁day	-1019
▁gra	-1020
ics	-1021
rist	-1022
▁less	-1023
▁effects	-1024
▁stand	-1025
▁actor	-1026
llent	-1027
▁inter	-1028
ality	-1029
icha	-1030
leas	-1031
empt	-1032
read	-1033
▁super	-1034
▁half	-1035
▁proble	-1036
▁looking	-1037
arent	-1038
way	-1039
▁yet	-1040
▁port	-1041
▁plays	-1042
▁fav	-1043
▁mem	-1044
▁pol	-1045
▁looks	-1046
▁Re	-1047
▁gl	-1048
▁sit	-1049
ortun	-1050
▁ac	-1051
▁creat	-1052
▁pres	-1053
lud	-1054
▁understand	-1055
gether	-1056
▁together	-1057
ream	-1058
▁low	-1059
▁certain	-1060
▁review	-1061
▁miss	-1062
▁Cha	-1063
▁TH	-1064
▁else	-1065
▁follow	-1066
▁conf	-1067
▁For	-1068
▁Le	-1069
ates	-1070
upid	-1071
10	-1072
▁someone	-1073
udget	-1074
ident	-1075
▁head	-1076
ism	-1077
▁said	-1078
▁nice	-1079
▁having	-1080
▁All	-1081
cing	-1082
io	-1083
▁dep	-1084
▁special	-1085
arn	-1086
▁Bl	-1087
▁Sc	-1088
▁second	-1089
▁true	-1090
▁audience	-1091
ues	-1092
▁friends	-1093
ied	-1094
▁When	-1095
▁ed	-1096
day	-1097
▁especially	-1098
▁takes	-1099
▁excellent	-1100
ted	-1101
not	-1102
▁night	-1103
land	-1104
▁mon	-1105
▁imag	-1106
ah	-1107
0'	-1108
▁version	-1109
▁idea	-1110
▁poss	-1111
ix	-1112
uff	-1113
ex	-1114
▁Th	-1115
▁came	-1116
hool	-1117
▁exc	-1118
▁seeing	-1119
▁left	-1120
▁beautiful	-1121
▁three	-1122
▁hour	-1123
▁talk	-1124
▁fall	-1125
ollywood	-1126
▁American	-1127
▁everything	-1128
appoint	-1129
▁stupid	-1130
cept	-1131
▁invol	-1132
ired	-1133
▁obvious	-1134
ames	-1135
ited	-1136
ists	-1137
▁tot	-1138
ply	-1139
▁str	-1140
▁himself	-1141
old	-1142
ery	-1143
ross	-1144
▁ey	-1145
atic	-1146
▁vis	-1147
▁use	-1148
ional	-1149
▁remem	-1150
reak	-1151
▁entire	-1152
▁wife	-1153
▁disappoint	-1154
▁everyone	-1155
▁sk	-1156
hile	-1157
▁cho	-1158
ins	-1159
▁tal	-1160
▁det	-1161
▁My	-1162
olute	-1163
ird	-1164
ier	-1165
▁sing	-1166
▁lack	-1167
▁feat	-1168
▁Sp	-1169
▁comm	-1170
▁Rob	-1171
sy	-1172
my	-1173
▁during	-1174
▁dist	-1175
▁year	-1176
▁mur	-1177
att	-1178
▁completely	-1179
ides	-1180
▁Un	-1181
atch	-1182
▁home	-1183
▁once	-1184
ared	-1185
fully	-1186
▁4	-1187
▁used	-1188
▁exper	-1189
ower	-1190
▁production	-1191
▁later	-1192
▁attempt	-1193
▁portray	-1194
like	-1195
omb	-1196
▁fight	-1197
ount	-1198
▁cop	-1199
▁mar	-1200
med	-1201
ien	-1202
▁defin	-1203
▁cra	-1204
▁serious	-1205
▁ele	-1206
▁men	-1207
▁ph	-1208
but	-1209
ove	-1210
▁unt	-1211
▁sty	-1212
ool	-1213
air	-1214
ideo	-1215
ography	-1216
▁hist	-1217
▁boring	-1218
▁One	-1219
▁stud	-1220
▁ass	-1221
▁Cl	-1222
▁father	-1223
iol	-1224
▁top	-1225
▁death	-1226
lease	-1227
▁simply	-1228
▁Ste	-1229
orn	-1230
▁anim	-1231
▁song	-1232
▁wrong	-1233
▁word	-1234
ote	-1235
▁At	-1236
▁absolute	-1237
▁performances	-1238
▁tit	-1239
▁loc	-1240
iter	-1241
▁kids	-1242
▁mess	-1243
/10	-1244
▁Hollywood	-1245
▁open	-1246
ork	-1247
▁pict	-1248
▁gener	-1249
ying	-1250
▁exp	-1251
ger	-1252
▁along	-1253
ott	-1254
▁human	-1255
▁heart	-1256
▁line	-1257
▁Ar	-1258
itten	-1259
▁school	-1260
▁8	-1261
▁supposed	-1262
ider	-1263
ets	-1264
itely	-1265
▁includ	-1266
▁classic	-1267
▁either	-1268
▁flick	-1269
▁star	-1270
▁ret	-1271
▁sy	-1272
vin	-1273
▁budget	-1274
▁rep	-1275
▁5	-1276
▁humor	-1277
▁favor	-1278
▁camera	-1279
▁small	-1280
▁couple	-1281
▁fail	-1282
▁hope	-1283
fic	-1284
▁However	-1285
▁--	-1286
▁emot	-1287
ains	-1288
elt	-1289
▁count	-1290
cy	-1291
▁No	-1292
▁eas	-1293
idd	-1294
▁Mar	-1295
▁black	-1296
▁Man	-1297
▁women	-1298
vis	-1299
▁awful	-1300
▁amaz	-1301
iant	-1302
▁Christ	-1303
▁sad	-1304
▁rom	-1305
ters	-1306
▁truly	-1307
haps	-1308
▁won	-1309
▁wa	-1310
tern	-1311
▁exam	-1312
▁pass	-1313
com	-1314
▁moments	-1315
▁light	-1316
▁given	-1317
▁hat	-1318
▁until	-1319
▁ind	-1320
▁remember	-1321
▁sort	-1322
▁conc	-1323
▁getting	-1324
oon	-1325
▁terrible	-1326
▁full	-1327
▁particul	-1328
velop	-1329
▁Car	-1330
fortun	-1331
▁cred	-1332
▁viol	-1333
ize	-1334
▁itself	-1335
IN	-1336
▁name	-1337
▁house	-1338
▁instead	-1339
aring	-1340
▁Well	-1341
▁becom	-1342
▁episode	-1343
ities	-1344
play	-1345
sel	-1346
▁guess	-1347
▁wonderful	-1348
▁except	-1349
▁pain	-1350
▁hero	-1351
ike	-1352
▁video	-1353
na	-1354
orm	-1355
▁talent	-1356
uth	-1357
▁7	-1358
iness	-1359
▁lines	-1360
que	-1361
▁dialogue	-1362
▁doing	-1363
ric	-1364
▁liked	-1365
▁piece	-1366
▁couldn	-1367
▁playing	-1368
ton	-1369
▁next	-1370
▁Don	-1371
▁slow	-1372
▁On	-1373
▁Mr	-1374
▁.	-1375
rom	-1376
▁went	-1377
mak	-1378
illy	-1379
ories	-1380
ently	-1381
ax	-1382
▁9	-1383
▁coll	-1384
▁gives	-1385
reme	-1386
ming	-1387
ug	-1388
ument	-1389
imes	-1390
▁rent	-1391
▁entertaining	-1392
▁mother	-1393
riend	-1394
itch	-1395
aj	-1396
▁reg	-1397
▁others	-1398
line	-1399
ility	-1400
▁brill	-1401
▁Fran	-1402
▁stars	-1403
▁however	-1404
cess	-1405
▁dri	-1406
▁impress	-1407
▁face	-1408
▁often	-1409
▁ann	-1410
mp	-1411
▁waste	-1412
oot	-1413
▁early	-1414
▁maybe	-1415
▁THE	-1416
▁absolutely	-1417
▁cor	-1418
ibly	-1419
▁Jack	-1420
▁develop	-1421
▁live	-1422
▁felt	-1423
▁cut	-1424
oid	-1425
▁worse	-1426
ured	-1427
▁dead	-1428
▁Will	-1429
ony	-1430
▁definitely	-1431
▁children	-1432
ley	-1433
▁case	-1434
,"	-1435
tic	-1436
amp	-1437
▁tran	-1438
▁loved	-1439
vent	-1440
▁power	-1441
ler	-1442
▁actress	-1443
▁close	-1444
ized	-1445
▁style	-1446
▁rid	-1447
round	-1448
yn	-1449
▁mention	-1450
▁title	-1451
body	-1452
▁pat	-1453
right	-1454
▁mis	-1455
▁beginning	-1456
▁strong	-1457
▁become	-1458
▁relations	-1459
▁guys	-1460
▁dark	-1461
▁z	-1462
▁quest	-1463
used	-1464
▁seemed	-1465
ts	-1466
▁written	-1467
▁ref	-1468
▁fant	-1469
uss	-1470
▁Dav	-1471
▁Some	-1472
▁certainly	-1473
oub	-1474
▁problem	-1475
▁Even	-1476
▁After	-1477
und	-1478
ined	-1479
lish	-1480
▁side	-1481
In	-1482
▁pred	-1483
▁sever	-1484
▁brilliant	-1485
▁vo	-1486
enn	-1487
hol	-1488
▁extreme	-1489
ccess	-1490
vable	-1491
▁drama	-1492
unk	-1493
▁thrill	-1494
▁several	-1495
▁picture	-1496
unch	-1497
▁totally	-1498
▁form	-1499
ular	-1500
▁cinema	-1501
▁wanted	-1502
▁direction	-1503
pped	-1504
ank	-1505
▁New	-1506
pite	-1507
by	-1508
cha	-1509
▁To	-1510
▁et	-1511
ready	-1512
ichael	-1513
fortunately	-1514
rew	-1515
▁past	-1516
selves	-1517
▁somew	-1518
??	-1519
▁master	-1520
▁relationship	-1521
▁sw	-1522
▁adm	-1523
▁fans	-1524
!<	-1525
ung	-1526
ific	-1527
▁quality	-1528
▁pop	-1529
▁example	-1530
▁Eng	-1531
ided	-1532
▁lives	-1533
▁against	-1534
▁already	-1535
▁fine	-1536
gu	-1537
▁av	-1538
▁called	-1539
▁His	-1540
iam	-1541
▁Har	-1542
aughter	-1543
▁game	-1544
▁deser	-1545
ump	-1546
▁Is	-1547
▁blood	-1548
▁although	-1549
▁enjoyed	-1550
▁success	-1551
▁stuff	-1552
▁char	-1553
▁comment	-1554
▁able	-1555
▁tou	-1556
▁support	-1557
▁writing	-1558
▁doc	-1559
▁Mc	-1560
rop	-1561
▁nat	-1562
ried	-1563
▁deal	-1564
▁based	-1565
▁par	-1566
▁becomes	-1567
▁town	-1568
▁gave	-1569
▁grou	-1570
▁annoy	-1571
▁stran	-1572
▁brother	-1573
▁dem	-1574
▁list	-1575
▁capt	-1576
▁pur	-1577
).<	-1578
▁eff	-1579
▁self	-1580
▁wants	-1581
ief	-1582
oil	-1583
rown	-1584
▁prov	-1585
OT	-1586
▁horrible	-1587
▁cent	-1588
▁sat	-1589
▁val	-1590
orge	-1591
▁works	-1592
▁bra	-1593
ovie	-1594
using	-1595
▁amazing	-1596
use	-1597
▁walk	-1598
▁Sha	-1599
ister	-1600
▁,	-1601
▁lost	-1602
▁parts	-1603
▁favorite	-1604
ches	-1605
▁etc	-1606
▁throughout	-1607
ots	-1608
▁tries	-1609
▁susp	-1610
▁situ	-1611
ages	-1612
▁mag	-1613
▁hilar	-1614
▁viewer	-1615
rib	-1616
▁sn	-1617
▁mor	-1618
tra	-1619
▁vill	-1620
▁today	-1621
▁history	-1622
▁matter	-1623
to	-1624
oke	-1625
▁days	-1626
▁fair	-1627
▁son	-1628
▁teen	-1629
ination	-1630
▁With	-1631
▁med	-1632
▁fem	-1633
▁hon	-1634
hind	-1635
▁crit	-1636
▁myself	-1637
chn	-1638
ude	-1639
▁occ	-1640
▁present	-1641
▁trans	-1642
ene	-1643
▁import	-1644
▁genre	-1645
ox	-1646
okes	-1647
itive	-1648
▁stra	-1649
▁document	-1650
▁psy	-1651
leased	-1652
▁Michael	-1653
▁num	-1654
▁learn	-1655
▁cult	-1656
▁final	-1657
If	-1658
▁incred	-1659
ient	-1660
▁col	-1661
▁turns	-1662
astic	-1663
iculous	-1664
ern	-1665
▁Also	-1666
hich	-1667
▁late	-1668
ec	-1669
off	-1670
▁finally	-1671
▁Ed	-1672
▁cost	-1673
▁appear	-1674
▁thinking	-1675
ished	-1676
▁themselves	-1677
▁typ	-1678
▁myster	-1679
▁hilarious	-1680
ik	-1681
ape	-1682
▁level	-1683
▁Robert	-1684
▁Ge	-1685
els	-1686
dy	-1687
▁Just	-1688
▁decent	-1689
▁group	-1690
▁effort	-1691
▁Ger	-1692
ajor	-1693
▁pick	-1694
nded	-1695
There	-1696
▁break	-1697
▁killer	-1698
▁consider	-1699
▁foot	-1700
▁inf	-1701
▁prom	-1702
▁novel	-1703
▁heard	-1704
▁killed	-1705
rodu	-1706
▁stop	-1707
▁contin	-1708
▁starts	-1709
ron	-1710
▁exact	-1711
ey	-1712
band	-1713
▁ir	-1714
▁Brit	-1715
▁Then	-1716
▁type	-1717
▁cinemat	-1718
▁took	-1719
▁Of	-1720
▁deli	-1721
uc	-1722
▁eyes	-1723
▁behind	-1724
cks	-1725
▁Dan	-1726
▁fig	-1727
▁feeling	-1728
▁happens	-1729
▁ask	-1730
mb	-1731
arb	-1732
▁girls	-1733
▁lea	-1734
▁Why	-1735
uge	-1736
▁experience	-1737
▁tele	-1738
▁moment	-1739
▁predict	-1740
▁intell	-1741
▁May	-1742
▁ridiculous	-1743
19	-1744
ese	-1745
▁Every	-1746
▁voice	-1747
▁opp	-1748
▁daughter	-1749
▁opin	-1750
usband	-1751
AT	-1752
▁mot	-1753
ior	-1754
▁evil	-1755
AN	-1756
▁involved	-1757
▁sle	-1758
▁roles	-1759
▁Her	-1760
▁non	-1761
ural	-1762
▁bus	-1763
▁looked	-1764
ST	-1765
▁soon	-1766
▁crap	-1767
ky	-1768
ards	-1769
▁While	-1770
yp	-1771
urt	-1772
▁directed	-1773
▁Char	-1774
antly	-1775
▁says	-1776
▁ago	-1777
▁murder	-1778
ences	-1779
ives	-1780
zy	-1781
gs	-1782
▁prof	-1783
▁cool	-1784
antic	-1785
▁told	-1786
▁fore	-1787
▁speak	-1788
▁chang	-1789
ats	-1790
▁extremely	-1791
▁hit	-1792
▁major	-1793
▁wouldn	-1794
▁const	-1795
!!!	-1796
▁ste	-1797
.)	-1798
▁stories	-1799
▁perhaps	-1800
▁chance	-1801
▁cannot	-1802
▁6	-1803
▁stru	-1804
▁white	-1805
▁cheap	-1806
▁husband	-1807
▁happened	-1808
▁War	-1809
LL	-1810
che	-1811
▁weak	-1812
▁sol	-1813
▁score	-1814
▁Ind	-1815
▁hold	-1816
▁Now	-1817
▁Pl	-1818
aul	-1819
aug	-1820
▁coming	-1821
rench	-1822
ians	-1823
vision	-1824
arth	-1825
▁simple	-1826
ering	-1827
eg	-1828
▁uni	-1829
ones	-1830
▁move	-1831
▁violence	-1832
▁God	-1833
side	-1834
urb	-1835
▁Ke	-1836
▁win	-1837
▁shoot	-1838
▁room	-1839
▁shown	-1840
▁bring	-1841
▁dream	-1842
ator	-1843
▁result	-1844
▁highly	-1845
iddle	-1846
▁swe	-1847
ement	-1848
▁disco	-1849
key	-1850
▁desc	-1851
▁yourself	-1852
▁jokes	-1853
...<	-1854
▁age	-1855
▁musical	-1856
▁quick	-1857
▁esc	-1858
vol	-1859
OR	-1860
▁comed	-1861
ek	-1862
▁leave	-1863
ON	-1864
cer	-1865
ational	-1866
▁stay	-1867
aged	-1868
iet	-1869
▁dr	-1870
▁stre	-1871
▁annoying	-1872
▁country	-1873
▁subject	-1874
▁released	-1875
▁known	-1876
▁English	-1877
▁David	-1878
▁opinion	-1879
▁suspense	-1880
▁career	-1881
pping	-1882
▁obviously	-1883
matic	-1884
▁cinematography	-1885
▁disappointed	-1886
▁huge	-1887
▁hours	-1888
▁taken	-1889
▁shock	-1890
nds	-1891
▁Pet	-1892
ows	-1893
of	-1894
▁pos	-1895
▁phot	-1896
▁prem	-1897
▁techn	-1898
▁200	-1899
gra	-1900
ution	-1901
ral	-1902
enty	-1903
▁ang	-1904
ground	-1905
AR	-1906
▁wish	-1907
ph	-1908
ield	-1909
But	-1910
▁event	-1911
ered	-1912
ctor	-1913
▁colle	-1914
▁Do	-1915
rest	-1916
And	-1917
▁across	-1918
▁inde	-1919
▁sometimes	-1920
▁similar	-1921
bel	-1922
▁fut	-1923
itting	-1924
amed	-1925
▁started	-1926
real	-1927
▁saying	-1928
▁doub	-1929
wards	-1930
iety	-1931
hetic	-1932
▁gore	-1933
▁documentary	-1934
ball	-1935
any	-1936
▁strange	-1937
▁writer	-1938
▁four	-1939
▁Br	-1940
ury	-1941
▁Con	-1942
ina	-1943
▁pay	-1944
▁var	-1945
▁usual	-1946
▁deep	-1947
▁James	-1948
▁particularly	-1949
▁met	-1950
▁plan	-1951
mos	-1952
▁apparent	-1953
▁polit	-1954
▁ones	-1955
▁return	-1956
▁exactly	-1957
▁Pe	-1958
iction	-1959
gan	-1960
lling	-1961
▁rating	-1962
▁shots	-1963
ubl	-1964
reci	-1965
▁foc	-1966
▁possible	-1967
oul	-1968
▁dev	-1969
▁save	-1970
▁honest	-1971
▁ends	-1972
▁Tom	-1973
eng	-1974
▁disc	-1975
▁parent	-1976
▁attention	-1977
▁laug	-1978
▁forget	-1979
outh	-1980
▁subt	-1981
estern	-1982
▁hot	-1983
▁knew	-1984
▁treat	-1985
▁opening	-1986
****	-1987
▁order	-1988
ouble	-1989
▁female	-1990
▁pull	-1991
▁reality	-1992
ING	-1993
▁lar	-1994
sh	-1995
▁body	-1996
▁ca	-1997
▁silly	-1998
ichard	-1999
yond	-2000
rence	-2001
▁turned	-2002
▁fill	-2003
▁change	-2004
oud	-2005
wise	-2006
ential	-2007
▁Per	-2008
▁near	-2009
▁detail	-2010
mm	-2011
▁moder	-2012
▁somewhat	-2013
▁build	-2014
ald	-2015
ili	-2016
▁gun	-2017
▁local	-2018
▁German	-2019
▁ill	-2020
▁number	-2021
ppy	-2022
▁unc	-2023
▁important	-2024
▁episodes	-2025
▁20	-2026
ino	-2027
ean	-2028
aced	-2029
▁team	-2030
▁remind	-2031
▁alone	-2032
▁dru	-2033
track	-2034
▁OK	-2035
▁pot	-2036
▁running	-2037
mosp	-2038
▁dest	-2039
▁living	-2040
▁pri	-2041
▁cart	-2042
▁usually	-2043
▁ten	-2044
▁single	-2045
▁sent	-2046
▁words	-2047
lt	-2048
aim	-2049
unt	-2050
▁police	-2051
▁filmmak	-2052
▁Any	-2053
▁Or	-2054
aris	-2055
▁hell	-2056
▁predictable	-2057
▁air	-2058
▁Osc	-2059
▁straight	-2060
▁enjoyable	-2061
apan	-2062
▁Ad	-2063
▁touch	-2064
▁whose	-2065
▁lad	-2066
▁problems	-2067
▁television	-2068
▁Gra	-2069
▁mist	-2070
▁compl	-2071
▁atmosp	-2072
inc	-2073
▁(19	-2074
▁finds	-2075
!"	-2076
▁appreci	-2077
ys	-2078
which	-2079
ires	-2080
▁knows	-2081
▁dull	-2082
▁middle	-2083
▁gang	-2084
aid	-2085
▁taking	-2086
▁talking	-2087
head	-2088
▁convin	-2089
▁ant	-2090
▁respect	-2091
otic	-2092
▁among	-2093
orry	-2094
▁clich	-2095
ubb	-2096
▁inn	-2097
orable	-2098
EN	-2099
▁British	-2100
▁ut	-2101
▁soundtrack	-2102
▁unf	-2103
▁aren	-2104
▁hate	-2105
gy	-2106
▁William	-2107
▁vict	-2108
▁despite	-2109
ush	-2110
▁scary	-2111
▁songs	-2112
▁intellig	-2113
usion	-2114
▁events	-2115
▁due	-2116
▁season	-2117
olog	-2118
▁modern	-2119
▁Com	-2120
iest	-2121
▁hop	-2122
▁land	-2123
▁box	-2124
▁El	-2125
arch	-2126
▁forg	-2127
▁hands	-2128
ital	-2129
▁check	-2130
▁surprised	-2131
light	-2132
▁seriously	-2133
▁Am	-2134
▁meet	-2135
!!!!	-2136
▁equ	-2137
▁including	-2138
▁eng	-2139
▁haven	-2140
rison	-2141
▁sold	-2142
▁mater	-2143
▁previous	-2144
rely	-2145
back	-2146
▁mark	-2147
▁mostly	-2148
▁happy	-2149
▁contro	-2150
▁tells	-2151
▁sequel	-2152
who	-2153
ura	-2154
rated	-2155
▁romantic	-2156
▁adult	-2157
▁pleas	-2158
▁explain	-2159
▁storyline	-2160
▁IM	-2161
▁Bra	-2162
▁Japan	-2163
lo	-2164
▁ve	-2165
form	-2166
▁camp	-2167
aught	-2168
▁Can	-2169
▁prot	-2170
▁none	-2171
▁Wor	-2172
▁sets	-2173
▁Ne	-2174
▁beyond	-2175
iod	-2176
As	-2177
ised	-2178
▁dan	-2179
▁material	-2180
▁Richard	-2181
▁doubt	-2182
▁sequence	-2183
▁narr	-2184
verage	-2185
▁comic	-2186
irector	-2187
▁aspect	-2188
▁future	-2189
▁above	-2190
▁creep	-2191
action	-2192
ira	-2193
▁fast	-2194
▁sign	-2195
▁bro	-2196
ening	-2197
▁entertainment	-2198
where	-2199
ned	-2200
▁adv	-2201
▁tried	-2202
ants	-2203
▁odd	-2204
▁ways	-2205
▁eye	-2206
▁Although	-2207
▁bunch	-2208
▁message	-2209
ously	-2210
▁flaw	-2211
▁theat	-2212
▁falls	-2213
▁comments	-2214
asc	-2215
What	-2216
▁twist	-2217
▁apart	-2218
uri	-2219
▁spir	-2220
▁moving	-2221
▁clear	-2222
▁question	-2223
▁needs	-2224
▁Sh	-2225
nding	-2226
work	-2227
▁First	-2228
▁Dis	-2229
▁giving	-2230
▁clearly	-2231
▁thriller	-2232
▁slight	-2233
▁kept	-2234
▁197	-2235
▁easily	-2236
▁198	-2237
EA	-2238
▁Sam	-2239
▁visual	-2240
▁sexual	-2241
▁feature	-2242
?<	-2243
▁NOT	-2244
▁ear	-2245
▁upon	-2246
mas	-2247
▁Ital	-2248
▁setting	-2249
▁supporting	-2250
ublic	-2251
▁Paul	-2252
▁Mor	-2253
ension	-2254
▁spoil	-2255
▁French	-2256
▁appears	-2257
▁Oh	-2258
▁showing	-2259
▁decided	-2260
▁release	-2261
▁theme	-2262
▁filmed	-2263
▁reviews	-2264
▁bar	-2265
▁George	-2266
▁viewing	-2267
eth	-2268
▁Who	-2269
ggest	-2270
▁emb	-2271
iment	-2272
▁superb	-2273
▁parents	-2274
inal	-2275
',	-2276
ee	-2277
asy	-2278
▁...	-2279
tt	-2280
kay	-2281
▁buy	-2282
cl	-2283
ival	-2284
attle	-2285
ressed	-2286
▁victim	-2287
▁suggest	-2288
▁believable	-2289
IL	-2290
bb	-2291
▁reve	-2292
▁zomb	-2293
go	-2294
▁personal	-2295
!)	-2296
ficult	-2297
▁comb	-2298
▁fell	-2299
▁accept	-2300
oun	-2301
▁period	-2302
▁easy	-2303
▁overall	-2304
ices	-2305
▁adapt	-2306
▁actual	-2307
▁editing	-2308
▁chees	-2309
▁Oscar	-2310
▁realistic	-2311
ltim	-2312
▁difficult	-2313
iel	-2314
▁sister	-2315
▁insp	-2316
verall	-2317
▁allow	-2318
irt	-2319
▁US	-2320
▁weird	-2321
▁secret	-2322
akes	-2323
ges	-2324
▁mil	-2325
▁viewers	-2326
▁Dr	-2327
▁Maybe	-2328
▁means	-2329
▁premise	-2330
▁typical	-2331
▁exist	-2332
▁free	-2333
▁elements	-2334
▁ru	-2335
▁working	-2336
▁points	-2337
▁post	-2338
▁Frank	-2339
▁named	-2340
▁*	-2341
▁throw	-2342
▁large	-2343
▁iss	-2344
▁hear	-2345
ara	-2346
ceed	-2347
▁Bro	-2348
▁surv	-2349
bo	-2350
esome	-2351
▁fantastic	-2352
▁attack	-2353
▁theater	-2354
kes	-2355
▁har	-2356
▁mix	-2357
▁leads	-2358
▁greatest	-2359
▁feels	-2360
▁truth	-2361
▁wit	-2362
OU	-2363
gic	-2364
uses	-2365
▁tre	-2366
orth	-2367
ances	-2368
oor	-2369
bs	-2370
▁dumb	-2371
▁attract	-2372
▁Mart	-2373
▁within	-2374
▁brought	-2375
▁sequences	-2376
Al	-2377
piece	-2378
▁famous	-2379
▁atmosphere	-2380
lin	-2381
▁suff	-2382
▁expected	-2383
aby	-2384
▁writ	-2385
▁grow	-2386
▁nearly	-2387
▁IMD	-2388
▁York	-2389
▁cat	-2390
▁tale	-2391
rific	-2392
ged	-2393
▁cur	-2394
▁background	-2395
▁die	-2396
ially	-2397
▁wait	-2398
▁using	-2399
▁animation	-2400
▁basically	-2401
St	-2402
ising	-2403
▁lame	-2404
▁stun	-2405
▁sil	-2406
cious	-2407
▁five	-2408
▁clim	-2409
▁bored	-2410
▁poorly	-2411
▁America	-2412
▁city	-2413
▁average	-2414
more	-2415
▁psyc	-2416
lfriend	-2417
▁meaning	-2418
aling	-2419
▁herself	-2420
▁Jul	-2421
▁norm	-2422
▁copy	-2423
king	-2424
▁lots	-2425
hic	-2426
ye	-2427
▁id	-2428
▁obs	-2429
▁introdu	-2430
▁business	-2431
▁pure	-2432
sw	-2433
▁figure	-2434
▁Most	-2435
▁Col	-2436
▁Jim	-2437
▁Yes	-2438
▁und	-2439
anger	-2440
▁tast	-2441
▁Gu	-2442
▁ran	-2443
▁surprise	-2444
▁199	-2445
▁particular	-2446
▁crime	-2447
time	-2448
▁front	-2449
ining	-2450
▁whether	-2451
▁Sim	-2452
▁soc	-2453
▁stere	-2454
upp	-2455
▁dog	-2456
▁Unfortunately	-2457
fer	-2458
ring	-2459
ES	-2460
▁sens	-2461
ula	-2462
▁situation	-2463
▁wood	-2464
▁avoid	-2465
▁rock	-2466
▁clever	-2467
irc	-2468
▁Aust	-2469
▁stri	-2470
omin	-2471
▁Peter	-2472
▁Ex	-2473
▁Tra	-2474
▁From	-2475
▁became	-2476
uro	-2477
icks	-2478
▁Film	-2479
ager	-2480
▁begins	-2481
lier	-2482
▁write	-2483
▁cheesy	-2484
▁killing	-2485
ole	-2486
'.	-2487
ogn	-2488
▁shame	-2489
▁rese	-2490
▁laughs	-2491
▁enc	-2492
▁utter	-2493
pend	-2494
▁interested	-2495
▁Its	-2496
▁male	-2497
?"	-2498
rid	-2499
bers	-2500
hood	-2501
▁lim	-2502
▁monster	-2503
bert	-2504
▁resp	-2505
▁strugg	-2506
▁needed	-2507
nel	-2508
▁sick	-2509
▁Mon	-2510
▁exec	-2511
bor	-2512
▁minute	-2513
▁Tw	-2514
▁King	-2515
▁crew	-2516
▁red	-2517
▁Like	-2518
atter	-2519
▁cover	-2520
▁footage	-2521
▁gone	-2522
▁anyway	-2523
My	-2524
cers	-2525
iences	-2526
▁forward	-2527
arre	-2528
▁forced	-2529
▁leaves	-2530
▁apparently	-2531
cted	-2532
ively	-2533
▁grand	-2534
▁stage	-2535
▁credits	-2536
friend	-2537
▁reading	-2538
▁features	-2539
host	-2540
▁keeps	-2541
dden	-2542
rey	-2543
▁costum	-2544
▁AN	-2545
▁Good	-2546
urther	-2547
▁unique	-2548
▁Sm	-2549
▁fra	-2550
▁memorable	-2551
▁girlfriend	-2552
omp	-2553
▁stereot	-2554
▁Disney	-2555
▁emotional	-2556
▁Ang	-2557
ills	-2558
▁wind	-2559
ius	-2560
lor	-2561
▁badly	-2562
▁imagine	-2563
hys	-2564
▁bel	-2565
▁somehow	-2566
▁agree	-2567
isf	-2568
▁appro	-2569
▁Lee	-2570
▁yes	-2571
▁public	-2572
▁romance	-2573
▁/>"	-2574
▁IMDb	-2575
▁mystery	-2576
spect	-2577
▁disturb	-2578
▁realize	-2579
lly	-2580
▁gay	-2581
▁mill	-2582
▁ultim	-2583
▁society	-2584
▁mad	-2585
eless	-2586
▁acted	-2587
▁unlike	-2588
▁masterpiece	-2589
▁advent	-2590
▁emotion	-2591
▁villain	-2592
angu	-2593
So	-2594
▁cry	-2595
▁express	-2596
ored	-2597
▁heav	-2598
▁meets	-2599
▁los	-2600
iliar	-2601
▁admit	-2602
▁sudden	-2603
▁perfectly	-2604
oof	-2605
▁Ben	-2606
▁Wood	-2607
▁joke	-2608
ett	-2609
▁band	-2610
▁meant	-2611
unny	-2612
▁incredibly	-2613
pper	-2614
reed	-2615
▁please	-2616
▁concept	-2617
▁worked	-2618
▁fire	-2619
agon	-2620
▁dam	-2621
▁oper	-2622
▁prop	-2623
urd	-2624
ries	-2625
▁design	-2626
belie	-2627
▁possibly	-2628
aces	-2629
itty	-2630
▁liter	-2631
RE	-2632
▁quickly	-2633
▁cartoon	-2634
▁total	-2635
▁wasted	-2636
ived	-2637
▁extra	-2638
▁amount	-2639
ding	-2640
▁profess	-2641
aking	-2642
▁:	-2643
▁repe	-2644
▁creepy	-2645
iny	-2646
arry	-2647
▁fasc	-2648
▁ment	-2649
olf	-2650
cked	-2651
▁deserves	-2652
▁dance	-2653
▁writers	-2654
erv	-2655
▁space	-2656
▁directing	-2657
OO	-2658
▁prison	-2659
▁sleep	-2660
▁spent	-2661
▁third	-2662
▁er	-2663
▁cap	-2664
▁conne	-2665
▁!	-2666
arring	-2667
▁Scott	-2668
▁fails	-2669
▁expecting	-2670
You	-2671
▁catch	-2672
▁general	-2673
▁screenplay	-2674
over	-2675
▁older	-2676
▁reasons	-2677
chie	-2678
cher	-2679
well	-2680
▁nature	-2681
▁earlier	-2682
?)	-2683
rif	-2684
▁rich	-2685
▁portrayed	-2686
stead	-2687
▁Chan	-2688
▁These	-2689
▁development	-2690
▁Ph	-2691
kn	-2692
aked	-2693
▁bare	-2694
▁Gr	-2695
look	-2696
oman	-2697
▁popular	-2698
▁By	-2699
▁Japanese	-2700
▁powerful	-2701
▁fairly	-2702
ze	-2703
▁Che	-2704
▁sorry	-2705
▁recogn	-2706
▁purp	-2707
▁nor	-2708
▁vamp	-2709
▁plain	-2710
ford	-2711
▁flat	-2712
▁plenty	-2713
▁project	-2714
▁innoc	-2715
▁histor	-2716
▁brings	-2717
with	-2718
let	-2719
cessary	-2720
udity	-2721
▁invest	-2722
▁195	-2723
▁laughing	-2724
▁Black	-2725
▁Great	-2726
por	-2727
▁Af	-2728
gest	-2729
▁Me	-2730
par	-2731
▁symp	-2732
▁leading	-2733
▁loo	-2734
▁conv	-2735
▁Night	-2736
▁sounds	-2737
mist	-2738
▁Pr	-2739
▁various	-2740
All	-2741
erry	-2742
▁occas	-2743
ham	-2744
▁whom	-2745
▁talented	-2746
")	-2747
▁beauty	-2748
▁directors	-2749
▁Lu	-2750
ises	-2751
▁towards	-2752
ague	-2753
▁langu	-2754
An	-2755
▁caught	-2756
▁Russ	-2757
▁inside	-2758
▁imm	-2759
andy	-2760
▁Des	-2761
▁Pat	-2762
itted	-2763
arrass	-2764
▁scient	-2765
▁Italian	-2766
▁circ	-2767
▁Ha	-2768
▁hom	-2769
▁30	-2770
vered	-2771
▁jour	-2772
▁Watch	-2773
▁manages	-2774
▁dramatic	-2775
▁aut	-2776
▁boys	-2777
▁eventually	-2778
▁ended	-2779
▁attempts	-2780
ips	-2781
▁positive	-2782
▁spirit	-2783
▁missing	-2784
▁Su	-2785
▁Euro	-2786
▁recently	-2787
▁potential	-2788
▁beha	-2789
▁members	-2790
rel	-2791
inary	-2792
roy	-2793
holog	-2794
▁funn	-2795
▁create	-2796
writ	-2797
▁cute	-2798
▁intri	-2799
urs	-2800
▁pace	-2801
▁embarrass	-2802
boy	-2803
▁fighting	-2804
men	-2805
ging	-2806
▁law	-2807
▁stat	-2808
▁ideas	-2809
zz	-2810
irl	-2811
acher	-2812
ero	-2813
▁bother	-2814
▁familiar	-2815
ained	-2816
▁note	-2817
▁sweet	-2818
▁battle	-2819
bl	-2820
▁Bill	-2821
▁Other	-2822
▁water	-2823
een	-2824
▁record	-2825
▁remake	-2826
cause	-2827
ivid	-2828
▁nudity	-2829
ope	-2830
▁brain	-2831
ask	-2832
▁ign	-2833
onic	-2834
▁neg	-2835
▁Van	-2836
▁aff	-2837
▁cond	-2838
▁porn	-2839
▁indeed	-2840
▁idi	-2841
▁trad	-2842
▁western	-2843
▁ident	-2844
▁travel	-2845
▁accident	-2846
even	-2847
▁jud	-2848
val	-2849
▁Ale	-2850
izing	-2851
▁commun	-2852
▁delight	-2853
▁Mac	-2854
▁Pro	-2855
▁revol	-2856
▁ble	-2857
min	-2858
▁crazy	-2859
▁appreciate	-2860
▁missed	-2861
▁era	-2862
▁store	-2863
▁doctor	-2864
▁bed	-2865
iously	-2866
▁hair	-2867
▁Em	-2868
cent	-2869
▁phys	-2870
▁waiting	-2871
sters	-2872
▁Here	-2873
▁lady	-2874
▁depth	-2875
▁trail	-2876
▁political	-2877
IS	-2878
fi	-2879
▁15	-2880
▁Mad	-2881
▁telling	-2882
▁stereotyp	-2883
iced	-2884
▁casting	-2885
▁af	-2886
ites	-2887
▁medi	-2888
▁unbelie	-2889
hel	-2890
▁hy	-2891
▁biz	-2892
▁forgot	-2893
acing	-2894
▁("	-2895
▁requ	-2896
▁common	-2897
su	-2898
▁hardly	-2899
medi	-2900
uter	-2901
▁Hor	-2902
▁social	-2903
lu	-2904
▁ess	-2905
asher	-2906
▁value	-2907
▁created	-2908
bit	-2909
vil	-2910
▁flash	-2911
▁World	-2912
▁pointless	-2913
▁Joe	-2914
▁slightly	-2915
▁portrayal	-2916
▁murd	-2917
cast	-2918
▁rate	-2919
▁following	-2920
udd	-2921
▁achie	-2922
▁convincing	-2923
emy	-2924
ieces	-2925
▁offic	-2926
cle	-2927
this	-2928
▁garb	-2929
▁filmmakers	-2930
▁mel	-2931
▁impro	-2932
▁Let	-2933
ele	-2934
▁married	-2935
uine	-2936
▁credit	-2937
▁est	-2938
▁explo	-2939
▁wrote	-2940
itation	-2941
▁former	-2942
▁Instead	-2943
iers	-2944
▁sum	-2945
▁outside	-2946
set	-2947
ishing	-2948
ossible	-2949
▁Park	-2950
▁draw	-2951
▁whatever	-2952
▁193	-2953
▁mod	-2954
▁answ	-2955
▁laugha	-2956
VER	-2957
▁mid	-2958
▁escape	-2959
▁complex	-2960
af	-2961
rage	-2962
iller	-2963
ashing	-2964
▁subtle	-2965
ashion	-2966
PO	-2967
▁Act	-2968
▁tort	-2969
▁follows	-2970
▁incredible	-2971
while	-2972
▁accent	-2973
▁desper	-2974
▁mentioned	-2975
▁fit	-2976
▁claim	-2977
▁relig	-2978
▁Europe	-2979
uted	-2980
▁Tim	-2981
imp	-2982
▁week	-2983
▁situations	-2984
▁amusing	-2985
ED	-2986
▁died	-2987
How	-2988
berg	-2989
▁rob	-2990
▁anti	-2991
▁tension	-2992
▁step	-2993
▁color	-2994
sen	-2995
ased	-2996
come	-2997
▁solid	-2998
standing	-2999
▁choice	-3000
▁immedi	-3001
▁decides	-3002
venge	-3003
ective	-3004
▁scream	-3005
▁intelligent	-3006
no	-3007
lict	-3008
▁Sw	-3009
▁Ser	-3010
▁glad	-3011
▁exciting	-3012
000	-3013
▁brief	-3014
▁further	-3015
▁rece	-3016
ki	-3017
▁produced	-3018
resh	-3019
ribly	-3020
▁doll	-3021
▁moves	-3022
ibility	-3023
▁genuine	-3024
▁fol	-3025
iving	-3026
▁uses	-3027
lusion	-3028
▁stick	-3029
▁control	-3030
▁En	-3031
▁remark	-3032
▁fantasy	-3033
oe	-3034
▁humour	-3035
▁garbage	-3036
▁clos	-3037
▁Movie	-3038
▁younger	-3039
▁pathetic	-3040
con	-3041
▁rad	-3042
▁college	-3043
ann	-3044
▁entirely	-3045
▁spend	-3046
▁language	-3047
▁decide	-3048
One	-3049
▁196	-3050
movie	-3051
inger	-3052
▁biggest	-3053
▁Christmas	-3054
▁match	-3055
▁Cra	-3056
▁Star	-3057
▁arri	-3058
iff	-3059
▁mass	-3060
▁luck	-3061
▁awesome	-3062
▁satisf	-3063
▁trouble	-3064
▁unfortunately	-3065
▁inte	-3066
▁unless	-3067
OW	-3068
▁sci	-3069
▁sees	-3070
mistry	-3071
▁critic	-3072
▁depict	-3073
▁soul	-3074
OM	-3075
▁showed	-3076
vern	-3077
▁bought	-3078
▁values	-3079
idden	-3080
ened	-3081
▁fake	-3082
▁terror	-3083
▁ine	-3084
▁wall	-3085
▁recent	-3086
arl	-3087
elly	-3088
rect	-3089
▁Dra	-3090
▁likes	-3091
alth	-3092
uster	-3093
▁trash	-3094
▁progra	-3095
▁producers	-3096
BC	-3097
▁Boy	-3098
▁train	-3099
▁company	-3100
▁earth	-3101
▁mer	-3102
▁compe	-3103
irty	-3104
▁successful	-3105
sequ	-3106
lying	-3107
▁wild	-3108
▁track	-3109
▁cru	-3110
aging	-3111
▁Love	-3112
▁mood	-3113
▁unin	-3114
▁avail	-3115
ille	-3116
▁compet	-3117
▁ground	-3118
aper	-3119
▁amate	-3120
▁weren	-3121
▁fascin	-3122
ilt	-3123
▁taste	-3124
▁images	-3125
▁bizarre	-3126
▁chemistry	-3127
▁party	-3128
▁longer	-3129
▁otherwise	-3130
known	-3131
ette	-3132
▁brut	-3133
▁jump	-3134
▁rede	-3135
Don	-3136
▁filled	-3137
▁dancing	-3138
▁purpose	-3139
▁Gold	-3140
▁drug	-3141
▁danger	-3142
wart	-3143
idered	-3144
▁breat	-3145
ottom	-3146
▁refe	-3147
▁kills	-3148
▁changed	-3149
IT	-3150
▁Lou	-3151
▁continu	-3152
▁violent	-3153
▁rap	-3154
▁regard	-3155
▁compared	-3156
▁Je	-3157
▁questions	-3158
▁impressive	-3159
iche	-3160
▁exception	-3161
alt	-3162
▁Jane	-3163
▁failed	-3164
▁Big	-3165
▁Dead	-3166
▁cross	-3167
▁ghost	-3168
▁slasher	-3169
▁suc	-3170
▁beat	-3171
▁disturbing	-3172
gend	-3173
▁concern	-3174
▁spot	-3175
▁Lau	-3176
ified	-3177
▁effective	-3178
▁90	-3179
▁80'	-3180
chable	-3181
▁suspect	-3182
ization	-3183
▁Rock	-3184
On	-3185
room	-3186
▁books	-3187
▁barely	-3188
▁Ray	-3189
▁Hall	-3190
inn	-3191
▁search	-3192
▁II	-3193
▁twists	-3194
lled	-3195
▁Red	-3196
▁focus	-3197
***	-3198
▁appeal	-3199
▁opportun	-3200
▁fear	-3201
▁sympat	-3202
▁considered	-3203
▁inform	-3204
une	-3205
▁gag	-3206
ondon	-3207
▁kick	-3208
▁street	-3209
▁studio	-3210
▁redeem	-3211
▁culture	-3212
▁cause	-3213
▁contri	-3214
▁involving	-3215
▁OF	-3216
▁100	-3217
▁god	-3218
▁Fl	-3219
ength	-3220
▁Fred	-3221
▁hang	-3222
▁Afric	-3223
▁tough	-3224
▁repres	-3225
ana	-3226
▁Hitch	-3227
▁interview	-3228
▁impression	-3229
arily	-3230
▁crim	-3231
▁spect	-3232
▁genius	-3233
itary	-3234
▁Perhaps	-3235
▁scenery	-3236
For	-3237
POIL	-3238
LE	-3239
▁assum	-3240
▁succeed	-3241
▁stunning	-3242
mon	-3243
▁loud	-3244
that	-3245
▁basic	-3246
▁gem	-3247
▁ball	-3248
▁trip	-3249
▁shooting	-3250
▁impossible	-3251
fort	-3252
iles	-3253
▁fat	-3254
▁deliver	-3255
▁conclusion	-3256
iver	-3257
▁Ber	-3258
▁auth	-3259
▁pack	-3260
POILER	-3261
▁added	-3262
▁favour	-3263
▁considering	-3264
▁Sch	-3265
▁road	-3266
▁singing	-3267
▁Bru	-3268
▁carry	-3269
war	-3270
▁194	-3271
▁insult	-3272
▁issues	-3273
▁dro	-3274
▁affect	-3275
▁available	-3276
gen	-3277
▁Nic	-3278
▁island	-3279
▁manner	-3280
aus	-3281
appe	-3282
▁thinks	-3283
▁amateur	-3284
reg	-3285
▁suit	-3286
har	-3287
ras	-3288
▁Cor	-3289
▁smart	-3290
▁bomb	-3291
▁test	-3292
▁Indian	-3293
▁fashion	-3294
ify	-3295
▁Ham	-3296
ales	-3297
▁Mur	-3298
▁Way	-3299
▁unex	-3300
▁ST	-3301
night	-3302
▁London	-3303
▁Wh	-3304
▁Ye	-3305
▁10.	-3306
▁House	-3307
▁City	-3308
▁indust	-3309
▁likely	-3310
▁Bel	-3311
▁minor	-3312
erm	-3313
rian	-3314
▁Mel	-3315
▁wee	-3316
▁Sure	-3317
▁baby	-3318
ste	-3319
▁pun	-3320
▁Bob	-3321
▁Nor	-3322
ensive	-3323
▁recommended	-3324
aine	-3325
▁Mat	-3326
▁Very	-3327
rences	-3328
▁cold	-3329
▁Another	-3330
▁Mary	-3331
▁sexy	-3332
▁starring	-3333
▁photography	-3334
cock	-3335
▁sitting	-3336
you	-3337
▁state	-3338
▁ability	-3339
▁leaving	-3340
▁clot	-3341
▁Jones	-3342
▁century	-3343
AS	-3344
aur	-3345
iring	-3346
▁Best	-3347
estival	-3348
▁immediately	-3349
▁investig	-3350
▁suddenly	-3351
ai	-3352
▁Angel	-3353
▁managed	-3354
▁standard	-3355
▁adventure	-3356
kin	-3357
▁grap	-3358
▁rand	-3359
icated	-3360
▁magic	-3361
▁office	-3362
ID	-3363
▁rare	-3364
▁intrigu	-3365
▁computer	-3366
▁appearance	-3367
▁Stan	-3368
▁repl	-3369
▁normal	-3370
▁okay	-3371
▁runs	-3372
lessly	-3373
iding	-3374
▁notice	-3375
▁neither	-3376
▁audiences	-3377
opher	-3378
▁Austral	-3379
▁heavy	-3380
▁govern	-3381
▁reveal	-3382
▁charming	-3383
▁laughable	-3384
▁Alex	-3385
OV	-3386
rupt	-3387
▁prep	-3388
▁alive	-3389
▁pract	-3390
▁suppose	-3391
▁boyfriend	-3392
▁somewhere	-3393
aps	-3394
▁Bat	-3395
▁Hol	-3396
".<	-3397
▁uns	-3398
making	-3399
▁Charles	-3400
▁terrific	-3401
gress	-3402
anda	-3403
▁fresh	-3404
▁climax	-3405
▁door	-3406
▁terms	-3407
▁obsess	-3408
▁details	-3409
▁Co	-3410
irth	-3411
▁Stre	-3412
▁names	-3413
▁neigh	-3414
gl	-3415
now	-3416
izes	-3417
▁disappointing	-3418
▁comedies	-3419
▁touching	-3420
▁unbelievable	-3421
icide	-3422
▁High	-3423
▁Bur	-3424
▁Sci	-3425
▁month	-3426
▁beautifully	-3427
lect	-3428
▁Ann	-3429
esides	-3430
▁finish	-3431
▁natural	-3432
Th	-3433
▁ast	-3434
▁lab	-3435
▁Thom	-3436
▁shar	-3437
▁random	-3438
▁emotions	-3439
▁presence	-3440
▁curi	-3441
▁pers	-3442
▁nowhere	-3443
▁respons	-3444
yle	-3445
ison	-3446
▁def	-3447
▁cinematic	-3448
aff	-3449
▁adaptation	-3450
▁mult	-3451
▁thrown	-3452
▁painful	-3453
mes	-3454
uts	-3455
▁Than	-3456
▁bull	-3457
▁affair	-3458
▁revenge	-3459
just	-3460
field	-3461
owers	-3462
idence	-3463
▁describ	-3464
yl	-3465
awn	-3466
▁Smith	-3467
▁Director	-3468
ica	-3469
ands	-3470
ivers	-3471
oking	-3472
▁commer	-3473
▁zombie	-3474
ented	-3475
▁lovely	-3476
▁remains	-3477
vert	-3478
▁din	-3479
rad	-3480
▁disappointment	-3481
ades	-3482
aining	-3483
▁drink	-3484
▁offer	-3485
▁jo	-3486
▁author	-3487
▁conflict	-3488
ena	-3489
face	-3490
▁medioc	-3491
▁utterly	-3492
▁expectations	-3493
aven	-3494
▁changes	-3495
▁destroy	-3496
▁costumes	-3497
▁Ro	-3498
▁dig	-3499
▁animated	-3500
▁ultimately	-3501
iven	-3502
ature	-3503
board	-3504
part	-3505
▁charm	-3506
▁journey	-3507
str	-3508
▁Still	-3509
▁force	-3510
▁loves	-3511
▁stands	-3512
▁intended	-3513
▁plus	-3514
▁Earth	-3515
▁faith	-3516
▁loose	-3517
▁hoping	-3518
▁makers	-3519
▁witness	-3520
pro	-3521
▁Go	-3522
played	-3523
▁passion	-3524
▁Miss	-3525
▁ship	-3526
ressing	-3527
▁science	-3528
▁tired	-3529
riage	-3530
▁soldiers	-3531
▁flashback	-3532
vey	-3533
▁filming	-3534
▁constantly	-3535
AD	-3536
▁host	-3537
▁excuse	-3538
▁innocent	-3539
▁Hen	-3540
▁sto	-3541
ropri	-3542
▁Only	-3543
▁laughed	-3544
budget	-3545
▁Paris	-3546
▁six	-3547
▁chall	-3548
▁generally	-3549
▁surprisingly	-3550
chan	-3551
riff	-3552
.....	-3553
▁Step	-3554
▁tone	-3555
▁protagon	-3556
▁80	-3557
▁puts	-3558
▁Where	-3559
▁psycholog	-3560
stem	-3561
▁boss	-3562
▁teacher	-3563
▁squ	-3564
▁Show	-3565
elling	-3566
▁narrative	-3567
TH	-3568
▁demon	-3569
▁escap	-3570
▁feelings	-3571
▁outstanding	-3572
▁disg	-3573
anc	-3574
▁places	-3575
▁mistake	-3576
▁Ag	-3577
▁CG	-3578
itude	-3579
▁building	-3580
▁literally	-3581
▁soft	-3582
▁pieces	-3583
▁Sec	-3584
▁presented	-3585
CH	-3586
▁offe	-3587
▁absurd	-3588
▁approach	-3589
urch	-3590
▁Bruce	-3591
▁commercial	-3592
▁ur	-3593
▁chas	-3594
▁ener	-3595
▁student	-3596
▁Sat	-3597
?!	-3598
He	-3599
ares	-3600
ribe	-3601
ront	-3602
▁date	-3603
▁intense	-3604
▁program	-3605
▁mach	-3606
▁silent	-3607
▁Ir	-3608
▁Tr	-3609
▁themes	-3610
▁addition	-3611
yan	-3612
orts	-3613
▁surround	-3614
▁historical	-3615
▁fascinating	-3616
what	-3617
unting	-3618
▁million	-3619
IE	-3620
win	-3621
▁mysterious	-3622
onna	-3623
urate	-3624
▁influ	-3625
▁flicks	-3626
▁threat	-3627
▁students	-3628
oughly	-3629
▁aspects	-3630
▁contains	-3631
▁gold	-3632
▁ride	-3633
▁Chris	-3634
▁magn	-3635
▁Two	-3636
▁intern	-3637
▁serial	-3638
▁Ant	-3639
▁Bo	-3640
aint	-3641
▁dad	-3642
▁slowly	-3643
▁confusing	-3644
house	-3645
illing	-3646
▁Because	-3647
▁dim	-3648
ictor	-3649
▁pictures	-3650
ples	-3651
istent	-3652
▁individ	-3653
▁government	-3654
▁emp	-3655
▁Jean	-3656
▁length	-3657
▁burn	-3658
▁current	-3659
uit	-3660
ivil	-3661
▁leg	-3662
▁dread	-3663
▁fully	-3664
▁Bad	-3665
▁Dark	-3666
▁military	-3667
▁Gl	-3668
down	-3669
▁Hard	-3670
▁acts	-3671
▁spec	-3672
▁drive	-3673
▁folks	-3674
ability	-3675
▁reaction	-3676
▁Hitchcock	-3677
▁drunk	-3678
▁tradition	-3679
▁opportunity	-3680
mark	-3681
ploy	-3682
▁rip	-3683
anna	-3684
ached	-3685
oned	-3686
▁impressed	-3687
dered	-3688
▁numb	-3689
▁qual	-3690
▁Overall	-3691
IG	-3692
lyn	-3693
▁Harry	-3694
▁irrit	-3695
▁equally	-3696
▁likable	-3697
▁behav	-3698
▁artist	-3699
▁compelling	-3700
ander	-3701
▁Steve	-3702
▁subst	-3703
▁happening	-3704
▁Tar	-3705
▁cas	-3706
▁system	-3707
mat	-3708
▁Cal	-3709
▁****	-3710
▁hosp	-3711
▁People	-3712
▁Cat	-3713
entially	-3714
▁Nothing	-3715
▁knowing	-3716
▁lif	-3717
kespe	-3718
▁melod	-3719
▁proper	-3720
▁content	-3721
sey	-3722
good	-3723
▁edge	-3724
▁discuss	-3725
▁alien	-3726
▁lacks	-3727
▁rented	-3728
▁Charlie	-3729
▁discover	-3730
Not	-3731
ipp	-3732
rend	-3733
▁key	-3734
▁spl	-3735
▁clean	-3736
gue	-3737
▁Dou	-3738
▁Adam	-3739
▁disgust	-3740
▁relationships	-3741
▁include	-3742
hor	-3743
ken	-3744
heart	-3745
▁Though	-3746
▁disaster	-3747
▁Pol	-3748
▁South	-3749
▁contr	-3750
▁psych	-3751
▁Jeff	-3752
▁lived	-3753
▁remote	-3754
▁wondering	-3755
nat	-3756
▁Matt	-3757
ops	-3758
▁50	-3759
under	-3760
▁Fe	-3761
▁roll	-3762
▁sight	-3763
▁Stewart	-3764
▁appeared	-3765
▁collection	-3766
▁Tony	-3767
▁shall	-3768
orgeous	-3769
pendent	-3770
▁element	-3771
▁Sand	-3772
▁individual	-3773
asty	-3774
▁See	-3775
▁funniest	-3776
▁Martin	-3777
▁confused	-3778
▁Christian	-3779
gly	-3780
▁ban	-3781
▁ord	-3782
▁Mark	-3783
▁dies	-3784
▁paid	-3785
▁giant	-3786
▁anymore	-3787
▁delivers	-3788
ledge	-3789
▁process	-3790
uddy	-3791
▁div	-3792
▁East	-3793
▁thor	-3794
▁industry	-3795
▁developed	-3796
oph	-3797
▁18	-3798
▁Du	-3799
table	-3800
itions	-3801
▁chase	-3802
▁drawn	-3803
▁breath	-3804
▁Lo	-3805
▁joy	-3806
▁adds	-3807
▁mart	-3808
writer	-3809
▁critics	-3810
▁walking	-3811
▁mouth	-3812
ode	-3813
▁mainly	-3814
/2	-3815
▁Fox	-3816
▁drugs	-3817
▁forever	-3818
▁location	-3819
▁Tre	-3820
ision	-3821
▁West	-3822
▁init	-3823
Ch	-3824
▁WW	-3825
▁helps	-3826
▁legend	-3827
▁lighting	-3828
▁reminded	-3829
▁difference	-3830
▁IS	-3831
▁Bar	-3832
Overall	-3833
▁mediocre	-3834
▁12	-3835
exic	-3836
▁Fin	-3837
▁cell	-3838
▁impl	-3839
▁photograp	-3840
▁AND	-3841
▁hasn	-3842
▁desert	-3843
gged	-3844
erous	-3845
▁race	-3846
▁moral	-3847
▁trailer	-3848
ss	-3849
▁Ab	-3850
▁defe	-3851
▁producer	-3852
That	-3853
▁virt	-3854
▁share	-3855
▁vampire	-3856
▁highlight	-3857
ift	-3858
oses	-3859
▁Russian	-3860
▁forgotten	-3861
▁Bet	-3862
▁dubb	-3863
We	-3864
dow	-3865
▁hig	-3866
▁nons	-3867
▁correct	-3868
▁spectac	-3869
▁Shakespe	-3870
▁gorgeous	-3871
life	-3872
▁adults	-3873
▁dreams	-3874
▁oh	-3875
When	-3876
▁Yet	-3877
▁marriage	-3878
▁Nat	-3879
omething	-3880
Jo	-3881
pret	-3882
▁holes	-3883
do	-3884
▁pil	-3885
▁hospital	-3886
ta	-3887
▁Gar	-3888
▁Many	-3889
▁club	-3890
▁faces	-3891
▁stuck	-3892
▁creative	-3893
▁negative	-3894
mbol	-3895
tend	-3896
▁Jew	-3897
▁seg	-3898
▁news	-3899
▁victims	-3900
AL	-3901
ology	-3902
▁flaws	-3903
▁oppos	-3904
▁honestly	-3905
▁attractive	-3906
wr	-3907
uel	-3908
raid	-3909
uous	-3910
orter	-3911
▁crow	-3912
▁trag	-3913
ctions	-3914
▁offers	-3915
▁Rog	-3916
pected	-3917
▁naked	-3918
▁unreal	-3919
▁finding	-3920
▁melodra	-3921
▁motion	-3922
▁allowed	-3923
▁channel	-3924
▁Jon	-3925
▁Spe	-3926
▁lover	-3927
▁multi	-3928
▁fault	-3929
▁rated	-3930
▁standards	-3931
ini	-3932
wor	-3933
▁Day	-3934
▁amb	-3935
▁thank	-3936
▁everybody	-3937
hop	-3938
aries	-3939
▁Never	-3940
▁Robin	-3941
▁ahead	-3942
▁zombies	-3943
ka	-3944
cra	-3945
soever	-3946
▁image	-3947
▁impact	-3948
▁fiction	-3949
▁detective	-3950
▁Cam	-3951
▁serv	-3952
▁Canad	-3953
▁ready	-3954
▁twice	-3955
aches	-3956
▁picked	-3957
▁rout	-3958
▁Mexic	-3959
▁round	-3960
▁imagination	-3961
To	-3962
▁Ter	-3963
▁More	-3964
▁prim	-3965
ilities	-3966
▁nobody	-3967
▁object	-3968
▁animals	-3969
▁information	-3970
▁bi	-3971
▁Steven	-3972
▁answer	-3973
▁Despite	-3974
▁falling	-3975
she	-3976
ener	-3977
▁unus	-3978
▁frust	-3979
▁market	-3980
.,	-3981
TV	-3982
see	-3983
anted	-3984
illed	-3985
▁wide	-3986
▁Young	-3987
▁eight	-3988
▁fright	-3989
▁becoming	-3990
aud	-3991
▁gri	-3992
▁Billy	-3993
▁comparis	-3994
ita	-3995
verse	-3996
▁tragic	-3997
entional	-3998
▁whatsoever	-3999
▁Bas	-4000
▁double	-4001
▁underst	-4002
AY	-4003
▁eat	-4004
▁slap	-4005
▁40	-4006
▁Ms	-4007
text	-4008
▁aim	-4009
▁area	-4010
film	-4011
▁Walk	-4012
▁formula	-4013
▁Christopher	-4014
azz	-4015
----	-4016
ushed	-4017
▁Kelly	-4018
▁Story	-4019
▁board	-4020
▁moved	-4021
▁wooden	-4022
▁suicide	-4023
▁Americans	-4024
▁youth	-4025
▁bottom	-4026
▁worthy	-4027
▁willing	-4028
▁actresses	-4029
▁childhood	-4030
LY	-4031
eper	-4032
▁cops	-4033
▁proves	-4034
▁putting	-4035
▁shouldn	-4036
▁scientist	-4037
▁thoroughly	-4038
IC	-4039
azy	-4040
▁Ford	-4041
▁describe	-4042
▁VH	-4043
▁base	-4044
▁resc	-4045
▁unne	-4046
▁rac	-4047
▁fort	-4048
▁hide	-4049
gar	-4050
lock	-4051
▁kidn	-4052
▁pair	-4053
▁summ	-4054
ium	-4055
ovies	-4056
▁Green	-4057
▁Victor	-4058
▁latter	-4059
▁ON	-4060
▁Dick	-4061
▁drag	-4062
▁freak	-4063
▁helped	-4064
▁member	-4065
▁provides	-4066
eal	-4067
ffe	-4068
▁Phil	-4069
▁fellow	-4070
▁disappe	-4071
▁pen	-4072
▁possess	-4073
▁seemingly	-4074
▁Mus	-4075
asure	-4076
▁Sl	-4077
inct	-4078
oted	-4079
rick	-4080
▁bits	-4081
▁onto	-4082
▁justice	-4083
▁superior	-4084
▁personality	-4085
/10.	-4086
inci	-4087
▁cele	-4088
▁professional	-4089
xual	-4090
▁Carl	-4091
▁explan	-4092
▁station	-4093
▁followed	-4094
▁shocking	-4095
▁McC	-4096
▁Ram	-4097
▁unw	-4098
▁convers	-4099
▁redeeming	-4100
▁Anyway	-4101
)<	-4102
▁70'	-4103
▁Both	-4104
▁warm	-4105
▁Shakespeare	-4106
thur	-4107
▁Moo	-4108
▁Wil	-4109
▁symbol	-4110
▁Everything	-4111
▁friendship	-4112
Bl	-4113
▁70	-4114
▁lose	-4115
herent	-4116
▁compare	-4117
▁deserve	-4118
▁?	-4119
▁hook	-4120
▁afraid	-4121
ules	-4122
▁pra	-4123
stein	-4124
▁contem	-4125
▁occasion	-4126
mi	-4127
ech	-4128
▁Lyn	-4129
▁Too	-4130
▁wise	-4131
▁aside	-4132
itor	-4133
odies	-4134
▁noir	-4135
▁actions	-4136
abl	-4137
has	-4138
aton	-4139
ique	-4140
▁Barb	-4141
▁blind	-4142
▁turning	-4143
▁commentary	-4144
▁den	-4145
▁rubb	-4146
▁nasty	-4147
▁quiet	-4148
▁merely	-4149
▁intriguing	-4150
roc	-4151
▁opera	-4152
▁watchable	-4153
ifer	-4154
Americ	-4155
▁streng	-4156
erk	-4157
arded	-4158
▁angry	-4159
▁reach	-4160
Un	-4161
ousy	-4162
▁depart	-4163
▁energy	-4164
▁memory	-4165
▁pleasure	-4166
ios	-4167
▁led	-4168
▁broad	-4169
▁achieve	-4170
▁murders	-4171
▁realized	-4172
▁favourite	-4173
▁Part	-4174
▁comedic	-4175
▁wanting	-4176
agers	-4177
▁phone	-4178
▁seconds	-4179
▁Den	-4180
▁asked	-4181
▁crowd	-4182
▁sadly	-4183
▁trust	-4184
▁clothes	-4185
▁repeated	-4186
ddie	-4187
▁knock	-4188
▁tears	-4189
▁encoun	-4190
▁listen	-4191
▁Sad	-4192
▁Western	-4193
▁Mag	-4194
agger	-4195
▁Super	-4196
▁bright	-4197
▁insight	-4198
▁supposedly	-4199
inese	-4200
▁agent	-4201
▁chick	-4202
▁horse	-4203
▁Jackson	-4204
▁unexpected	-4205
year	-4206
▁/>-	-4207
▁Once	-4208
▁Ryan	-4209
father	-4210
▁torture	-4211
rue	-4212
▁Jr	-4213
▁ge	-4214
▁tar	-4215
kward	-4216
owing	-4217
▁damn	-4218
▁continue	-4219
▁Sar	-4220
▁sucks	-4221
▁Little	-4222
hod	-4223
aire	-4224
▁CGI	-4225
oring	-4226
▁personally	-4227
lev	-4228
rog	-4229
zen	-4230
leep	-4231
▁weap	-4232
▁celebr	-4233
▁martial	-4234
▁teenage	-4235
AC	-4236
▁scare	-4237
▁surely	-4238
▁thanks	-4239
▁perform	-4240
▁tragedy	-4241
▁creature	-4242
▁pu	-4243
▁Did	-4244
▁bene	-4245
urally	-4246
entious	-4247
▁planet	-4248
▁cal	-4249
▁held	-4250
▁ugly	-4251
▁began	-4252
▁Ac	-4253
otes	-4254
▁Naz	-4255
▁Henry	-4256
▁dying	-4257
▁accurate	-4258
▁Jason	-4259
▁prefer	-4260
▁numbers	-4261
▁struggle	-4262
▁sour	-4263
▁thin	-4264
▁stink	-4265
▁inspired	-4266
ban	-4267
▁Av	-4268
▁Dam	-4269
▁VHS	-4270
▁provide	-4271
UT	-4272
▁mine	-4273
▁Their	-4274
▁brothers	-4275
▁physical	-4276
Now	-4277
▁du	-4278
▁Wal	-4279
▁Girl	-4280
▁brutal	-4281
▁wearing	-4282
▁anywhere	-4283
▁resemb	-4284
▁awkward	-4285
▁central	-4286
▁deserved	-4287
▁Te	-4288
cking	-4289
▁loving	-4290
ja	-4291
▁Er	-4292
gent	-4293
olds	-4294
ishes	-4295
▁surprising	-4296
iac	-4297
▁IN	-4298
rate	-4299
▁Lad	-4300
▁gags	-4301
▁Space	-4302
▁blond	-4303
▁Williams	-4304
SE	-4305
Any	-4306
requ	-4307
▁env	-4308
▁ham	-4309
▁ted	-4310
bered	-4311
▁lies	-4312
▁13	-4313
▁load	-4314
▁Kevin	-4315
▁mount	-4316
▁noticed	-4317
▁apartment	-4318
acy	-4319
ville	-4320
icious	-4321
▁plane	-4322
Be	-4323
▁Jes	-4324
▁epic	-4325
▁games	-4326
especially	-4327
▁necessary	-4328
lla	-4329
Some	-4330
▁Rus	-4331
▁tur	-4332
ators	-4333
▁sell	-4334
▁Jerry	-4335
▁separ	-4336
▁Batman	-4337
▁unknown	-4338
▁strength	-4339
▁wonderfully	-4340
AM	-4341
▁Ev	-4342
asts	-4343
illa	-4344
▁Moore	-4345
▁occur	-4346
▁distract	-4347
▁magnific	-4348
.'	-4349
ser	-4350
bian	-4351
▁Sus	-4352
▁accom	-4353
ropriate	-4354
apped	-4355
▁coun	-4356
undred	-4357
▁Stephen	-4358
▁independent	-4359
oks	-4360
▁pacing	-4361
▁product	-4362
▁intelligence	-4363
ancy	-4364
▁bal	-4365
▁explos	-4366
▁reminds	-4367
▁artistic	-4368
osh	-4369
▁Sy	-4370
Well	-4371
omen	-4372
▁soap	-4373
▁memories	-4374
hered	-4375
▁stock	-4376
▁Please	-4377
▁relative	-4378
bad	-4379
urity	-4380
▁lets	-4381
▁relie	-4382
▁account	-4383
ademy	-4384
aylor	-4385
irgin	-4386
▁Thomas	-4387
rors	-4388
stal	-4389
▁Law	-4390
▁Men	-4391
▁buff	-4392
▁priv	-4393
▁aware	-4394
▁belong	-4395
▁deeply	-4396
▁understanding	-4397
iance	-4398
▁block	-4399
▁surreal	-4400
▁locations	-4401
plot	-4402
ament	-4403
▁Allen	-4404
▁employ	-4405
ilst	-4406
miss	-4407
▁thats	-4408
▁anybody	-4409
De	-4410
nie	-4411
stick	-4412
▁mild	-4413
▁thus	-4414
▁holds	-4415
▁scared	-4416
▁filmmaker	-4417
▁Sil	-4418
▁Life	-4419
▁tend	-4420
▁blame	-4421
▁rubbish	-4422
▁Bond	-4423
▁priest	-4424
▁regret	-4425
▁arts	-4426
▁introduced	-4427
▁bank	-4428
▁tour	-4429
▁motiv	-4430
▁Horror	-4431
ateg	-4432
▁Jud	-4433
▁thous	-4434
pective	-4435
▁recall	-4436
ugg	-4437
ario	-4438
hern	-4439
▁deb	-4440
▁hotel	-4441
ominated	-4442
▁unusual	-4443
▁knowledge	-4444
▁religious	-4445
iful	-4446
▁Pal	-4447
▁mob	-4448
▁asks	-4449
▁bland	-4450
▁rarely	-4451
▁includes	-4452
aly	-4453
itz	-4454
teen	-4455
▁cow	-4456
▁mut	-4457
tered	-4458
▁food	-4459
▁plots	-4460
anic	-4461
▁Win	-4462
▁empt	-4463
▁hint	-4464
▁remarkable	-4465
spe	-4466
▁Hel	-4467
▁sin	-4468
▁player	-4469
▁subtit	-4470
▁Chinese	-4471
▁progress	-4472
there	-4473
▁Mike	-4474
▁twenty	-4475
▁learned	-4476
▁limited	-4477
▁finished	-4478
mar	-4479
hero	-4480
▁Hit	-4481
▁born	-4482
▁enth	-4483
▁debut	-4484
▁opposite	-4485
lle	-4486
star	-4487
▁insane	-4488
▁engaging	-4489
ET	-4490
enge	-4491
ewis	-4492
▁Tex	-4493
ording	-4494
▁hated	-4495
▁hundred	-4496
▁Im	-4497
eman	-4498
▁lay	-4499
▁tape	-4500
isters	-4501
▁target	-4502
▁Brother	-4503
▁captured	-4504
▁speaking	-4505
imal	-4506
oons	-4507
▁months	-4508
ores	-4509
▁rape	-4510
However	-4511
▁Having	-4512
▁belief	-4513
▁manage	-4514
▁ver	-4515
rical	-4516
▁Hell	-4517
▁hurt	-4518
▁loss	-4519
▁craft	-4520
▁elect	-4521
▁assist	-4522
▁transl	-4523
,000	-4524
▁ris	-4525
anish	-4526
unter	-4527
▁birth	-4528
▁comparison	-4529
anity	-4530
▁radio	-4531
▁Taylor	-4532
▁nicely	-4533
▁unnecessary	-4534
Sc	-4535
▁DO	-4536
▁Anne	-4537
▁fool	-4538
▁White	-4539
▁smile	-4540
▁vision	-4541
▁efforts	-4542
▁references	-4543
▁explanation	-4544
bra	-4545
cho	-4546
ilos	-4547
inda	-4548
▁Joan	-4549
▁skin	-4550
▁leader	-4551
▁players	-4552
hant	-4553
plic	-4554
▁army	-4555
▁Brown	-4556
▁soldier	-4557
▁theatre	-4558
iron	-4559
▁wond	-4560
▁tight	-4561
▁mental	-4562
▁accompl	-4563
Oh	-4564
bul	-4565
▁Kid	-4566
▁Davis	-4567
▁summer	-4568
▁neighbor	-4569
▁technical	-4570
▁responsible	-4571
▁der	-4572
▁les	-4573
▁junk	-4574
▁visit	-4575
▁returns	-4576
▁hadn	-4577
▁Eddie	-4578
▁crappy	-4579
▁creating	-4580
▁App	-4581
terest	-4582
▁heads	-4583
soci	-4584
▁Dor	-4585
▁boo	-4586
▁Danny	-4587
▁Since	-4588
▁spoof	-4589
▁dangerous	-4590
ipul	-4591
▁REA	-4592
▁grat	-4593
▁lacking	-4594
ugs	-4595
▁cable	-4596
▁uncon	-4597
▁gotten	-4598
:<	-4599
esh	-4600
▁Ol	-4601
▁na	-4602
although	-4603
-1	-4604
don	-4605
▁la	-4606
▁calls	-4607
ennifer	-4608
▁advice	-4609
▁fights	-4610
director	-4611
No	-4612
aren	-4613
they	-4614
▁ner	-4615
entle	-4616
ivity	-4617
▁below	-4618
▁owner	-4619
▁humorous	-4620
▁irritating	-4621
uct	-4622
▁bur	-4623
▁mixed	-4624
▁witty	-4625
▁treated	-4626
▁WH	-4627
elle	-4628
rous	-4629
▁net	-4630
▁pet	-4631
▁hits	-4632
ration	-4633
ensional	-4634
▁bab	-4635
break	-4636
cient	-4637
natural	-4638
▁Everyone	-4639
▁award	-4640
▁field	-4641
American	-4642
▁proceed	-4643
▁murdered	-4644
▁explained	-4645
???	-4646
het	-4647
cture	-4648
pless	-4649
acting	-4650
▁floor	-4651
▁bigger	-4652
▁lovers	-4653
uh	-4654
▁Les	-4655
▁Roy	-4656
▁frame	-4657
▁vehic	-4658
▁constant	-4659
▁Rom	-4660
icked	-4661
▁Sant	-4662
▁deals	-4663
▁hopes	-4664
imental	-4665
▁relate	-4666
▁talents	-4667
▁behavior	-4668
II	-4669
urse	-4670
▁goof	-4671
▁aband	-4672
▁issue	-4673
▁Arthur	-4674
▁criminal	-4675
▁nonsense	-4676
▁signific	-4677
reck	-4678
▁Alan	-4679
▁Thing	-4680
▁civil	-4681
▁Johnny	-4682
▁finest	-4683
▁dealing	-4684
▁foreign	-4685
▁partner	-4686
▁terribly	-4687
▁Was	-4688
anced	-4689
unted	-4690
▁Look	-4691
▁humanity	-4692
rs	-4693
."<	-4694
John	-4695
▁Ron	-4696
▁bot	-4697
atory	-4698
▁boat	-4699
▁cant	-4700
▁Howard	-4701
▁bloody	-4702
▁parody	-4703
▁interpret	-4704
▁11	-4705
▁hyp	-4706
▁Pres	-4707
looking	-4708
ruction	-4709
........	-4710
gn	-4711
ogy	-4712
▁tem	-4713
iling	-4714
▁stret	-4715
▁Master	-4716
▁circum	-4717
▁skills	-4718
▁survive	-4719
▁card	-4720
▁Death	-4721
▁incre	-4722
stit	-4723
▁Far	-4724
▁Max	-4725
▁sac	-4726
alled	-4727
ounds	-4728
▁educ	-4729
▁suck	-4730
▁kinda	-4731
▁Columb	-4732
▁hidden	-4733
▁capture	-4734
▁unfunny	-4735
▁community	-4736
mo	-4737
iro	-4738
▁unint	-4739
▁sucked	-4740
fortable	-4741
▁keeping	-4742
▁machine	-4743
▁experien	-4744
zan	-4745
▁Wat	-4746
ennis	-4747
▁vote	-4748
▁pretentious	-4749
irk	-4750
ember	-4751
ooper	-4752
▁categ	-4753
▁chore	-4754
▁remain	-4755
▁reviewers	-4756
ency	-4757
▁miser	-4758
▁prove	-4759
▁remembered	-4760
.5	-4761
At	-4762
▁Ap	-4763
▁text	-4764
▁Those	-4765
▁flying	-4766
▁numerous	-4767
▁desperate	-4768
isc	-4769
abor	-4770
▁opt	-4771
thony	-4772
▁Cass	-4773
aker	-4774
▁ing	-4775
▁Wayne	-4776
▁England	-4777
▁driving	-4778
▁represent	-4779
agal	-4780
cise	-4781
etic	-4782
▁gru	-4783
holic	-4784
▁pilot	-4785
▁incomp	-4786
▁starting	-4787
des	-4788
screen	-4789
▁print	-4790
▁sheer	-4791
▁dreadful	-4792
▁included	-4793
▁instance	-4794
▁monsters	-4795
▁Cr	-4796
sell	-4797
icate	-4798
▁Eric	-4799
▁Okay	-4800
▁cars	-4801
▁Brian	-4802
▁protagonist	-4803
uman	-4804
▁sed	-4805
▁gory	-4806
▁dress	-4807
▁results	-4808
▁villains	-4809
bell	-4810
▁Nick	-4811
edding	-4812
▁growing	-4813
▁therefore	-4814
▁stereotypes	-4815
dra	-4816
ache	-4817
ques	-4818
▁mini	-4819
▁Blood	-4820
▁troub	-4821
▁expert	-4822
▁pulled	-4823
▁winning	-4824
);	-4825
oh	-4826
yes	-4827
▁Es	-4828
▁Sean	-4829
▁earn	-4830
▁resol	-4831
Sp	-4832
▁Hal	-4833
▁Lynch	-4834
▁study	-4835
POILERS	-4836
▁mission	-4837
▁circumst	-4838
bur	-4839
nam	-4840
▁desp	-4841
▁heroine	-4842
▁teenagers	-4843
ued	-4844
▁EVER	-4845
▁site	-4846
▁steal	-4847
▁determ	-4848
▁environ	-4849
▁ordinary	-4850
▁concerned	-4851
ILL	-4852
irm	-4853
vit	-4854
▁Li	-4855
They	-4856
▁guns	-4857
▁cruel	-4858
▁humans	-4859
ante	-4860
mare	-4861
vest	-4862
▁dated	-4863
▁France	-4864
▁context	-4865
▁realism	-4866
▁IT	-4867
core	-4868
wolf	-4869
▁Louis	-4870
▁finale	-4871
▁contrast	-4872
▁magnificent	-4873
▁Dar	-4874
▁Dem	-4875
▁Out	-4876
▁seat	-4877
▁shop	-4878
hearted	-4879
▁philos	-4880
▁intellect	-4881
▁delightful	-4882
▁discovered	-4883
▁unrealistic	-4884
▁vs	-4885
umps	-4886
▁Hay	-4887
▁Thank	-4888
▁grace	-4889
glas	-4890
▁pit	-4891
▁Jose	-4892
▁Texas	-4893
ication	-4894
▁charis	-4895
▁challeng	-4896
▁generation	-4897
rat	-4898
ilies	-4899
▁cuts	-4900
▁grew	-4901
▁safe	-4902
▁church	-4903
▁lesson	-4904
▁satire	-4905
▁received	-4906
▁somebody	-4907
▁La	-4908
▁Mrs	-4909
orted	-4910
finitely	-4911
▁manipul	-4912
▁psychological	-4913
ked	-4914
ups	-4915
mble	-4916
▁fif	-4917
ribut	-4918
▁Lewis	-4919
▁corny	-4920
▁paper	-4921
▁animal	-4922
▁assass	-4923
▁regular	-4924
▁Del	-4925
▁Wild	-4926
ushing	-4927
▁model	-4928
▁levels	-4929
▁confront	-4930
Rob	-4931
ulf	-4932
▁(2	-4933
▁Ty	-4934
▁Barry	-4935
▁imagin	-4936
▁contrived	-4937
▁Australian	-4938
aybe	-4939
▁bath	-4940
▁blue	-4941
▁empty	-4942
▁Island	-4943
▁breaks	-4944
▁princi	-4945
▁African	-4946
▁consist	-4947
ama	-4948
nox	-4949
▁Pre	-4950
While	-4951
▁Capt	-4952
▁Gary	-4953
▁Mars	-4954
▁frank	-4955
▁screw	-4956
▁teach	-4957
arently	-4958
▁speech	-4959
▁window	-4960
▁officer	-4961
▁woods	-4962
tw	-4963
top	-4964
▁60	-4965
▁sch	-4966
▁cameo	-4967
▁frequ	-4968
▁overly	-4969
▁visuals	-4970
▁involves	-4971
ether	-4972
▁saved	-4973
▁singer	-4974
ometimes	-4975
▁genuinely	-4976
▁spectacular	-4977
worth	-4978
▁fate	-4979
▁hall	-4980
▁park	-4981
▁media	-4982
▁Andrew	-4983
▁underrated	-4984
OL	-4985
!).	-4986
▁Ho	-4987
hold	-4988
iser	-4989
oween	-4990
▁grown	-4991
▁speed	-4992
▁European	-4993
▁amateurish	-4994
▁combination	-4995
▁perspective	-4996
▁ic	-4997
ueen	-4998
▁arm	-4999
▁cash	-5000
ivered	-5001
▁gonna	-5002
▁morning	-5003
▁connection	-5004
▁dry	-5005
▁ens	-5006
▁lat	-5007
▁intent	-5008
▁gangster	-5009
▁teenager	-5010
▁Sin	-5011
▁vac	-5012
ading	-5013
point	-5014
▁higher	-5015
▁display	-5016
▁shallow	-5017
▁revealed	-5018
tes	-5019
ube	-5020
▁25	-5021
▁Sn	-5022
▁Asian	-5023
▁cares	-5024
▁Morgan	-5025
▁edited	-5026
▁Spanish	-5027
▁corrupt	-5028
ails	-5029
▁BBC	-5030
▁Mer	-5031
▁YOU	-5032
▁Kenn	-5033
luding	-5034
▁green	-5035
▁marry	-5036
▁refres	-5037
▁theaters	-5038
▁continues	-5039
yer	-5040
hent	-5041
kins	-5042
▁Cent	-5043
▁THIS	-5044
▁Viet	-5045
▁tack	-5046
▁associ	-5047
▁Mal	-5048
▁nin	-5049
▁tun	-5050
ching	-5051
oting	-5052
porary	-5053
▁range	-5054
▁veter	-5055
▁Douglas	-5056
▁attitude	-5057
tle	-5058
uls	-5059
away	-5060
▁fle	-5061
▁syn	-5062
After	-5063
ordon	-5064
▁yeah	-5065
▁types	-5066
▁executed	-5067
aa	-5068
arc	-5069
ummy	-5070
▁kiss	-5071
▁gross	-5072
▁choose	-5073
▁featuring	-5074
uther	-5075
▁wealth	-5076
▁Anthony	-5077
▁failure	-5078
▁originally	-5079
▁NO	-5080
omed	-5081
some	-5082
▁fund	-5083
▁Hitler	-5084
▁Second	-5085
▁forces	-5086
▁relief	-5087
▁families	-5088
▁laughter	-5089
▁provided	-5090
▁described	-5091
iy	-5092
Also	-5093
iens	-5094
ilty	-5095
▁Mic	-5096
▁feet	-5097
▁ring	-5098
▁uncom	-5099
▁research	-5100
abb	-5101
With	-5102
idge	-5103
▁Ver	-5104
▁deg	-5105
▁toward	-5106
▁warning	-5107
ped	-5108
lear	-5109
▁press	-5110
▁purcha	-5111
▁discovers	-5112
▁existence	-5113
▁Leon	-5114
▁snow	-5115
▁vide	-5116
▁heroes	-5117
▁sitcom	-5118
uk	-5119
sec	-5120
cies	-5121
usive	-5122
▁sake	-5123
▁Keaton	-5124
▁decade	-5125
▁rental	-5126
▁whilst	-5127
▁dressed	-5128
▁delivered	-5129
LLY	-5130
bly	-5131
▁/>1	-5132
▁Jess	-5133
▁Mont	-5134
▁bear	-5135
▁obsc	-5136
▁Broad	-5137
▁judge	-5138
▁organ	-5139
▁curious	-5140
▁extraord	-5141
▁flashbacks	-5142
▁fal	-5143
▁sun	-5144
iforn	-5145
reedom	-5146
uitous	-5147
▁Julie	-5148
▁Which	-5149
▁brilliantly	-5150
▁ju	-5151
oken	-5152
▁Jan	-5153
abeth	-5154
▁lousy	-5155
▁advert	-5156
▁altern	-5157
▁tedious	-5158
acc	-5159
▁Haw	-5160
▁vul	-5161
▁king	-5162
▁sole	-5163
rifying	-5164
▁assume	-5165
▁unable	-5166
▁Academy	-5167
▁sympathetic	-5168
▁occasionally	-5169
amb	-5170
fit	-5171
rix	-5172
▁Pac	-5173
▁naive	-5174
RI	-5175
ano	-5176
othy	-5177
▁Sund	-5178
▁disp	-5179
▁Daniel	-5180
uppet	-5181
▁costs	-5182
▁desire	-5183
▁marvel	-5184
▁capable	-5185
▁decision	-5186
ums	-5187
outs	-5188
plin	-5189
▁grade	-5190
▁skill	-5191
▁sword	-5192
▁sequels	-5193
▁portrays	-5194
▁refreshing	-5195
▁)	-5196
ault	-5197
▁Wow	-5198
▁Lord	-5199
▁ages	-5200
▁built	-5201
iration	-5202
▁Before	-5203
▁viewed	-5204
▁walked	-5205
▁entertained	-5206
law	-5207
usi	-5208
▁bat	-5209
▁Camp	-5210
▁Hart	-5211
▁path	-5212
hentic	-5213
▁peace	-5214
▁excited	-5215
▁graphic	-5216
▁disgusting	-5217
abr	-5218
▁Par	-5219
▁Val	-5220
▁send	-5221
▁Franc	-5222
▁Jennifer	-5223
▁football	-5224
▁Cle	-5225
▁obl	-5226
▁sea	-5227
▁Andy	-5228
▁scar	-5229
orious	-5230
▁Jimmy	-5231
▁creates	-5232
▁protect	-5233
▁stopped	-5234
▁horribly	-5235
Re	-5236
done	-5237
▁Rod	-5238
▁steals	-5239
▁handsome	-5240
▁environment	-5241
▁da	-5242
▁cyn	-5243
▁sal	-5244
urday	-5245
▁Trek	-5246
▁Miche	-5247
▁logic	-5248
▁punch	-5249
▁eating	-5250
▁saving	-5251
▁village	-5252
entionally	-5253
RA	-5254
nda	-5255
ummer	-5256
▁embarrassing	-5257
run	-5258
ulp	-5259
yal	-5260
▁Int	-5261
aving	-5262
ients	-5263
▁Coll	-5264
▁tick	-5265
▁loses	-5266
▁seven	-5267
▁majority	-5268
▁reviewer	-5269
UN	-5270
▁di	-5271
ights	-5272
ifornia	-5273
▁proved	-5274
▁creatures	-5275
GE	-5276
oom	-5277
▁bag	-5278
theless	-5279
▁Seagal	-5280
amily	-5281
stream	-5282
▁propag	-5283
▁ultimate	-5284
▁treatment	-5285
ls	-5286
anks	-5287
▁Last	-5288
histic	-5289
orting	-5290
▁Harris	-5291
▁involve	-5292
▁promise	-5293
▁believes	-5294
▁slapstick	-5295
made	-5296
▁van	-5297
First	-5298
▁Plus	-5299
▁Wars	-5300
levant	-5301
▁Larry	-5302
▁Barbara	-5303
▁Festival	-5304
fl	-5305
aded	-5306
inis	-5307
▁vol	-5308
▁Jesus	-5309
▁inept	-5310
▁subtitles	-5311
▁essentially	-5312
▁circumstances	-5313
aken	-5314
▁Ell	-5315
▁zero	-5316
▁asking	-5317
▁broken	-5318
▁lesbian	-5319
▁normally	-5320
▁strongly	-5321
▁screaming	-5322
▁depressing	-5323
▁gratuitous	-5324
IGH	-5325
cul	-5326
than	-5327
▁proud	-5328
▁Gordon	-5329
▁hyster	-5330
▁meeting	-5331
▁cartoons	-5332
▁thoughts	-5333
▁qualities	-5334
ixt	-5335
Then	-5336
tain	-5337
▁fly	-5338
▁hey	-5339
▁hur	-5340
▁tor	-5341
▁redu	-5342
▁sharp	-5343
▁Ma	-5344
ashed	-5345
▁glass	-5346
▁truck	-5347
viously	-5348
▁Really	-5349
▁asleep	-5350
▁dubbed	-5351
▁Germany	-5352
▁endless	-5353
▁Dun	-5354
▁lucky	-5355
▁talks	-5356
▁colour	-5357
▁ladies	-5358
▁consequ	-5359
▁murdere	-5360
▁shocked	-5361
▁expression	-5362
roll	-5363
ashes	-5364
▁inex	-5365
▁Roman	-5366
▁weeks	-5367
▁powers	-5368
▁produce	-5369
▁evidence	-5370
▁pleasant	-5371
mond	-5372
▁Add	-5373
▁Gene	-5374
▁ende	-5375
▁opens	-5376
ogether	-5377
▁Albert	-5378
atherine	-5379
▁twisted	-5380
▁classics	-5381
asm	-5382
▁Moon	-5383
▁Rose	-5384
▁Stone	-5385
▁voices	-5386
▁substance	-5387
▁portraying	-5388
BO	-5389
isa	-5390
nes	-5391
▁BE	-5392
▁Sho	-5393
▁bre	-5394
▁pal	-5395
osexual	-5396
▁Street	-5397
▁accomp	-5398
▁bodies	-5399
▁compan	-5400
▁ruined	-5401
▁painfully	-5402
She	-5403
mind	-5404
reek	-5405
ucky	-5406
▁Time	-5407
▁harsh	-5408
ausible	-5409
▁Guy	-5410
▁Luc	-5411
owell	-5412
alling	-5413
▁caused	-5414
▁rescue	-5415
▁Chaplin	-5416
teresting	-5417
▁appealing	-5418
▁authentic	-5419
▁controvers	-5420
Fi	-5421
lder	-5422
▁/>2	-5423
arian	-5424
▁appl	-5425
▁fits	-5426
▁spin	-5427
▁guest	-5428
▁bringing	-5429
ruct	-5430
▁Ted	-5431
▁gas	-5432
tended	-5433
▁teens	-5434
▁passed	-5435
▁routine	-5436
▁vehicle	-5437
ashington	-5438
▁revolution	-5439
▁traditional	-5440
▁exploitation	-5441
BI	-5442
phy	-5443
atra	-5444
▁Kat	-5445
▁Kim	-5446
riday	-5447
ungle	-5448
▁Kong	-5449
▁Lady	-5450
formed	-5451
▁North	-5452
▁witch	-5453
▁dollars	-5454
Even	-5455
kend	-5456
pent	-5457
sing	-5458
▁Pict	-5459
▁emer	-5460
▁fict	-5461
▁Being	-5462
▁table	-5463
▁Jackie	-5464
ker	-5465
gers	-5466
buster	-5467
▁Alice	-5468
▁Cinem	-5469
▁unfortun	-5470
▁emotionally	-5471
urns	-5472
▁Bor	-5473
class	-5474
imate	-5475
▁Again	-5476
▁Anyone	-5477
▁counter	-5478
▁worthwhile	-5479
▁Po	-5480
icit	-5481
itiz	-5482
▁Ros	-5483
▁VER	-5484
▁bond	-5485
Why	-5486
oooo	-5487
▁fame	-5488
▁pity	-5489
▁quir	-5490
▁excit	-5491
▁invent	-5492
▁promising	-5493
▁experienced	-5494
Of	-5495
▁UK	-5496
beat	-5497
pass	-5498
▁Fre	-5499
▁Get	-5500
▁Run	-5501
▁lone	-5502
▁Irish	-5503
▁cring	-5504
telling	-5505
▁Univers	-5506
▁whenever	-5507
za	-5508
▁clue	-5509
▁spends	-5510
▁enthusi	-5511
▁evening	-5512
▁hearing	-5513
▁depicted	-5514
▁standing	-5515
▁conce	-5516
▁angles	-5517
▁streets	-5518
Pl	-5519
nal	-5520
▁Rem	-5521
▁pan	-5522
▁wel	-5523
▁cook	-5524
▁forth	-5525
▁price	-5526
▁accents	-5527
▁nominated	-5528
▁Washington	-5529
▁experiences	-5530
lim	-5531
▁2.	-5532
▁SH	-5533
▁Lam	-5534
▁blow	-5535
▁term	-5536
▁Simon	-5537
▁facts	-5538
▁idiot	-5539
▁popul	-5540
▁refer	-5541
▁necess	-5542
▁descript	-5543
▁versions	-5544
abe	-5545
▁Brad	-5546
rating	-5547
▁ancient	-5548
▁recognize	-5549
ij	-5550
ww	-5551
oop	-5552
▁TO	-5553
whel	-5554
▁hol	-5555
etime	-5556
itter	-5557
▁Eliz	-5558
▁Avoid	-5559
▁prior	-5560
▁allows	-5561
▁festival	-5562
dom	-5563
oyd	-5564
▁Kate	-5565
mother	-5566
▁sides	-5567
▁speaks	-5568
▁figured	-5569
▁believed	-5570
▁identity	-5571
IR	-5572
upt	-5573
▁Comm	-5574
▁Long	-5575
▁compos	-5576
▁convey	-5577
▁makeup	-5578
▁bothered	-5579
▁satisfying	-5580
▁technology	-5581
▁suspenseful	-5582
▁contemporary	-5583
sl	-5584
avy	-5585
umber	-5586
▁chosen	-5587
▁favorites	-5588
▁excitement	-5589
):	-5590
VE	-5591
▁MST	-5592
produ	-5593
▁Does	-5594
▁heck	-5595
▁till	-5596
▁trib	-5597
▁Wilson	-5598
▁14	-5599
iled	-5600
▁Whe	-5601
▁Hope	-5602
▁THAT	-5603
▁walks	-5604
▁Holmes	-5605
▁Joseph	-5606
▁source	-5607
▁Russell	-5608
▁freedom	-5609
▁renting	-5610
▁Broadway	-5611
▁captures	-5612
▁unfortunate	-5613
hens	-5614
▁Dian	-5615
▁rend	-5616
▁establ	-5617
▁suffering	-5618
oes	-5619
cker	-5620
erie	-5621
long	-5622
ners	-5623
udic	-5624
▁gig	-5625
▁Cast	-5626
▁learns	-5627
▁Actually	-5628
▁propaganda	-5629
▁camer	-5630
▁Watching	-5631
▁visually	-5632
▁performed	-5633
▁Bog	-5634
▁1970	-5635
▁toler	-5636
▁Dennis	-5637
▁losing	-5638
▁praise	-5639
▁transp	-5640
eanwhile	-5641
▁Brothers	-5642
ENT	-5643
▁Are	-5644
▁1980	-5645
▁pregn	-5646
▁rough	-5647
▁unfor	-5648
▁multiple	-5649
ume	-5650
ston	-5651
▁Tod	-5652
▁semi	-5653
▁disag	-5654
▁pursu	-5655
▁erotic	-5656
▁latest	-5657
▁suffers	-5658
▁Anderson	-5659
▁sympathy	-5660
▁Up	-5661
Just	-5662
▁Gener	-5663
outhern	-5664
▁blonde	-5665
▁sports	-5666
▁frankly	-5667
▁spoilers	-5668
▁training	-5669
▁theatrical	-5670
ynam	-5671
▁Eve	-5672
▁batt	-5673
▁core	-5674
▁shut	-5675
▁rules	-5676
▁matters	-5677
▁featured	-5678
▁encounter	-5679
3.	-5680
!),	-5681
mal	-5682
▁Dog	-5683
▁MOV	-5684
▁Rac	-5685
▁tap	-5686
▁lower	-5687
Although	-5688
▁Francis	-5689
▁reflect	-5690
▁complain	-5691
▁religion	-5692
▁appropriate	-5693
ils	-5694
onel	-5695
otion	-5696
range	-5697
▁Bern	-5698
▁Evil	-5699
▁Yeah	-5700
▁drop	-5701
▁harm	-5702
▁false	-5703
▁flesh	-5704
▁plans	-5705
▁reput	-5706
▁scale	-5707
▁center	-5708
▁factor	-5709
▁touches	-5710
▁unconvin	-5711
▁surprises	-5712
Ste	-5713
ola	-5714
fire	-5715
ulci	-5716
▁USA	-5717
▁flow	-5718
▁abuse	-5719
▁rival	-5720
▁borrow	-5721
▁commit	-5722
▁crying	-5723
▁guilty	-5724
▁landsc	-5725
▁Canadian	-5726
aming	-5727
▁Child	-5728
▁Roger	-5729
▁chose	-5730
▁dinos	-5731
▁cutting	-5732
▁remotely	-5733
▁offensive	-5734
ilton	-5735
▁cris	-5736
▁Count	-5737
▁crash	-5738
ression	-5739
▁psycho	-5740
▁Roberts	-5741
▁outrage	-5742
▁convince	-5743
rie	-5744
umm	-5745
▁Sur	-5746
▁rot	-5747
ilogy	-5748
▁alco	-5749
▁mask	-5750
▁Three	-5751
▁ideal	-5752
▁vague	-5753
▁Edward	-5754
▁Murphy	-5755
▁admire	-5756
▁handled	-5757
▁obsessed	-5758
▁committed	-5759
▁practically	-5760
vy	-5761
ait	-5762
▁Jac	-5763
▁atro	-5764
▁link	-5765
▁rise	-5766
▁graph	-5767
▁degree	-5768
▁largely	-5769
▁Eastwood	-5770
▁unlikely	-5771
▁virtually	-5772
▁interaction	-5773
iat	-5774
▁NE	-5775
cula	-5776
▁flo	-5777
▁Kill	-5778
▁Rick	-5779
▁farm	-5780
▁skip	-5781
▁stom	-5782
▁inner	-5783
▁spark	-5784
▁Nichol	-5785
▁surface	-5786
▁Saturday	-5787
▁category	-5788
▁16	-5789
▁ALL	-5790
▁jail	-5791
▁pile	-5792
ighter	-5793
▁ludic	-5794
▁paced	-5795
▁Captain	-5796
▁Vietnam	-5797
▁besides	-5798
▁California	-5799
▁previously	-5800
EE	-5801
▁Bu	-5802
▁Ra	-5803
▁abr	-5804
▁mir	-5805
oster	-5806
▁Much	-5807
▁fare	-5808
▁wear	-5809
▁poign	-5810
▁Parker	-5811
▁holding	-5812
▁LA	-5813
rant	-5814
▁Sid	-5815
arning	-5816
▁minds	-5817
▁betray	-5818
▁Patrick	-5819
▁costume	-5820
▁prostit	-5821
▁segment	-5822
▁Especially	-5823
udes	-5824
▁Rain	-5825
▁fish	-5826
▁neat	-5827
▁bitter	-5828
▁collect	-5829
▁wedding	-5830
▁melodrama	-5831
▁continuity	-5832
"),	-5833
aze	-5834
olen	-5835
▁Cas	-5836
▁lie	-5837
craft	-5838
▁Dean	-5839
▁Kore	-5840
▁States	-5841
▁Johnson	-5842
▁movement	-5843
▁profound	-5844
▁forgettable	-5845
▁accidentally	-5846
▁supernatural	-5847
▁Ob	-5848
▁Sal	-5849
▁1950	-5850
▁Full	-5851
▁VERY	-5852
spired	-5853
▁Sadly	-5854
lection	-5855
▁Brooks	-5856
▁Jewish	-5857
▁variety	-5858
including	-5859
▁stereotypical	-5860
rem	-5861
aret	-5862
ship	-5863
world	-5864
▁evol	-5865
ipping	-5866
rehens	-5867
▁dirty	-5868
▁upset	-5869
written	-5870
▁amazed	-5871
▁inevit	-5872
▁Finally	-5873
▁reminis	-5874
ago	-5875
hise	-5876
umbling	-5877
▁Africa	-5878
▁Donald	-5879
▁Channel	-5880
▁incident	-5881
▁required	-5882
▁Halloween	-5883
▁influence	-5884
▁relatively	-5885
▁extraordinary	-5886
▁Ku	-5887
anny	-5888
orig	-5889
▁acqu	-5890
▁United	-5891
▁partic	-5892
▁stayed	-5893
▁covered	-5894
▁sounded	-5895
zo	-5896
pet	-5897
enny	-5898
ethe	-5899
▁cab	-5900
▁cro	-5901
▁Cost	-5902
▁addict	-5903
▁nostal	-5904
▁exagger	-5905
▁reporter	-5906
▁vampires	-5907
▁distribut	-5908
▁execution	-5909
▁sensitive	-5910
Ne	-5911
uty	-5912
zil	-5913
▁Old	-5914
▁Tur	-5915
atives	-5916
enstein	-5917
▁buying	-5918
▁captiv	-5919
▁haunting	-5920
▁structure	-5921
wy	-5922
ION	-5923
▁fu	-5924
▁Off	-5925
▁Rad	-5926
▁San	-5927
▁ded	-5928
▁hen	-5929
▁sche	-5930
taking	-5931
▁expos	-5932
▁stalk	-5933
▁mistakes	-5934
▁scenario	-5935
▁Sometimes	-5936
▁everywhere	-5937
▁0	-5938
▁CH	-5939
▁focused	-5940
▁increas	-5941
▁private	-5942
UR	-5943
ym	-5944
").	-5945
▁Had	-5946
▁ain	-5947
▁Over	-5948
▁trick	-5949
▁wrest	-5950
▁funnier	-5951
▁seasons	-5952
▁prepared	-5953
ba	-5954
sm	-5955
ems	-5956
liver	-5957
loved	-5958
▁jeal	-5959
▁Fulci	-5960
▁India	-5961
▁spite	-5962
▁excess	-5963
▁gentle	-5964
▁initial	-5965
▁section	-5966
▁politics	-5967
▁1.	-5968
hall	-5969
▁Art	-5970
▁Min	-5971
▁swim	-5972
▁pulls	-5973
▁worry	-5974
▁preview	-5975
▁veteran	-5976
▁destroyed	-5977
Ar	-5978
eds	-5979
amie	-5980
chen	-5981
▁sop	-5982
Every	-5983
▁Hoff	-5984
▁Vamp	-5985
▁bore	-5986
▁sorts	-5987
▁arrest	-5988
▁crimin	-5989
▁turkey	-5990
▁depiction	-5991
ety	-5992
▁Bull	-5993
▁Port	-5994
apping	-5995
▁Carol	-5996
▁blown	-5997
▁enemy	-5998
▁enter	-5999
▁simpl	-6000
▁extras	-6001
▁directly	-6002
Cl	-6003
▁Beat	-6004
▁Your	-6005
▁bound	-6006
▁obnox	-6007
▁gritty	-6008
▁choices	-6009
▁hanging	-6010
▁summary	-6011
▁narration	-6012
▁ly	-6013
▁Each	-6014
▁overlook	-6015
▁convinced	-6016
▁interviews	-6017
▁occasional	-6018
▁reputation	-6019
▁conversation	-6020
dim	-6021
▁SO	-6022
▁fix	-6023
enced	-6024
ipped	-6025
▁Take	-6026
▁arch	-6027
▁cust	-6028
▁lift	-6029
▁Brand	-6030
▁polic	-6031
▁deaths	-6032
▁health	-6033
▁confess	-6034
▁stomach	-6035
▁abandoned	-6036
▁statement	-6037
▁Apparently	-6038
▁experiment	-6039
wing	-6040
▁revel	-6041
▁method	-6042
etheless	-6043
▁demonstr	-6044
▁presents	-6045
▁mainstream	-6046
GM	-6047
▁17	-6048
▁Bon	-6049
onest	-6050
▁reun	-6051
▁ruin	-6052
▁tiny	-6053
▁teeth	-6054
▁emphas	-6055
▁focuses	-6056
▁improve	-6057
▁tremend	-6058
▁atrocious	-6059
▁frightening	-6060
▁originality	-6061
IM	-6062
▁Mill	-6063
▁cous	-6064
▁mildly	-6065
▁shorts	-6066
▁calling	-6067
▁concert	-6068
▁contact	-6069
▁service	-6070
▁gruesome	-6071
▁universe	-6072
▁screening	-6073
▁understood	-6074
▁intellectual	-6075
▁uninteresting	-6076
ga	-6077
bour	-6078
hand	-6079
incess	-6080
▁Tarzan	-6081
▁claims	-6082
▁format	-6083
▁suffer	-6084
▁President	-6085
▁listening	-6086
▁department	-6087
aust	-6088
▁Care	-6089
▁Hill	-6090
▁court	-6091
▁repet	-6092
▁Wonder	-6093
▁weapons	-6094
▁downright	-6095
▁unconvincing	-6096
hem	-6097
ito	-6098
orb	-6099
eral	-6100
noon	-6101
ooth	-6102
port	-6103
▁warn	-6104
Anyway	-6105
uclear	-6106
▁Anton	-6107
▁stolen	-6108
▁Through	-6109
▁trapped	-6110
▁accompan	-6111
▁realizes	-6112
---	-6113
hal	-6114
non	-6115
rol	-6116
▁Da	-6117
ella	-6118
eter	-6119
▁ice	-6120
hamed	-6121
plays	-6122
▁Play	-6123
▁task	-6124
▁quirky	-6125
▁serves	-6126
breaking	-6127
▁courage	-6128
▁heavily	-6129
▁imagery	-6130
▁sisters	-6131
vo	-6132
acre	-6133
▁arg	-6134
after	-6135
▁Anna	-6136
▁Sher	-6137
▁yell	-6138
▁crude	-6139
▁uncle	-6140
▁driver	-6141
▁decades	-6142
▁Elizabeth	-6143
▁appreciated	-6144
▁complicated	-6145
▁wid	-6146
▁Lane	-6147
▁Vinc	-6148
arable	-6149
assion	-6150
▁Beaut	-6151
▁encou	-6152
▁deeper	-6153
▁status	-6154
▁Mexican	-6155
▁Without	-6156
▁contest	-6157
je	-6158
gie	-6159
sha	-6160
ashy	-6161
rier	-6162
▁FBI	-6163
▁Mod	-6164
▁Tor	-6165
▁gre	-6166
amous	-6167
▁Swed	-6168
▁hired	-6169
▁kinds	-6170
▁loyal	-6171
▁wound	-6172
▁paying	-6173
▁concent	-6174
Man	-6175
IGHT	-6176
▁unp	-6177
▁Baby	-6178
▁None	-6179
belief	-6180
horror	-6181
▁Friday	-6182
▁device	-6183
▁massive	-6184
▁combined	-6185
▁critical	-6186
▁painting	-6187
▁Otherwise	-6188
fess	-6189
ugos	-6190
▁Ire	-6191
▁Hong	-6192
▁sink	-6193
▁tong	-6194
▁unif	-6195
▁Clark	-6196
▁Julia	-6197
▁campy	-6198
▁timing	-6199
▁warned	-6200
▁contribut	-6201
▁fictional	-6202
Yes	-6203
can	-6204
ids	-6205
kind	-6206
udge	-6207
▁Mil	-6208
umble	-6209
▁Wall	-6210
▁puzz	-6211
▁vast	-6212
anding	-6213
▁antic	-6214
▁chair	-6215
▁prime	-6216
▁spell	-6217
▁placed	-6218
▁changing	-6219
▁according	-6220
▁amazingly	-6221
aude	-6222
▁/>*	-6223
▁ANY	-6224
▁Fer	-6225
▁ske	-6226
▁goofy	-6227
▁lights	-6228
▁haunted	-6229
▁minimal	-6230
▁univers	-6231
▁overwhel	-6232
▁position	-6233
▁struggling	-6234
cons	-6235
elve	-6236
laim	-6237
▁***	-6238
▁Pri	-6239
▁sne	-6240
▁Under	-6241
▁paint	-6242
▁Sunday	-6243
▁cheese	-6244
▁winner	-6245
▁Hoffman	-6246
▁disagree	-6247
▁murderer	-6248
"?	-6249
gon	-6250
hib	-6251
zed	-6252
girl	-6253
▁Camer	-6254
▁Enter	-6255
▁views	-6256
▁Walter	-6257
▁driven	-6258
▁scares	-6259
▁closing	-6260
▁killers	-6261
▁ludicrous	-6262
fun	-6263
▁AL	-6264
▁NY	-6265
From	-6266
case	-6267
pson	-6268
▁ade	-6269
▁WWII	-6270
▁10/10	-6271
▁MOVIE	-6272
▁beach	-6273
▁chuck	-6274
▁closer	-6275
▁raised	-6276
▁offered	-6277
▁weekend	-6278
▁particip	-6279
iano	-6280
▁LOV	-6281
▁unse	-6282
▁colors	-6283
▁facial	-6284
▁succeeds	-6285
▁obnoxious	-6286
Do	-6287
▁Det	-6288
▁Rec	-6289
▁bik	-6290
arden	-6291
eness	-6292
▁isol	-6293
▁China	-6294
▁carried	-6295
▁expressions	-6296
ona	-6297
ses	-6298
▁Dep	-6299
▁Scar	-6300
▁guar	-6301
▁jobs	-6302
▁seek	-6303
▁anime	-6304
▁grave	-6305
▁During	-6306
▁native	-6307
▁comical	-6308
▁contain	-6309
▁greater	-6310
chy	-6311
usty	-6312
▁dom	-6313
osity	-6314
▁Berg	-6315
▁Kane	-6316
▁bird	-6317
▁blah	-6318
▁guard	-6319
▁Direct	-6320
▁passing	-6321
▁homosexual	-6322
imm	-6323
sed	-6324
▁/>4	-6325
▁Jay	-6326
▁via	-6327
▁inha	-6328
▁stays	-6329
▁Mickey	-6330
▁evident	-6331
▁magical	-6332
▁trilogy	-6333
▁explains	-6334
ari	-6335
gia	-6336
ule	-6337
umph	-6338
▁Army	-6339
▁Blue	-6340
▁butt	-6341
▁dogs	-6342
▁fond	-6343
▁nude	-6344
▁wins	-6345
called	-6346
uppets	-6347
▁dynam	-6348
▁lawyer	-6349
▁touched	-6350
▁designed	-6351
▁pregnant	-6352
▁legendary	-6353
IA	-6354
walk	-6355
▁Back	-6356
▁Grand	-6357
▁Cooper	-6358
▁halfway	-6359
▁security	-6360
▁naturally	-6361
dimensional	-6362
▁effectively	-6363
gun	-6364
wyck	-6365
▁mas	-6366
isher	-6367
style	-6368
except	-6369
▁Miller	-6370
▁throws	-6371
▁Dracula	-6372
▁arrives	-6373
▁starred	-6374
utherland	-6375
▁192	-6376
▁Die	-6377
▁McG	-6378
▁Son	-6379
iques	-6380
ombie	-6381
▁Helen	-6382
▁Sarah	-6383
▁ambit	-6384
▁consp	-6385
▁reward	-6386
▁connect	-6387
▁delivery	-6388
▁throwing	-6389
CT	-6390
iday	-6391
rees	-6392
▁Sun	-6393
▁wand	-6394
coming	-6395
▁coinc	-6396
▁dozen	-6397
▁handle	-6398
▁miscast	-6399
▁rolling	-6400
▁faithful	-6401
▁disbelief	-6402
ds	-6403
OOD	-6404
▁Pa	-6405
from	-6406
▁rub	-6407
▁sav	-6408
Watch	-6409
▁Comp	-6410
▁Have	-6411
▁Marg	-6412
▁blat	-6413
▁page	-6414
▁rank	-6415
▁tear	-6416
▁About	-6417
▁divor	-6418
▁intens	-6419
▁criticism	-6420
▁stupidity	-6421
▁description	-6422
▁inspiration	-6423
da	-6424
▁Sk	-6425
ianc	-6426
ibal	-6427
▁Cage	-6428
▁Plan	-6429
antage	-6430
iamond	-6431
▁chief	-6432
▁serve	-6433
▁Doctor	-6434
▁causes	-6435
▁stylish	-6436
▁baseball	-6437
▁distinct	-6438
Le	-6439
hau	-6440
loyd	-6441
ocal	-6442
omer	-6443
▁60'	-6444
plend	-6445
▁Luke	-6446
▁Phill	-6447
▁anger	-6448
▁brave	-6449
▁ignor	-6450
▁liber	-6451
▁ashamed	-6452
▁prevent	-6453
▁drinking	-6454
▁settings	-6455
▁desperately	-6456
..."	-6457
mber	-6458
▁irre	-6459
▁Person	-6460
▁extent	-6461
▁racist	-6462
▁patient	-6463
BS	-6464
▁nu	-6465
ange	-6466
olph	-6467
▁Air	-6468
▁MGM	-6469
▁Ren	-6470
iable	-6471
▁mans	-6472
▁surf	-6473
▁tree	-6474
▁Santa	-6475
▁Susan	-6476
▁basis	-6477
▁elder	-6478
▁indie	-6479
▁integ	-6480
Another	-6481
▁Movies	-6482
▁enjoying	-6483
▁storytelling	-6484
cean	-6485
fest	-6486
▁log	-6487
▁Amaz	-6488
▁Karen	-6489
▁prete	-6490
▁topic	-6491
▁aliens	-6492
▁charge	-6493
▁rights	-6494
▁subsequ	-6495
▁breaking	-6496
▁everyday	-6497
▁mentally	-6498
▁sophistic	-6499
Is	-6500
col	-6501
jud	-6502
▁Ow	-6503
hard	-6504
▁gar	-6505
▁fabul	-6506
▁theory	-6507
▁nuclear	-6508
▁plastic	-6509
▁related	-6510
▁reminiscent	-6511
11	-6512
imin	-6513
lynn	-6514
▁/>(	-6515
▁fet	-6516
adays	-6517
erved	-6518
▁libr	-6519
▁Charl	-6520
▁buddy	-6521
▁strict	-6522
▁answers	-6523
▁ratings	-6524
▁sheriff	-6525
something	-6526
▁examples	-6527
▁revolves	-6528
▁regarding	-6529
▁MU	-6530
list	-6531
nery	-6532
▁Ara	-6533
▁Gun	-6534
▁Inc	-6535
▁Pitt	-6536
▁join	-6537
▁cheer	-6538
▁caring	-6539
▁capital	-6540
▁assistant	-6541
Let	-6542
ada	-6543
ello	-6544
fall	-6545
▁Alt	-6546
▁Ash	-6547
▁End	-6548
▁Nazi	-6549
▁Betty	-6550
▁Italy	-6551
▁Woody	-6552
▁entry	-6553
▁franc	-6554
cellent	-6555
▁Warner	-6556
▁reject	-6557
!!!!!!!!	-6558
▁reveals	-6559
▁guessing	-6560
▁retarded	-6561
▁introduction	-6562
.)<	-6563
mod	-6564
rust	-6565
▁Ast	-6566
▁fil	-6567
penter	-6568
ounding	-6569
▁Argent	-6570
▁Knight	-6571
▁forest	-6572
▁titles	-6573
▁spoiler	-6574
▁comedian	-6575
▁afternoon	-6576
▁significant	-6577
asp	-6578
hob	-6579
iner	-6580
▁Cru	-6581
▁bill	-6582
lected	-6583
▁Later	-6584
▁jungle	-6585
▁mindless	-6586
▁Sutherland	-6587
▁attempting	-6588
▁credibility	-6589
▁embarrassed	-6590
▁exceptional	-6591
▁HA	-6592
▁ton	-6593
▁stunt	-6594
▁awards	-6595
▁heaven	-6596
▁novels	-6597
▁Columbo	-6598
▁graphics	-6599
▁condition	-6600
▁countries	-6601
▁criminals	-6602
▁necessarily	-6603
▁productions	-6604
hh	-6605
ida	-6606
fits	-6607
igned	-6608
oding	-6609
▁kung	-6610
liners	-6611
▁cance	-6612
▁flawed	-6613
▁balance	-6614
▁carries	-6615
▁credible	-6616
▁properly	-6617
▁Australia	-6618
die	-6619
▁Cap	-6620
▁Cry	-6621
stery	-6622
▁Come	-6623
▁dude	-6624
▁thro	-6625
▁aston	-6626
▁backd	-6627
▁enhan	-6628
▁river	-6629
▁Pacino	-6630
▁ignore	-6631
aughters	-6632
▁Bergman	-6633
Who	-6634
ught	-6635
▁(199	-6636
▁lazy	-6637
▁unbe	-6638
▁Music	-6639
▁wanna	-6640
▁shadow	-6641
▁scripts	-6642
▁welcome	-6643
▁cultural	-6644
▁horrific	-6645
▁treasure	-6646
▁underground	-6647
wh	-6648
rig	-6649
sky	-6650
▁cy	-6651
prise	-6652
▁Kurt	-6653
▁Caine	-6654
▁Lloyd	-6655
▁picks	-6656
▁Intern	-6657
▁alright	-6658
▁figures	-6659
▁network	-6660
ibilities	-6661
▁gripping	-6662
▁reference	-6663
▁struggles	-6664
orc	-6665
▁rev	-6666
acted	-6667
ouses	-6668
retty	-6669
▁Reyn	-6670
▁Wind	-6671
▁seve	-6672
▁tune	-6673
antino	-6674
▁Class	-6675
▁Sovie	-6676
▁incor	-6677
▁wears	-6678
▁beloved	-6679
▁wasting	-6680
▁Stanwyck	-6681
▁Catherine	-6682
CK	-6683
low	-6684
beit	-6685
isms	-6686
▁Los	-6687
▁Ret	-6688
▁(200	-6689
ingers	-6690
▁Devil	-6691
forward	-6692
▁Unlike	-6693
▁deadly	-6694
▁letter	-6695
▁racism	-6696
▁mountain	-6697
▁transform	-6698
▁international	-6699
bid	-6700
▁hip	-6701
ronic	-6702
▁Cole	-6703
▁poet	-6704
▁magaz	-6705
ception	-6706
▁execut	-6707
▁lonely	-6708
▁learning	-6709
▁Basically	-6710
▁screenwriter	-6711
aves	-6712
ease	-6713
oles	-6714
asant	-6715
athan	-6716
▁Tommy	-6717
▁metap	-6718
Michael	-6719
▁Philip	-6720
▁parall	-6721
▁stunts	-6722
▁perfection	-6723
ez	-6724
▁Oz	-6725
▁nom	-6726
ioned	-6727
▁Carr	-6728
▁cand	-6729
▁exer	-6730
▁Chuck	-6731
▁sleazy	-6732
▁dislike	-6733
▁helping	-6734
▁poignant	-6735
eed	-6736
▁ul	-6737
rank	-6738
weet	-6739
▁Mom	-6740
▁Wolf	-6741
▁hack	-6742
▁unre	-6743
comedy	-6744
idents	-6745
▁Along	-6746
▁Blair	-6747
▁Grant	-6748
▁tense	-6749
▁Oliver	-6750
▁flight	-6751
▁hooked	-6752
▁escapes	-6753
▁greatly	-6754
▁lovable	-6755
▁Meanwhile	-6756
▁Something	-6757
By	-6758
Des	-6759
TER	-6760
ani	-6761
hett	-6762
▁raw	-6763
story	-6764
▁Karl	-6765
▁Lind	-6766
▁Lore	-6767
▁rule	-6768
▁Grace	-6769
▁Produ	-6770
▁clips	-6771
▁miles	-6772
▁robot	-6773
▁suffe	-6774
▁medical	-6775
▁attacked	-6776
▁thousands	-6777
OP	-6778
▁PL	-6779
onda	-6780
▁Our	-6781
▁Chic	-6782
▁adop	-6783
▁arms	-6784
Christ	-6785
▁Hardy	-6786
▁Laura	-6787
▁Welles	-6788
▁dinner	-6789
▁served	-6790
original	-6791
▁Sinatra	-6792
▁anticip	-6793
▁artists	-6794
▁idiotic	-6795
▁journal	-6796
▁letting	-6797
▁psychiat	-6798
▁sinister	-6799
▁Definitely	-6800
50	-6801
cia	-6802
gypt	-6803
▁Sir	-6804
▁inj	-6805
▁ped	-6806
plete	-6807
▁Mass	-6808
▁Turn	-6809
▁Clint	-6810
▁disgu	-6811
▁urban	-6812
▁drives	-6813
▁purely	-6814
▁resist	-6815
▁confusion	-6816
▁presentation	-6817
aki	-6818
hist	-6819
▁grim	-6820
inging	-6821
▁aired	-6822
▁adding	-6823
▁castle	-6824
▁exists	-6825
▁videos	-6826
▁attacks	-6827
▁boredom	-6828
▁cynical	-6829
▁Seriously	-6830
rett	-6831
rial	-6832
▁Dad	-6833
▁Sav	-6834
▁Lost	-6835
▁argu	-6836
▁mere	-6837
▁phen	-6838
▁Award	-6839
▁fairy	-6840
▁innov	-6841
ishment	-6842
onsider	-6843
▁fabulous	-6844
▁separate	-6845
▁advantage	-6846
▁adventures	-6847
▁sentimental	-6848
▁controversial	-6849
aver	-6850
▁Arm	-6851
ifies	-6852
▁Stud	-6853
▁elev	-6854
▁fulf	-6855
▁shape	-6856
▁vivid	-6857
▁tongue	-6858
▁Besides	-6859
▁replaced	-6860
EAD	-6861
▁:)	-6862
iber	-6863
ingu	-6864
▁90'	-6865
iation	-6866
ogical	-6867
▁cases	-6868
▁sings	-6869
▁School	-6870
▁mature	-6871
▁Someone	-6872
▁immense	-6873
▁sleeping	-6874
▁searching	-6875
▁determined	-6876
▁Ju	-6877
▁Us	-6878
appy	-6879
book	-6880
▁Kar	-6881
▁bon	-6882
▁hes	-6883
▁slo	-6884
actic	-6885
chell	-6886
▁Flor	-6887
▁remo	-6888
ointed	-6889
semble	-6890
▁Krist	-6891
▁Mexico	-6892
gettable	-6893
▁atmospher	-6894
▁innocence	-6895
▁interpretation	-6896
va	-6897
end	-6898
▁Gi	-6899
mate	-6900
umbs	-6901
▁Arn	-6902
▁HBO	-6903
▁alt	-6904
order	-6905
▁sedu	-6906
▁crack	-6907
▁relax	-6908
▁Prince	-6909
▁REALLY	-6910
▁opened	-6911
ographer	-6912
▁Cameron	-6913
▁Kennedy	-6914
▁amongst	-6915
▁princip	-6916
▁useless	-6917
▁wealthy	-6918
▁accepted	-6919
▁assassin	-6920
▁challenge	-6921
Mar	-6922
▁**	-6923
▁BL	-6924
▁PG	-6925
crow	-6926
rich	-6927
stop	-6928
▁MAN	-6929
plots	-6930
utter	-6931
▁Bell	-6932
▁Land	-6933
▁hole	-6934
▁Sorry	-6935
▁Water	-6936
▁ripped	-6937
▁weight	-6938
▁Freeman	-6939
▁imaginative	-6940
ibl	-6941
▁BAD	-6942
▁Lem	-6943
▁vir	-6944
▁Nort	-6945
oration	-6946
▁border	-6947
▁lacked	-6948
▁intensity	-6949
Dav	-6950
den	-6951
▁pa	-6952
kick	-6953
when	-6954
▁Met	-6955
▁Veg	-6956
vably	-6957
▁Fair	-6958
▁Were	-6959
▁mira	-6960
▁pray	-6961
▁risk	-6962
▁Dream	-6963
▁stumb	-6964
▁Burton	-6965
▁illust	-6966
▁ironic	-6967
▁spoken	-6968
▁Reynolds	-6969
▁carrying	-6970
5.	-6971
UL	-6972
ila	-6973
▁asp	-6974
lance	-6975
▁cave	-6976
▁laid	-6977
▁Flynn	-6978
▁Greek	-6979
▁Family	-6980
▁monkey	-6981
▁repeat	-6982
▁tender	-6983
▁Vincent	-6984
▁restaur	-6985
▁consists	-6986
▁national	-6987
▁Obviously	-6988
▁competent	-6989
,'	-6990
Bra	-6991
ELL	-6992
amor	-6993
hest	-6994
itar	-6995
▁Lat	-6996
▁tag	-6997
alley	-6998
vised	-6999
▁Drew	-7000
▁diss	-7001
▁alleg	-7002
▁Freddy	-7003
▁Hunter	-7004
▁portra	-7005
▁shines	-7006
▁splend	-7007
▁convict	-7008
BLE	-7009
▁Mo	-7010
bbed	-7011
dows	-7012
hill	-7013
imum	-7014
wife	-7015
▁Nol	-7016
▁Ven	-7017
▁eth	-7018
▁fac	-7019
▁gal	-7020
cover	-7021
elson	-7022
▁corn	-7023
▁dece	-7024
▁angle	-7025
▁arrog	-7026
▁equal	-7027
▁spook	-7028
▁toile	-7029
▁Walker	-7030
▁horrend	-7031
▁Bollywood	-7032
▁Carpenter	-7033
▁franchise	-7034
?).	-7035
ONE	-7036
ieu	-7037
alph	-7038
orrow	-7039
▁(197	-7040
▁firm	-7041
▁jack	-7042
▁jerk	-7043
riller	-7044
▁Jamie	-7045
▁Marie	-7046
▁bucks	-7047
▁noted	-7048
▁stops	-7049
▁Acting	-7050
▁Matthau	-7051
▁install	-7052
▁overcome	-7053
▁suffered	-7054
▁werewolf	-7055
▁attempted	-7056
▁miserably	-7057
▁technique	-7058
▁Mid	-7059
going	-7060
ugosi	-7061
entric	-7062
▁Egypt	-7063
▁unfold	-7064
▁manager	-7065
▁uninspired	-7066
van	-7067
seud	-7068
▁bow	-7069
mates	-7070
▁(198	-7071
▁nose	-7072
▁nation	-7073
▁Charact	-7074
▁Michelle	-7075
▁SPOILERS	-7076
▁creation	-7077
▁marvelous	-7078
▁meaningful	-7079
▁techniques	-7080
iger	-7081
phan	-7082
▁Wes	-7083
arter	-7084
▁2001	-7085
▁cock	-7086
▁inco	-7087
mitted	-7088
▁jumps	-7089
ification	-7090
▁chilling	-7091
▁explicit	-7092
▁specific	-7093
▁Universal	-7094
▁enjoyment	-7095
▁breathtaking	-7096
▁consequences	-7097
▁uncomfortable	-7098
1/2	-7099
▁beer	-7100
▁boot	-7101
▁pool	-7102
▁sket	-7103
▁enorm	-7104
▁Golden	-7105
▁preach	-7106
▁robber	-7107
▁annoyed	-7108
▁protagonists	-7109
erty	-7110
▁Fro	-7111
eline	-7112
▁Lisa	-7113
▁myth	-7114
▁coach	-7115
▁drags	-7116
▁occup	-7117
▁tempt	-7118
▁Things	-7119
▁Britain	-7120
▁dialogs	-7121
▁stranger	-7122
▁Tarantino	-7123
▁thrilling	-7124
3,	-7125
ype	-7126
iffe	-7127
orses	-7128
▁Curt	-7129
▁Poor	-7130
▁torn	-7131
direct	-7132
▁Nancy	-7133
▁dealt	-7134
▁notch	-7135
▁raise	-7136
iveness	-7137
▁Comedy	-7138
▁chases	-7139
▁cousin	-7140
▁poster	-7141
▁belongs	-7142
▁lessons	-7143
▁vacation	-7144
▁obsession	-7145
AA	-7146
nan	-7147
ogue	-7148
▁Bac	-7149
▁Top	-7150
▁spy	-7151
ellar	-7152
erior	-7153
▁aged	-7154
Robert	-7155
redict	-7156
▁Would	-7157
▁finan	-7158
▁plant	-7159
▁announ	-7160
▁musicals	-7161
▁instantly	-7162
▁sexuality	-7163
▁appearances	-7164
!.	-7165
Con	-7166
allo	-7167
▁Fle	-7168
▁Mit	-7169
▁Net	-7170
▁WOR	-7171
▁mac	-7172
▁scr	-7173
gging	-7174
▁Khan	-7175
▁broke	-7176
▁lying	-7177
▁Soviet	-7178
▁hiding	-7179
▁sevent	-7180
▁Andrews	-7181
▁tribute	-7182
▁Probably	-7183
▁troubled	-7184
▁appearing	-7185
▁performers	-7186
▁surrounding	-7187
Mr	-7188
Good	-7189
quis	-7190
▁gro	-7191
agine	-7192
▁Home	-7193
▁Oliv	-7194
▁True	-7195
▁tied	-7196
......	-7197
▁stiff	-7198
▁ultra	-7199
▁access	-7200
▁deliber	-7201
▁official	-7202
▁connected	-7203
▁successfully	-7204
▁personalities	-7205
kel	-7206
too	-7207
Jack	-7208
▁alb	-7209
▁pad	-7210
▁eager	-7211
▁heist	-7212
▁saves	-7213
▁fallen	-7214
▁Connery	-7215
▁concerns	-7216
▁contract	-7217
▁friendly	-7218
▁frequently	-7219
▁neighborhood	-7220
rity	-7221
othic	-7222
woman	-7223
▁dare	-7224
▁hipp	-7225
▁hung	-7226
▁Bobby	-7227
▁Satan	-7228
▁adequ	-7229
▁proof	-7230
▁pseud	-7231
▁solve	-7232
▁dramas	-7233
▁mechan	-7234
▁profession	-7235
▁atmospheric	-7236
LD	-7237
OD	-7238
ANT	-7239
▁LI	-7240
▁Cus	-7241
▁Hud	-7242
▁jew	-7243
impse	-7244
place	-7245
▁Ball	-7246
▁Burt	-7247
▁Cind	-7248
▁vent	-7249
ifting	-7250
▁Rachel	-7251
▁glimpse	-7252
▁identify	-7253
▁broadcast	-7254
▁nightmare	-7255
thew	-7256
▁Sol	-7257
▁Gill	-7258
▁Lion	-7259
▁dign	-7260
▁Alien	-7261
▁Sally	-7262
▁autom	-7263
▁devil	-7264
onestly	-7265
▁Virgin	-7266
▁Jessica	-7267
▁closely	-7268
▁crafted	-7269
▁notable	-7270
▁nowadays	-7271
▁happiness	-7272
▁intention	-7273
ggy	-7274
▁45	-7275
▁AT	-7276
▁vi	-7277
Will	-7278
cket	-7279
▁10,	-7280
▁dump	-7281
▁neck	-7282
▁femin	-7283
▁oblig	-7284
▁traum	-7285
▁corpor	-7286
▁virgin	-7287
▁develops	-7288
▁millions	-7289
▁spending	-7290
▁suggests	-7291
▁essential	-7292
▁ourselves	-7293
US	-7294
mit	-7295
isha	-7296
rink	-7297
udos	-7298
▁Has	-7299
▁ecc	-7300
▁rain	-7301
rified	-7302
series	-7303
▁caric	-7304
▁sends	-7305
▁trial	-7306
▁upper	-7307
▁destro	-7308
▁smooth	-7309
▁struck	-7310
▁surviv	-7311
▁seeking	-7312
▁ensemble	-7313
▁hundreds	-7314
▁superfic	-7315
▁curiosity	-7316
▁acceptable	-7317
▁outrageous	-7318
ams	-7319
▁GRE	-7320
▁Rep	-7321
▁sky	-7322
▁Such	-7323
▁meat	-7324
▁metal	-7325
▁nurse	-7326
▁steps	-7327
▁cameos	-7328
▁Germans	-7329
▁dragged	-7330
▁thousand	-7331
▁kidnapped	-7332
▁spiritual	-7333
▁physically	-7334
Tom	-7335
obb	-7336
obi	-7337
why	-7338
rase	-7339
atisf	-7340
lover	-7341
stone	-7342
▁hill	-7343
▁legs	-7344
▁fianc	-7345
▁Lugosi	-7346
▁Powell	-7347
▁afford	-7348
▁switch	-7349
▁stealing	-7350
▁westerns	-7351
▁unforgettable	-7352
5,	-7353
wl	-7354
oked	-7355
asion	-7356
▁Shan	-7357
inally	-7358
emption	-7359
▁Arnold	-7360
▁Killer	-7361
▁conven	-7362
▁mirror	-7363
atchable	-7364
▁beating	-7365
▁madness	-7366
▁studios	-7367
▁melodramatic	-7368
3)	-7369
30	-7370
lee	-7371
▁Fu	-7372
▁Tri	-7373
▁Tru	-7374
icing	-7375
▁Cont	-7376
▁Soon	-7377
▁abys	-7378
▁quote	-7379
▁shark	-7380
▁Franco	-7381
▁Living	-7382
▁dramat	-7383
▁exchan	-7384
▁chasing	-7385
▁colorful	-7386
▁hopefully	-7387
OK	-7388
▁24	-7389
▁Ric	-7390
iders	-7391
▁Bros	-7392
▁cann	-7393
▁daily	-7394
▁grows	-7395
▁hoped	-7396
▁newsp	-7397
▁incons	-7398
▁command	-7399
▁pointed	-7400
▁exercise	-7401
▁daughters	-7402
▁president	-7403
▁Personally	-7404
▁scientists	-7405
Unfortunately	-7406
ya	-7407
oiler	-7408
osing	-7409
plane	-7410
▁fest	-7411
iments	-7412
▁maker	-7413
▁homage	-7414
▁lesser	-7415
▁talked	-7416
▁thirty	-7417
▁achieved	-7418
▁checking	-7419
▁darkness	-7420
▁sexually	-7421
▁appalling	-7422
▁initially	-7423
▁thrillers	-7424
CE	-7425
jo	-7426
aws	-7427
▁Alf	-7428
▁wra	-7429
watch	-7430
▁Give	-7431
▁mont	-7432
▁irony	-7433
▁spots	-7434
▁trite	-7435
▁Thanks	-7436
▁cringe	-7437
▁infect	-7438
▁essence	-7439
▁transfer	-7440
▁endearing	-7441
sho	-7442
via	-7443
▁DE	-7444
▁MA	-7445
utch	-7446
▁rat	-7447
▁Page	-7448
▁moon	-7449
▁size	-7450
▁Ralph	-7451
▁faced	-7452
▁inacc	-7453
▁kicks	-7454
▁suits	-7455
▁Police	-7456
▁ghosts	-7457
▁releas	-7458
▁states	-7459
ological	-7460
▁dubbing	-7461
▁charisma	-7462
▁killings	-7463
▁incoherent	-7464
Tw	-7465
ader	-7466
airs	-7467
aste	-7468
igan	-7469
rics	-7470
▁Ten	-7471
▁Dave	-7472
▁Greg	-7473
▁nuts	-7474
erella	-7475
▁cried	-7476
▁patri	-7477
▁Heaven	-7478
▁Nelson	-7479
▁abrupt	-7480
▁attend	-7481
▁packed	-7482
▁weakness	-7483
rep	-7484
ipes	-7485
▁Str	-7486
▁row	-7487
▁shy	-7488
▁tro	-7489
ushes	-7490
▁1930	-7491
▁Bran	-7492
▁anal	-7493
▁guts	-7494
ructed	-7495
▁clown	-7496
▁eerie	-7497
▁Laurel	-7498
▁beings	-7499
▁dollar	-7500
▁editor	-7501
▁elabor	-7502
▁fourth	-7503
▁toilet	-7504
▁weapon	-7505
▁battles	-7506
▁breasts	-7507
▁library	-7508
▁refuses	-7509
▁Mitchell	-7510
▁strangely	-7511
▁repetitive	-7512
▁established	-7513
▁importantly	-7514
gr	-7515
ux	-7516
pes	-7517
▁3.	-7518
agan	-7519
gain	-7520
ogan	-7521
▁Ice	-7522
▁Meg	-7523
▁rhy	-7524
Where	-7525
▁Four	-7526
▁Holly	-7527
▁easier	-7528
▁larger	-7529
▁rushed	-7530
ertainly	-7531
▁Superman	-7532
▁backdrop	-7533
▁internet	-7534
?),	-7535
cut	-7536
▁Hy	-7537
aurs	-7538
only	-7539
pses	-7540
▁lur	-7541
▁tow	-7542
▁Next	-7543
▁hype	-7544
▁ruth	-7545
▁toss	-7546
▁wann	-7547
resses	-7548
▁Check	-7549
▁blows	-7550
▁brand	-7551
▁react	-7552
▁opposed	-7553
▁subplot	-7554
▁Jonathan	-7555
▁striking	-7556
▁attraction	-7557
▁commercials	-7558
▁competition	-7559
AND	-7560
agh	-7561
hey	-7562
rum	-7563
▁2,	-7564
corn	-7565
▁Cur	-7566
▁Ree	-7567
▁tax	-7568
water	-7569
▁decl	-7570
iently	-7571
▁ambig	-7572
▁gradu	-7573
▁threw	-7574
▁Rogers	-7575
▁gather	-7576
▁suburb	-7577
▁creators	-7578
▁incompet	-7579
▁requires	-7580
▁horrendous	-7581
ads	-7582
haw	-7583
Char	-7584
athy	-7585
onse	-7586
umin	-7587
unky	-7588
▁Saw	-7589
▁Tem	-7590
eston	-7591
uloid	-7592
▁Bart	-7593
▁farce	-7594
▁limit	-7595
▁Sidney	-7596
▁finger	-7597
▁riding	-7598
▁tricks	-7599
Director	-7600
ographic	-7601
▁Chicago	-7602
▁handful	-7603
▁wondered	-7604
▁cardboard	-7605
▁carefully	-7606
▁repeatedly	-7607
ata	-7608
new	-7609
nic	-7610
▁Di	-7611
avor	-7612
esty	-7613
....<	-7614
Maybe	-7615
video	-7616
▁Rand	-7617
▁Stoo	-7618
oilers	-7619
▁Heart	-7620
▁knife	-7621
▁loser	-7622
▁thick	-7623
▁unple	-7624
▁shoots	-7625
--------	-7626
existent	-7627
▁General	-7628
▁engaged	-7629
▁phenomen	-7630
▁relevant	-7631
▁eccentric	-7632
▁nonetheless	-7633
80	-7634
ado	-7635
Paul	-7636
oose	-7637
▁Sky	-7638
▁Rome	-7639
▁glob	-7640
school	-7641
weight	-7642
▁illeg	-7643
▁Father	-7644
▁Oscars	-7645
▁Pretty	-7646
▁thread	-7647
▁wishes	-7648
▁adapted	-7649
▁selfish	-7650
▁selling	-7651
▁National	-7652
▁hysterical	-7653
7.	-7654
bal	-7655
uke	-7656
▁'7	-7657
lett	-7658
▁Reg	-7659
happy	-7660
ourne	-7661
▁Ever	-7662
▁sand	-7663
▁sque	-7664
▁citiz	-7665
▁fears	-7666
▁queen	-7667
▁Church	-7668
▁engine	-7669
▁territ	-7670
▁Indians	-7671
▁thrills	-7672
▁definite	-7673
▁mistaken	-7674
▁timeless	-7675
▁expensive	-7676
▁motivation	-7677
▁tremendous	-7678
▁increasingly	-7679
6.	-7680
ato	-7681
▁mes	-7682
▁Conn	-7683
▁bott	-7684
▁grad	-7685
▁imit	-7686
▁nail	-7687
▁Griff	-7688
▁Power	-7689
▁candy	-7690
▁guide	-7691
▁dancer	-7692
▁presum	-7693
▁spread	-7694
▁stated	-7695
▁happily	-7696
▁stretch	-7697
▁explosions	-7698
▁intentions	-7699
▁pleasantly	-7700
▁restaurant	-7701
▁sophisticated	-7702
Sh	-7703
yc	-7704
▁;	-7705
aka	-7706
pse	-7707
kish	-7708
nels	-7709
▁50'	-7710
▁Cub	-7711
!!!!!	-7712
▁Fire	-7713
▁gain	-7714
▁mock	-7715
▁activ	-7716
▁chest	-7717
▁merit	-7718
▁shout	-7719
jointed	-7720
▁Highly	-7721
▁Leslie	-7722
▁locked	-7723
▁Leonard	-7724
▁Science	-7725
▁comfort	-7726
▁holiday	-7727
▁portrait	-7728
▁attracted	-7729
▁reasonably	-7730
9.	-7731
▁Az	-7732
mann	-7733
▁Bry	-7734
▁Dri	-7735
▁Pot	-7736
▁Res	-7737
bbing	-7738
ierce	-7739
▁Josh	-7740
▁busy	-7741
▁chap	-7742
▁hood	-7743
handed	-7744
movies	-7745
▁Andre	-7746
▁Emily	-7747
▁Secret	-7748
▁beaten	-7749
▁cowboy	-7750
▁horses	-7751
▁string	-7752
▁vulner	-7753
▁Picture	-7754
▁accused	-7755
▁dropped	-7756
▁pleased	-7757
▁spoiled	-7758
▁ambitious	-7759
▁complaint	-7760
▁brilliance	-7761
ERS	-7762
Per	-7763
Like	-7764
▁Owen	-7765
▁eleg	-7766
entist	-7767
▁Witch	-7768
▁Korean	-7769
▁Russia	-7770
▁shower	-7771
▁wonders	-7772
▁basement	-7773
▁reactions	-7774
▁documentaries	-7775
Ad	-7776
cr	-7777
oms	-7778
oni	-7779
ora	-7780
icop	-7781
uinn	-7782
▁Ken	-7783
▁Low	-7784
▁Penn	-7785
▁folk	-7786
▁tons	-7787
usions	-7788
▁Buddy	-7789
▁Think	-7790
▁etern	-7791
▁immig	-7792
▁motor	-7793
veloped	-7794
▁Hudson	-7795
▁idiots	-7796
▁Angeles	-7797
▁ignored	-7798
▁watches	-7799
▁electric	-7800
▁precious	-7801
▁splendid	-7802
▁Frankenstein	-7803
OME	-7804
oln	-7805
▁fi	-7806
▁foo	-7807
eremy	-7808
inent	-7809
iracy	-7810
▁1960	-7811
▁wack	-7812
minded	-7813
▁Baker	-7814
▁Fonda	-7815
▁gotta	-7816
▁stood	-7817
▁Altman	-7818
▁Friend	-7819
▁elsewhere	-7820
▁insulting	-7821
▁photographer	-7822
hi	-7823
gle	-7824
▁SC	-7825
erek	-7826
heim	-7827
itle	-7828
▁1/2	-7829
ilted	-7830
riter	-7831
▁goal	-7832
▁push	-7833
▁reli	-7834
▁webs	-7835
isions	-7836
▁Could	-7837
▁guilt	-7838
▁piano	-7839
▁wreck	-7840
ielberg	-7841
▁Cusack	-7842
▁Sandra	-7843
▁horrid	-7844
▁briefly	-7845
▁realise	-7846
mentioned	-7847
▁response	-7848
▁tortured	-7849
▁remaining	-7850
dog	-7851
iar	-7852
omy	-7853
ulk	-7854
...)	-7855
ATCH	-7856
cend	-7857
rael	-7858
▁oil	-7859
▁Book	-7860
▁Mira	-7861
▁depe	-7862
▁embr	-7863
▁hunt	-7864
▁bleak	-7865
isation	-7866
▁Hopper	-7867
▁drivel	-7868
▁captain	-7869
▁explore	-7870
▁jealous	-7871
▁disappear	-7872
▁landscape	-7873
▁accomplished	-7874
▁5.	-7875
also	-7876
owed	-7877
▁Abs	-7878
▁Dal	-7879
▁Gen	-7880
▁Kra	-7881
ormal	-7882
▁Stra	-7883
▁feed	-7884
▁Mitch	-7885
▁cared	-7886
▁obser	-7887
▁slick	-7888
▁virus	-7889
▁Austen	-7890
▁Willis	-7891
▁plague	-7892
▁wicked	-7893
▁elderly	-7894
▁mansion	-7895
▁flawless	-7896
▁messages	-7897
▁segments	-7898
▁typically	-7899
▁unpleasant	-7900
▁destruction	-7901
▁individuals	-7902
▁superficial	-7903
▁photographed	-7904
Gra	-7905
abs	-7906
▁21	-7907
▁Aw	-7908
Here	-7909
eric	-7910
hour	-7911
ivan	-7912
ptic	-7913
▁Ing	-7914
▁nut	-7915
▁reb	-7916
▁myst	-7917
ifying	-7918
▁raped	-7919
▁Almost	-7920
▁Juliet	-7921
▁Walken	-7922
▁observ	-7923
▁demands	-7924
▁fifteen	-7925
▁displays	-7926
▁inexplic	-7927
▁magazine	-7928
▁associated	-7929
▁inevitable	-7930
▁reasonable	-7931
2.	-7932
KE	-7933
ophy	-7934
▁Atl	-7935
▁Mun	-7936
▁cig	-7937
▁sup	-7938
aning	-7939
obody	-7940
paced	-7941
▁1940	-7942
▁Brid	-7943
▁judg	-7944
▁sill	-7945
itchen	-7946
▁Hanks	-7947
▁Right	-7948
▁domin	-7949
▁fancy	-7950
▁rapid	-7951
Finally	-7952
▁antics	-7953
▁fortun	-7954
▁listed	-7955
▁Madonna	-7956
▁detract	-7957
▁fortune	-7958
▁stinker	-7959
▁attached	-7960
▁generous	-7961
ases	-7962
▁/>'	-7963
dated	-7964
▁Call	-7965
▁Hind	-7966
▁west	-7967
incoln	-7968
▁Woman	-7969
▁areas	-7970
▁ranks	-7971
▁swear	-7972
▁Angela	-7973
▁Carrey	-7974
▁Matrix	-7975
▁hearts	-7976
▁liking	-7977
▁loosely	-7978
▁detailed	-7979
▁celluloid	-7980
▁countless	-7981
▁possessed	-7982
▁professor	-7983
▁importance	-7984
▁resolution	-7985
▁surrounded	-7986
Sha	-7987
ela	-7988
tte	-7989
▁4.	-7990
idel	-7991
omic	-7992
▁Med	-7993
▁toy	-7994
maybe	-7995
▁Shar	-7996
▁Wend	-7997
▁rive	-7998
ements	-7999
▁Films	-8000
▁Linda	-8001
▁aimed	-8002
▁argue	-8003
▁staff	-8004
▁corner	-8005
▁devast	-8006
▁persona	-8007
▁popcorn	-8008
▁pulling	-8009
▁infamous	-8010
▁revealing	-8011
▁disjointed	-8012
▁frustrated	-8013
▁highlights	-8014
▁unwatchable	-8015
▁investigation	-8016
9,	-8017
▁une	-8018
▁web	-8019
lines	-8020
▁Emma	-8021
▁Fore	-8022
▁Hurt	-8023
▁merc	-8024
angers	-8025
▁alike	-8026
▁stead	-8027
writers	-8028
▁Canada	-8029
▁obscure	-8030
▁outcome	-8031
▁Excellent	-8032
▁believing	-8033
▁philosoph	-8034
▁charismatic	-8035
2,	-8036
'.<	-8037
ipe	-8038
▁SU	-8039
onne	-8040
▁Cow	-8041
▁Gal	-8042
▁mic	-8043
Other	-8044
▁Geor	-8045
▁Real	-8046
▁hire	-8047
▁nine	-8048
ixture	-8049
▁Field	-8050
▁split	-8051
▁offended	-8052
▁scripted	-8053
redictable	-8054
▁inspiring	-8055
▁..	-8056
▁dre	-8057
anson	-8058
chers	-8059
▁Down	-8060
▁Lots	-8061
▁wont	-8062
▁Grade	-8063
▁honor	-8064
▁Israel	-8065
▁ingred	-8066
icularly	-8067
▁helicop	-8068
▁jumping	-8069
▁triumph	-8070
▁Whatever	-8071
▁goodness	-8072
▁overdone	-8073
▁astonishing	-8074
hum	-8075
▁Ka	-8076
type	-8077
▁ABC	-8078
▁Fel	-8079
▁Hug	-8080
Night	-8081
angle	-8082
think	-8083
wered	-8084
▁Gabr	-8085
▁Lucy	-8086
▁Roll	-8087
▁lust	-8088
▁Train	-8089
▁blast	-8090
▁champ	-8091
▁walls	-8092
▁Murray	-8093
▁crimes	-8094
▁careers	-8095
▁causing	-8096
▁drunken	-8097
▁replace	-8098
▁Victoria	-8099
▁imperson	-8100
▁Spielberg	-8101
▁returning	-8102
▁terrifying	-8103
▁meaningless	-8104
▁ridiculously	-8105
▁unintentionally	-8106
imag	-8107
uite	-8108
▁Ira	-8109
▁sam	-8110
David	-8111
▁2000	-8112
▁Kirk	-8113
ablish	-8114
itches	-8115
ograph	-8116
venile	-8117
▁burst	-8118
▁smoke	-8119
▁sport	-8120
because	-8121
ullivan	-8122
▁buried	-8123
▁burned	-8124
▁medium	-8125
********	-8126
▁Argento	-8127
▁Vampire	-8128
▁fitting	-8129
▁childish	-8130
▁intrigue	-8131
▁continued	-8132
▁worthless	-8133
▁comfortable	-8134
▁directorial	-8135
Ex	-8136
awa	-8137
ded	-8138
plo	-8139
▁FR	-8140
iere	-8141
▁Dev	-8142
▁Ele	-8143
▁ONE	-8144
▁Tot	-8145
brick	-8146
opsis	-8147
orthy	-8148
▁8/10	-8149
▁wake	-8150
▁River	-8151
▁Uncle	-8152
▁Video	-8153
▁audio	-8154
▁beast	-8155
▁diver	-8156
▁draws	-8157
▁souls	-8158
▁Cinema	-8159
▁Foster	-8160
▁Gothic	-8161
▁daring	-8162
▁Fiction	-8163
▁escaped	-8164
▁forgive	-8165
▁returned	-8166
▁sidekick	-8167
▁affection	-8168
▁encounters	-8169
▁grandfather	-8170
▁involvement	-8171
7,	-8172
pin	-8173
love	-8174
▁CIA	-8175
▁III	-8176
▁Imp	-8177
▁Miy	-8178
▁fed	-8179
eping	-8180
ovich	-8181
▁LOVE	-8182
▁Need	-8183
▁Blake	-8184
▁blend	-8185
▁chain	-8186
▁ingen	-8187
▁invis	-8188
▁stole	-8189
▁consum	-8190
▁devoid	-8191
▁groups	-8192
▁reluct	-8193
▁spooky	-8194
▁Lincoln	-8195
▁advance	-8196
▁measure	-8197
▁precise	-8198
▁whoever	-8199
▁Alexander	-8200
▁abilities	-8201
▁providing	-8202
▁resembles	-8203
▁territory	-8204
▁discussion	-8205
ESS	-8206
▁EN	-8207
ione	-8208
ords	-8209
rict	-8210
▁gif	-8211
▁Bald	-8212
▁Lang	-8213
▁dear	-8214
▁styl	-8215
ortion	-8216
pieces	-8217
▁Ghost	-8218
▁Techn	-8219
▁afore	-8220
▁angel	-8221
▁clues	-8222
▁drown	-8223
▁rural	-8224
▁Carter	-8225
▁demons	-8226
▁pseudo	-8227
▁resour	-8228
▁ticket	-8229
▁respond	-8230
▁travels	-8231
▁Campbell	-8232
▁extended	-8233
▁commented	-8234
▁symbolism	-8235
▁subsequent	-8236
ugh	-8237
Star	-8238
iper	-8239
such	-8240
▁Row	-8241
▁Sub	-8242
eller	-8243
▁1990	-8244
▁Beck	-8245
▁Lake	-8246
▁Ring	-8247
▁Shep	-8248
▁croc	-8249
▁econ	-8250
oubted	-8251
terday	-8252
▁venge	-8253
▁wheel	-8254
▁Morris	-8255
▁Mother	-8256
▁arrive	-8257
▁french	-8258
▁Monster	-8259
▁Swedish	-8260
▁hitting	-8261
istically	-8262
▁Catholic	-8263
▁allowing	-8264
▁argument	-8265
▁menacing	-8266
▁projects	-8267
▁traveling	-8268
▁represents	-8269
▁implausible	-8270
pr	-8271
aks	-8272
eps	-8273
got	-8274
oche	-8275
▁Len	-8276
▁Liz	-8277
▁wha	-8278
ables	-8279
balls	-8280
grade	-8281
▁dire	-8282
▁punk	-8283
▁ward	-8284
erning	-8285
▁Mario	-8286
▁Nazis	-8287
▁Tracy	-8288
▁label	-8289
▁spare	-8290
jection	-8291
uristic	-8292
warming	-8293
▁Dorothy	-8294
▁uniform	-8295
▁Lawrence	-8296
▁suspects	-8297
▁compassion	-8298
▁concerning	-8299
▁delivering	-8300
El	-8301
Pe	-8302
uf	-8303
hil	-8304
tan	-8305
umsy	-8306
▁Hot	-8307
▁Rub	-8308
Still	-8309
▁Todd	-8310
cingly	-8311
rifice	-8312
▁Glenn	-8313
▁notes	-8314
▁winds	-8315
olutely	-8316
▁Streep	-8317
▁albeit	-8318
▁covers	-8319
▁occurs	-8320
▁pushed	-8321
▁ruthless	-8322
▁sentiment	-8323
▁redemption	-8324
▁investigate	-8325
6)	-8326
AIN	-8327
See	-8328
ees	-8329
idal	-8330
then	-8331
▁Aud	-8332
▁Hey	-8333
▁gut	-8334
▁sen	-8335
▁Neil	-8336
uddies	-8337
▁Burns	-8338
▁beats	-8339
▁disli	-8340
▁inher	-8341
▁maint	-8342
Despite	-8343
▁builds	-8344
▁combat	-8345
▁restra	-8346
▁Matthew	-8347
▁picking	-8348
▁affected	-8349
▁bathroom	-8350
▁befriend	-8351
rehensible	-8352
▁dialogues	-8353
▁differences	-8354
";	-8355
1)	-8356
6,	-8357
ram	-8358
uity	-8359
▁duo	-8360
▁pig	-8361
▁Hunt	-8362
▁dict	-8363
▁diff	-8364
▁ramp	-8365
▁root	-8366
▁Derek	-8367
▁fired	-8368
▁marks	-8369
▁shoes	-8370
▁warri	-8371
▁Season	-8372
▁button	-8373
▁enters	-8374
▁sadness	-8375
▁worried	-8376
▁planning	-8377
▁slightest	-8378
▁overlooked	-8379
▁unbearable	-8380
▁achievement	-8381
Av	-8382
ERE	-8383
ONG	-8384
????	-8385
apes	-8386
oric	-8387
shot	-8388
▁Tob	-8389
▁flu	-8390
▁mal	-8391
emark	-8392
human	-8393
leton	-8394
stars	-8395
ulate	-8396
▁Iron	-8397
▁bold	-8398
▁bust	-8399
▁clic	-8400
▁Block	-8401
▁Force	-8402
▁steam	-8403
▁storm	-8404
▁Silver	-8405
▁crisis	-8406
▁hunter	-8407
SPOILERS	-8408
ommended	-8409
▁devoted	-8410
▁kidding	-8411
▁receive	-8412
▁sadistic	-8413
▁dedicated	-8414
▁disturbed	-8415
▁terrorist	-8416
Its	-8417
uno	-8418
Most	-8419
▁Cre	-8420
onson	-8421
▁Case	-8422
▁Cour	-8423
▁Jake	-8424
▁Talk	-8425
▁duty	-8426
▁sons	-8427
▁wave	-8428
▁Brend	-8429
▁Maria	-8430
▁strip	-8431
▁Amanda	-8432
▁headed	-8433
▁maniac	-8434
▁mesmer	-8435
▁perpet	-8436
ifically	-8437
▁Further	-8438
▁Ireland	-8439
▁Sandler	-8440
▁Special	-8441
▁alcohol	-8442
▁disease	-8443
▁logical	-8444
▁mixture	-8445
▁removed	-8446
▁improved	-8447
▁sentence	-8448
▁provoking	-8449
▁installment	-8450
▁technically	-8451
4.	-8452
60	-8453
▁Vo	-8454
"...	-8455
gger	-8456
▁Ned	-8457
▁doz	-8458
fight	-8459
▁frag	-8460
▁Craig	-8461
▁bridge	-8462
▁defend	-8463
▁golden	-8464
▁prejud	-8465
▁require	-8466
▁staying	-8467
▁birthday	-8468
▁superbly	-8469
▁altogether	-8470
▁captivating	-8471
▁psychiatrist	-8472
,,	-8473
2)	-8474
Sec	-8475
box	-8476
pel	-8477
put	-8478
HING	-8479
afia	-8480
iors	-8481
▁BUT	-8482
▁FOR	-8483
great	-8484
unior	-8485
▁Gray	-8486
▁calm	-8487
▁sadd	-8488
▁tall	-8489
astern	-8490
makers	-8491
minute	-8492
▁Apart	-8493
▁Diane	-8494
▁NEVER	-8495
▁glory	-8496
▁rocks	-8497
▁Claire	-8498
▁Unless	-8499
▁absorb	-8500
▁comics	-8501
▁insist	-8502
▁lyrics	-8503
▁misses	-8504
▁cameras	-8505
▁conclud	-8506
▁highest	-8507
▁admitted	-8508
▁opinions	-8509
▁recorded	-8510
▁intrigued	-8511
▁possibility	-8512
▁choreography	-8513
▁unbelievably	-8514
1.	-8515
arm	-8516
ddy	-8517
ket	-8518
▁AW	-8519
eyed	-8520
lers	-8521
gling	-8522
irley	-8523
never	-8524
▁7/10	-8525
▁Navy	-8526
▁Reed	-8527
▁cere	-8528
▁tool	-8529
itudes	-8530
▁1950'	-8531
▁trend	-8532
related	-8533
▁Indeed	-8534
▁convol	-8535
▁rubber	-8536
▁tracks	-8537
ications	-8538
▁assault	-8539
▁reached	-8540
▁juvenile	-8541
▁stronger	-8542
▁subjects	-8543
▁producing	-8544
En	-8545
Se	-8546
phe	-8547
zel	-8548
aith	-8549
ctic	-8550
▁gall	-8551
▁gift	-8552
▁shel	-8553
▁Frost	-8554
▁curse	-8555
▁noise	-8556
▁Norman	-8557
▁errors	-8558
▁relies	-8559
▁sloppy	-8560
function	-8561
▁Stanley	-8562
▁generic	-8563
▁horrors	-8564
▁notably	-8565
▁narrator	-8566
ortunately	-8567
▁currently	-8568
▁revelation	-8569
▁exaggerated	-8570
OS	-8571
rer	-8572
sex	-8573
oner	-8574
▁Set	-8575
▁bew	-8576
▁hun	-8577
▁lit	-8578
anged	-8579
chest	-8580
force	-8581
itched	-8582
▁Candy	-8583
▁Civil	-8584
▁GREAT	-8585
▁blank	-8586
▁cards	-8587
▁labor	-8588
▁tales	-8589
▁Dragon	-8590
▁Summer	-8591
▁clumsy	-8592
▁height	-8593
▁nearby	-8594
▁staged	-8595
▁Imagine	-8596
▁wannabe	-8597
▁whereas	-8598
▁lifetime	-8599
▁occurred	-8600
▁discovery	-8601
▁explaining	-8602
▁grandmother	-8603
▁TR	-8604
bury	-8605
enes	-8606
onym	-8607
▁Fay	-8608
▁Nin	-8609
▁cup	-8610
entin	-8611
mares	-8612
ortal	-8613
▁4/10	-8614
▁Hust	-8615
▁Nice	-8616
▁Read	-8617
▁Ross	-8618
▁cats	-8619
▁cure	-8620
▁trio	-8621
▁wrap	-8622
rowing	-8623
urious	-8624
▁Union	-8625
▁nause	-8626
▁porno	-8627
▁Curtis	-8628
▁agents	-8629
▁brains	-8630
▁corpse	-8631
▁racial	-8632
▁Wallace	-8633
▁benefit	-8634
▁pretend	-8635
▁scratch	-8636
▁Consider	-8637
▁Hamilton	-8638
▁distance	-8639
▁hardcore	-8640
▁performer	-8641
▁trademark	-8642
4,	-8643
EL	-8644
Com	-8645
gal	-8646
▁ya	-8647
ffee	-8648
▁Gil	-8649
▁Pen	-8650
▁bog	-8651
▁fro	-8652
▁tie	-8653
▁ups	-8654
child	-8655
emies	-8656
every	-8657
▁Falk	-8658
▁grab	-8659
▁nerv	-8660
▁sail	-8661
estyle	-8662
unning	-8663
▁Damme	-8664
▁pitch	-8665
▁sales	-8666
▁Spring	-8667
▁Turner	-8668
▁disgra	-8669
▁harder	-8670
▁sticks	-8671
oubtedly	-8672
▁acclaim	-8673
▁artific	-8674
▁conserv	-8675
▁illegal	-8676
ventually	-8677
▁clothing	-8678
▁depressed	-8679
▁newspaper	-8680
▁performing	-8681
▁simplistic	-8682
▁terrorists	-8683
▁Ba	-8684
▁CD	-8685
▁Wr	-8686
esis	-8687
otte	-8688
▁Cox	-8689
▁Sen	-8690
ctors	-8691
▁Mach	-8692
▁iron	-8693
ressive	-8694
▁Glover	-8695
▁Rather	-8696
▁silver	-8697
▁Stooges	-8698
▁hunting	-8699
▁smoking	-8700
▁offering	-8701
▁strictly	-8702
▁survival	-8703
▁describes	-8704
▁succeeded	-8705
▁witnessed	-8706
▁recognized	-8707
▁thoughtful	-8708
▁proceedings	-8709
dri	-8710
hos	-8711
▁2)	-8712
▁PR	-8713
rome	-8714
town	-8715
▁Acc	-8716
▁pir	-8717
James	-8718
verty	-8719
▁Boll	-8720
▁Boys	-8721
▁Buck	-8722
▁Grey	-8723
▁fart	-8724
▁publ	-8725
▁Natal	-8726
▁Norris	-8727
▁hatred	-8728
▁buddies	-8729
▁dismiss	-8730
▁existed	-8731
▁politic	-8732
▁synopsis	-8733
▁decisions	-8734
▁conspiracy	-8735
▁influenced	-8736
▁stereotype	-8737
▁recognition	-8738
alo	-8739
acts	-8740
▁Ker	-8741
▁Raj	-8742
hobic	-8743
▁Arab	-8744
▁Club	-8745
▁Cong	-8746
▁Robb	-8747
▁user	-8748
hopath	-8749
tering	-8750
▁Bates	-8751
▁Vegas	-8752
▁aging	-8753
▁cliff	-8754
▁ought	-8755
▁prede	-8756
▁apolog	-8757
▁closed	-8758
▁darker	-8759
▁demand	-8760
▁strike	-8761
▁titled	-8762
▁unfair	-8763
▁Branagh	-8764
▁Kubrick	-8765
▁Strange	-8766
▁depicts	-8767
▁motives	-8768
▁poverty	-8769
▁reaches	-8770
▁secrets	-8771
▁torment	-8772
▁classical	-8773
▁inventive	-8774
▁convoluted	-8775
▁philosophy	-8776
▁prostitute	-8777
▁blockbuster	-8778
▁Nevertheless	-8779
▁conversations	-8780
ahl	-8781
ima	-8782
▁Eva	-8783
▁wet	-8784
peror	-8785
▁Fant	-8786
▁Garb	-8787
▁Know	-8788
▁jazz	-8789
▁odds	-8790
▁wine	-8791
icking	-8792
ranged	-8793
▁Years	-8794
▁climb	-8795
▁pants	-8796
▁recru	-8797
▁ruins	-8798
▁shirt	-8799
ciating	-8800
leading	-8801
ocative	-8802
▁Jeremy	-8803
▁Muslim	-8804
▁Planet	-8805
▁copies	-8806
▁genres	-8807
▁guitar	-8808
▁heroic	-8809
▁models	-8810
▁poison	-8811
▁absence	-8812
▁dignity	-8813
▁screams	-8814
▁stellar	-8815
▁unfolds	-8816
▁vicious	-8817
▁Massacre	-8818
▁isolated	-8819
▁purchase	-8820
▁miserable	-8821
▁predecess	-8822
▁psychotic	-8823
▁afterwards	-8824
▁countryside	-8825
▁politically	-8826
▁conventional	-8827
Ge	-8828
..<	-8829
iko	-8830
foot	-8831
▁Cro	-8832
▁Got	-8833
▁Squ	-8834
▁bin	-8835
itled	-8836
works	-8837
▁Bush	-8838
▁Hood	-8839
▁Sing	-8840
▁asse	-8841
▁mudd	-8842
hology	-8843
ilarly	-8844
▁Bette	-8845
▁Dirty	-8846
▁EVERY	-8847
▁thief	-8848
▁exotic	-8849
▁fantas	-8850
▁passes	-8851
▁blatant	-8852
▁chances	-8853
▁digital	-8854
▁exposed	-8855
▁funeral	-8856
▁inhabit	-8857
▁kitchen	-8858
▁eighties	-8859
▁homeless	-8860
▁dinosaurs	-8861
▁scientific	-8862
PS	-8863
▁Mi	-8864
▁Fat	-8865
▁Jer	-8866
istan	-8867
olves	-8868
▁Craw	-8869
▁Days	-8870
▁Jord	-8871
▁bang	-8872
▁gimm	-8873
▁lake	-8874
▁pays	-8875
▁Myers	-8876
▁equip	-8877
▁filth	-8878
▁inapp	-8879
▁signs	-8880
▁fooled	-8881
▁incest	-8882
▁insert	-8883
▁poetry	-8884
▁snakes	-8885
atically	-8886
▁arrested	-8887
▁cheating	-8888
▁coherent	-8889
▁lifestyle	-8890
▁murderous	-8891
▁Cinderella	-8892
▁innovative	-8893
▁unoriginal	-8894
▁distracting	-8895
▁frustrating	-8896
▁consistently	-8897
▁International	-8898
▁SE	-8899
cont	-8900
agney	-8901
uable	-8902
useum	-8903
▁Shaw	-8904
▁chat	-8905
▁foul	-8906
▁sett	-8907
▁stro	-8908
▁urge	-8909
hattan	-8910
ranger	-8911
▁agreed	-8912
▁casual	-8913
aneously	-8914
▁distant	-8915
ruciating	-8916
▁hopeless	-8917
▁morality	-8918
▁unintentional	-8919
Ke	-8920
ocr	-8921
oir	-8922
psy	-8923
▁UN	-8924
Than	-8925
aval	-8926
prov	-8927
▁/>8	-8928
▁Bol	-8929
estic	-8930
▁Band	-8931
▁Duke	-8932
▁Hung	-8933
▁ears	-8934
▁sarc	-8935
cience	-8936
▁Brook	-8937
▁monot	-8938
▁noble	-8939
▁shelf	-8940
▁tires	-8941
▁trade	-8942
▁Brando	-8943
▁adoles	-8944
▁advise	-8945
▁notion	-8946
▁puppet	-8947
▁scheme	-8948
▁Baldwin	-8949
▁diamond	-8950
▁honesty	-8951
▁sympath	-8952
▁website	-8953
▁Garfield	-8954
▁Remember	-8955
▁enormous	-8956
▁officers	-8957
▁movements	-8958
▁population	-8959
▁psychopath	-8960
▁threatening	-8961
▁aforementioned	-8962
20	-8963
Too	-8964
▁Ca	-8965
▁Py	-8966
inch	-8967
▁Say	-8968
▁WAS	-8969
▁awe	-8970
acked	-8971
isten	-8972
▁blew	-8973
Donald	-8974
▁Spike	-8975
▁album	-8976
▁cabin	-8977
▁indul	-8978
▁props	-8979
▁south	-8980
ossibly	-8981
▁Seeing	-8982
▁cliche	-8983
▁coffee	-8984
▁scores	-8985
▁unsett	-8986
▁SPOILER	-8987
▁encoura	-8988
▁metaphor	-8989
▁parallel	-8990
▁Certainly	-8991
▁displayed	-8992
▁elaborate	-8993
▁primarily	-8994
▁prisoners	-8995
▁sacrifice	-8996
▁wrestling	-8997
OST	-8998
lon	-8999
▁Kl	-9000
aron	-9001
ffic	-9002
icol	-9003
▁Bus	-9004
▁MTV	-9005
▁dub	-9006
▁saf	-9007
▁sag	-9008
adget	-9009
amera	-9010
andra	-9011
antee	-9012
aware	-9013
funny	-9014
▁Dill	-9015
▁Trom	-9016
▁tail	-9017
ularly	-9018
▁Elvis	-9019
▁Randy	-9020
▁forms	-9021
▁satir	-9022
▁Hamlet	-9023
▁Lemmon	-9024
▁bullet	-9025
▁dozens	-9026
▁Cassave	-9027
▁Shirley	-9028
▁abysmal	-9029
▁Honestly	-9030
▁arrogant	-9031
▁downhill	-9032
▁imagined	-9033
▁misunder	-9034
▁subtlety	-9035
▁gangsters	-9036
▁gradually	-9037
▁immensely	-9038
▁satisfied	-9039
▁resemblance	-9040
Su	-9041
Int	-9042
bow	-9043
dan	-9044
fle	-9045
oup	-9046
ril	-9047
ooby	-9048
wind	-9049
▁Try	-9050
▁ack	-9051
▁wig	-9052
arrow	-9053
itual	-9054
▁1/10	-9055
▁pale	-9056
▁loads	-9057
▁ocean	-9058
▁shine	-9059
Richard	-9060
ensions	-9061
rossing	-9062
▁enjoys	-9063
▁grotes	-9064
▁rebell	-9065
▁classes	-9066
▁endings	-9067
▁planned	-9068
▁smaller	-9069
▁strikes	-9070
▁equipment	-9071
▁explosion	-9072
▁regardless	-9073
5)	-9074
hs	-9075
ACK	-9076
llo	-9077
was	-9078
▁Ep	-9079
▁Att	-9080
▁Bow	-9081
▁Ian	-9082
▁Kay	-9083
▁Lum	-9084
▁ego	-9085
▁tea	-9086
Black	-9087
▁Hist	-9088
▁Made	-9089
▁tank	-9090
ribute	-9091
verted	-9092
▁Girls	-9093
▁lackl	-9094
▁doomed	-9095
▁humili	-9096
▁sleaze	-9097
ifferent	-9098
▁amounts	-9099
▁enemies	-9100
▁reduced	-9101
▁schlock	-9102
▁trained	-9103
▁collabor	-9104
▁unsatisf	-9105
▁formulaic	-9106
▁secretary	-9107
"!	-9108
"-	-9109
Am	-9110
UM	-9111
▁Id	-9112
uaid	-9113
▁Dom	-9114
▁Gre	-9115
▁Hop	-9116
▁Pho	-9117
▁Stu	-9118
▁dys	-9119
nered	-9120
▁3/10	-9121
▁Macy	-9122
▁slim	-9123
▁whis	-9124
athetic	-9125
▁Cagney	-9126
▁Except	-9127
▁Julian	-9128
▁acknow	-9129
▁estate	-9130
▁handed	-9131
▁vulgar	-9132
▁shadows	-9133
▁subplots	-9134
▁invisible	-9135
▁masterful	-9136
▁overrated	-9137
▁consistent	-9138
▁alternative	-9139
40	-9140
God	-9141
cio	-9142
▁Ext	-9143
▁Sex	-9144
phant	-9145
▁Cold	-9146
▁Rich	-9147
▁Song	-9148
▁Walt	-9149
master	-9150
ulated	-9151
▁Keith	-9152
▁stone	-9153
mission	-9154
▁Nicole	-9155
▁admira	-9156
umentary	-9157
▁exploit	-9158
▁wrapped	-9159
▁Margaret	-9160
▁Robinson	-9161
▁adequate	-9162
▁Godfather	-9163
▁establish	-9164
1,	-9165
agn	-9166
▁ax	-9167
Look	-9168
pion	-9169
uffy	-9170
vity	-9171
▁Din	-9172
▁Tal	-9173
about	-9174
eling	-9175
▁Adams	-9176
▁Lucas	-9177
▁chaos	-9178
▁hates	-9179
▁Rating	-9180
▁settle	-9181
▁solely	-9182
▁throat	-9183
izations	-9184
▁Mystery	-9185
▁Whether	-9186
▁cheated	-9187
▁desired	-9188
▁failing	-9189
▁justify	-9190
▁montage	-9191
▁shortly	-9192
▁workers	-9193
▁Crawford	-9194
▁channels	-9195
ploitation	-9196
▁creativity	-9197
▁mentioning	-9198
▁translation	-9199
▁excruciating	-9200
')	-9201
Te	-9202
ika	-9203
asha	-9204
▁Eri	-9205
▁Wid	-9206
▁upl	-9207
▁voy	-9208
lands	-9209
▁REAL	-9210
▁glor	-9211
▁maid	-9212
▁1970'	-9213
▁Bruno	-9214
▁Times	-9215
▁Worth	-9216
▁overt	-9217
▁tripe	-9218
perfect	-9219
▁Alfred	-9220
▁Graham	-9221
▁bottle	-9222
▁league	-9223
ographed	-9224
thriller	-9225
▁hideous	-9226
▁pattern	-9227
▁Princess	-9228
▁adorable	-9229
▁sacrific	-9230
▁southern	-9231
▁guarantee	-9232
▁notorious	-9233
▁introduces	-9234
▁thankfully	-9235
tr	-9236
lad	-9237
ori	-9238
cult	-9239
elli	-9240
oral	-9241
pera	-9242
ping	-9243
quel	-9244
▁Ern	-9245
▁Lin	-9246
▁Pam	-9247
▁Iran	-9248
atures	-9249
ixties	-9250
urance	-9251
▁Chase	-9252
▁bless	-9253
▁exhib	-9254
▁fatal	-9255
▁inane	-9256
▁intim	-9257
▁Huston	-9258
▁astron	-9259
▁kicked	-9260
▁orders	-9261
▁thumbs	-9262
▁Florida	-9263
▁Frankie	-9264
▁NOTHING	-9265
▁illness	-9266
▁instant	-9267
▁parties	-9268
▁primary	-9269
▁robbery	-9270
▁stilted	-9271
▁maintain	-9272
▁scarecrow	-9273
▁progresses	-9274
▁similarities	-9275
▁transformation	-9276
fu	-9277
aph	-9278
bet	-9279
vez	-9280
▁je	-9281
High	-9282
burn	-9283
ieve	-9284
▁/>7	-9285
▁Viv	-9286
Great	-9287
maker	-9288
▁Fall	-9289
▁sham	-9290
▁tame	-9291
izable	-9292
ulsive	-9293
▁conve	-9294
▁grasp	-9295
▁hence	-9296
▁resur	-9297
SPOILER	-9298
▁Buster	-9299
▁Justin	-9300
▁chased	-9301
▁endure	-9302
▁houses	-9303
▁styles	-9304
▁suspic	-9305
▁Bronson	-9306
▁directs	-9307
▁monolog	-9308
▁surpass	-9309
▁survived	-9310
▁laughably	-9311
▁plausible	-9312
▁recording	-9313
▁constructed	-9314
▁considerable	-9315
▁nevertheless	-9316
Ed	-9317
Che	-9318
izz	-9319
len	-9320
iour	-9321
▁Amy	-9322
▁Cho	-9323
▁Gib	-9324
▁sab	-9325
fined	-9326
iners	-9327
oples	-9328
white	-9329
▁Luck	-9330
▁Mann	-9331
▁Morm	-9332
▁boun	-9333
▁gest	-9334
▁util	-9335
everal	-9336
▁Edgar	-9337
▁Felix	-9338
▁Sound	-9339
▁Troma	-9340
▁doors	-9341
▁Bourne	-9342
▁suited	-9343
▁uneven	-9344
▁burning	-9345
▁catches	-9346
▁factory	-9347
▁guessed	-9348
▁teaching	-9349
▁companion	-9350
▁illogical	-9351
▁journalist	-9352
▁hilariously	-9353
▁ingredients	-9354
aux	-9355
hay	-9356
unn	-9357
irts	-9358
ighty	-9359
uracy	-9360
▁Auss	-9361
▁Bett	-9362
▁Elli	-9363
▁Iraq	-9364
▁Ruth	-9365
▁bone	-9366
▁carn	-9367
itanic	-9368
▁Miles	-9369
▁Mount	-9370
▁Price	-9371
▁Sheen	-9372
▁bears	-9373
▁Corman	-9374
▁absent	-9375
▁agrees	-9376
▁fought	-9377
▁trashy	-9378
▁wished	-9379
▁reunion	-9380
▁explored	-9381
▁riveting	-9382
▁suitable	-9383
▁buildings	-9384
▁nostalgia	-9385
▁developing	-9386
▁nightmares	-9387
▁accompanied	-9388
▁potentially	-9389
▁convincingly	-9390
▁embarrassment	-9391
!!!<	-9392
eryl	-9393
geon	-9394
rang	-9395
▁Aff	-9396
▁Bab	-9397
▁Syl	-9398
awful	-9399
▁Bach	-9400
▁Dawn	-9401
▁Hack	-9402
▁Mort	-9403
▁Pick	-9404
▁Road	-9405
▁blur	-9406
▁gamb	-9407
ousing	-9408
▁Aside	-9409
▁Given	-9410
▁Point	-9411
▁Terry	-9412
▁sappy	-9413
▁damage	-9414
▁elimin	-9415
▁relent	-9416
▁stress	-9417
▁avoided	-9418
▁Sullivan	-9419
▁brutally	-9420
▁troubles	-9421
▁passionate	-9422
▁pretending	-9423
▁overwhelming	-9424
8,	-9425
Dan	-9426
ORE	-9427
▁35	-9428
▁SN	-9429
▁SP	-9430
name	-9431
▁Gos	-9432
▁LOT	-9433
▁Tran	-9434
▁flop	-9435
ivable	-9436
▁Blade	-9437
▁Hills	-9438
▁Worst	-9439
▁forty	-9440
▁seeks	-9441
▁Carrie	-9442
▁Waters	-9443
▁awhile	-9444
▁earned	-9445
▁prompt	-9446
▁glasses	-9447
▁composed	-9448
▁Manhattan	-9449
▁contained	-9450
▁advertising	-9451
▁challenging	-9452
,<	-9453
ARD	-9454
)...	-9455
club	-9456
eder	-9457
pled	-9458
rell	-9459
▁Unt	-9460
▁bes	-9461
▁tad	-9462
faced	-9463
▁Deep	-9464
▁Plot	-9465
▁Ward	-9466
▁mile	-9467
▁Garbo	-9468
▁Tyler	-9469
▁amuse	-9470
▁trees	-9471
▁partly	-9472
▁Granted	-9473
▁beneath	-9474
▁bullets	-9475
▁dynamic	-9476
▁portion	-9477
▁satisfy	-9478
▁staring	-9479
▁topless	-9480
▁function	-9481
▁helpless	-9482
▁nostalgic	-9483
▁underlying	-9484
▁backgrounds	-9485
▁dimensional	-9486
▁philosophical	-9487
ns	-9488
AST	-9489
Act	-9490
Mart	-9491
urai	-9492
ylan	-9493
▁Abb	-9494
▁DON	-9495
THING	-9496
▁Bark	-9497
▁Gore	-9498
▁Half	-9499
▁ease	-9500
▁impe	-9501
▁plod	-9502
▁prec	-9503
▁trap	-9504
▁whim	-9505
▁Radio	-9506
▁rooms	-9507
ivalent	-9508
▁Newman	-9509
▁resort	-9510
▁spaces	-9511
▁writes	-9512
▁nervous	-9513
▁Children	-9514
▁Griffith	-9515
▁borrowed	-9516
▁distingu	-9517
▁emphasis	-9518
▁Nicholson	-9519
▁education	-9520
▁financial	-9521
▁reflection	-9522
▁characteristic	-9523
▁cinematographer	-9524
po	-9525
!!<	-9526
leg	-9527
obs	-9528
free	-9529
onto	-9530
▁McL	-9531
▁aid	-9532
arson	-9533
forms	-9534
ierre	-9535
▁Isab	-9536
▁Rita	-9537
▁Scot	-9538
▁dust	-9539
▁sust	-9540
▁thru	-9541
▁Based	-9542
▁ninja	-9543
▁oddly	-9544
▁dating	-9545
▁waited	-9546
▁Stevens	-9547
▁compens	-9548
▁silence	-9549
▁inferior	-9550
▁mountains	-9551
▁purchased	-9552
▁yesterday	-9553
▁helicopter	-9554
▁disappeared	-9555
▁understated	-9556
▁undoubtedly	-9557
HH	-9558
Ang	-9559
THE	-9560
big	-9561
ccer	-9562
make	-9563
resp	-9564
▁Han	-9565
▁McK	-9566
▁wow	-9567
actor	-9568
andon	-9569
inder	-9570
▁....	-9571
▁Supp	-9572
▁buck	-9573
▁stir	-9574
▁sung	-9575
▁wore	-9576
Brazil	-9577
ilight	-9578
radine	-9579
▁Mason	-9580
▁Perry	-9581
▁campa	-9582
▁recyc	-9583
charact	-9584
plicity	-9585
▁Davies	-9586
▁Martha	-9587
▁instit	-9588
▁rolled	-9589
▁warmth	-9590
▁Karloff	-9591
▁couples	-9592
▁remained	-9593
▁conscious	-9594
▁suggested	-9595
▁dysfunction	-9596
▁responsibility	-9597
fly	-9598
lik	-9599
▁Ly	-9600
▁Op	-9601
bors	-9602
ours	-9603
ushi	-9604
will	-9605
▁arc	-9606
gener	-9607
ricia	-9608
▁(195	-9609
▁GOOD	-9610
▁Live	-9611
▁STAR	-9612
▁Spir	-9613
worthy	-9614
▁Enjoy	-9615
▁drops	-9616
▁gloss	-9617
▁snake	-9618
▁stabb	-9619
iceless	-9620
ulation	-9621
▁Harvey	-9622
▁detect	-9623
▁divers	-9624
▁dreary	-9625
▁taught	-9626
▁useful	-9627
▁divorce	-9628
▁liberal	-9629
▁sincere	-9630
▁splatter	-9631
▁grotesque	-9632
▁Absolutely	-9633
▁unsettling	-9634
▁motivations	-9635
ni	-9636
-19	-9637
fan	-9638
▁7.	-9639
▁RO	-9640
essa	-9641
▁/>3	-9642
pered	-9643
ugust	-9644
▁Doll	-9645
▁Doug	-9646
▁Sold	-9647
Please	-9648
Second	-9649
▁Bible	-9650
▁Short	-9651
▁eaten	-9652
▁hints	-9653
▁orphan	-9654
▁treats	-9655
▁Sheriff	-9656
▁Turkish	-9657
▁beliefs	-9658
▁painted	-9659
▁Southern	-9660
▁cannibal	-9661
▁horrifying	-9662
▁appreciation	-9663
SI	-9664
idy	-9665
▁Cy	-9666
▁Pan	-9667
▁Pin	-9668
▁anx	-9669
▁lam	-9670
▁wis	-9671
chant	-9672
oured	-9673
rates	-9674
▁/>10	-9675
icient	-9676
▁Woods	-9677
▁hesit	-9678
▁tends	-9679
spector	-9680
venture	-9681
▁Return	-9682
▁Scream	-9683
▁hypnot	-9684
▁lasted	-9685
▁lowest	-9686
▁stinks	-9687
▁worlds	-9688
▁arrived	-9689
▁persons	-9690
▁pitiful	-9691
▁puppets	-9692
▁travest	-9693
▁Scarlett	-9694
▁disgrace	-9695
▁passable	-9696
▁relation	-9697
▁tiresome	-9698
▁capturing	-9699
▁Cassavetes	-9700
▁corruption	-9701
▁irrelevant	-9702
▁transition	-9703
▁specifically	-9704
lam	-9705
▁3-	-9706
▁AM	-9707
▁RE	-9708
▁ow	-9709
rien	-9710
▁Eli	-9711
▁Kap	-9712
▁NYC	-9713
▁apt	-9714
▁lun	-9715
▁Bugs	-9716
▁Year	-9717
▁alas	-9718
▁icon	-9719
▁mund	-9720
▁nerd	-9721
▁outs	-9722
headed	-9723
▁bonus	-9724
▁flies	-9725
▁jewel	-9726
▁mouse	-9727
▁shake	-9728
▁stark	-9729
iseries	-9730
redator	-9731
▁Watson	-9732
▁cancer	-9733
▁custom	-9734
▁phrase	-9735
▁unexpl	-9736
▁Bullock	-9737
▁Century	-9738
▁Profess	-9739
▁aggress	-9740
▁despair	-9741
▁drawing	-9742
▁mankind	-9743
▁wishing	-9744
▁focusing	-9745
▁proceeds	-9746
ropriately	-9747
▁musicians	-9748
▁priceless	-9749
▁Characters	-9750
▁deliberately	-9751
Em	-9752
Hey	-9753
mus	-9754
▁1)	-9755
bird	-9756
both	-9757
orse	-9758
▁Age	-9759
▁Ali	-9760
▁Joy	-9761
▁pin	-9762
▁ren	-9763
Death	-9764
ellig	-9765
hetti	-9766
▁Duck	-9767
▁Kath	-9768
▁Save	-9769
▁dile	-9770
▁plat	-9771
bidden	-9772
ifully	-9773
strong	-9774
uments	-9775
▁Final	-9776
▁Stars	-9777
▁Women	-9778
▁legit	-9779
▁photo	-9780
▁Beyond	-9781
▁Brazil	-9782
▁Hammer	-9783
▁poetic	-9784
▁Hartley	-9785
▁crucial	-9786
▁minimum	-9787
conscious	-9788
▁contrary	-9789
▁intimate	-9790
▁swimming	-9791
▁Carradine	-9792
▁comparing	-9793
▁correctly	-9794
▁principal	-9795
▁seventies	-9796
▁nomination	-9797
▁frustration	-9798
▁inappropriate	-9799
▁possibilities	-9800
8.	-9801
rr	-9802
ATE	-9803
cco	-9804
dis	-9805
pre	-9806
▁ce	-9807
aman	-9808
▁McD	-9809
▁egg	-9810
▁lav	-9811
innie	-9812
insaw	-9813
izard	-9814
▁Fish	-9815
▁Kids	-9816
▁Marc	-9817
▁cens	-9818
▁glim	-9819
▁heat	-9820
▁sits	-9821
▁Actor	-9822
▁Shame	-9823
▁buffs	-9824
▁paran	-9825
▁sneak	-9826
▁swall	-9827
▁exquis	-9828
▁guests	-9829
▁versus	-9830
▁checked	-9831
▁convent	-9832
▁Christie	-9833
▁Marshall	-9834
▁patients	-9835
▁prisoner	-9836
▁showcase	-9837
▁attitudes	-9838
▁conceived	-9839
▁rendition	-9840
▁senseless	-9841
▁artificial	-9842
▁conditions	-9843
▁miniseries	-9844
▁Fortunately	-9845
la	-9846
ARN	-9847
say	-9848
arer	-9849
bles	-9850
ixon	-9851
quer	-9852
▁Dee	-9853
▁Mas	-9854
▁Tam	-9855
▁aka	-9856
▁dod	-9857
▁lip	-9858
based	-9859
check	-9860
▁(196	-9861
▁9/10	-9862
▁Code	-9863
▁baff	-9864
▁lips	-9865
▁mate	-9866
ceived	-9867
▁angst	-9868
▁bands	-9869
▁phony	-9870
▁Harold	-9871
▁Nobody	-9872
▁Romero	-9873
▁inject	-9874
▁ponder	-9875
▁Theater	-9876
▁Usually	-9877
▁careful	-9878
▁judging	-9879
▁Interest	-9880
▁Pictures	-9881
▁bumbling	-9882
▁exchange	-9883
▁practice	-9884
▁trailers	-9885
▁Beautiful	-9886
▁fundament	-9887
▁generations	-9888
▁incompetent	-9889
(..	-9890
Two	-9891
oad	-9892
▁Sa	-9893
sect	-9894
ylum	-9895
▁Bay	-9896
▁Pay	-9897
▁pub	-9898
House	-9899
▁Line	-9900
▁Niro	-9901
imagin	-9902
▁Leigh	-9903
▁Spock	-9904
▁Ultim	-9905
▁flood	-9906
▁slave	-9907
▁spoke	-9908
ensical	-9909
ifetime	-9910
▁Castle	-9911
▁banned	-9912
▁faster	-9913
▁gifted	-9914
▁simult	-9915
▁undert	-9916
rilliant	-9917
▁fighter	-9918
▁foolish	-9919
▁wounded	-9920
▁yelling	-9921
▁floating	-9922
▁viewings	-9923
▁dimension	-9924
▁secondary	-9925
▁survivors	-9926
8)	-9927
9)	-9928
Dr	-9929
Cha	-9930
INE	-9931
Spe	-9932
lix	-9933
pol	-9934
numb	-9935
show	-9936
unts	-9937
▁Boo	-9938
▁cos	-9939
odile	-9940
▁Town	-9941
▁aunt	-9942
▁mode	-9943
▁rude	-9944
▁rush	-9945
▁vibr	-9946
▁*****	-9947
▁Annie	-9948
▁skate	-9949
▁tunes	-9950
▁Commun	-9951
▁Jordan	-9952
▁candid	-9953
▁catchy	-9954
▁dancers	-9955
▁teaches	-9956
▁vaguely	-9957
▁frequent	-9958
▁Charlotte	-9959
▁Francisco	-9960
▁greatness	-9961
▁futuristic	-9962
▁historically	-9963
▁understandable	-9964
bu	-9965
lan	-9966
och	-9967
▁Bak	-9968
▁Bal	-9969
▁Div	-9970
▁Fra	-9971
▁Nov	-9972
agues	-9973
arity	-9974
stage	-9975
▁Cook	-9976
▁cake	-9977
▁dirt	-9978
▁surg	-9979
engers	-9980
ervice	-9981
ourney	-9982
▁WATCH	-9983
▁awake	-9984
▁coast	-9985
▁moody	-9986
▁thugs	-9987
▁widow	-9988
aghetti	-9989
▁Murder	-9990
▁behave	-9991
▁ensues	-9992
▁faults	-9993
▁intric	-9994
▁joined	-9995
▁outfit	-9996
▁ritual	-9997
▁safety	-9998
▁blowing	-9999
▁orchest	-10000
▁weakest	-10001
▁patience	-10002
▁alongside	-10003
▁expressed	-10004
▁introduce	-10005
▁Eventually	-10006
▁desperation	-10007
uz	-10008
ALL	-10009
sur	-10010
▁1,	-10011
robe	-10012
▁NBC	-10013
▁Pie	-10014
▁gam	-10015
▁jaw	-10016
▁nun	-10017
Peter	-10018
ettes	-10019
upert	-10020
▁Gere	-10021
▁intr	-10022
hantom	-10023
▁Nolan	-10024
▁hyper	-10025
Perhaps	-10026
retched	-10027
▁Middle	-10028
▁boxing	-10029
▁condem	-10030
▁lately	-10031
▁nights	-10032
▁refuge	-10033
▁Belushi	-10034
astically	-10035
oneliness	-10036
▁citizens	-10037
▁ignorant	-10038
▁releases	-10039
▁alcoholic	-10040
▁authority	-10041
▁marketing	-10042
▁Throughout	-10043
▁popularity	-10044
▁remarkably	-10045
▁represented	-10046
▁revolutionary	-10047
OUS	-10048
guy	-10049
wan	-10050
▁tv	-10051
lest	-10052
▁BIG	-10053
▁ori	-10054
▁vom	-10055
Avoid	-10056
▁Foxx	-10057
▁Snow	-10058
▁quit	-10059
▁rage	-10060
▁rang	-10061
▁Dutch	-10062
▁Revol	-10063
▁hokey	-10064
▁legal	-10065
▁meand	-10066
▁Aussie	-10067
▁Scooby	-10068
▁global	-10069
▁rotten	-10070
▁Classic	-10071
▁Jeffrey	-10072
▁Project	-10073
▁Several	-10074
▁elegant	-10075
developed	-10076
▁catching	-10077
▁contempl	-10078
▁dinosaur	-10079
▁travesty	-10080
▁Wonderful	-10081
▁behaviour	-10082
▁overacting	-10083
▁educational	-10084
▁exceptionally	-10085
-)	-10086
.(	-10087
7)	-10088
Go	-10089
/11	-10090
bby	-10091
esc	-10092
aser	-10093
fast	-10094
hell	-10095
ints	-10096
ldom	-10097
llen	-10098
llow	-10099
mill	-10100
ysis	-10101
▁---	-10102
▁Vis	-10103
▁ath	-10104
▁dud	-10105
drama	-10106
▁Cher	-10107
▁Gone	-10108
▁Make	-10109
▁dism	-10110
▁echo	-10111
▁reck	-10112
▁rely	-10113
▁riot	-10114
▁twin	-10115
▁wars	-10116
▁Aaron	-10117
▁newly	-10118
▁stale	-10119
▁Better	-10120
▁Either	-10121
▁senses	-10122
▁Gabriel	-10123
▁claimed	-10124
▁combine	-10125
▁contrad	-10126
▁mundane	-10127
▁Thompson	-10128
▁cleverly	-10129
▁valuable	-10130
▁compelled	-10131
▁executive	-10132
▁interrupt	-10133
▁vulnerable	-10134
4)	-10135
Bad	-10136
did	-10137
iti	-10138
▁2:	-10139
born	-10140
dies	-10141
orms	-10142
vial	-10143
▁Bud	-10144
▁Gus	-10145
▁Pur	-10146
▁Tan	-10147
▁jer	-10148
▁max	-10149
▁ple	-10150
▁vig	-10151
anoia	-10152
owski	-10153
▁3000	-10154
▁Mind	-10155
▁indu	-10156
▁rabb	-10157
▁reel	-10158
▁ties	-10159
▁Boris	-10160
▁Miyaz	-10161
▁exter	-10162
▁wacky	-10163
pecting	-10164
▁Forget	-10165
▁Peters	-10166
▁Warren	-10167
▁defeat	-10168
▁engage	-10169
▁glamor	-10170
▁raises	-10171
▁report	-10172
▁Widmark	-10173
▁archite	-10174
▁bargain	-10175
▁centers	-10176
▁dentist	-10177
▁granted	-10178
provoking	-10179
▁Sarandon	-10180
▁Barrymore	-10181
▁depicting	-10182
▁superhero	-10183
▁suspicious	-10184
▁Blockbuster	-10185
▁complaining	-10186
Bas	-10187
END	-10188
rip	-10189
acle	-10190
aled	-10191
erto	-10192
reet	-10193
ripp	-10194
talk	-10195
▁Hat	-10196
▁Kaz	-10197
Title	-10198
again	-10199
anski	-10200
creen	-10201
ental	-10202
quest	-10203
▁ONLY	-10204
actors	-10205
imated	-10206
▁Seven	-10207
▁State	-10208
▁hurts	-10209
▁lands	-10210
▁reads	-10211
▁sched	-10212
austrop	-10213
▁messed	-10214
▁tastes	-10215
▁wildly	-10216
▁Central	-10217
▁awfully	-10218
▁package	-10219
▁pushing	-10220
▁tonight	-10221
▁Terrible	-10222
▁campaign	-10223
▁purposes	-10224
▁mysteries	-10225
▁relatives	-10226
▁shameless	-10227
▁complaints	-10228
La	-10229
Ser	-10230
UST	-10231
omn	-10232
oto	-10233
houl	-10234
▁SEE	-10235
shine	-10236
▁Comb	-10237
▁Pete	-10238
▁tact	-10239
arents	-10240
ueless	-10241
▁Farre	-10242
▁pride	-10243
▁rates	-10244
ketball	-10245
▁Ritter	-10246
▁severe	-10247
▁winter	-10248
▁Neither	-10249
▁applaud	-10250
▁closest	-10251
▁muddled	-10252
▁trivial	-10253
▁pressure	-10254
▁promised	-10255
▁promises	-10256
▁Nightmare	-10257
▁integrity	-10258
▁respected	-10259
▁tasteless	-10260
▁uplifting	-10261
▁equivalent	-10262
▁presumably	-10263
!,	-10264
IP	-10265
ota	-10266
rob	-10267
▁BR	-10268
▁Ok	-10269
vira	-10270
zard	-10271
▁Rud	-10272
eland	-10273
enson	-10274
sycho	-10275
uated	-10276
▁Cris	-10277
▁Joel	-10278
▁Sell	-10279
▁pops	-10280
▁romp	-10281
▁scat	-10282
Though	-10283
itizen	-10284
ombies	-10285
vation	-10286
▁Dylan	-10287
▁greed	-10288
▁persu	-10289
▁reson	-10290
▁rings	-10291
▁unden	-10292
▁Conrad	-10293
▁Marion	-10294
▁Spacey	-10295
▁washed	-10296
▁peoples	-10297
▁Scottish	-10298
▁assigned	-10299
▁disliked	-10300
▁solution	-10301
▁astronaut	-10302
▁excessive	-10303
▁realizing	-10304
▁challenged	-10305
▁loneliness	-10306
▁Considering	-10307
▁discovering	-10308
▁questionable	-10309
IF	-10310
ca	-10311
chi	-10312
gio	-10313
thm	-10314
xic	-10315
Once	-10316
Very	-10317
bone	-10318
elic	-10319
▁Ass	-10320
▁Est	-10321
▁Put	-10322
▁Sab	-10323
rance	-10324
▁(194	-10325
▁Core	-10326
▁Jews	-10327
▁aest	-10328
▁edit	-10329
emesis	-10330
ocaust	-10331
▁Rings	-10332
▁bully	-10333
▁habit	-10334
▁optim	-10335
▁tribe	-10336
▁Origin	-10337
▁dances	-10338
▁facing	-10339
▁misery	-10340
▁photos	-10341
▁arrival	-10342
▁kicking	-10343
▁matches	-10344
▁methods	-10345
▁unhappy	-10346
▁composer	-10347
▁glorious	-10348
▁performs	-10349
▁property	-10350
▁conflicts	-10351
▁fashioned	-10352
▁exceptions	-10353
▁fascinated	-10354
▁OR	-10355
phew	-10356
umbo	-10357
zing	-10358
▁Bis	-10359
▁WIT	-10360
aines	-10361
andal	-10362
indul	-10363
lined	-10364
ppers	-10365
rants	-10366
▁Holl	-10367
▁June	-10368
▁acid	-10369
▁code	-10370
▁ramb	-10371
▁rein	-10372
▁subl	-10373
ession	-10374
▁Spain	-10375
▁Truly	-10376
▁crush	-10377
▁grass	-10378
▁indic	-10379
▁scope	-10380
another	-10381
likable	-10382
▁August	-10383
▁Barney	-10384
▁Maggie	-10385
▁chicks	-10386
▁limits	-10387
▁modest	-10388
▁narrow	-10389
▁online	-10390
▁quotes	-10391
▁robots	-10392
▁rocket	-10393
▁soccer	-10394
▁abusive	-10395
▁doctors	-10396
▁smiling	-10397
▁incorpor	-10398
▁musician	-10399
▁secretly	-10400
▁climactic	-10401
▁comedians	-10402
▁vengeance	-10403
▁complexity	-10404
▁simplicity	-10405
AP	-10406
vi	-10407
His	-10408
cop	-10409
ifi	-10410
lem	-10411
shi	-10412
mail	-10413
arely	-10414
ersed	-10415
▁Conf	-10416
▁deaf	-10417
▁peak	-10418
▁rant	-10419
icable	-10420
ission	-10421
orcist	-10422
▁1980'	-10423
▁Marty	-10424
▁Meryl	-10425
▁Angels	-10426
▁Craven	-10427
▁Heston	-10428
▁assemb	-10429
▁plight	-10430
▁Timothy	-10431
▁objects	-10432
▁prepare	-10433
▁psychic	-10434
▁partners	-10435
▁sounding	-10436
▁household	-10437
▁silliness	-10438
▁punishment	-10439
▁counterpart	-10440
▁manipulative	-10441
Wh	-10442
hai	-10443
▁MY	-10444
Love	-10445
otta	-10446
rehe	-10447
xton	-10448
ypse	-10449
▁Sop	-10450
▁cul	-10451
acity	-10452
azing	-10453
orney	-10454
reens	-10455
ucker	-10456
▁Five	-10457
▁IMDB	-10458
▁Wong	-10459
▁flag	-10460
▁prev	-10461
▁roof	-10462
▁worn	-10463
▁Party	-10464
William	-10465
urately	-10466
▁Simply	-10467
▁ethnic	-10468
▁jumped	-10469
▁widely	-10470
ocalypse	-10471
▁Phillip	-10472
▁sublime	-10473
▁supreme	-10474
▁premiere	-10475
▁realised	-10476
▁stumbled	-10477
▁unimagin	-10478
▁wandering	-10479
▁enthusiasm	-10480
▁lackluster	-10481
▁construction	-10482
▁heartbreaking	-10483
▁straightforward	-10484
py	-10485
AME	-10486
Pro	-10487
offs	-10488
vell	-10489
▁Bed	-10490
▁Lar	-10491
▁dow	-10492
▁fee	-10493
▁san	-10494
▁tom	-10495
apers	-10496
inity	-10497
rings	-10498
udden	-10499
volta	-10500
▁Cart	-10501
▁Skip	-10502
▁Thus	-10503
▁bite	-10504
▁darn	-10505
▁eats	-10506
▁edgy	-10507
▁unit	-10508
inding	-10509
▁/>***	-10510
▁clock	-10511
▁flair	-10512
▁hench	-10513
▁obliv	-10514
▁slice	-10515
▁smugg	-10516
▁Series	-10517
▁behold	-10518
▁nephew	-10519
▁Somehow	-10520
▁dresses	-10521
▁fingers	-10522
▁heading	-10523
▁Patricia	-10524
▁Virginia	-10525
▁deranged	-10526
▁polished	-10527
▁biography	-10528
▁corporate	-10529
▁neighbors	-10530
▁occasions	-10531
▁Recommended	-10532
▁conservative	-10533
▁unpredictable	-10534
▁simultaneously	-10535
Or	-10536
bi	-10537
Ali	-10538
Big	-10539
Can	-10540
Her	-10541
Tra	-10542
eta	-10543
pha	-10544
yre	-10545
zer	-10546
Last	-10547
ando	-10548
felt	-10549
ghan	-10550
ouch	-10551
uary	-10552
▁Eye	-10553
▁Lor	-10554
front	-10555
goers	-10556
▁(193	-10557
▁Corb	-10558
▁Kyle	-10559
▁wolf	-10560
▁Diana	-10561
▁Funny	-10562
▁Pearl	-10563
▁armed	-10564
▁cream	-10565
▁nomin	-10566
▁recon	-10567
onymous	-10568
▁abused	-10569
▁counts	-10570
▁grainy	-10571
▁humble	-10572
▁worker	-10573
▁Crystal	-10574
▁recover	-10575
▁refused	-10576
▁retired	-10577
▁spirits	-10578
▁visible	-10579
▁Brooklyn	-10580
▁Miyazaki	-10581
▁betrayal	-10582
▁reaching	-10583
▁Therefore	-10584
▁claustrop	-10585
▁profanity	-10586
▁resources	-10587
▁disappears	-10588
▁adaptations	-10589
▁experimental	-10590
pa	-10591
yo	-10592
IDS	-10593
mel	-10594
▁IF	-10595
▁ME	-10596
▁Os	-10597
acks	-10598
bust	-10599
ipid	-10600
umar	-10601
vate	-10602
▁Jen	-10603
▁Lup	-10604
▁Six	-10605
▁gee	-10606
▁gym	-10607
▁poo	-10608
▁wax	-10609
These	-10610
urned	-10611
▁amid	-10612
▁purs	-10613
▁unra	-10614
enberg	-10615
▁Ellen	-10616
▁Judge	-10617
▁Loren	-10618
▁analy	-10619
▁showc	-10620
▁smell	-10621
uration	-10622
▁Carmen	-10623
▁Legend	-10624
▁debate	-10625
▁mayhem	-10626
▁noises	-10627
▁posted	-10628
▁visits	-10629
▁Bernard	-10630
▁Machine	-10631
▁Natalie	-10632
▁bedroom	-10633
▁defense	-10634
▁desires	-10635
▁hearted	-10636
▁invited	-10637
▁motorcy	-10638
▁ordered	-10639
▁remarks	-10640
▁unaware	-10641
prisingly	-10642
▁Harrison	-10643
▁Republic	-10644
▁paranoia	-10645
▁showdown	-10646
▁wretched	-10647
▁addiction	-10648
▁similarly	-10649
▁depression	-10650
▁literature	-10651
particularly	-10652
▁intentionally	-10653
90	-10654
AW	-10655
EASE	-10656
amin	-10657
bast	-10658
▁Eis	-10659
▁Gro	-10660
▁WAY	-10661
▁rul	-10662
gency	-10663
icism	-10664
zilla	-10665
▁DVDs	-10666
▁Kent	-10667
▁Mild	-10668
▁Sara	-10669
▁Soph	-10670
▁bell	-10671
▁lord	-10672
▁rail	-10673
heimer	-10674
icidal	-10675
ifties	-10676
▁Close	-10677
▁Colin	-10678
▁Latin	-10679
▁Major	-10680
▁banal	-10681
▁cripp	-10682
▁mummy	-10683
▁wides	-10684
special	-10685
▁Hughes	-10686
▁Venice	-10687
▁biased	-10688
pendence	-10689
▁Bridges	-10690
▁Friends	-10691
▁History	-10692
▁Kenneth	-10693
▁Robbins	-10694
▁Simpson	-10695
▁antagon	-10696
▁enlight	-10697
▁females	-10698
▁landing	-10699
▁letters	-10700
▁stunned	-10701
▁surfing	-10702
▁accuracy	-10703
▁advanced	-10704
▁celebrity	-10705
▁witnesses	-10706
▁compliment	-10707
▁nonsensical	-10708
▁distribution	-10709
▁heartwarming	-10710
Me	-10711
ko	-10712
Mur	-10713
usp	-10714
OULD	-10715
dney	-10716
hole	-10717
issa	-10718
road	-10719
spir	-10720
▁Jol	-10721
▁Leo	-10722
▁Lie	-10723
▁sus	-10724
osaur	-10725
▁2005	-10726
▁Pink	-10727
▁clip	-10728
▁excl	-10729
▁prol	-10730
George	-10731
arious	-10732
urning	-10733
▁Domin	-10734
▁chess	-10735
▁joins	-10736
▁Afghan	-10737
▁Bogart	-10738
▁Rooney	-10739
▁Screen	-10740
▁render	-10741
▁roller	-10742
▁chooses	-10743
▁commend	-10744
▁leaders	-10745
▁mistress	-10746
▁fantasies	-10747
▁murdering	-10748
▁accurately	-10749
▁businessman	-10750
▁exploration	-10751
▁dysfunctional	-10752
HA	-10753
TW	-10754
IST	-10755
ala	-10756
icy	-10757
igo	-10758
▁Ur	-10759
assy	-10760
char	-10761
gian	-10762
lied	-10763
main	-10764
▁Aks	-10765
▁Ill	-10766
annah	-10767
antis	-10768
notch	-10769
overn	-10770
power	-10771
psons	-10772
▁Beet	-10773
▁Gang	-10774
▁Lily	-10775
▁bump	-10776
▁dazz	-10777
▁dish	-10778
▁sear	-10779
Rating	-10780
▁1960'	-10781
▁Stall	-10782
▁Until	-10783
▁cloud	-10784
▁squad	-10785
▁tacky	-10786
ributes	-10787
ructive	-10788
through	-10789
▁Berlin	-10790
▁Ernest	-10791
▁Reeves	-10792
▁cities	-10793
▁hippie	-10794
▁liners	-10795
▁losers	-10796
▁preced	-10797
ollowing	-10798
probably	-10799
▁Raymond	-10800
▁alleged	-10801
▁chicken	-10802
▁pursuit	-10803
▁sixties	-10804
▁clueless	-10805
▁encourage	-10806
▁imitation	-10807
▁misleading	-10808
▁differently	-10809
▁choreographed	-10810
hot	-10811
mmm	-10812
▁.<	-10813
▁SF	-10814
addy	-10815
bbie	-10816
emic	-10817
unks	-10818
▁Daw	-10819
▁Kin	-10820
▁Las	-10821
▁Loy	-10822
inist	-10823
▁Game	-10824
▁Gard	-10825
▁Magn	-10826
▁golf	-10827
▁saga	-10828
▁ster	-10829
atched	-10830
icolor	-10831
omeday	-10832
person	-10833
▁Carey	-10834
▁Donna	-10835
▁Human	-10836
▁Opera	-10837
▁Stock	-10838
▁dreck	-10839
▁grate	-10840
▁towns	-10841
▁Austin	-10842
▁Monkey	-10843
▁Sopran	-10844
▁Valley	-10845
▁Willie	-10846
▁wisdom	-10847
▁Astaire	-10848
▁Studios	-10849
▁designs	-10850
▁edition	-10851
▁insipid	-10852
▁explores	-10853
▁inherent	-10854
▁stranded	-10855
▁Hopefully	-10856
▁resulting	-10857
▁experiments	-10858
▁sensational	-10859
▁recommendation	-10860
Br	-10861
CR	-10862
add	-10863
cor	-10864
oqu	-10865
▁Gw	-10866
ayed	-10867
brow	-10868
iker	-10869
▁Gle	-10870
▁Wag	-10871
▁fox	-10872
irsty	-10873
uries	-10874
▁Bost	-10875
▁Cuba	-10876
▁DEAD	-10877
▁Head	-10878
▁chew	-10879
▁fist	-10880
▁furn	-10881
▁obst	-10882
▁sums	-10883
▁vein	-10884
▁Blond	-10885
▁Roche	-10886
▁atroc	-10887
▁deriv	-10888
ference	-10889
▁Claude	-10890
▁Fisher	-10891
▁Office	-10892
▁Voight	-10893
▁drinks	-10894
▁filler	-10895
▁halluc	-10896
▁masses	-10897
▁owners	-10898
▁troops	-10899
▁chuckle	-10900
▁lengthy	-10901
▁concepts	-10902
▁harmless	-10903
▁shouting	-10904
▁companies	-10905
▁accomplish	-10906
▁directions	-10907
▁unlikeable	-10908
▁Furthermore	-10909
AB	-10910
eff	-10911
fet	-10912
lex	-10913
pan	-10914
Okay	-10915
iley	-10916
lins	-10917
mons	-10918
umes	-10919
▁DID	-10920
▁WHY	-10921
▁fog	-10922
Never	-10923
haust	-10924
leans	-10925
phone	-10926
▁Cary	-10927
▁Hero	-10928
▁Peck	-10929
▁flee	-10930
▁gems	-10931
▁tops	-10932
▁April	-10933
▁Carly	-10934
▁Kitty	-10935
▁Molly	-10936
▁Nicol	-10937
▁minus	-10938
▁Beatty	-10939
▁Gerald	-10940
▁Stuart	-10941
▁greedy	-10942
▁lifted	-10943
▁lively	-10944
▁museum	-10945
▁seduct	-10946
▁shoddy	-10947
▁Stiller	-10948
▁empathy	-10949
Hollywood	-10950
▁Nicholas	-10951
▁receives	-10952
▁severely	-10953
▁sometime	-10954
▁alternate	-10955
▁ignorance	-10956
▁objective	-10957
▁repeating	-10958
▁supported	-10959
▁activities	-10960
▁interactions	-10961
?'	-10962
Ye	-10963
cca	-10964
gom	-10965
met	-10966
rah	-10967
▁Ah	-10968
chor	-10969
odes	-10970
▁HOR	-10971
▁Mir	-10972
asing	-10973
asted	-10974
olden	-10975
▁Bean	-10976
▁MUST	-10977
▁mute	-10978
▁span	-10979
▁unst	-10980
everly	-10981
filled	-10982
regard	-10983
▁Drake	-10984
▁valid	-10985
iblical	-10986
▁Kapoor	-10987
▁Others	-10988
▁amused	-10989
▁choppy	-10990
▁demean	-10991
▁doubts	-10992
▁hungry	-10993
▁merits	-10994
inations	-10995
▁butcher	-10996
▁comprom	-10997
▁defined	-10998
▁screens	-10999
▁substit	-11000
▁Horrible	-11001
▁invented	-11002
▁Naturally	-11003
▁evolution	-11004
▁definition	-11005
▁positively	-11006
▁civilization	-11007
▁investigating	-11008
▁HU	-11009
emet	-11010
runs	-11011
▁FIL	-11012
▁awa	-11013
▁thr	-11014
claim	-11015
neyed	-11016
▁/>1.	-11017
▁Hank	-11018
▁Hick	-11019
▁boom	-11020
▁cope	-11021
▁dope	-11022
▁shif	-11023
▁stim	-11024
▁tang	-11025
amount	-11026
itable	-11027
▁Flash	-11028
▁Theat	-11029
▁Third	-11030
▁pages	-11031
rection	-11032
▁Valent	-11033
▁circus	-11034
▁closet	-11035
▁guards	-11036
▁namely	-11037
▁outing	-11038
▁static	-11039
▁temper	-11040
▁yellow	-11041
osterous	-11042
▁moronic	-11043
▁outfits	-11044
▁protest	-11045
▁sensual	-11046
▁insanity	-11047
▁lifeless	-11048
▁resemble	-11049
▁substant	-11050
▁teachers	-11051
▁visiting	-11052
▁Professor	-11053
▁completed	-11054
▁generated	-11055
▁policeman	-11056
▁subjected	-11057
▁surviving	-11058
▁describing	-11059
▁passengers	-11060
▁inconsistent	-11061
▁masterpieces	-11062
//	-11063
▁Ak	-11064
▁Ot	-11065
▁Wy	-11066
arse	-11067
ften	-11068
ubby	-11069
wear	-11070
▁Gay	-11071
▁gor	-11072
oodoo	-11073
ooney	-11074
▁Dall	-11075
▁Eyes	-11076
▁Rent	-11077
▁awak	-11078
▁foil	-11079
▁pant	-11080
▁reha	-11081
▁shed	-11082
gomery	-11083
▁Dance	-11084
▁Dunne	-11085
▁Hindi	-11086
▁Miike	-11087
▁twins	-11088
.......	-11089
thought	-11090
▁Carlos	-11091
▁Dalton	-11092
▁Portug	-11093
▁Should	-11094
▁Surely	-11095
▁agenda	-11096
▁assign	-11097
▁demise	-11098
▁loaded	-11099
renching	-11100
▁Thunder	-11101
▁unravel	-11102
▁Lifetime	-11103
▁Predator	-11104
▁guarante	-11105
▁randomly	-11106
▁Everybody	-11107
▁interests	-11108
▁strongest	-11109
▁universal	-11110
▁landscapes	-11111
▁underwater	-11112
▁coincidence	-11113
▁confrontation	-11114
UE	-11115
!"<	-11116
Jul	-11117
dys	-11118
▁Mu	-11119
OOOO	-11120
agle	-11121
brid	-11122
izer	-11123
odge	-11124
oler	-11125
usey	-11126
▁CAN	-11127
▁Dow	-11128
▁Fal	-11129
▁Mos	-11130
▁SNL	-11131
▁Sea	-11132
▁lic	-11133
▁map	-11134
▁rum	-11135
Movie	-11136
abled	-11137
bable	-11138
elvet	-11139
itsch	-11140
▁Bela	-11141
▁Benn	-11142
▁Hyde	-11143
▁Jill	-11144
▁Vera	-11145
▁Wish	-11146
astard	-11147
▁Court	-11148
▁Outer	-11149
▁delic	-11150
▁drill	-11151
▁drove	-11152
▁realm	-11153
▁Action	-11154
▁League	-11155
▁Salman	-11156
▁Wilder	-11157
▁asylum	-11158
▁confir	-11159
▁exceed	-11160
▁morals	-11161
▁Antonio	-11162
▁Brosnan	-11163
▁Colonel	-11164
▁Luckily	-11165
▁loyalty	-11166
▁preachy	-11167
▁Phillips	-11168
▁demented	-11169
▁exposure	-11170
▁Inspector	-11171
▁nightclub	-11172
▁operation	-11173
▁unlikable	-11174
▁challenges	-11175
▁difficulties	-11176
ef	-11177
▁x	-11178
-13	-11179
lay	-11180
▁2-	-11181
▁eg	-11182
Only	-11183
aboo	-11184
alsh	-11185
arty	-11186
vals	-11187
your	-11188
▁Rex	-11189
▁Rid	-11190
blood	-11191
encer	-11192
inter	-11193
ugene	-11194
▁/>2.	-11195
▁Hugh	-11196
▁Less	-11197
▁Must	-11198
▁Shat	-11199
▁milk	-11200
▁scra	-11201
▁tent	-11202
▁zoom	-11203
motion	-11204
ndrome	-11205
really	-11206
uentin	-11207
▁Kathy	-11208
▁arist	-11209
▁decor	-11210
▁degra	-11211
▁parad	-11212
▁prize	-11213
fashion	-11214
▁Stupid	-11215
▁enchan	-11216
▁menace	-11217
▁morbid	-11218
▁shares	-11219
▁spring	-11220
directed	-11221
▁Dickens	-11222
▁Olivier	-11223
▁affairs	-11224
▁corpses	-11225
hetically	-11226
identally	-11227
▁Egyptian	-11228
▁Goldberg	-11229
▁arguably	-11230
▁entitled	-11231
▁instinct	-11232
▁mentions	-11233
▁overlong	-11234
▁referred	-11235
▁According	-11236
▁hackneyed	-11237
▁primitive	-11238
▁containing	-11239
▁improvement	-11240
▁appropriately	-11241
▁assassination	-11242
Ben	-11243
ERT	-11244
bot	-11245
▁99	-11246
blah	-11247
days	-11248
dead	-11249
eous	-11250
llie	-11251
neck	-11252
▁Exp	-11253
▁Hos	-11254
▁Nap	-11255
▁Ord	-11256
▁Pig	-11257
ghter	-11258
ieves	-11259
ounty	-11260
uters	-11261
▁Judy	-11262
▁Sept	-11263
▁Shah	-11264
▁fren	-11265
▁mast	-11266
modern	-11267
▁Beast	-11268
▁Claud	-11269
▁Conne	-11270
▁Crazy	-11271
▁Jesse	-11272
▁Verho	-11273
▁WORST	-11274
ormally	-11275
▁Bettie	-11276
▁Gentle	-11277
▁Nathan	-11278
▁Temple	-11279
▁chills	-11280
▁circle	-11281
▁signed	-11282
▁crashes	-11283
▁gimmick	-11284
▁inspire	-11285
▁surgery	-11286
▁suspend	-11287
▁Simpsons	-11288
▁previews	-11289
▁princess	-11290
▁ambiguous	-11291
▁incorrect	-11292
▁precisely	-11293
▁derivative	-11294
▁hopelessly	-11295
▁insightful	-11296
▁portrayals	-11297
▁fascination	-11298
OY	-11299
Red	-11300
abh	-11301
cat	-11302
▁AF	-11303
Best	-11304
Many	-11305
leck	-11306
west	-11307
▁Duv	-11308
▁OUT	-11309
▁Uwe	-11310
creat	-11311
leted	-11312
▁Gand	-11313
▁Lone	-11314
▁Roth	-11315
▁Thor	-11316
▁yawn	-11317
▁Break	-11318
▁Conan	-11319
▁Inter	-11320
▁Russo	-11321
▁alter	-11322
▁fluff	-11323
▁grief	-11324
▁hitch	-11325
▁hypoc	-11326
▁recre	-11327
▁shell	-11328
▁skull	-11329
▁sweat	-11330
▁whats	-11331
fetched	-11332
ionship	-11333
ulating	-11334
▁Amazon	-11335
▁Nights	-11336
▁barrel	-11337
▁libert	-11338
▁locals	-11339
▁minded	-11340
▁shared	-11341
▁wholly	-11342
▁Network	-11343
▁adopted	-11344
▁exhaust	-11345
▁forcing	-11346
▁Scotland	-11347
▁Travolta	-11348
▁analysis	-11349
▁literary	-11350
▁recycled	-11351
▁restored	-11352
▁tracking	-11353
▁shoulders	-11354
▁Montgomery	-11355
▁controlled	-11356
▁imaginable	-11357
▁opportunities	-11358
!'	-11359
Pr	-11360
eem	-11361
auer	-11362
cles	-11363
held	-11364
warf	-11365
▁Cab	-11366
▁Doc	-11367
▁Hag	-11368
▁Sel	-11369
▁Tro	-11370
▁nod	-11371
arate	-11372
hears	-11373
▁Cool	-11374
▁Fear	-11375
▁Fool	-11376
▁Upon	-11377
▁View	-11378
▁caut	-11379
▁idol	-11380
▁pron	-11381
▁vice	-11382
▁wing	-11383
▁Danes	-11384
▁balls	-11385
▁bones	-11386
▁bread	-11387
▁breed	-11388
▁ships	-11389
▁voted	-11390
agement	-11391
chester	-11392
▁Barker	-11393
▁Terror	-11394
▁Writer	-11395
▁firmly	-11396
▁marked	-11397
▁rhythm	-11398
▁Mitchum	-11399
▁located	-11400
▁quietly	-11401
▁shorter	-11402
▁species	-11403
▁venture	-11404
▁warrior	-11405
▁Needless	-11406
▁ambition	-11407
▁credited	-11408
▁historic	-11409
▁shoulder	-11410
▁triangle	-11411
▁Brilliant	-11412
▁acclaimed	-11413
▁startling	-11414
▁Richardson	-11415
▁conscience	-11416
▁destroying	-11417
▁obligatory	-11418
▁predecessor	-11419
▁understands	-11420
▁demonstrates	-11421
HER	-11422
olk	-11423
voc	-11424
▁23	-11425
Dark	-11426
affy	-11427
iana	-11428
oven	-11429
urst	-11430
yard	-11431
▁COM	-11432
▁Dud	-11433
▁Hum	-11434
▁dun	-11435
▁von	-11436
atman	-11437
blown	-11438
erman	-11439
iffer	-11440
inski	-11441
neath	-11442
odder	-11443
▁9/11	-11444
▁Clay	-11445
▁Note	-11446
▁Soul	-11447
▁cher	-11448
▁toys	-11449
apable	-11450
guided	-11451
▁1930'	-11452
▁Busey	-11453
▁Damon	-11454
▁Walsh	-11455
▁exped	-11456
▁fifty	-11457
▁intro	-11458
covered	-11459
minator	-11460
▁Gibson	-11461
▁Paxton	-11462
▁Ranger	-11463
▁Velvet	-11464
▁Wagner	-11465
▁margin	-11466
▁seldom	-11467
▁therap	-11468
▁topics	-11469
▁Winters	-11470
▁chapter	-11471
▁creator	-11472
▁screwed	-11473
▁sending	-11474
▁delicate	-11475
▁demanding	-11476
▁inability	-11477
▁adolescent	-11478
▁inaccurate	-11479
▁preposterous	-11480
▁representation	-11481
)!	-11482
ji	-11483
VEN	-11484
ido	-11485
isy	-11486
tta	-11487
plex	-11488
▁Dig	-11489
▁Odd	-11490
▁ans	-11491
▁pie	-11492
mpire	-11493
▁2/10	-11494
▁FILM	-11495
▁hoot	-11496
▁lush	-11497
▁mins	-11498
▁mort	-11499
▁owns	-11500
▁pill	-11501
▁seam	-11502
▁unsu	-11503
▁vign	-11504
length	-11505
▁Giant	-11506
▁cheek	-11507
▁petty	-11508
▁poker	-11509
▁skits	-11510
amiliar	-11511
perhaps	-11512
respect	-11513
▁Awards	-11514
▁Danger	-11515
▁Kidman	-11516
▁Samuel	-11517
▁Snipes	-11518
▁newcom	-11519
▁Amazing	-11520
▁address	-11521
▁cruelty	-11522
▁knocked	-11523
▁Costello	-11524
▁canceled	-11525
▁deceased	-11526
▁domestic	-11527
▁machines	-11528
▁exploring	-11529
▁viewpoint	-11530
▁exposition	-11531
▁industrial	-11532
▁devastating	-11533
▁unexplained	-11534
AG	-11535
://	-11536
Did	-11537
ttp	-11538
two	-11539
Dead	-11540
bits	-11541
buck	-11542
pton	-11543
▁Cos	-11544
▁Cut	-11545
atics	-11546
getic	-11547
heads	-11548
icken	-11549
oning	-11550
ustin	-11551
▁2006	-11552
▁Fast	-11553
▁Fell	-11554
▁Mess	-11555
▁keen	-11556
▁neur	-11557
▁poem	-11558
▁vain	-11559
itated	-11560
▁Monty	-11561
▁colon	-11562
▁incon	-11563
▁pione	-11564
▁rebel	-11565
▁roots	-11566
emetery	-11567
ighters	-11568
▁Debbie	-11569
▁Elvira	-11570
▁Muppet	-11571
▁Spider	-11572
▁active	-11573
▁crazed	-11574
▁enthra	-11575
▁steady	-11576
▁Clooney	-11577
▁Orleans	-11578
▁assumed	-11579
▁caliber	-11580
▁fulfill	-11581
▁injured	-11582
▁matched	-11583
▁posters	-11584
▁virtual	-11585
▁weather	-11586
▁rejected	-11587
▁youngest	-11588
▁slaughter	-11589
▁admittedly	-11590
▁filmmaking	-11591
▁widescreen	-11592
▁communicate	-11593
▁transformed	-11594
,(	-11595
RY	-11596
UD	-11597
DVD	-11598
bye	-11599
yet	-11600
zes	-11601
▁AD	-11602
date	-11603
opic	-11604
orky	-11605
racy	-11606
▁Von	-11607
▁gap	-11608
comed	-11609
eting	-11610
loria	-11611
ulter	-11612
▁Hend	-11613
▁Side	-11614
▁WHAT	-11615
▁abdu	-11616
▁heap	-11617
▁narc	-11618
corder	-11619
ffects	-11620
ypical	-11621
▁Homer	-11622
▁Jenny	-11623
▁Kings	-11624
▁Sandy	-11625
▁Scary	-11626
▁artic	-11627
▁shaky	-11628
▁waves	-11629
▁/>****	-11630
▁Bottom	-11631
▁Ginger	-11632
▁Rupert	-11633
▁stream	-11634
▁vastly	-11635
ventures	-11636
▁Simmons	-11637
▁devices	-11638
▁flashes	-11639
▁invites	-11640
▁schools	-11641
▁shaking	-11642
▁Columbia	-11643
▁airplane	-11644
▁hilarity	-11645
▁internal	-11646
▁regarded	-11647
▁rendered	-11648
▁wardrobe	-11649
▁brutality	-11650
▁heartfelt	-11651
▁immediate	-11652
▁preferred	-11653
▁selection	-11654
▁uniformly	-11655
▁significance	-11656
-2	-11657
CM	-11658
cel	-11659
eur	-11660
www	-11661
▁KN	-11662
▁Pu	-11663
feld	-11664
gate	-11665
stru	-11666
▁Und	-11667
▁myt	-11668
▁woe	-11669
athon	-11670
ocaly	-11671
ymour	-11672
▁Harr	-11673
▁Viol	-11674
▁brat	-11675
normal	-11676
ounded	-11677
wright	-11678
▁Awful	-11679
▁Light	-11680
▁babys	-11681
▁messy	-11682
▁niece	-11683
▁rifle	-11684
▁rises	-11685
comings	-11686
iblings	-11687
▁Ronald	-11688
▁Sydney	-11689
▁garden	-11690
▁giallo	-11691
▁hugely	-11692
▁option	-11693
▁remove	-11694
▁wander	-11695
▁Hopkins	-11696
▁Sellers	-11697
▁Toronto	-11698
▁singers	-11699
▁judgment	-11700
▁standout	-11701
▁stumbles	-11702
▁thrilled	-11703
▁Verhoeven	-11704
▁conviction	-11705
▁fundamental	-11706
▁provocative	-11707
▁respectively	-11708
>>	-11709
Ind	-11710
Jim	-11711
cil	-11712
flu	-11713
ois	-11714
▁GO	-11715
▁Ri	-11716
iped	-11717
stin	-11718
▁191	-11719
▁Dia	-11720
▁Mam	-11721
▁Oct	-11722
▁Woo	-11723
eches	-11724
▁Rene	-11725
▁WITH	-11726
▁plag	-11727
▁pump	-11728
▁solo	-11729
ainted	-11730
atable	-11731
unless	-11732
▁abund	-11733
▁bride	-11734
▁grabs	-11735
▁memor	-11736
▁owned	-11737
▁steel	-11738
▁teams	-11739
playing	-11740
▁Dillon	-11741
▁Hilton	-11742
▁Olivia	-11743
▁infant	-11744
▁pedest	-11745
▁refuse	-11746
▁rising	-11747
▁stores	-11748
▁Lambert	-11749
▁Darkness	-11750
▁Spoilers	-11751
▁attorney	-11752
▁destroys	-11753
▁dropping	-11754
▁studying	-11755
▁ingenious	-11756
▁unrelated	-11757
▁Christians	-11758
▁confidence	-11759
▁contradict	-11760
▁considerably	-11761
▁inexplicably	-11762
▁unexpectedly	-11763
gi	-11764
IES	-11765
ova	-11766
roe	-11767
▁Gy	-11768
arts	-11769
asco	-11770
inds	-11771
stan	-11772
▁GOD	-11773
▁Loc	-11774
▁Nik	-11775
Which	-11776
bound	-11777
icker	-11778
onent	-11779
▁Abra	-11780
▁Alec	-11781
▁Stay	-11782
▁Sway	-11783
▁grin	-11784
▁meas	-11785
placed	-11786
▁Hayes	-11787
▁Prest	-11788
▁mates	-11789
atively	-11790
osition	-11791
▁Dawson	-11792
▁Downey	-11793
▁dealer	-11794
▁disast	-11795
▁heroin	-11796
▁Eastern	-11797
▁Mildred	-11798
▁censors	-11799
▁lasting	-11800
▁rapidly	-11801
▁remakes	-11802
▁strings	-11803
▁Polanski	-11804
▁Westerns	-11805
▁pleasing	-11806
▁computers	-11807
▁exquisite	-11808
▁receiving	-11809
▁stretched	-11810
▁Thankfully	-11811
▁additional	-11812
▁frightened	-11813
▁respective	-11814
▁continually	-11815
▁surroundings	-11816
sa	-11817
Mad	-11818
Pol	-11819
Sam	-11820
bar	-11821
eks	-11822
▁6.	-11823
▁Ko	-11824
▁gy	-11825
evil	-11826
gles	-11827
lymp	-11828
otal	-11829
tick	-11830
▁ARE	-11831
▁Bam	-11832
▁Led	-11833
▁Vol	-11834
Super	-11835
antha	-11836
▁Aunt	-11837
▁Edge	-11838
▁Hans	-11839
▁Joey	-11840
▁Tele	-11841
▁avid	-11842
▁duck	-11843
▁sale	-11844
almost	-11845
ocracy	-11846
▁Boyle	-11847
▁Kline	-11848
▁moron	-11849
▁pecul	-11850
bearing	-11851
fortune	-11852
tending	-11853
▁Cruise	-11854
▁Native	-11855
▁embark	-11856
▁gender	-11857
▁motive	-11858
▁puzzle	-11859
▁subtly	-11860
▁wilder	-11861
daughter	-11862
mittedly	-11863
▁Daniels	-11864
▁Sanders	-11865
▁Seymour	-11866
▁chronic	-11867
▁Richards	-11868
▁centered	-11869
▁immature	-11870
▁prospect	-11871
▁resolved	-11872
▁stopping	-11873
▁befriends	-11874
▁confident	-11875
▁misguided	-11876
▁programme	-11877
▁prominent	-11878
▁caricature	-11879
▁kidnapping	-11880
▁psychology	-11881
▁contribution	-11882
▁automatically	-11883
IV	-11884
mn	-11885
DER	-11886
dep	-11887
hart	-11888
ucci	-11889
▁Cel	-11890
▁Fan	-11891
▁voc	-11892
.5/10	-11893
chair	-11894
itzer	-11895
ption	-11896
▁Cand	-11897
▁Edie	-11898
▁Niel	-11899
▁fabr	-11900
▁gray	-11901
▁lens	-11902
▁mall	-11903
▁wire	-11904
ampoon	-11905
giving	-11906
illian	-11907
▁Alone	-11908
▁Brain	-11909
▁Cohen	-11910
▁Irene	-11911
▁Ollie	-11912
▁dates	-11913
▁gloom	-11914
▁races	-11915
▁setup	-11916
▁taped	-11917
ciously	-11918
ologist	-11919
writing	-11920
▁depend	-11921
▁expand	-11922
▁offend	-11923
▁reader	-11924
▁supply	-11925
▁twelve	-11926
▁charged	-11927
▁deleted	-11928
▁hostage	-11929
▁ripping	-11930
▁serving	-11931
▁visited	-11932
▁aspiring	-11933
▁reflects	-11934
▁disgusted	-11935
▁reluctant	-11936
▁separated	-11937
▁strangers	-11938
▁testament	-11939
▁astounding	-11940
▁motorcycle	-11941
▁skateboard	-11942
▁Technicolor	-11943
Fl	-11944
Col	-11945
lli	-11946
rio	-11947
Plan	-11948
Sure	-11949
apse	-11950
mary	-11951
oyle	-11952
ulse	-11953
▁'70	-11954
▁Doo	-11955
geant	-11956
gends	-11957
isted	-11958
utton	-11959
▁Prot	-11960
▁barb	-11961
▁bars	-11962
▁dose	-11963
▁flam	-11964
▁info	-11965
▁prey	-11966
Having	-11967
ardieu	-11968
dyssey	-11969
orters	-11970
▁Bunny	-11971
▁alley	-11972
▁fluid	-11973
▁jaded	-11974
▁lasts	-11975
▁stare	-11976
▁Demons	-11977
▁Denzel	-11978
▁Kramer	-11979
▁outlaw	-11980
▁perman	-11981
▁prince	-11982
▁racing	-11983
▁remade	-11984
▁sketch	-11985
▁Beatles	-11986
▁Believe	-11987
▁glowing	-11988
▁insists	-11989
▁marries	-11990
▁rooting	-11991
▁tempted	-11992
ocalyptic	-11993
▁suburban	-11994
▁survives	-11995
▁symbolic	-11996
▁identical	-11997
▁partially	-11998
▁sincerely	-11999
▁commenting	-12000
▁engrossing	-12001
▁weaknesses	-12002
▁respectable	-12003
▁shortcomings	-12004
DS	-12005
Gu	-12006
ART	-12007
eor	-12008
oge	-12009
▁IV	-12010
▁PC	-12011
▁ol	-12012
apid	-12013
cile	-12014
ench	-12015
indu	-12016
leen	-12017
onyo	-12018
oura	-12019
symp	-12020
thon	-12021
zech	-12022
▁CON	-12023
▁Jar	-12024
▁Key	-12025
▁Tun	-12026
▁ape	-12027
along	-12028
ansas	-12029
izoph	-12030
ulous	-12031
▁2004	-12032
▁Card	-12033
▁Clar	-12034
▁Glob	-12035
▁Rush	-12036
▁cran	-12037
▁enig	-12038
▁reci	-12039
ancing	-12040
iculty	-12041
quette	-12042
ugging	-12043
▁Vince	-12044
▁dimin	-12045
▁drift	-12046
▁glued	-12047
▁hammy	-12048
▁homes	-12049
▁unsus	-12050
▁wakes	-12051
working	-12052
▁Lauren	-12053
▁summar	-12054
▁Beverly	-12055
▁Whoever	-12056
▁assured	-12057
▁earnest	-12058
▁entered	-12059
▁sharing	-12060
▁witches	-12061
▁Stallone	-12062
▁deserted	-12063
▁dressing	-12064
▁Christina	-12065
▁attacking	-12066
▁backwards	-12067
▁neighbour	-12068
▁difficulty	-12069
▁guaranteed	-12070
▁authorities	-12071
FE	-12072
ae	-12073
rim	-12074
umn	-12075
vas	-12076
▁22	-12077
Bill	-12078
ersh	-12079
haha	-12080
inky	-12081
onti	-12082
oria	-12083
orus	-12084
raph	-12085
▁Toy	-12086
▁Var	-12087
▁sta	-12088
Frank	-12089
quire	-12090
▁AIDS	-12091
▁Foot	-12092
▁SOME	-12093
▁Vill	-12094
▁Whit	-12095
▁hers	-12096
▁nick	-12097
▁tomb	-12098
minger	-12099
mostly	-12100
rument	-12101
▁Novak	-12102
▁Orson	-12103
▁bitch	-12104
▁bleed	-12105
▁mafia	-12106
▁scrap	-12107
▁vocal	-12108
atement	-12109
▁Battle	-12110
▁Beauty	-12111
▁Boston	-12112
▁Haines	-12113
▁assure	-12114
▁planes	-12115
▁redund	-12116
▁submar	-12117
izophren	-12118
▁Farrell	-12119
▁Montana	-12120
▁Perfect	-12121
▁Shatner	-12122
▁leather	-12123
▁miracul	-12124
▁natives	-12125
▁quarter	-12126
▁regards	-12127
▁request	-12128
▁sitcoms	-12129
▁someday	-12130
▁Werewolf	-12131
▁designer	-12132
▁elevator	-12133
▁gambling	-12134
▁needless	-12135
▁roommate	-12136
▁shopping	-12137
▁speeches	-12138
▁deserving	-12139
▁acceptance	-12140
▁basketball	-12141
▁presenting	-12142
▁translated	-12143
▁informative	-12144
TT	-12145
Dra	-12146
OUR	-12147
Ray	-12148
bie	-12149
dem	-12150
dro	-12151
rec	-12152
▁('	-12153
▁HE	-12154
Rock	-12155
beth	-12156
borg	-12157
burg	-12158
holy	-12159
load	-12160
note	-12161
▁Box	-12162
▁Jos	-12163
▁Liv	-12164
cends	-12165
esque	-12166
isode	-12167
overs	-12168
▁Marx	-12169
▁Pose	-12170
▁Pulp	-12171
▁Visc	-12172
▁bugs	-12173
▁epit	-12174
▁rear	-12175
actory	-12176
orders	-12177
▁Chief	-12178
▁Irons	-12179
▁Lange	-12180
▁Today	-12181
▁Wells	-12182
▁blink	-12183
▁bombs	-12184
▁couch	-12185
▁disci	-12186
▁hears	-12187
▁macho	-12188
▁mayor	-12189
▁medic	-12190
▁ranch	-12191
▁route	-12192
▁votes	-12193
ractive	-12194
▁Cowboy	-12195
▁Gerard	-12196
▁Powers	-12197
▁copied	-12198
▁depths	-12199
▁dragon	-12200
▁nerves	-12201
▁refers	-12202
▁retros	-12203
▁sooner	-12204
▁upside	-12205
▁Modesty	-12206
▁cliches	-12207
▁compete	-12208
▁expects	-12209
▁filling	-12210
▁passage	-12211
▁Russians	-12212
▁accounts	-12213
▁addicted	-12214
▁comprehe	-12215
▁interact	-12216
▁peculiar	-12217
▁pretends	-12218
▁rational	-12219
▁reported	-12220
▁afterward	-12221
▁crocodile	-12222
▁paintings	-12223
▁specially	-12224
▁terrified	-12225
▁instrument	-12226
▁connections	-12227
▁conventions	-12228
▁expectation	-12229
IDE	-12230
Joe	-12231
Lau	-12232
gid	-12233
wic	-12234
▁AS	-12235
▁Ry	-12236
▁WT	-12237
▁hi	-12238
cool	-12239
fish	-12240
gren	-12241
icer	-12242
roit	-12243
scar	-12244
▁Duc	-12245
▁Hep	-12246
▁Mol	-12247
▁Pfe	-12248
▁lux	-12249
▁ven	-12250
arthy	-12251
backs	-12252
bergh	-12253
genre	-12254
girls	-12255
▁Bird	-12256
▁Dest	-12257
▁Fans	-12258
▁coff	-12259
▁flim	-12260
▁leap	-12261
▁lion	-12262
▁soci	-12263
▁trop	-12264
▁turd	-12265
aughty	-12266
sexual	-12267
▁casts	-12268
▁chron	-12269
▁dwell	-12270
▁feast	-12271
ortions	-12272
▁Duvall	-12273
▁Govern	-12274
▁Runner	-12275
▁Sebast	-12276
▁agency	-12277
▁dismal	-12278
▁stages	-12279
▁trials	-12280
▁Cushing	-12281
▁Titanic	-12282
▁airport	-12283
▁budgets	-12284
▁chopped	-12285
▁conveys	-12286
▁destiny	-12287
▁handles	-12288
▁hapless	-12289
▁healthy	-12290
▁helpful	-12291
▁morally	-12292
▁prequel	-12293
▁promote	-12294
▁vibrant	-12295
fashioned	-12296
▁Hayworth	-12297
▁abruptly	-12298
▁answered	-12299
▁disguise	-12300
▁forgiven	-12301
▁massacre	-12302
▁restrict	-12303
▁siblings	-12304
▁Entertain	-12305
▁camcorder	-12306
▁decidedly	-12307
▁energetic	-12308
▁prejudice	-12309
▁University	-12310
hou	-12311
▁"1	-12312
▁8.	-12313
▁BS	-12314
?!?!	-12315
avia	-12316
boat	-12317
comp	-12318
edge	-12319
herd	-12320
maid	-12321
rise	-12322
▁Cob	-12323
▁Fun	-12324
▁TCM	-12325
▁coc	-12326
▁que	-12327
▁tip	-12328
Blood	-12329
iably	-12330
ieval	-12331
isand	-12332
oiled	-12333
▁/>3.	-12334
▁Asia	-12335
▁Away	-12336
▁Brig	-12337
▁Earl	-12338
▁Emil	-12339
▁Face	-12340
▁Mask	-12341
▁Mend	-12342
▁abst	-12343
▁dont	-12344
▁mail	-12345
▁slip	-12346
▁vary	-12347
acious	-12348
moving	-12349
▁Czech	-12350
▁Naked	-12351
▁Warri	-12352
▁adore	-12353
▁belly	-12354
▁blues	-12355
▁crisp	-12356
▁males	-12357
▁nails	-12358
▁unimp	-12359
▁vital	-12360
▁wives	-12361
▁Mormon	-12362
▁Wright	-12363
▁billed	-12364
▁glance	-12365
▁layers	-12366
▁scenar	-12367
▁Actress	-12368
▁anyways	-12369
▁emerges	-12370
▁privile	-12371
▁punches	-12372
▁visions	-12373
▁Exorcist	-12374
▁Twilight	-12375
▁employed	-12376
▁eventual	-12377
▁midnight	-12378
▁programs	-12379
▁sticking	-12380
▁suitably	-12381
▁Direction	-12382
▁amusement	-12383
▁mentality	-12384
▁spaceship	-12385
▁definitive	-12386
▁discussing	-12387
▁stunningly	-12388
▁caricatures	-12389
▁celebration	-12390
▁recognizable	-12391
▁claustrophobic	-12392
/5	-12393
Lu	-12394
ANG	-12395
FUL	-12396
Les	-12397
bon	-12398
car	-12399
mma	-12400
rin	-12401
utt	-12402
▁UP	-12403
▁Ut	-12404
King	-12405
dest	-12406
icia	-12407
kees	-12408
mato	-12409
ouge	-12410
pres	-12411
royd	-12412
▁fur	-12413
▁nit	-12414
RIBLE	-12415
ardom	-12416
epers	-12417
omber	-12418
ppola	-12419
ridge	-12420
▁Crow	-12421
▁Finn	-12422
▁Lans	-12423
▁coat	-12424
▁unem	-12425
▁Colle	-12426
▁Errol	-12427
▁Jacob	-12428
▁Piper	-12429
▁Storm	-12430
▁Trust	-12431
▁birds	-12432
▁hides	-12433
▁shred	-12434
▁spree	-12435
houlies	-12436
ilation	-12437
▁Spirit	-12438
▁Swayze	-12439
▁Wesley	-12440
▁autobi	-12441
▁boasts	-12442
▁region	-12443
▁retire	-12444
▁statue	-12445
▁Cassidy	-12446
▁factors	-12447
▁inflict	-12448
▁jarring	-12449
▁Godzilla	-12450
▁assuming	-12451
▁entering	-12452
▁handling	-12453
▁referring	-12454
▁spectacle	-12455
▁tolerable	-12456
▁uncertain	-12457
▁suspension	-12458
▁wilderness	-12459
▁examination	-12460
▁intentional	-12461
▁anticipation	-12462
▁unsatisfying	-12463
"<	-12464
HO	-12465
wer	-12466
▁WR	-12467
Jean	-12468
More	-12469
best	-12470
hast	-12471
isty	-12472
much	-12473
oder	-12474
rock	-12475
xter	-12476
▁Rel	-12477
▁Tat	-12478
ovsky	-12479
▁Main	-12480
▁Malt	-12481
▁Post	-12482
▁Scor	-12483
▁lend	-12484
▁pomp	-12485
stinov	-12486
uation	-12487
▁Alive	-12488
▁Evans	-12489
▁Kumar	-12490
▁Mummy	-12491
▁backs	-12492
▁clone	-12493
▁femme	-12494
▁kudos	-12495
▁lunch	-12496
busters	-12497
eworthy	-12498
▁Pierce	-12499
▁advers	-12500
▁flashy	-12501
▁injust	-12502
▁inspir	-12503
▁oldest	-12504
▁pushes	-12505
▁unseen	-12506
ilarious	-12507
iterally	-12508
▁Frances	-12509
character	-12510
▁Pfeiffer	-12511
▁cultures	-12512
▁jealousy	-12513
▁outright	-12514
▁waitress	-12515
Everything	-12516
▁Armstrong	-12517
▁Detective	-12518
▁September	-12519
▁absurdity	-12520
▁blatantly	-12521
▁fortunate	-12522
▁housewife	-12523
▁sarcastic	-12524
▁expedition	-12525
▁misfortune	-12526
▁rebellious	-12527
▁mesmerizing	-12528
▁nominations	-12529
99	-12530
gt	-12531
.),	-12532
INK	-12533
IRE	-12534
Mon	-12535
cal	-12536
doc	-12537
ieg	-12538
▁''	-12539
▁WE	-12540
ALLY	-12541
flix	-12542
ikes	-12543
issy	-12544
oard	-12545
ware	-12546
▁/>9	-12547
▁ACT	-12548
▁Bug	-12549
▁Cop	-12550
▁Cou	-12551
▁Mey	-12552
▁sor	-12553
aying	-12554
guard	-12555
inate	-12556
istol	-12557
named	-12558
ulent	-12559
wling	-12560
▁1995	-12561
▁FROM	-12562
▁Kiss	-12563
▁News	-12564
▁cong	-12565
▁nurs	-12566
▁rats	-12567
▁shoe	-12568
▁smug	-12569
▁succ	-12570
asting	-12571
hanger	-12572
mighty	-12573
▁Among	-12574
▁Beach	-12575
▁Erika	-12576
▁Ethan	-12577
▁Logan	-12578
▁Parad	-12579
▁Pleas	-12580
▁Robot	-12581
▁Shell	-12582
▁Sweet	-12583
▁brown	-12584
▁rainy	-12585
▁spine	-12586
▁taboo	-12587
nothing	-12588
▁Carell	-12589
▁Custer	-12590
▁Grinch	-12591
▁Incred	-12592
▁PLEASE	-12593
▁angels	-12594
▁traits	-12595
▁Emperor	-12596
▁Looking	-12597
▁Palance	-12598
▁Preston	-12599
▁descent	-12600
▁dilemma	-12601
▁fathers	-12602
▁fifties	-12603
▁victory	-12604
irlfriend	-12605
▁Secondly	-12606
▁activity	-12607
▁duration	-12608
▁enhanced	-12609
▁spirited	-12610
▁departure	-12611
▁threatens	-12612
▁inevitably	-12613
▁phenomenal	-12614
▁suggestion	-12615
▁limitations	-12616
GH	-12617
OOK	-12618
ORY	-12619
axy	-12620
eon	-12621
sis	-12622
adly	-12623
deal	-12624
esar	-12625
have	-12626
iate	-12627
know	-12628
near	-12629
ober	-12630
▁Hou	-12631
abbit	-12632
asses	-12633
enger	-12634
onica	-12635
opard	-12636
orous	-12637
▁Cron	-12638
▁Lund	-12639
▁rave	-12640
▁shat	-12641
▁tire	-12642
▁Brady	-12643
▁Casey	-12644
▁cents	-12645
▁cohes	-12646
▁hires	-12647
▁rides	-12648
▁slack	-12649
▁tooth	-12650
ocratic	-12651
stanbul	-12652
▁Darwin	-12653
▁Mencia	-12654
▁frozen	-12655
▁launch	-12656
▁mixing	-12657
▁savage	-12658
▁tossed	-12659
▁Affleck	-12660
▁Clearly	-12661
▁Spencer	-12662
▁Theatre	-12663
▁conduct	-12664
▁kissing	-12665
▁miracle	-12666
▁radical	-12667
▁shining	-12668
▁stumble	-12669
▁worship	-12670
▁abstract	-12671
▁audition	-12672
▁cemetery	-12673
▁combines	-12674
▁entirety	-12675
▁grateful	-12676
▁immortal	-12677
▁switched	-12678
ographical	-12679
production	-12680
▁Christine	-12681
▁Rochester	-12682
▁intricate	-12683
▁publicity	-12684
▁continuing	-12685
▁disastrous	-12686
▁underneath	-12687
▁enthusiastic	-12688
ua	-12689
!".	-12690
ITE	-12691
MAN	-12692
Pat	-12693
aky	-12694
amo	-12695
mph	-12696
riz	-12697
zog	-12698
▁!!	-12699
▁GR	-12700
high	-12701
kill	-12702
lake	-12703
quin	-12704
ttes	-12705
▁30'	-12706
▁Jod	-12707
▁Tok	-12708
▁huh	-12709
Since	-12710
acles	-12711
arest	-12712
assic	-12713
▁Frit	-12714
▁HAVE	-12715
▁clin	-12716
▁hust	-12717
▁pulp	-12718
▁slee	-12719
▁wash	-12720
Little	-12721
People	-12722
driven	-12723
lights	-12724
neider	-12725
shadow	-12726
▁Ricci	-12727
▁boxer	-12728
▁disin	-12729
▁unatt	-12730
▁vomit	-12731
imation	-12732
▁Actors	-12733
▁Aliens	-12734
▁Bonnie	-12735
▁Eugene	-12736
▁Louise	-12737
▁babies	-12738
▁culmin	-12739
▁formed	-12740
▁framed	-12741
▁gained	-12742
▁hollow	-12743
▁instru	-12744
▁revers	-12745
▁struct	-12746
▁wholes	-12747
▁Frankly	-12748
▁Ustinov	-12749
▁academy	-12750
▁commits	-12751
▁demonic	-12752
▁servant	-12753
▁transpl	-12754
▁wanders	-12755
▁Visconti	-12756
▁attended	-12757
▁brooding	-12758
▁crossing	-12759
▁interrog	-12760
▁scariest	-12761
▁selected	-12762
▁Paramount	-12763
▁breakdown	-12764
▁convicted	-12765
▁disregard	-12766
▁insurance	-12767
▁indication	-12768
▁delightfully	-12769
▁consideration	-12770
ITY	-12771
REE	-12772
etc	-12773
fig	-12774
hov	-12775
rug	-12776
▁2"	-12777
▁TW	-12778
▁fo	-12779
erve	-12780
gard	-12781
hang	-12782
opus	-12783
spot	-12784
▁Non	-12785
▁Raw	-12786
▁lol	-12787
Toole	-12788
burne	-12789
hodox	-12790
liest	-12791
▁Corn	-12792
▁Dana	-12793
▁MUCH	-12794
▁Wait	-12795
▁fade	-12796
▁fuel	-12797
▁snap	-12798
▁yard	-12799
Before	-12800
Bottom	-12801
intage	-12802
keeper	-12803
orient	-12804
▁Clive	-12805
▁Dolph	-12806
▁Gable	-12807
▁March	-12808
▁McCoy	-12809
▁Trail	-12810
▁advis	-12811
▁fifth	-12812
levance	-12813
profess	-12814
winning	-12815
▁Brenda	-12816
▁Potter	-12817
▁Savage	-12818
▁ballet	-12819
▁biopic	-12820
▁butler	-12821
▁insomn	-12822
▁linked	-12823
▁pathos	-12824
▁select	-12825
▁square	-12826
▁diverse	-12827
▁outline	-12828
▁Istanbul	-12829
▁balanced	-12830
▁cleaning	-12831
▁conclude	-12832
▁neurotic	-12833
▁Victorian	-12834
▁delighted	-12835
▁isolation	-12836
▁justified	-12837
▁rewarding	-12838
▁despicable	-12839
▁mechanical	-12840
▁controversy	-12841
▁inhabitants	-12842
▁unsuspecting	-12843
*<	-12844
MA	-12845
NA	-12846
ACE	-12847
Dis	-12848
Sim	-12849
dig	-12850
zie	-12851
▁AR	-12852
Niro	-12853
door	-12854
gins	-12855
guin	-12856
hara	-12857
ihil	-12858
mund	-12859
vere	-12860
▁CBS	-12861
▁Jed	-12862
▁TIM	-12863
▁Tak	-12864
▁Wel	-12865
▁bug	-12866
▁sou	-12867
Chris	-12868
atile	-12869
ermit	-12870
urous	-12871
▁Amit	-12872
▁Bert	-12873
▁Diet	-12874
▁Gret	-12875
▁Gund	-12876
▁Kung	-12877
▁Lowe	-12878
▁Malk	-12879
▁Math	-12880
▁Shot	-12881
▁ling	-12882
▁vile	-12883
▁zone	-12884
altrow	-12885
ortant	-12886
outhed	-12887
utions	-12888
▁STILL	-12889
▁adopt	-12890
▁artsy	-12891
▁athle	-12892
▁error	-12893
▁masks	-12894
▁stray	-12895
▁tapes	-12896
usively	-12897
▁/>4/10	-12898
▁Ingrid	-12899
▁Strong	-12900
▁Sudden	-12901
▁coward	-12902
▁farmer	-12903
▁hammer	-12904
▁legacy	-12905
▁thrust	-12906
▁underm	-12907
▁voodoo	-12908
produced	-12909
▁Hepburn	-12910
▁collaps	-12911
▁fishing	-12912
▁rehears	-12913
▁subtext	-12914
▁Laurence	-12915
▁claiming	-12916
▁contempt	-12917
▁disabled	-12918
▁divorced	-12919
▁infected	-12920
▁Preminger	-12921
▁gentleman	-12922
▁residents	-12923
▁strengths	-12924
▁mannerisms	-12925
▁phenomenon	-12926
▁restrained	-12927
▁underworld	-12928
▁university	-12929
▁unimaginative	-12930
.).	-12931
Ant	-12932
ITT	-12933
New	-12934
ava	-12935
▁CL	-12936
Hall	-12937
Life	-12938
ioni	-12939
rain	-12940
▁40'	-12941
▁Ble	-12942
▁Myr	-12943
▁Poe	-12944
▁Voy	-12945
▁aer	-12946
▁org	-12947
anton	-12948
cheek	-12949
hetto	-12950
iless	-12951
sorry	-12952
▁Dame	-12953
▁Font	-12954
▁Keep	-12955
▁Knox	-12956
▁Noah	-12957
▁Ruby	-12958
▁Same	-12959
▁Scro	-12960
▁WILL	-12961
▁belt	-12962
▁brow	-12963
▁cage	-12964
▁craz	-12965
▁doom	-12966
▁fles	-12967
▁glee	-12968
▁laun	-12969
▁omin	-12970
▁pals	-12971
▁penn	-12972
▁pink	-12973
▁rope	-12974
people	-12975
▁Agent	-12976
▁Bravo	-12977
▁Claus	-12978
▁Kudos	-12979
▁Kurtz	-12980
▁faint	-12981
▁goods	-12982
▁hangs	-12983
▁vigil	-12984
▁wider	-12985
▁/>7/10	-12986
▁Akshay	-12987
▁Empire	-12988
▁Madsen	-12989
▁Reagan	-12990
▁aboard	-12991
▁blacks	-12992
▁bounty	-12993
▁cattle	-12994
▁fierce	-12995
▁karate	-12996
▁melanc	-12997
▁stairs	-12998
▁unleas	-12999
▁Abraham	-13000
▁Gregory	-13001
▁Justice	-13002
▁Paltrow	-13003
▁Private	-13004
▁Stephan	-13005
▁coupled	-13006
▁hunters	-13007
▁painter	-13008
▁proving	-13009
▁seeming	-13010
▁tourist	-13011
▁Basinger	-13012
▁Samantha	-13013
▁cracking	-13014
▁Following	-13015
▁Streisand	-13016
▁disguised	-13017
▁repulsive	-13018
▁approaches	-13019
▁sympathize	-13020
▁approaching	-13021
▁overbearing	-13022
▁authenticity	-13023
FT	-13024
PP	-13025
Car	-13026
War	-13027
asi	-13028
dam	-13029
typ	-13030
▁Na	-13031
esse	-13032
wide	-13033
▁Bun	-13034
▁Lib	-13035
▁Pix	-13036
▁Rat	-13037
▁bud	-13038
▁cue	-13039
▁rug	-13040
Thank	-13041
angel	-13042
bbers	-13043
essed	-13044
olved	-13045
ourke	-13046
▁Aven	-13047
▁Free	-13048
▁Ming	-13049
▁YOUR	-13050
▁babe	-13051
▁bike	-13052
▁meal	-13053
▁ware	-13054
Direct	-13055
▁Bacon	-13056
▁Cross	-13057
▁Dixon	-13058
▁Doris	-13059
▁Lance	-13060
▁Mouse	-13061
▁Palma	-13062
▁Rambo	-13063
▁Rocky	-13064
▁Sleep	-13065
▁decap	-13066
▁goals	-13067
▁horny	-13068
▁outer	-13069
otional	-13070
▁Ashley	-13071
▁Carson	-13072
▁Grudge	-13073
▁Herzog	-13074
▁Letter	-13075
▁Lupino	-13076
▁Monroe	-13077
▁emerge	-13078
▁firing	-13079
▁insuff	-13080
▁morons	-13081
blahblah	-13082
▁Coppola	-13083
▁Gilbert	-13084
▁affects	-13085
▁cooking	-13086
▁degener	-13087
▁depends	-13088
▁funding	-13089
▁studied	-13090
▁tactics	-13091
indulgent	-13092
omination	-13093
▁Mountain	-13094
▁Showtime	-13095
▁avoiding	-13096
▁informed	-13097
▁respects	-13098
▁sensible	-13099
▁swearing	-13100
▁youthful	-13101
▁Depardieu	-13102
▁admirable	-13103
▁realities	-13104
▁sickening	-13105
▁vignettes	-13106
sympathetic	-13107
▁Revolution	-13108
▁distraction	-13109
▁homosexuality	-13110
''	-13111
!)<	-13112
ASS	-13113
oey	-13114
▁3,	-13115
▁SW	-13116
▁ok	-13117
ashi	-13118
cope	-13119
does	-13120
lord	-13121
▁Tha	-13122
▁jam	-13123
atton	-13124
dance	-13125
gence	-13126
ician	-13127
oodle	-13128
▁1999	-13129
▁Gall	-13130
▁July	-13131
▁Poir	-13132
▁bent	-13133
▁biol	-13134
▁gear	-13135
▁laws	-13136
▁rose	-13137
▁upst	-13138
arters	-13139
▁Creat	-13140
▁Faith	-13141
▁insec	-13142
▁nerve	-13143
▁quant	-13144
▁seedy	-13145
▁snuff	-13146
▁spawn	-13147
▁trace	-13148
▁users	-13149
without	-13150
▁DeNiro	-13151
▁Regard	-13152
▁expose	-13153
▁hooker	-13154
▁iconic	-13155
▁mouths	-13156
▁posing	-13157
actually	-13158
▁Bennett	-13159
▁altered	-13160
▁colours	-13161
▁dubious	-13162
▁inherit	-13163
▁inspect	-13164
▁psyched	-13165
▁thieves	-13166
▁warming	-13167
▁Sopranos	-13168
▁Together	-13169
▁aircraft	-13170
▁freaking	-13171
▁likeable	-13172
▁outdated	-13173
▁reliable	-13174
▁brainless	-13175
▁endlessly	-13176
▁published	-13177
▁satirical	-13178
▁scenarios	-13179
▁comprehend	-13180
▁contribute	-13181
▁possession	-13182
▁comparisons	-13183
▁concentrate	-13184
▁institution	-13185
?"<	-13186
Get	-13187
Hor	-13188
IVE	-13189
Sil	-13190
Yet	-13191
irs	-13192
sub	-13193
tal	-13194
▁3)	-13195
▁Ja	-13196
ifty	-13197
prom	-13198
uded	-13199
▁TER	-13200
▁bul	-13201
sored	-13202
super	-13203
ubble	-13204
utive	-13205
▁Ivan	-13206
▁Mall	-13207
▁Poll	-13208
▁Wing	-13209
▁Work	-13210
▁conj	-13211
▁debt	-13212
▁slut	-13213
abrina	-13214
before	-13215
ridden	-13216
umming	-13217
witted	-13218
▁Fried	-13219
▁Olymp	-13220
▁Rusty	-13221
▁biker	-13222
▁blunt	-13223
▁boost	-13224
▁dolls	-13225
▁haunt	-13226
▁mercy	-13227
▁slimy	-13228
▁swing	-13229
version	-13230
▁Dallas	-13231
▁Danish	-13232
▁adjust	-13233
▁beside	-13234
▁fatale	-13235
▁insect	-13236
▁meteor	-13237
▁patron	-13238
▁shrink	-13239
▁smiles	-13240
▁unconv	-13241
▁undead	-13242
vability	-13243
▁/>10/10	-13244
▁Country	-13245
▁Diamond	-13246
▁cheaply	-13247
▁expense	-13248
▁pursued	-13249
▁readers	-13250
▁records	-13251
▁rescued	-13252
itionally	-13253
▁Directed	-13254
▁Melville	-13255
▁Moreover	-13256
▁Randolph	-13257
▁destined	-13258
▁monument	-13259
▁plotting	-13260
▁accepting	-13261
▁convinces	-13262
▁criticize	-13263
▁incidents	-13264
▁practical	-13265
▁remembers	-13266
▁screwball	-13267
▁Supporting	-13268
▁approached	-13269
▁convenient	-13270
▁undercover	-13271
▁Afghanistan	-13272
▁indifferent	-13273
▁tremendously	-13274
▁screenwriters	-13275
":	-13276
Sl	-13277
Ter	-13278
mun	-13279
zzy	-13280
clim	-13281
coll	-13282
gang	-13283
▁'80	-13284
▁Jet	-13285
▁Lim	-13286
▁beg	-13287
▁ric	-13288
assin	-13289
cules	-13290
uller	-13291
unker	-13292
▁Crit	-13293
▁Diaz	-13294
▁Este	-13295
▁monk	-13296
ailing	-13297
arette	-13298
incarn	-13299
ombard	-13300
wolves	-13301
▁Ebert	-13302
▁NIGHT	-13303
▁Throw	-13304
▁apply	-13305
▁spont	-13306
▁wagon	-13307
borough	-13308
idelity	-13309
▁Always	-13310
▁Cannes	-13311
▁Cannon	-13312
▁Fields	-13313
▁Fuller	-13314
▁Lionel	-13315
▁Polish	-13316
▁approx	-13317
▁charms	-13318
▁growth	-13319
▁neatly	-13320
▁pursue	-13321
▁rabbit	-13322
▁sorely	-13323
▁wounds	-13324
▁Chamber	-13325
▁Muppets	-13326
▁Phantom	-13327
▁anytime	-13328
▁appeals	-13329
▁artwork	-13330
▁eternal	-13331
▁longest	-13332
▁pronoun	-13333
▁rightly	-13334
▁studies	-13335
▁defeated	-13336
▁eternity	-13337
▁headache	-13338
▁invasion	-13339
▁paranoid	-13340
▁reminder	-13341
▁vehicles	-13342
▁delicious	-13343
▁incapable	-13344
▁overblown	-13345
▁translate	-13346
▁commitment	-13347
▁detectives	-13348
▁nauseating	-13349
▁Interesting	-13350
▁contributed	-13351
▁realistically	-13352
!?	-13353
Ab	-13354
Boy	-13355
ICK	-13356
ags	-13357
oos	-13358
tec	-13359
abre	-13360
atha	-13361
atti	-13362
emen	-13363
math	-13364
plan	-13365
wick	-13366
▁Ban	-13367
▁Sue	-13368
▁WWE	-13369
▁jet	-13370
athom	-13371
avier	-13372
black	-13373
ensen	-13374
iture	-13375
ranny	-13376
▁2007	-13377
▁Bron	-13378
▁Eyre	-13379
▁Happ	-13380
▁Hers	-13381
▁Holm	-13382
▁Leno	-13383
▁Mack	-13384
▁Mick	-13385
▁bald	-13386
▁bulk	-13387
▁jock	-13388
▁masc	-13389
▁pimp	-13390
▁pran	-13391
ARNING	-13392
thello	-13393
▁Corey	-13394
▁Lives	-13395
▁Ocean	-13396
▁Whoop	-13397
▁fraud	-13398
▁items	-13399
▁plate	-13400
▁uncut	-13401
▁Domino	-13402
▁Gloria	-13403
▁Python	-13404
▁Rourke	-13405
▁Sister	-13406
▁banter	-13407
▁classy	-13408
▁dumped	-13409
▁flimsy	-13410
▁frames	-13411
▁judged	-13412
▁pilots	-13413
▁resear	-13414
▁safely	-13415
▁stroke	-13416
▁videot	-13417
▁wisely	-13418
▁Amitabh	-13419
▁Collins	-13420
▁Company	-13421
▁Everett	-13422
▁Sisters	-13423
▁arguing	-13424
▁constit	-13425
▁enhance	-13426
▁implied	-13427
▁longing	-13428
▁qualify	-13429
▁session	-13430
▁stardom	-13431
▁Arquette	-13432
▁Vampires	-13433
▁crashing	-13434
▁escaping	-13435
▁feminist	-13436
▁hardship	-13437
▁minority	-13438
▁routines	-13439
▁theatres	-13440
▁Character	-13441
▁depending	-13442
▁monologue	-13443
▁parallels	-13444
▁possesses	-13445
▁regularly	-13446
▁relevance	-13447
▁seductive	-13448
▁underwear	-13449
▁advertised	-13450
▁threatened	-13451
▁pornography	-13452
▁schizophren	-13453
▁inexplicable	-13454
▁inspirational	-13455
)?	-13456
!",	-13457
ACT	-13458
ali	-13459
fra	-13460
▁Kn	-13461
▁PS	-13462
▁py	-13463
▁um	-13464
abel	-13465
bach	-13466
empl	-13467
fare	-13468
uate	-13469
▁Bos	-13470
▁Job	-13471
▁MAD	-13472
▁Mah	-13473
▁WHO	-13474
▁dia	-13475
▁hij	-13476
▁mim	-13477
▁pic	-13478
Brien	-13479
lucky	-13480
pling	-13481
stood	-13482
▁Bess	-13483
▁Heck	-13484
▁Teen	-13485
▁drab	-13486
▁hats	-13487
▁hott	-13488
▁item	-13489
▁seas	-13490
▁skit	-13491
Arthur	-13492
infeld	-13493
rosawa	-13494
▁Alvin	-13495
▁Early	-13496
▁Joyce	-13497
▁Thats	-13498
▁newer	-13499
▁patch	-13500
▁sells	-13501
athered	-13502
issance	-13503
quality	-13504
▁Kansas	-13505
▁aiming	-13506
▁blamed	-13507
▁breast	-13508
▁flavor	-13509
▁garage	-13510
▁harass	-13511
▁jacket	-13512
▁kidnap	-13513
▁orange	-13514
▁paints	-13515
▁sailor	-13516
▁unsure	-13517
▁Granger	-13518
▁Portman	-13519
▁Scrooge	-13520
▁accepts	-13521
▁discern	-13522
▁grounds	-13523
▁masters	-13524
▁traffic	-13525
▁exploits	-13526
▁insights	-13527
▁medieval	-13528
▁reviewed	-13529
▁rewarded	-13530
▁tendency	-13531
▁architect	-13532
▁cameraman	-13533
▁invention	-13534
▁obsessive	-13535
▁preparing	-13536
▁spaghetti	-13537
▁accessible	-13538
▁colleagues	-13539
▁confronted	-13540
▁distracted	-13541
▁wheelchair	-13542
▁observation	-13543
▁satisfaction	-13544
▁embarrassingly	-13545
▁characteristics	-13546
Our	-13547
UNN	-13548
URE	-13549
ebe	-13550
ige	-13551
olt	-13552
▁'8	-13553
▁75	-13554
▁FL	-13555
▁Hi	-13556
blem	-13557
bral	-13558
inks	-13559
nice	-13560
seen	-13561
▁BOR	-13562
▁Bin	-13563
▁Coo	-13564
▁DeM	-13565
▁Mau	-13566
▁Mem	-13567
▁Moe	-13568
▁VCR	-13569
▁Wyn	-13570
berry	-13571
comes	-13572
first	-13573
ilmer	-13574
▁Gein	-13575
▁HUGE	-13576
▁Kell	-13577
▁Sche	-13578
▁Tale	-13579
▁Wang	-13580
▁curt	-13581
▁deny	-13582
▁mold	-13583
▁olds	-13584
aneous	-13585
bourne	-13586
erotic	-13587
inness	-13588
itious	-13589
▁Gersh	-13590
▁Janet	-13591
▁Korea	-13592
▁Nolte	-13593
▁Rhett	-13594
▁Ritch	-13595
▁Royal	-13596
▁Worse	-13597
▁downt	-13598
▁fires	-13599
▁fruit	-13600
▁soooo	-13601
▁sugar	-13602
▁token	-13603
fiction	-13604
inction	-13605
instein	-13606
redited	-13607
▁Alison	-13608
▁Lester	-13609
▁Weaver	-13610
▁assert	-13611
▁biting	-13612
▁damned	-13613
▁define	-13614
▁hybrid	-13615
▁pirate	-13616
▁retrie	-13617
▁sought	-13618
▁sucker	-13619
▁wastes	-13620
▁weaker	-13621
▁Nicolas	-13622
▁Redford	-13623
▁abandon	-13624
▁begging	-13625
▁damaged	-13626
▁intertw	-13627
▁scandal	-13628
▁sinking	-13629
▁Dietrich	-13630
▁Isabelle	-13631
▁choosing	-13632
▁educated	-13633
▁gestures	-13634
▁likewise	-13635
▁uniforms	-13636
▁Holocaust	-13637
▁estranged	-13638
▁exploding	-13639
▁glamorous	-13640
▁immigrant	-13641
▁tolerance	-13642
▁ironically	-13643
▁mediocrity	-13644
▁unfamiliar	-13645
▁politicians	-13646
▁questioning	-13647
▁realization	-13648
▁communication	-13649
Im	-13650
100	-13651
din	-13652
hoo	-13653
nor	-13654
zum	-13655
▁95	-13656
▁HK	-13657
Jane	-13658
full	-13659
rary	-13660
▁Fil	-13661
▁Nev	-13662
▁bim	-13663
▁goo	-13664
▁neo	-13665
Three	-13666
aglen	-13667
ureau	-13668
▁Barn	-13669
▁Buff	-13670
▁Left	-13671
▁akin	-13672
▁coma	-13673
▁unsc	-13674
Highly	-13675
family	-13676
street	-13677
urring	-13678
▁Games	-13679
▁Loved	-13680
▁Niven	-13681
▁Ponyo	-13682
▁Seems	-13683
▁condu	-13684
▁cries	-13685
▁fills	-13686
▁handy	-13687
▁havoc	-13688
▁midst	-13689
▁north	-13690
▁pause	-13691
▁prote	-13692
ielding	-13693
▁Bacall	-13694
▁Gadget	-13695
▁Kermit	-13696
▁Malone	-13697
▁Shadow	-13698
▁Travis	-13699
▁centre	-13700
▁ensure	-13701
▁handic	-13702
▁junior	-13703
▁mighty	-13704
▁mutant	-13705
▁swords	-13706
ountered	-13707
▁Goodman	-13708
▁Miranda	-13709
▁Shelley	-13710
▁Wedding	-13711
▁confuse	-13712
▁decline	-13713
▁novelty	-13714
▁praised	-13715
▁rampage	-13716
▁reports	-13717
▁skilled	-13718
▁stabbed	-13719
▁Lansbury	-13720
▁Sherlock	-13721
▁adaption	-13722
▁conveyed	-13723
▁critique	-13724
▁landmark	-13725
▁medicine	-13726
▁seasoned	-13727
▁stylized	-13728
▁theories	-13729
▁Malkovich	-13730
▁acknowled	-13731
▁associate	-13732
▁principle	-13733
▁cartoonish	-13734
▁pedestrian	-13735
▁principals	-13736
▁undeniably	-13737
▁Christianity	-13738
▁conveniently	-13739
▁experiencing	-13740
▁Entertainment	-13741
Sn	-13742
sn	-13743
aro	-13744
bil	-13745
▁ec	-13746
Fran	-13747
STER	-13748
eson	-13749
noir	-13750
post	-13751
rene	-13752
sett	-13753
uber	-13754
uing	-13755
uten	-13756
▁101	-13757
▁Mob	-13758
▁upt	-13759
itors	-13760
owned	-13761
rosby	-13762
ufact	-13763
▁*1/2	-13764
▁1972	-13765
▁Bard	-13766
▁Gree	-13767
▁List	-13768
▁Minn	-13769
▁Rory	-13770
▁cram	-13771
▁diab	-13772
▁drew	-13773
▁http	-13774
▁owes	-13775
▁pour	-13776
▁sane	-13777
active	-13778
atered	-13779
igious	-13780
▁Bride	-13781
▁Color	-13782
▁Front	-13783
▁Guess	-13784
▁Johan	-13785
▁LOVED	-13786
▁Ninja	-13787
▁elite	-13788
▁irres	-13789
▁revis	-13790
▁sabot	-13791
spiring	-13792
▁Norton	-13793
▁Stefan	-13794
▁Sweden	-13795
▁abound	-13796
▁bitten	-13797
▁obtain	-13798
▁scored	-13799
▁societ	-13800
▁uncons	-13801
▁volume	-13802
▁Elliott	-13803
▁Pacific	-13804
▁adulter	-13805
▁billing	-13806
▁cinemas	-13807
▁complet	-13808
▁glaring	-13809
▁gorilla	-13810
▁hippies	-13811
▁insults	-13812
▁letdown	-13813
▁lighter	-13814
▁shotgun	-13815
▁tickets	-13816
▁Chainsaw	-13817
▁Kurosawa	-13818
▁advertis	-13819
▁dazzling	-13820
▁employee	-13821
▁explosive	-13822
▁extensive	-13823
▁harrowing	-13824
▁legitimate	-13825
▁profoundly	-13826
▁relentless	-13827
▁composition	-13828
▁encountered	-13829
▁millionaire	-13830
▁understatement	-13831
/4	-13832
PR	-13833
VO	-13834
ARS	-13835
ATH	-13836
NOT	-13837
bey	-13838
occ	-13839
odo	-13840
anth	-13841
anza	-13842
enix	-13843
fman	-13844
impy	-13845
must	-13846
nity	-13847
omas	-13848
osal	-13849
oust	-13850
wich	-13851
▁300	-13852
▁Few	-13853
▁anc	-13854
Final	-13855
ahmer	-13856
cript	-13857
ienna	-13858
still	-13859
▁Alas	-13860
▁buzz	-13861
▁synt	-13862
ianist	-13863
▁Blues	-13864
▁Fritz	-13865
▁agony	-13866
▁arche	-13867
▁cycle	-13868
▁diner	-13869
▁dwarf	-13870
▁flows	-13871
▁poses	-13872
▁puppy	-13873
▁scant	-13874
▁whiny	-13875
Nothing	-13876
berlake	-13877
culture	-13878
despite	-13879
esquire	-13880
forming	-13881
▁Coburn	-13882
▁Dexter	-13883
▁Farley	-13884
▁Jersey	-13885
▁Junior	-13886
▁Marlow	-13887
▁Psycho	-13888
▁calcul	-13889
▁exempl	-13890
▁spiral	-13891
▁Indiana	-13892
▁Masters	-13893
▁Ritchie	-13894
▁Vanessa	-13895
▁dashing	-13896
▁dumbest	-13897
▁percent	-13898
▁popping	-13899
▁snowman	-13900
▁vintage	-13901
▁warrant	-13902
▁whining	-13903
▁windows	-13904
▁gigantic	-13905
▁parodies	-13906
▁perverse	-13907
▁promoted	-13908
▁stalking	-13909
▁Antonioni	-13910
▁Schneider	-13911
▁absorbing	-13912
▁horrified	-13913
▁variation	-13914
Christopher	-13915
▁improbable	-13916
▁meandering	-13917
▁perception	-13918
▁resembling	-13919
▁statements	-13920
▁demonstrate	-13921
▁determination	-13922
▁unsympathetic	-13923
/3	-13924
ARK	-13925
OUN	-13926
PER	-13927
eze	-13928
ndo	-13929
ryn	-13930
uhi	-13931
wit	-13932
▁00	-13933
▁1-	-13934
▁oo	-13935
Both	-13936
Matt	-13937
OUSE	-13938
Step	-13939
ardo	-13940
fell	-13941
idan	-13942
izza	-13943
stra	-13944
uese	-13945
uest	-13946
▁Gor	-13947
▁Ins	-13948
▁PBS	-13949
▁Slo	-13950
▁ads	-13951
becca	-13952
breed	-13953
opers	-13954
rimin	-13955
uture	-13956
▁Cobb	-13957
▁DOES	-13958
▁Gate	-13959
▁Hawn	-13960
▁Inst	-13961
▁Kind	-13962
▁Pope	-13963
▁bree	-13964
▁east	-13965
▁gaps	-13966
▁grip	-13967
▁melt	-13968
acking	-13969
kinson	-13970
onents	-13971
orsese	-13972
ployed	-13973
▁Champ	-13974
▁Curse	-13975
▁Dress	-13976
▁Moses	-13977
▁Order	-13978
▁Segal	-13979
▁Small	-13980
▁conco	-13981
▁penal	-13982
▁peril	-13983
▁seats	-13984
▁steer	-13985
omaniac	-13986
ouement	-13987
▁Bishop	-13988
▁Clarke	-13989
▁Joanna	-13990
▁Kinski	-13991
▁campus	-13992
▁gravey	-13993
▁lavish	-13994
▁rounds	-13995
▁senior	-13996
▁shocks	-13997
▁tunnel	-13998
Watching	-13999
tersweet	-14000
▁Cinemat	-14001
▁Jackass	-14002
▁applied	-14003
▁caution	-14004
▁fragile	-14005
▁grabbed	-14006
▁intoler	-14007
▁neglect	-14008
▁nemesis	-14009
▁sources	-14010
▁crippled	-14011
▁generate	-14012
▁imprison	-14013
▁minister	-14014
▁plodding	-14015
▁romances	-14016
▁aftermath	-14017
▁commander	-14018
▁finishing	-14019
▁imaginary	-14020
▁suspected	-14021
▁warehouse	-14022
▁existential	-14023
▁remembering	-14024
▁establishing	-14025
▁investigator	-14026
EM	-14027
WH	-14028
uv	-14029
ARE	-14030
Air	-14031
Eng	-14032
IND	-14033
Mat	-14034
Men	-14035
bat	-14036
bed	-14037
hin	-14038
opp	-14039
saw	-14040
sim	-14041
▁DJ	-14042
!).<	-14043
Lost	-14044
eted	-14045
iami	-14046
umpy	-14047
upac	-14048
warz	-14049
▁Bou	-14050
▁Bul	-14051
▁Hig	-14052
▁NOW	-14053
▁Pop	-14054
▁Sig	-14055
▁pee	-14056
▁wre	-14057
Angel	-14058
enton	-14059
erner	-14060
ested	-14061
falls	-14062
iland	-14063
inson	-14064
onous	-14065
scene	-14066
▁Batt	-14067
▁Body	-14068
▁Burg	-14069
▁Glen	-14070
▁KNOW	-14071
▁Lois	-14072
▁Luis	-14073
▁agon	-14074
▁chem	-14075
▁soph	-14076
fights	-14077
irties	-14078
ptical	-14079
ternal	-14080
▁Boone	-14081
▁Hawai	-14082
▁Spade	-14083
▁alert	-14084
▁nonex	-14085
▁shift	-14086
▁sober	-14087
▁yours	-14088
acation	-14089
cending	-14090
inently	-14091
itivity	-14092
llywood	-14093
▁Bakshi	-14094
▁Boring	-14095
▁Paulie	-14096
▁Sergio	-14097
▁Turkey	-14098
▁Warhol	-14099
▁Within	-14100
▁attach	-14101
▁freaky	-14102
▁ghetto	-14103
▁impecc	-14104
▁psyche	-14105
▁resume	-14106
▁skinny	-14107
▁sprink	-14108
▁summed	-14109
▁Lucille	-14110
▁Madison	-14111
▁Netflix	-14112
▁Rangers	-14113
▁literal	-14114
▁mothers	-14115
▁naughty	-14116
▁ominous	-14117
adventure	-14118
▁Normally	-14119
▁Original	-14120
▁Whenever	-14121
▁artistry	-14122
▁champion	-14123
▁meantime	-14124
▁nutshell	-14125
▁promptly	-14126
▁arguments	-14127
▁inclusion	-14128
▁intensely	-14129
▁redundant	-14130
▁captivated	-14131
▁collective	-14132
▁interviewed	-14133
▁mysteriously	-14134
▁unconventional	-14135
................	-14136
Bec	-14137
Sur	-14138
gey	-14139
ico	-14140
iya	-14141
jah	-14142
pop	-14143
whe	-14144
zor	-14145
▁DR	-14146
▁ny	-14147
▁ta	-14148
Film	-14149
Hell	-14150
Next	-14151
ador	-14152
anta	-14153
asia	-14154
avin	-14155
bill	-14156
enth	-14157
moon	-14158
phia	-14159
word	-14160
▁"10	-14161
▁Hon	-14162
▁Maj	-14163
▁Nan	-14164
Sorry	-14165
aters	-14166
aughn	-14167
birds	-14168
elope	-14169
emale	-14170
thank	-14171
▁/>**	-14172
▁Dern	-14173
▁Drey	-14174
▁Fitz	-14175
▁Goes	-14176
▁Lest	-14177
▁Lynn	-14178
▁Mond	-14179
▁coup	-14180
▁deem	-14181
▁flip	-14182
▁gate	-14183
▁loop	-14184
advert	-14185
igning	-14186
leader	-14187
mented	-14188
scenes	-14189
▁Hands	-14190
▁Hogan	-14191
▁Jolie	-14192
▁Lorre	-14193
▁innue	-14194
▁joint	-14195
▁schol	-14196
▁spout	-14197
▁swamp	-14198
urassic	-14199
▁Adrian	-14200
▁Alicia	-14201
▁Casper	-14202
▁Crosby	-14203
▁Gundam	-14204
▁Sharon	-14205
▁coffin	-14206
▁defies	-14207
▁excell	-14208
▁freaks	-14209
▁goings	-14210
▁locate	-14211
▁plants	-14212
▁rapist	-14213
▁sanity	-14214
▁shifts	-14215
▁sorrow	-14216
▁trauma	-14217
ulations	-14218
▁Lombard	-14219
▁constra	-14220
▁crossed	-14221
▁eagerly	-14222
▁fanatic	-14223
▁license	-14224
▁masturb	-14225
▁replies	-14226
▁settled	-14227
▁sustain	-14228
▁vividly	-14229
entertain	-14230
▁Complete	-14231
▁McLaglen	-14232
▁abortion	-14233
▁achieves	-14234
▁battling	-14235
▁boarding	-14236
▁exterior	-14237
▁tomorrow	-14238
▁aesthetic	-14239
▁organized	-14240
▁repressed	-14241
▁telephone	-14242
▁transport	-14243
▁introducing	-14244
▁masterfully	-14245
▁sentimentality	-14246
FO	-14247
UP	-14248
ii	-14249
(19	-14250
200	-14251
OWN	-14252
iah	-14253
ria	-14254
urg	-14255
▁BU	-14256
Back	-14257
Take	-14258
Yeah	-14259
adel	-14260
ecil	-14261
gone	-14262
gore	-14263
hase	-14264
lead	-14265
moil	-14266
resa	-14267
tale	-14268
▁!!!	-14269
▁Fab	-14270
▁Lon	-14271
▁Pak	-14272
▁mud	-14273
▁tin	-14274
▁woo	-14275
dream	-14276
urman	-14277
write	-14278
▁Cell	-14279
▁Name	-14280
▁Otto	-14281
▁Prom	-14282
▁Susp	-14283
▁Tenn	-14284
▁bran	-14285
▁deft	-14286
▁snob	-14287
▁taut	-14288
▁wart	-14289
forman	-14290
hastly	-14291
orical	-14292
render	-14293
urrent	-14294
▁Belle	-14295
▁Chand	-14296
▁Fight	-14297
▁Hotel	-14298
▁Tales	-14299
▁Vance	-14300
▁arrow	-14301
▁faded	-14302
▁packs	-14303
▁spray	-14304
▁swept	-14305
▁veget	-14306
Because	-14307
ulliver	-14308
▁/>8/10	-14309
▁Giallo	-14310
▁Hollow	-14311
▁Making	-14312
▁Monica	-14313
▁Prison	-14314
▁cookie	-14315
▁eleven	-14316
▁filthy	-14317
▁injury	-14318
▁intact	-14319
▁trains	-14320
▁verbal	-14321
spirited	-14322
▁Detroit	-14323
▁Phoenix	-14324
▁Service	-14325
▁Soldier	-14326
▁assumes	-14327
▁cliched	-14328
▁divided	-14329
▁embrace	-14330
▁excuses	-14331
▁explode	-14332
▁intimid	-14333
▁legends	-14334
▁melting	-14335
▁offbeat	-14336
▁outcast	-14337
▁raising	-14338
▁recreat	-14339
▁samurai	-14340
▁scarier	-14341
▁slapped	-14342
▁tightly	-14343
▁titular	-14344
▁uncover	-14345
▁updated	-14346
▁acquired	-14347
▁benefits	-14348
▁deterior	-14349
▁disorder	-14350
▁glimpses	-14351
▁interior	-14352
▁resulted	-14353
▁starters	-14354
▁survivor	-14355
▁evidently	-14356
▁scripting	-14357
▁sentences	-14358
▁Cronenberg	-14359
▁Eisenstein	-14360
▁Enterprise	-14361
▁admiration	-14362
▁assignment	-14363
▁bittersweet	-14364
▁exclusively	-14365
▁nonexistent	-14366
▁participate	-14367
▁unattractive	-14368
▁believability	-14369
NN	-14370
?".	-14371
Mel	-14372
OLD	-14373
anu	-14374
Mark	-14375
aaaa	-14376
aise	-14377
asqu	-14378
avan	-14379
dict	-14380
itan	-14381
plus	-14382
unte	-14383
▁Gig	-14384
▁Gov	-14385
▁Hem	-14386
▁Kle	-14387
▁Kru	-14388
▁McN	-14389
▁Shy	-14390
▁axe	-14391
▁dil	-14392
▁oct	-14393
Alien	-14394
▁Bryn	-14395
▁Didn	-14396
▁Dogs	-14397
▁Emmy	-14398
▁Reid	-14399
▁Toni	-14400
▁boob	-14401
▁chim	-14402
▁geek	-14403
▁ridd	-14404
▁unde	-14405
Batman	-14406
cerity	-14407
▁Benny	-14408
▁Curly	-14409
▁Dante	-14410
▁Lumet	-14411
▁Wendy	-14412
▁boobs	-14413
▁lends	-14414
▁prank	-14415
▁smash	-14416
eredith	-14417
inarily	-14418
onesome	-14419
uracies	-14420
▁Chucky	-14421
▁Kilmer	-14422
▁Marlon	-14423
▁Stella	-14424
▁bewild	-14425
▁bikini	-14426
▁shades	-14427
▁slaves	-14428
▁sophom	-14429
▁stoned	-14430
lections	-14431
▁Macbeth	-14432
▁baddies	-14433
▁circles	-14434
▁frantic	-14435
▁nuanced	-14436
▁playful	-14437
▁rounded	-14438
▁stuffed	-14439
▁swallow	-14440
▁turmoil	-14441
▁Scorsese	-14442
▁Straight	-14443
▁covering	-14444
▁daylight	-14445
▁disconne	-14446
▁resident	-14447
▁Robertson	-14448
▁admission	-14449
▁exploited	-14450
▁forbidden	-14451
▁submarine	-14452
▁tormented	-14453
▁unnatural	-14454
▁unwilling	-14455
▁Production	-14456
▁aggressive	-14457
▁denouement	-14458
▁disrespect	-14459
▁noteworthy	-14460
▁noticeable	-14461
▁overshadow	-14462
▁photographs	-14463
▁hysterically	-14464
▁subsequently	-14465
▁complications	-14466
▁groundbreaking	-14467
ILD	-14468
Rec	-14469
Wor	-14470
wee	-14471
▁9.	-14472
anca	-14473
conf	-14474
ffer	-14475
icky	-14476
itte	-14477
jack	-14478
oker	-14479
once	-14480
opez	-14481
yeah	-14482
▁Ark	-14483
▁Kam	-14484
▁LOL	-14485
▁Lil	-14486
▁Pir	-14487
▁vic	-14488
ardon	-14489
hobia	-14490
level	-14491
oming	-14492
ority	-14493
scape	-14494
▁/>--	-14495
▁Evan	-14496
▁Lass	-14497
▁coke	-14498
around	-14499
astrop	-14500
▁Doyle	-14501
▁Posey	-14502
▁Tokyo	-14503
▁cells	-14504
▁clerk	-14505
▁crown	-14506
▁heels	-14507
▁hyped	-14508
▁ninet	-14509
▁unans	-14510
autiful	-14511
fighter	-14512
idences	-14513
▁Anders	-14514
▁Chaney	-14515
▁Marine	-14516
▁Number	-14517
▁Rodney	-14518
▁Vaughn	-14519
▁beware	-14520
▁feeble	-14521
▁landed	-14522
▁seduce	-14523
▁Costner	-14524
▁Herbert	-14525
▁Melissa	-14526
▁Totally	-14527
▁bombing	-14528
▁crooked	-14529
▁entries	-14530
▁mirrors	-14531
▁notices	-14532
▁physics	-14533
Basically	-14534
Meanwhile	-14535
▁Sundance	-14536
▁cerebral	-14537
▁husbands	-14538
▁inclined	-14539
▁newcomer	-14540
▁peaceful	-14541
▁proclaim	-14542
▁rambling	-14543
▁shootout	-14544
▁sketches	-14545
▁slashers	-14546
▁sweeping	-14547
▁veterans	-14548
tenborough	-14549
▁assembled	-14550
▁colleague	-14551
▁discussed	-14552
▁enigmatic	-14553
▁furniture	-14554
▁maintains	-14555
▁transvest	-14556
▁unusually	-14557
▁Portuguese	-14558
▁immigrants	-14559
▁contestants	-14560
▁psychedelic	-14561
▁stereotyped	-14562
▁lighthearted	-14563
▁organization	-14564
▁excruciatingly	-14565
SH	-14566
Bet	-14567
EAM	-14568
gud	-14569
uns	-14570
uve	-14571
▁Ay	-14572
▁Dy	-14573
▁Fo	-14574
▁Ve	-14575
▁dv	-14576
▁ma	-14577
colm	-14578
enez	-14579
ilda	-14580
mith	-14581
mony	-14582
tesy	-14583
ulpt	-14584
▁END	-14585
▁Elm	-14586
▁Hil	-14587
▁Kau	-14588
▁err	-14589
atell	-14590
ellwe	-14591
inian	-14592
odore	-14593
woods	-14594
▁/>4.	-14595
▁Circ	-14596
▁Fern	-14597
▁Gwyn	-14598
▁Holy	-14599
▁Juan	-14600
▁Jude	-14601
▁Lead	-14602
▁Milo	-14603
▁Pass	-14604
▁auto	-14605
▁bush	-14606
▁buys	-14607
▁lock	-14608
▁slam	-14609
▁tech	-14610
▁Coast	-14611
▁Lopez	-14612
▁Romeo	-14613
▁caper	-14614
▁catal	-14615
▁manic	-14616
▁polar	-14617
▁synch	-14618
pionage	-14619
respons	-14620
▁Behind	-14621
▁Raines	-14622
▁Steele	-14623
▁dumber	-14624
▁evokes	-14625
▁muscle	-14626
▁payoff	-14627
▁ripoff	-14628
▁rivals	-14629
▁sleeps	-14630
▁Firstly	-14631
▁Kinnear	-14632
▁admired	-14633
▁cunning	-14634
▁daytime	-14635
▁nuances	-14636
▁patriot	-14637
▁reverse	-14638
▁robbers	-14639
▁smarter	-14640
▁unclear	-14641
abilities	-14642
▁Fontaine	-14643
▁Lundgren	-14644
▁Speaking	-14645
▁betrayed	-14646
▁deciding	-14647
▁hesitate	-14648
▁indicate	-14649
▁produces	-14650
▁reincarn	-14651
▁reserved	-14652
▁Sebastian	-14653
▁customers	-14654
▁neglected	-14655
▁reflected	-14656
▁reminding	-14657
▁reviewing	-14658
▁sensation	-14659
▁suspicion	-14660
▁unsuccess	-14661
▁Timberlake	-14662
▁Ultimately	-14663
▁comprehens	-14664
▁deliberate	-14665
▁acknowledge	-14666
▁girlfriends	-14667
▁substantial	-14668
▁dramatically	-14669
sk	-14670
.50	-14671
OMB	-14672
OUT	-14673
Old	-14674
RED	-14675
Tim	-14676
Wow	-14677
cre	-14678
imo	-14679
oda	-14680
odd	-14681
▁Ky	-14682
▁Yu	-14683
Barb	-14684
Hara	-14685
azar	-14686
bber	-14687
mart	-14688
nger	-14689
take	-14690
▁Dec	-14691
▁HOW	-14692
▁Hob	-14693
▁Kas	-14694
▁Ske	-14695
▁Yep	-14696
Jones	-14697
adium	-14698
andro	-14699
arrot	-14700
ivals	-14701
otten	-14702
uteur	-14703
▁Gina	-14704
▁Lena	-14705
▁Lock	-14706
▁Rath	-14707
▁Rice	-14708
▁Room	-14709
▁angu	-14710
▁gris	-14711
▁holy	-14712
▁limp	-14713
▁pier	-14714
▁poll	-14715
▁sunk	-14716
▁void	-14717
ierney	-14718
osedly	-14719
▁BLOOD	-14720
▁Boyer	-14721
▁Cliff	-14722
▁Grier	-14723
▁Heath	-14724
▁Henri	-14725
▁Money	-14726
▁Patty	-14727
▁bible	-14728
▁chill	-14729
▁draft	-14730
▁ensue	-14731
▁fores	-14732
▁manif	-14733
▁quasi	-14734
Besides	-14735
Charles	-14736
aringly	-14737
▁10/10.	-14738
▁Darren	-14739
▁Poirot	-14740
▁Sophie	-14741
▁Wayans	-14742
▁amidst	-14743
▁clunky	-14744
▁cruise	-14745
▁enlist	-14746
▁fields	-14747
▁flames	-14748
▁fodder	-14749
▁gloomy	-14750
▁parade	-14751
▁popped	-14752
▁rehash	-14753
▁todays	-14754
iciently	-14755
▁Anyways	-14756
▁Citizen	-14757
▁dealers	-14758
▁descend	-14759
▁factual	-14760
▁fetched	-14761
▁joining	-14762
▁lurking	-14763
▁motions	-14764
▁origins	-14765
▁parking	-14766
▁pompous	-14767
▁Pickford	-14768
▁Shepherd	-14769
▁Sunshine	-14770
▁elephant	-14771
▁expertly	-14772
▁ineffect	-14773
▁products	-14774
▁salesman	-14775
▁tolerate	-14776
▁upcoming	-14777
▁affecting	-14778
▁cigarette	-14779
▁injustice	-14780
▁Television	-14781
▁enchanting	-14782
▁unanswered	-14783
▁excellently	-14784
▁underdeveloped	-14785
DY	-14786
try	-14787
▁(1	-14788
▁AB	-14789
▁eh	-14790
Jeff	-14791
eler	-14792
sets	-14793
tran	-14794
▁Der	-14795
▁Nas	-14796
▁Rig	-14797
▁Tow	-14798
▁bum	-14799
▁obt	-14800
Grade	-14801
holes	-14802
jokes	-14803
steps	-14804
▁2002	-14805
▁Carn	-14806
▁Giov	-14807
▁Stat	-14808
▁Stop	-14809
▁Test	-14810
▁bats	-14811
▁pose	-14812
▁slob	-14813
▁stag	-14814
▁stoo	-14815
▁taxi	-14816
arting	-14817
market	-14818
owered	-14819
sterix	-14820
utcher	-14821
▁Carla	-14822
▁Creek	-14823
▁Going	-14824
▁Jules	-14825
▁Shemp	-14826
▁Soder	-14827
▁Speed	-14828
▁Squad	-14829
▁archa	-14830
▁fools	-14831
▁murky	-14832
▁stair	-14833
▁subdu	-14834
▁tuned	-14835
▁verge	-14836
▁woven	-14837
Without	-14838
achelor	-14839
ignific	-14840
meaning	-14841
raction	-14842
visible	-14843
▁Abbott	-14844
▁Gamera	-14845
▁Phoebe	-14846
▁ancest	-14847
▁bloods	-14848
▁extrav	-14849
▁ideals	-14850
▁pocket	-14851
▁pounds	-14852
▁sculpt	-14853
▁strung	-14854
▁trivia	-14855
producer	-14856
standard	-14857
▁Brendan	-14858
▁Brynner	-14859
▁Fantasy	-14860
▁Georgia	-14861
▁Gooding	-14862
▁Monkees	-14863
▁Sabrina	-14864
▁Schwarz	-14865
▁Shannon	-14866
▁camping	-14867
▁chaotic	-14868
▁despise	-14869
▁flowing	-14870
▁lunatic	-14871
▁monkeys	-14872
istencies	-14873
▁Internet	-14874
▁administ	-14875
▁capacity	-14876
▁comeback	-14877
▁pointing	-14878
▁stations	-14879
▁switches	-14880
▁followers	-14881
▁instances	-14882
▁sincerity	-14883
▁Terminator	-14884
▁deliciously	-14885
▁manipulation	-14886
▁environmental	-14887
wa	-14888
ICE	-14889
Ret	-14890
Sat	-14891
bod	-14892
ext	-14893
mad	-14894
ukh	-14895
▁FO	-14896
▁Ta	-14897
Anne	-14898
acha	-14899
eled	-14900
feel	-14901
half	-14902
itto	-14903
vous	-14904
wall	-14905
▁(?)	-14906
▁Dol	-14907
▁Liu	-14908
▁Mul	-14909
▁Sor	-14910
▁WOW	-14911
Jason	-14912
aints	-14913
asper	-14914
hoven	-14915
iking	-14916
ourse	-14917
rases	-14918
sized	-14919
uelle	-14920
unchy	-14921
whose	-14922
▁1997	-14923
▁Beth	-14924
▁Grim	-14925
▁Hand	-14926
▁Lola	-14927
▁Raim	-14928
▁Reno	-14929
▁Vent	-14930
▁lean	-14931
▁poke	-14932
▁pros	-14933
▁scam	-14934
▁spit	-14935
Unlike	-14936
raiser	-14937
script	-14938
▁Aztec	-14939
▁Berke	-14940
▁Burke	-14941
▁Cecil	-14942
▁Daffy	-14943
▁Debra	-14944
▁Hawke	-14945
▁Lucio	-14946
▁Wrong	-14947
▁array	-14948
▁babes	-14949
▁clash	-14950
▁concl	-14951
▁desol	-14952
▁downs	-14953
▁erupt	-14954
▁panic	-14955
▁pound	-14956
▁razor	-14957
▁royal	-14958
▁slips	-14959
▁wings	-14960
appreci	-14961
ceptive	-14962
▁Duchov	-14963
▁Goldie	-14964
▁chorus	-14965
▁intend	-14966
▁transf	-14967
▁varied	-14968
adelphia	-14969
ittingly	-14970
▁Corbett	-14971
▁Dominic	-14972
▁Garland	-14973
▁Hackman	-14974
▁Revenge	-14975
▁crosses	-14976
▁discipl	-14977
▁offense	-14978
▁rousing	-14979
▁staging	-14980
▁uncanny	-14981
▁Greatest	-14982
▁atrocity	-14983
▁bearable	-14984
▁cheerful	-14985
▁climbing	-14986
▁distress	-14987
▁dynamics	-14988
▁existing	-14989
▁feminine	-14990
▁inadvert	-14991
▁invested	-14992
▁Communist	-14993
▁considers	-14994
▁courtroom	-14995
▁mythology	-14996
▁obscurity	-14997
▁preaching	-14998
▁releasing	-14999
▁stretches	-15000
▁stupidest	-15001
documentary	-15002
▁compensate	-15003
▁complained	-15004
▁convention	-15005
▁identified	-15006
▁incestuous	-15007
▁witnessing	-15008
▁abomination	-15009
▁inconsistencies	-15010
AK	-15011
"--	-15012
Add	-15013
ISS	-15014
Sem	-15015
bec	-15016
dad	-15017
jas	-15018
jor	-15019
nce	-15020
pot	-15021
▁CO	-15022
Blue	-15023
anti	-15024
iane	-15025
nell	-15026
uire	-15027
▁DAY	-15028
▁POW	-15029
▁dut	-15030
▁piv	-15031
Those	-15032
being	-15033
bians	-15034
borah	-15035
drawn	-15036
ropol	-15037
twist	-15038
▁1983	-15039
▁2003	-15040
▁Dene	-15041
▁Fors	-15042
▁Hulk	-15043
▁Meat	-15044
▁bias	-15045
▁clut	-15046
▁liqu	-15047
▁pans	-15048
▁prob	-15049
▁prog	-15050
▁tatt	-15051
headle	-15052
itical	-15053
little	-15054
uppert	-15055
▁ALERT	-15056
▁Brett	-15057
▁Mandy	-15058
▁Ricky	-15059
▁Truth	-15060
▁clubs	-15061
▁pains	-15062
▁quint	-15063
▁slept	-15064
▁thumb	-15065
▁tones	-15066
▁unner	-15067
arecrow	-15068
average	-15069
itarian	-15070
respond	-15071
serious	-15072
vention	-15073
▁Bunuel	-15074
▁Finney	-15075
▁Godard	-15076
▁Simple	-15077
▁Whoopi	-15078
▁Wizard	-15079
▁grisly	-15080
▁occult	-15081
▁reruns	-15082
▁streak	-15083
▁subway	-15084
attering	-15085
elligent	-15086
▁Dancing	-15087
▁Nielsen	-15088
▁Othello	-15089
▁Romania	-15090
▁cocaine	-15091
[...]
