{
  "version": "1.0",
  "truncation": null,
  "padding": null,
  "added_tokens": [
    {
      "id": 0,
      "content": "[UNK]",
      "single_word": false,
      "lstrip": false,
      "rstrip": false,
      "normalized": false,
      "special": true
    },
    {
      "id": 1,
      "content": "[CLS]",
      "single_word": false,
      "lstrip": false,
      "rstrip": false,
      "normalized": false,
      "special": true
    },
    {
      "id": 2,
      "content": "[SEP]",
      "single_word": false,
      "lstrip": false,
      "rstrip": false,
      "normalized": false,
      "special": true
    },
    {
      "id": 3,
      "content": "[PAD]",
      "single_word": false,
      "lstrip": false,
      "rstrip": false,
      "normalized": false,
      "special": true
    },
    {
      "id": 4,
      "content": "[MASK]",
      "single_word": false,
      "lstrip": false,
      "rstrip": false,
      "normalized": false,
      "special": true
    }
  ],
  "normalizer": null,
  "pre_tokenizer": {
    "type": "Whitespace"
  },
  "post_processor": null,
  "decoder": null,
  "model": {
    "type": "Unigram",
    "unk_id": 0,
    "vocab": [
      [
        "[UNK]",
        0.0
      ],
      [
        "[CLS]",
        0.0
      ],
      [
        "[SEP]",
        0.0
      ],
      [
        "[PAD]",
        0.0
      ],
      [
        "[MASK]",
        0.0
      ],
      [
        "s",
        -2.875574226734523
      ],
      [
        "t",
        -3.152664000757028
      ],
      [
        "the",
        -3.4201624248094493
      ],
      [
        "a",
        -3.4292244631497777
      ],
      [
        ",",
        -3.5400627964525615
      ],
      [
        "o",
        -3.598443956246987
      ],
      [
        ".",
        -3.6256168758861325
      ],
      [
        "e",
        -3.6315642865605664
      ],
      [
        "i",
        -4.033654079123618
      ],
      [
        "and",
        -4.047622109364491
      ],
      [
        "d",
        -4.119663197983211
      ],
      [
        "of",
        -4.1596138351701
      ],
      [
        "'",
        -4.2452209425578715
      ],
      [
        "I",
        -4.3271143906768454
      ],
      [
        "is",
        -4.429035863650142
      ],
      [
        "br",
        -4.488530573244224
      ],
      [
        "in",
        -4.498135896869625
      ],
      [
        "y",
        -4.514200420680828
      ],
      [
        "ly",
        -4.723400886078755
      ],
      [
        "r",
        -4.7329688677915716
      ],
      [
        "n",
        -4.850387685893356
      ],
      [
        "that",
        -4.887854112372375
      ],
      [
        "\"",
        -4.976370441948248
      ],
      [
        "on",
        -5.033239617328229
      ],
      [
        "this",
        -5.046031369965823
      ],
      [
        "ing",
        -5.063612928065405
      ],
      [
        "-",
        -5.099301996577029
      ],
      [
        "/><",
        -5.206548086084842
      ],
      [
        "/>",
        -5.20951353593348
      ],
      [
        "was",
        -5.249089697015018
      ],
      [
        "The",
        -5.2740796826431975
      ],
      [
        "movie",
        -5.298813231485793
      ],
      [
        "b",
        -5.328516085285557
      ],
      [
        "for",
        -5.348929301055325
      ],
      [
        "with",
        -5.355148720321955
      ],
      [
        "film",
        -5.362851584138117
      ],
      [
        "m",
        -5.390293667191115
      ],
      [
        ".<",
        -5.474977833975231
      ],
      [
        "but",
        -5.5787595781557275
      ],
      [
        "(",
        -5.5829599404190535
      ],
      [
        "are",
        -5.673216458972572
      ],
      [
        "you",
        -5.679660395547769
      ],
      [
        "f",
        -5.710020442400198
      ],
      [
        "not",
        -5.727639460208845
      ],
      [
        "his",
        -5.756202550612464
      ],
      [
        "he",
        -5.761804492699879
      ],
      [
        "have",
        -5.784848168507359
      ],
      [
        "one",
        -5.808611893374893
      ],
      [
        "an",
        -5.812739598425116
      ],
      [
        "l",
        -5.8301890771265565
      ],
      [
        "all",
        -5.94221535138713
      ],
      [
        "like",
        -6.03084118757673
      ],
      [
        "by",
        -6.039692627780813
      ],
      [
        "who",
        -6.047467360616167
      ],
      [
        ")",
        -6.056264885421477
      ],
      [
        "her",
        -6.125064479324953
      ],
      [
        "h",
        -6.127288021411436
      ],
      [
        "out",
        -6.131801236366265
      ],
      [
        "A",
        -6.146335088866648
      ],
      [
        "u",
        -6.155408887584034
      ],
      [
        "from",
        -6.163607156565551
      ],
      [
        "about",
        -6.298904612920326
      ],
      [
        "has",
        -6.3002074398148515
      ],
      [
        "just",
        -6.317130205673227
      ],
      [
        "some",
        -6.317702948218521
      ],
      [
        "can",
        -6.345233425672763
      ],
      [
        "they",
        -6.350637546692514
      ],
      [
        "w",
        -6.391704705481686
      ],
      [
        "up",
        -6.441755435553603
      ],
      [
        "good",
        -6.448667964629383
      ],
      [
        "more",
        -6.4567007895761055
      ],
      [
        "Thi",
        -6.465061421244696
      ],
      [
        "character",
        -6.4830509284726645
      ],
      [
        "what",
        -6.50112518527845
      ],
      [
        "very",
        -6.511642531843956
      ],
      [
        "time",
        -6.51383429843596
      ],
      [
        "!",
        -6.550082372580654
      ],
      [
        "man",
        -6.558993503807482
      ],
      [
        "me",
        -6.569056842260826
      ],
      [
        "there",
        -6.593177717316019
      ],
      [
        "?",
        -6.609908131500392
      ],
      [
        "would",
        -6.619974174798445
      ],
      [
        "S",
        -6.644583732771203
      ],
      [
        "even",
        -6.659765900577588
      ],
      [
        "when",
        -6.659894575235091
      ],
      [
        "get",
        -6.687147411817783
      ],
      [
        "c",
        -6.68917290434357
      ],
      [
        "story",
        -6.690996898133507
      ],
      [
        "which",
        -6.692161294961492
      ],
      [
        "had",
        -6.698590786245228
      ],
      [
        "really",
        -6.717759720041512
      ],
      [
        "their",
        -6.7272048295346405
      ],
      [
        "him",
        -6.729224297208342
      ],
      [
        "ever",
        -6.738584334486735
      ],
      [
        "<",
        -6.741022367613457
      ],
      [
        "how",
        -6.759008401857908
      ],
      [
        "were",
        -6.762445125418388
      ],
      [
        "p",
        -6.765563102383412
      ],
      [
        "other",
        -6.769717598721659
      ],
      [
        "she",
        -6.829631467119109
      ],
      [
        "T",
        -6.848360520183283
      ],
      [
        "any",
        -6.84933819651549
      ],
      [
        "than",
        -6.853110063312206
      ],
      [
        "great",
        -6.869292152955083
      ],
      [
        "way",
        -6.875236681268609
      ],
      [
        ":",
        -6.875489905807873
      ],
      [
        "well",
        -6.876805614860384
      ],
      [
        "bad",
        -6.881233736622518
      ],
      [
        "...",
        -6.88650288819197
      ],
      [
        "much",
        -6.888231260948686
      ],
      [
        "been",
        -6.913805086157376
      ],
      [
        "most",
        -6.922102780638953
      ],
      [
        "will",
        -6.945317786021757
      ],
      [
        "into",
        -6.951110686476355
      ],
      [
        "people",
        -6.956259410815804
      ],
      [
        "love",
        -6.987662521782488
      ],
      [
        "thing",
        -6.992653703351435
      ],
      [
        "make",
        -6.995728065356683
      ],
      [
        "M",
        -6.997176799026374
      ],
      [
        "g",
        -7.002085482339879
      ],
      [
        "becau",
        -7.007335364751093
      ],
      [
        "over",
        -7.031095547522895
      ],
      [
        "made",
        -7.038988988956287
      ],
      [
        "first",
        -7.062436101574416
      ],
      [
        "self",
        -7.080196725585788
      ],
      [
        "could",
        -7.084386595700376
      ],
      [
        "also",
        -7.092870375811124
      ],
      [
        "think",
        -7.103664026796897
      ],
      [
        "B",
        -7.104749463415118
      ],
      [
        "show",
        -7.10669903291112
      ],
      [
        "But",
        -7.1463480441574045
      ],
      [
        "And",
        -7.168653164637735
      ],
      [
        "ve",
        -7.173543934762177
      ],
      [
        "don",
        -7.183213543715846
      ],
      [
        "seem",
        -7.183263724437545
      ],
      [
        "/",
        -7.197501939181278
      ],
      [
        "end",
        -7.198889188995125
      ],
      [
        "them",
        -7.201976718377875
      ],
      [
        "watch",
        -7.203470504529635
      ],
      [
        "plot",
        -7.210004382602987
      ],
      [
        "actor",
        -7.218596239742576
      ],
      [
        "where",
        -7.228623028484606
      ],
      [
        "seen",
        -7.231324966168463
      ],
      [
        "know",
        -7.232574849748618
      ],
      [
        "want",
        -7.250486720598044
      ],
      [
        "being",
        -7.263533582404728
      ],
      [
        "go",
        -7.264164485590779
      ],
      [
        "say",
        -7.265288446170963
      ],
      [
        ";",
        -7.266354307434115
      ],
      [
        "year",
        -7.268960692246186
      ],
      [
        "acting",
        -7.277058777006474
      ],
      [
        "life",
        -7.28579815372642
      ],
      [
        "two",
        -7.290668978971803
      ],
      [
        "your",
        -7.3013922344979765
      ],
      [
        "There",
        -7.303097937268545
      ],
      [
        "never",
        -7.313407850519823
      ],
      [
        "He",
        -7.315152883565911
      ],
      [
        "after",
        -7.322109225625628
      ],
      [
        "off",
        -7.325389104361793
      ],
      [
        "did",
        -7.325499796485223
      ],
      [
        "through",
        -7.332748005110057
      ],
      [
        "scene",
        -7.355838864830526
      ],
      [
        "little",
        -7.356618227145791
      ],
      [
        "best",
        -7.359663435464929
      ],
      [
        "does",
        -7.3910626595621896
      ],
      [
        "take",
        -7.393227322389521
      ],
      [
        "better",
        -7.401180329238409
      ],
      [
        "part",
        -7.431934045482164
      ],
      [
        "back",
        -7.443984309200506
      ],
      [
        "),",
        -7.4575865746807075
      ],
      [
        "C",
        -7.468793077154135
      ],
      [
        ").",
        -7.497837688221377
      ],
      [
        "old",
        -7.502025931510717
      ],
      [
        "again",
        -7.5090967016656975
      ],
      [
        "P",
        -7.516218384998012
      ],
      [
        "find",
        -7.517307357083688
      ],
      [
        "work",
        -7.520832759239205
      ],
      [
        "still",
        -7.527101150156563
      ],
      [
        "something",
        -7.537274987654296
      ],
      [
        "real",
        -7.539059174920155
      ],
      [
        "D",
        -7.543932229450732
      ],
      [
        "movies",
        -7.544270229353446
      ],
      [
        "scenes",
        -7.546095715084565
      ],
      [
        "should",
        -7.549088465237228
      ],
      [
        "such",
        -7.553463009404249
      ],
      [
        "actual",
        -7.554609571622235
      ],
      [
        "give",
        -7.556826422110673
      ],
      [
        "k",
        -7.559652503007923
      ],
      [
        "here",
        -7.574552785069933
      ],
      [
        "performance",
        -7.6225425902641994
      ],
      [
        "10",
        -7.628976819890077
      ],
      [
        "though",
        -7.6369514869858754
      ],
      [
        "those",
        -7.646499625671542
      ],
      [
        "play",
        -7.647093824404298
      ],
      [
        "look",
        -7.647388271042535
      ],
      [
        "lot",
        -7.649825314172583
      ],
      [
        "v",
        -7.649942290552415
      ],
      [
        "doesn",
        -7.654890729977264
      ],
      [
        "guy",
        -7.662617728719164
      ],
      [
        "films",
        -7.663281363952068
      ],
      [
        "watching",
        -7.668060648643527
      ],
      [
        "didn",
        -7.668923375387703
      ],
      [
        "--",
        -7.6740265677351065
      ],
      [
        "funny",
        -7.675063404409638
      ],
      [
        "down",
        -7.676051798444625
      ],
      [
        "O",
        -7.683389432644246
      ],
      [
        "role",
        -7.685209125032781
      ],
      [
        "these",
        -7.686274862534633
      ],
      [
        "while",
        -7.692265129731972
      ],
      [
        "long",
        -7.693187734122315
      ],
      [
        "director",
        -7.7136724211591385
      ],
      [
        "going",
        -7.715128991173264
      ],
      [
        "day",
        -7.720816603270519
      ],
      [
        "F",
        -7.74338685626755
      ],
      [
        "before",
        -7.743796224699372
      ],
      [
        "same",
        -7.744413281619371
      ],
      [
        "right",
        -7.748885514395154
      ],
      [
        "cast",
        -7.75206811116691
      ],
      [
        "2",
        -7.752485304592437
      ],
      [
        "less",
        -7.752824104020117
      ],
      [
        "few",
        -7.75305374565327
      ],
      [
        "round",
        -7.756091850343996
      ],
      [
        "ll",
        -7.761097484971813
      ],
      [
        "why",
        -7.771822694376729
      ],
      [
        "G",
        -7.774388989113216
      ],
      [
        "&",
        -7.777286604487266
      ],
      [
        "own",
        -7.780067334484375
      ],
      [
        "E",
        -7.793970687052838
      ],
      [
        "fact",
        -7.810514630423905
      ],
      [
        "girl",
        -7.816417973637913
      ],
      [
        "nothing",
        -7.817017525784058
      ],
      [
        "bit",
        -7.823546337055131
      ],
      [
        "z",
        -7.823702717689601
      ],
      [
        "now",
        -7.823920642866273
      ],
      [
        "another",
        -7.831697913623023
      ],
      [
        "makes",
        -7.83584087750738
      ],
      [
        "able",
        -7.837939405343265
      ],
      [
        "action",
        -7.846488559624209
      ],
      [
        "original",
        -7.852991754212811
      ],
      [
        "quite",
        -7.862341809763903
      ],
      [
        "new",
        -7.864430687309303
      ],
      [
        "thought",
        -7.867038760919781
      ],
      [
        "pretty",
        -7.879869266621888
      ],
      [
        "nough",
        -7.887216013971514
      ],
      [
        "horror",
        -7.890986139852023
      ],
      [
        "What",
        -7.892556917521874
      ],
      [
        "You",
        -7.893112696524698
      ],
      [
        "world",
        -7.894205908219302
      ],
      [
        "every",
        -7.896792992467914
      ],
      [
        "1",
        -7.898076805021706
      ],
      [
        "got",
        -7.902774817730357
      ],
      [
        "point",
        -7.905831499499163
      ],
      [
        "eries",
        -7.907264384949787
      ],
      [
        "hard",
        -7.91986420961927
      ],
      [
        "enjoy",
        -7.9208528200627555
      ],
      [
        "R",
        -7.932636064877633
      ],
      [
        "kind",
        -7.938654119464163
      ],
      [
        "come",
        -7.9393021817899125
      ],
      [
        "between",
        -7.947207696200472
      ],
      [
        "young",
        -7.949336859640132
      ],
      [
        "script",
        -7.9502283800625335
      ],
      [
        "far",
        -7.95609637780777
      ],
      [
        "our",
        -7.95630261073085
      ],
      [
        "must",
        -7.960763216813332
      ],
      [
        "How",
        -7.961318612593265
      ],
      [
        "may",
        -7.964602621745511
      ],
      [
        "saw",
        -7.967322464219308
      ],
      [
        "leas",
        -7.9704373894825995
      ],
      [
        "She",
        -7.971880630716679
      ],
      [
        "comedy",
        -7.98416630302334
      ],
      [
        "whole",
        -7.989722434563504
      ],
      [
        "high",
        -7.995334750416815
      ],
      [
        "feel",
        -7.996697638262537
      ],
      [
        "alway",
        -7.999817838523274
      ],
      [
        "K",
        -8.000774284474563
      ],
      [
        "big",
        -8.000820551451692
      ],
      [
        "place",
        -8.004587856161555
      ],
      [
        "music",
        -8.007966903963725
      ],
      [
        "interesting",
        -8.009191309354799
      ],
      [
        "both",
        -8.018837073067349
      ],
      [
        "So",
        -8.0214344189305
      ],
      [
        "shot",
        -8.022142956057579
      ],
      [
        "complete",
        -8.023501689039394
      ],
      [
        "3",
        -8.023883929668388
      ],
      [
        "almost",
        -8.034890965850488
      ],
      [
        "TV",
        -8.039387552864323
      ],
      [
        "kid",
        -8.043726195353614
      ],
      [
        "making",
        -8.044699501598242
      ],
      [
        "might",
        -8.050526514825238
      ],
      [
        "believe",
        -8.056581961326026
      ],
      [
        "reason",
        -8.05961127226852
      ],
      [
        "fun",
        -8.064187156373011
      ],
      [
        "without",
        -8.064404516017907
      ],
      [
        "effect",
        -8.068277144140449
      ],
      [
        "N",
        -8.069971422740934
      ],
      [
        "start",
        -8.071316020732572
      ],
      [
        "minutes",
        -8.072391323184597
      ],
      [
        "last",
        -8.072424318412946
      ],
      [
        "H",
        -8.074924236702744
      ],
      [
        "ity",
        -8.089406302904308
      ],
      [
        "anything",
        -8.09927504013017
      ],
      [
        "become",
        -8.101796654981575
      ],
      [
        "screen",
        -8.10512672744332
      ],
      [
        "moment",
        -8.106262882414361
      ],
      [
        "family",
        -8.106731279265093
      ],
      [
        "ness",
        -8.111885929545796
      ],
      [
        "main",
        -8.117585789795601
      ],
      [
        "They",
        -8.121305215767007
      ],
      [
        "put",
        -8.131432726884599
      ],
      [
        "each",
        -8.13521554574183
      ],
      [
        "let",
        -8.135982116324248
      ],
      [
        "That",
        -8.141877625298545
      ],
      [
        "need",
        -8.143057452898057
      ],
      [
        "probabl",
        -8.143735868823255
      ],
      [
        "ending",
        -8.14534086425226
      ],
      [
        "woman",
        -8.147273681284405
      ],
      [
        "found",
        -8.152839738036782
      ],
      [
        "American",
        -8.153388372568154
      ],
      [
        "live",
        -8.155598894621834
      ],
      [
        "sure",
        -8.168808536214614
      ],
      [
        "idea",
        -8.170005566469268
      ],
      [
        "W",
        -8.170300511319502
      ],
      [
        "since",
        -8.17322097021603
      ],
      [
        "book",
        -8.1746434516151
      ],
      [
        "away",
        -8.175142464329623
      ],
      [
        "audience",
        -8.175743208003182
      ],
      [
        "tell",
        -8.177592347612649
      ],
      [
        "worth",
        -8.184745283699764
      ],
      [
        "For",
        -8.184934933018862
      ],
      [
        "low",
        -8.19422118576224
      ],
      [
        "done",
        -8.195154907652354
      ],
      [
        "under",
        -8.200693791482797
      ],
      [
        "playe",
        -8.202261602950877
      ],
      [
        "rather",
        -8.202990453374182
      ],
      [
        "L",
        -8.20366855287041
      ],
      [
        "DVD",
        -8.206729373818478
      ],
      [
        "poor",
        -8.211013388570535
      ],
      [
        "worst",
        -8.214755275422851
      ],
      [
        "gets",
        -8.217423638999541
      ],
      [
        "course",
        -8.21815126819093
      ],
      [
        "When",
        -8.220433679757665
      ],
      [
        "different",
        -8.225021327811463
      ],
      [
        "We",
        -8.226801511007567
      ],
      [
        "final",
        -8.2367339202583
      ],
      [
        "times",
        -8.238464878480112
      ],
      [
        "looking",
        -8.23935411790269
      ],
      [
        "special",
        -8.239493527805275
      ],
      [
        "beautiful",
        -8.24841876553455
      ],
      [
        "line",
        -8.248923702305364
      ],
      [
        "trying",
        -8.25006904284821
      ],
      [
        "anyone",
        -8.251086059692318
      ],
      [
        "episode",
        -8.251538582529077
      ],
      [
        "head",
        -8.259148755659803
      ],
      [
        "job",
        -8.264139008826982
      ],
      [
        "sense",
        -8.266234778512649
      ],
      [
        "version",
        -8.27333034956425
      ],
      [
        "goes",
        -8.27803460984764
      ],
      [
        "V",
        -8.282742635462467
      ],
      [
        "5",
        -8.295266598018522
      ],
      [
        "One",
        -8.29651541659421
      ],
      [
        "together",
        -8.297175679534998
      ],
      [
        "short",
        -8.297891374143713
      ],
      [
        "men",
        -8.300330486191509
      ],
      [
        "4",
        -8.30066942389105
      ],
      [
        "top",
        -8.303782653224417
      ],
      [
        "half",
        -8.310989165942267
      ],
      [
        "help",
        -8.312666940974834
      ],
      [
        "either",
        -8.313719355584826
      ],
      [
        "read",
        -8.314511832837066
      ],
      [
        "All",
        -8.31610517082721
      ],
      [
        "especiall",
        -8.316997611081803
      ],
      [
        "watche",
        -8.317060511356107
      ],
      [
        "use",
        -8.31817958091634
      ],
      [
        "problem",
        -8.318946801602397
      ],
      [
        "laugh",
        -8.328456285508343
      ],
      [
        "money",
        -8.332185429786453
      ],
      [
        "mind",
        -8.344617471904707
      ],
      [
        "comes",
        -8.34517419178592
      ],
      [
        "fan",
        -8.345652857652617
      ],
      [
        "perfect",
        -8.346528148351673
      ],
      [
        "having",
        -8.347214339681802
      ],
      [
        "John",
        -8.353883231427263
      ],
      [
        "nstead",
        -8.356631682475394
      ],
      [
        "happen",
        -8.358732229720605
      ],
      [
        "J",
        -8.359496633105804
      ],
      [
        "nice",
        -8.36009718656889
      ],
      [
        "No",
        -8.361699847568865
      ],
      [
        "Not",
        -8.367087093132005
      ],
      [
        "recommend",
        -8.369559252394465
      ],
      [
        "lead",
        -8.370210382733864
      ],
      [
        "face",
        -8.370905190462404
      ],
      [
        "true",
        -8.371402701749261
      ],
      [
        "said",
        -8.371781419814921
      ],
      [
        "light",
        -8.375887720853122
      ],
      [
        "sex",
        -8.377056581479467
      ],
      [
        "fall",
        -8.377505546170047
      ],
      [
        "star",
        -8.377614532698388
      ],
      [
        "three",
        -8.37818312245498
      ],
      [
        "hour",
        -8.380830180213948
      ],
      [
        "Y",
        -8.38410517671815
      ],
      [
        "war",
        -8.386671262436579
      ],
      [
        "someone",
        -8.386833670475017
      ],
      [
        "My",
        -8.394245341293042
      ],
      [
        "used",
        -8.396675676371727
      ],
      [
        "U",
        -8.398011761448027
      ],
      [
        "left",
        -8.398325126105533
      ],
      [
        "full",
        -8.409119309346845
      ],
      [
        "second",
        -8.412874562728527
      ],
      [
        "night",
        -8.41393513529057
      ],
      [
        "hear",
        -8.416650288821554
      ],
      [
        "wife",
        -8.417766375755438
      ],
      [
        "human",
        -8.420217663441122
      ],
      [
        "budget",
        -8.422421585974794
      ],
      [
        "age",
        -8.424256088838183
      ],
      [
        "else",
        -8.424553508299056
      ],
      [
        "everything",
        -8.42567040368179
      ],
      [
        "piece",
        -8.434525187823285
      ],
      [
        "waste",
        -8.436076384426025
      ],
      [
        "entire",
        -8.439616267748827
      ],
      [
        "looks",
        -8.44297355897405
      ],
      [
        "home",
        -8.443649084079306
      ],
      [
        "later",
        -8.444544930255304
      ],
      [
        "fight",
        -8.44458522372116
      ],
      [
        "th",
        -8.445775847558238
      ],
      [
        "excellent",
        -8.450983675148349
      ],
      [
        "once",
        -8.45211979594235
      ],
      [
        "rest",
        -8.456371891360003
      ],
      [
        "house",
        -8.457408387743385
      ],
      [
        "7",
        -8.458678809333575
      ],
      [
        "during",
        -8.461870181690406
      ],
      [
        "camera",
        -8.46352135430262
      ],
      [
        "plays",
        -8.465350015711799
      ],
      [
        "father",
        -8.466231928317214
      ],
      [
        "try",
        -8.469095442170383
      ],
      [
        "everyone",
        -8.469158244456336
      ],
      [
        "mean",
        -8.469964015289527
      ],
      [
        "keep",
        -8.472609459134647
      ],
      [
        "classic",
        -8.476433087516584
      ],
      [
        "production",
        -8.476759123219932
      ],
      [
        "car",
        -8.47680570966033
      ],
      [
        "person",
        -8.481434261331
      ],
      [
        "remember",
        -8.485550816730555
      ],
      [
        "total",
        -8.486159987197176
      ],
      [
        "attempt",
        -8.48810203579511
      ],
      [
        "close",
        -8.489298048264308
      ],
      [
        "death",
        -8.496291797814651
      ],
      [
        "serious",
        -8.500508030130055
      ],
      [
        "release",
        -8.501396755213175
      ],
      [
        "side",
        -8.502106570461228
      ],
      [
        "shows",
        -8.502148299848212
      ],
      [
        "ch",
        -8.503240835241193
      ],
      [
        "name",
        -8.5042312997021
      ],
      [
        "wasn",
        -8.506753865011033
      ],
      [
        "act",
        -8.508305291517903
      ],
      [
        "couple",
        -8.51018324409824
      ],
      [
        "talent",
        -8.518815425571402
      ],
      [
        "simply",
        -8.520016973386552
      ],
      [
        "change",
        -8.525770775355747
      ],
      [
        "stupid",
        -8.527151177574446
      ],
      [
        "Hollywood",
        -8.52841851913571
      ],
      [
        "school",
        -8.52868740795763
      ],
      [
        "wonderful",
        -8.534095943998246
      ],
      [
        "expect",
        -8.534168740546551
      ],
      [
        "wrong",
        -8.54169035209921
      ],
      [
        "usual",
        -8.542245228289783
      ],
      [
        "An",
        -8.547728143560828
      ],
      [
        "video",
        -8.548352831591945
      ],
      [
        "ally",
        -8.548995847508268
      ],
      [
        "lack",
        -8.551249908581584
      ],
      [
        "kill",
        -8.562240970805703
      ],
      [
        "friend",
        -8.563172131866072
      ],
      [
        "8",
        -8.566050632150105
      ],
      [
        "awful",
        -8.56662505285811
      ],
      [
        "boring",
        -8.568888584597866
      ],
      [
        "came",
        -8.56993253804061
      ],
      [
        "understand",
        -8.571515804647627
      ],
      [
        "body",
        -8.572546290162393
      ],
      [
        "style",
        -8.573642829853158
      ],
      [
        "supposed",
        -8.573865097723306
      ],
      [
        "sort",
        -8.57682314288172
      ],
      [
        "title",
        -8.583873840288495
      ],
      [
        "absolute",
        -8.586678493053858
      ],
      [
        "particular",
        -8.591349754562057
      ],
      [
        "leave",
        -8.592311253405374
      ],
      [
        "Well",
        -8.59641247459833
      ],
      [
        "given",
        -8.596469951067975
      ],
      [
        "small",
        -8.596756293786068
      ],
      [
        "writer",
        -8.601444065508904
      ],
      [
        "women",
        -8.601711015009489
      ],
      [
        "case",
        -8.605945133706754
      ],
      [
        "clear",
        -8.60775728903217
      ],
      [
        "surprise",
        -8.6099559863059
      ],
      [
        "until",
        -8.612657430149472
      ],
      [
        "along",
        -8.613238143250928
      ],
      [
        "black",
        -8.615596262921574
      ],
      [
        "flick",
        -8.617389629305414
      ],
      [
        "won",
        -8.620483961452813
      ],
      [
        "ready",
        -8.62604770507395
      ],
      [
        "appear",
        -8.62634566389631
      ],
      [
        "rhaps",
        -8.628408809725208
      ],
      [
        "review",
        -8.630713086884413
      ],
      [
        "boy",
        -8.63097306360107
      ],
      [
        "THE",
        -8.632627846662112
      ],
      [
        "near",
        -8.634135635201423
      ],
      [
        "mention",
        -8.63442911027472
      ],
      [
        "trul",
        -8.638843116272954
      ],
      [
        "friends",
        -8.639701853471912
      ],
      [
        "*",
        -8.64163754319213
      ],
      [
        "dialogue",
        -8.643022464157466
      ],
      [
        "Man",
        -8.64573585026338
      ],
      [
        "After",
        -8.647931718664838
      ],
      [
        "On",
        -8.649436867001265
      ],
      [
        "wonder",
        -8.654595164847024
      ],
      [
        "hope",
        -8.658109966706819
      ],
      [
        "comment",
        -8.662450087652367
      ],
      [
        "feature",
        -8.666359216315733
      ],
      [
        "Even",
        -8.666837754932306
      ],
      [
        "9",
        -8.667007361934601
      ],
      [
        "sequence",
        -8.674163434748936
      ],
      [
        "fel",
        -8.677245009900858
      ],
      [
        "next",
        -8.677779608055525
      ],
      [
        "lines",
        -8.68023434147136
      ],
      [
        "art",
        -8.682962075843731
      ],
      [
        "drama",
        -8.683046494423913
      ],
      [
        "experience",
        -8.683818284186483
      ],
      [
        "often",
        -8.689961023282748
      ],
      [
        "doing",
        -8.69034240031954
      ],
      [
        "terrible",
        -8.690541989993267
      ],
      [
        "move",
        -8.690598550928392
      ],
      [
        "mother",
        -8.690620259549348
      ],
      [
        "base",
        -8.6908716070715
      ],
      [
        "writte",
        -8.695166795205324
      ],
      [
        "went",
        -8.696078575219973
      ],
      [
        "maybe",
        -8.698035781672106
      ],
      [
        "dead",
        -8.699426662962379
      ],
      [
        "care",
        -8.71057565768891
      ],
      [
        "although",
        -8.712579538234058
      ],
      [
        "late",
        -8.715363724485213
      ],
      [
        "heart",
        -8.717355139953417
      ],
      [
        "turn",
        -8.723612101447461
      ],
      [
        "definite",
        -8.727496767968699
      ],
      [
        "ment",
        -8.729245317335476
      ],
      [
        "Some",
        -8.73046319717908
      ],
      [
        "example",
        -8.733896513574035
      ],
      [
        "6",
        -8.737677157290905
      ],
      [
        "feeling",
        -8.742786195329815
      ],
      [
        "entertaining",
        -8.745666809846337
      ],
      [
        "called",
        -8.747277991847483
      ],
      [
        "run",
        -8.750312238347863
      ],
      [
        "Don",
        -8.750892295189473
      ],
      [
        "actress",
        -8.751936403466802
      ],
      [
        "children",
        -8.752966551738936
      ],
      [
        "matter",
        -8.752977252315123
      ],
      [
        "picture",
        -8.762098702271523
      ],
      [
        "game",
        -8.763327481210364
      ],
      [
        "couldn",
        -8.763926114914334
      ],
      [
        "consider",
        -8.76555222449462
      ],
      [
        "With",
        -8.768978883500546
      ],
      [
        "sound",
        -8.771673202549467
      ],
      [
        "cinema",
        -8.778528504651444
      ],
      [
        "voice",
        -8.7801625093234
      ],
      [
        "fine",
        -8.782886885940377
      ],
      [
        "worse",
        -8.78333664274465
      ],
      [
        "slow",
        -8.785143251260049
      ],
      [
        "ation",
        -8.788701223666925
      ],
      [
        "De",
        -8.790979319091857
      ],
      [
        "call",
        -8.79118959911801
      ],
      [
        "guess",
        -8.79566836134078
      ],
      [
        "direction",
        -8.802245899310073
      ],
      [
        "beginning",
        -8.802363563315907
      ],
      [
        "involve",
        -8.802619877861684
      ],
      [
        "humor",
        -8.802706116840369
      ],
      [
        "begin",
        -8.809043060924552
      ],
      [
        "stars",
        -8.810259896693466
      ],
      [
        "certainly",
        -8.815968998054615
      ],
      [
        "His",
        -8.819008895288286
      ],
      [
        "favorite",
        -8.822392313945379
      ],
      [
        "brilliant",
        -8.82349454398679
      ],
      [
        "Al",
        -8.823987479335464
      ],
      [
        "create",
        -8.826329231551018
      ],
      [
        "murder",
        -8.826996720333671
      ],
      [
        "ling",
        -8.830348009943325
      ],
      [
        "strong",
        -8.83349128476359
      ],
      [
        "amazing",
        -8.835748752394945
      ],
      [
        "While",
        -8.836437162085723
      ],
      [
        "several",
        -8.838790326096355
      ],
      [
        "past",
        -8.840252671085954
      ],
      [
        "killer",
        -8.840519199133473
      ],
      [
        "Also",
        -8.841502359325121
      ],
      [
        "town",
        -8.8429150122956
      ],
      [
        "relationship",
        -8.847029757797252
      ],
      [
        "genre",
        -8.848206698091666
      ],
      [
        "New",
        -8.848805278274492
      ],
      [
        "hat",
        -8.849827804352959
      ],
      [
        "quality",
        -8.853453612871782
      ],
      [
        "direct",
        -8.856566079660542
      ],
      [
        "Now",
        -8.85736398446516
      ],
      [
        "Michael",
        -8.858039538003753
      ],
      [
        "wait",
        -8.858191741400113
      ],
      [
        "Why",
        -8.864218391404972
      ],
      [
        "viewer",
        -8.865643619173834
      ],
      [
        "writing",
        -8.86570969629957
      ],
      [
        "manage",
        -8.86844613612648
      ],
      [
        "arly",
        -8.87026693524133
      ],
      [
        "per",
        -8.870995320753277
      ],
      [
        "Of",
        -8.872284400025354
      ],
      [
        "Re",
        -8.874913038676734
      ],
      [
        "follow",
        -8.877212125528374
      ],
      [
        "support",
        -8.879844464077857
      ],
      [
        "daughter",
        -8.880056639709228
      ],
      [
        "stuff",
        -8.880698423878869
      ],
      [
        "etc",
        -8.884553271304746
      ],
      [
        "number",
        -8.885939762855594
      ],
      [
        "group",
        -8.88908250629165
      ],
      [
        "",
        -8.892632397602299
      ],
      [
        "type",
        -8.893079994366886
      ],
      [
        "tries",
        -8.895927121513521
      ],
      [
        "x",
        -8.902367927050378
      ],
      [
        "ves",
        -8.905811482164086
      ],
      [
        "meet",
        -8.909878287836992
      ],
      [
        "lost",
        -8.911506762279744
      ],
      [
        "ask",
        -8.916989311979316
      ],
      [
        "question",
        -8.91720568791976
      ],
      [
        "view",
        -8.924395201394164
      ],
      [
        "level",
        -8.929848914361813
      ],
      [
        "dark",
        -8.934920019740353
      ],
      [
        "history",
        -8.935029634835486
      ],
      [
        "miss",
        -8.936585313923205
      ],
      [
        "child",
        -8.937069801000574
      ],
      [
        "cut",
        -8.93738192911065
      ],
      [
        "Every",
        -8.938090615646534
      ],
      [
        "today",
        -8.93904338413023
      ],
      [
        "novel",
        -8.940440400490886
      ],
      [
        "wise",
        -8.94241808761999
      ],
      [
        "gave",
        -8.944341381480385
      ],
      [
        "room",
        -8.948909371379038
      ],
      [
        "situation",
        -8.95084999948292
      ],
      [
        "learn",
        -8.95278021981468
      ],
      [
        "score",
        -8.953211911855483
      ],
      [
        "!<",
        -8.953651925072895
      ],
      [
        "ex",
        -8.965254181758496
      ],
      [
        "fans",
        -8.965456178701217
      ],
      [
        "deal",
        -8.966196218107552
      ],
      [
        "basic",
        -8.967369871857503
      ],
      [
        "evil",
        -8.969582758261303
      ],
      [
        "coming",
        -8.972042214487647
      ],
      [
        "order",
        -8.97220024996258
      ],
      [
        "white",
        -8.972895324873786
      ],
      [
        "themsel",
        -8.975310600786212
      ],
      [
        "add",
        -8.980247577867999
      ],
      [
        "horrible",
        -8.982165343986232
      ],
      [
        "stop",
        -8.988214472903142
      ],
      [
        "behind",
        -8.988225779029651
      ],
      [
        "crap",
        -8.988713570821977
      ],
      [
        "decent",
        -8.98875730312478
      ],
      [
        "lives",
        -8.990687142295357
      ],
      [
        "eyes",
        -8.99104147945429
      ],
      [
        "exact",
        -8.992485718154102
      ],
      [
        "chance",
        -8.995159017561804
      ],
      [
        "kille",
        -9.003579083462155
      ],
      [
        "element",
        -9.008688416160613
      ],
      [
        "Just",
        -9.009032431237152
      ],
      [
        "La",
        -9.009791473345995
      ],
      [
        "realize",
        -9.00984475709516
      ],
      [
        "brother",
        -9.012812448676755
      ],
      [
        "figure",
        -9.013152129503608
      ],
      [
        "took",
        -9.013754363837933
      ],
      [
        "team",
        -9.019109805786659
      ],
      [
        "!!",
        -9.022690338646129
      ],
      [
        "Le",
        -9.025535656879946
      ],
      [
        "hilarious",
        -9.03111969556133
      ],
      [
        "word",
        -9.033143736171029
      ],
      [
        "turns",
        -9.03401401246742
      ],
      [
        "Robert",
        -9.037342762093697
      ],
      [
        "personal",
        -9.040324789139802
      ],
      [
        "career",
        -9.042434395311545
      ],
      [
        "known",
        -9.04442197146117
      ],
      [
        "thinking",
        -9.044801048340117
      ],
      [
        "directe",
        -9.045487427031972
      ],
      [
        "important",
        -9.048536573147477
      ],
      [
        "fair",
        -9.050789680037905
      ],
      [
        "interest",
        -9.054352457277624
      ],
      [
        "cool",
        -9.055077486605109
      ],
      [
        "save",
        -9.058436577940487
      ],
      [
        "David",
        -9.059698529919968
      ],
      [
        "violen",
        -9.061414909878675
      ],
      [
        "rent",
        -9.062935899434185
      ],
      [
        "class",
        -9.06600046740133
      ],
      [
        "strange",
        -9.069668258168669
      ],
      [
        "twist",
        -9.073271146161318
      ],
      [
        "simple",
        -9.073338107653246
      ],
      [
        "includ",
        -9.07339157673188
      ],
      [
        "storie",
        -9.075692041113744
      ],
      [
        "ridiculous",
        -9.076656012196576
      ],
      [
        "incredibl",
        -9.07769292996283
      ],
      [
        "husband",
        -9.079036027146941
      ],
      [
        "con",
        -9.080497496629768
      ],
      [
        "effort",
        -9.081624468956763
      ],
      [
        "happ",
        -9.086850510641437
      ],
      [
        "cheap",
        -9.087304117345797
      ],
      [
        "James",
        -9.08964782278397
      ],
      [
        "opinion",
        -9.091021012008742
      ],
      [
        "obvious",
        -9.093713158065873
      ],
      [
        "wish",
        -9.094797329049417
      ],
      [
        "disappoint",
        -9.09531495216751
      ],
      [
        "general",
        -9.097289192298359
      ],
      [
        "hell",
        -9.09981788558769
      ],
      [
        "extremely",
        -9.100502605607927
      ],
      [
        "j",
        -9.100543885891419
      ],
      [
        "similar",
        -9.10168740595562
      ],
      [
        "power",
        -9.102112995062907
      ],
      [
        "song",
        -9.102491087343623
      ],
      [
        "recent",
        -9.103234042783466
      ],
      [
        "result",
        -9.103639130445847
      ],
      [
        "police",
        -9.103714283328937
      ],
      [
        "ize",
        -9.1040528140751
      ],
      [
        "decide",
        -9.104267626259727
      ],
      [
        "throw",
        -9.104433530118811
      ],
      [
        "red",
        -9.10594985519184
      ],
      [
        "blood",
        -9.107032384683645
      ],
      [
        "20",
        -9.107218496494713
      ],
      [
        "English",
        -9.110025029176857
      ],
      [
        "sequel",
        -9.111978998342956
      ],
      [
        "value",
        -9.111989219546402
      ],
      [
        "musical",
        -9.112279702214703
      ],
      [
        "quick",
        -9.112503021711687
      ],
      [
        "except",
        -9.119771561671476
      ],
      [
        "rating",
        -9.120534345382724
      ],
      [
        "local",
        -9.12288818353517
      ],
      [
        "works",
        -9.124039792559548
      ],
      [
        "rate",
        -9.124784675336313
      ],
      [
        "others",
        -9.126916270528373
      ],
      [
        "visual",
        -9.127862350845891
      ],
      [
        "stay",
        -9.133231083914668
      ],
      [
        "cause",
        -9.137194477599511
      ],
      [
        "obviously",
        -9.137628879557381
      ],
      [
        "apparent",
        -9.139979431835513
      ],
      [
        "female",
        -9.140006234119621
      ],
      [
        "subject",
        -9.140761947094585
      ],
      [
        "unning",
        -9.145832747241357
      ],
      [
        "happens",
        -9.147260751851277
      ],
      [
        "Jack",
        -9.14804356136466
      ],
      [
        "First",
        -9.148770512283004
      ],
      [
        "deep",
        -9.149138302442491
      ],
      [
        "Do",
        -9.149577756268744
      ],
      [
        "annoying",
        -9.150571897513114
      ],
      [
        "return",
        -9.153291475625501
      ],
      [
        "led",
        -9.153466769451308
      ],
      [
        "fire",
        -9.155771263339783
      ],
      [
        "ried",
        -9.158196957797356
      ],
      [
        "opening",
        -9.158928075767474
      ],
      [
        "reality",
        -9.159094979246364
      ],
      [
        "Dr",
        -9.159450506383003
      ],
      [
        "gore",
        -9.159558211779121
      ],
      [
        "pre",
        -9.159947722197934
      ],
      [
        "thriller",
        -9.16048002252257
      ],
      [
        "break",
        -9.162226630750716
      ],
      [
        "OK",
        -9.163238810736278
      ],
      [
        "taken",
        -9.165351271303884
      ],
      [
        "walk",
        -9.165589683308944
      ],
      [
        "across",
        -9.16587718445974
      ],
      [
        "dialog",
        -9.16813972145913
      ],
      [
        "edit",
        -9.168306465551158
      ],
      [
        "taking",
        -9.168780282528541
      ],
      [
        "pay",
        -9.169815727152997
      ],
      [
        "documentar",
        -9.171056489851368
      ],
      [
        "huge",
        -9.171228958716993
      ],
      [
        "buy",
        -9.174130446893383
      ],
      [
        "Paul",
        -9.174494518354713
      ],
      [
        "talk",
        -9.174997247705862
      ],
      [
        "tale",
        -9.177459375815742
      ],
      [
        "tic",
        -9.177555560085587
      ],
      [
        "large",
        -9.178148828143712
      ],
      [
        "utter",
        -9.181601611307455
      ],
      [
        "jokes",
        -9.183372429697615
      ],
      [
        "Her",
        -9.183813842514315
      ],
      [
        "due",
        -9.186311201535542
      ],
      [
        "honest",
        -9.187418095251303
      ],
      [
        "talking",
        -9.190896329022113
      ],
      [
        "possible",
        -9.191151481120144
      ],
      [
        "monster",
        -9.19194101039881
      ],
      [
        "soon",
        -9.196169623223724
      ],
      [
        "sometime",
        -9.19619784414034
      ],
      [
        "cinematograph",
        -9.19701870800193
      ],
      [
        "Over",
        -9.19865168920666
      ],
      [
        "sister",
        -9.19891445201397
      ],
      [
        "`",
        -9.199413364815577
      ],
      [
        "theater",
        -9.201166711964614
      ],
      [
        "looke",
        -9.202468775169741
      ],
      [
        "cop",
        -9.202470579220975
      ],
      [
        "living",
        -9.203389758178307
      ],
      [
        "God",
        -9.204234844761512
      ],
      [
        "comic",
        -9.204493479172612
      ],
      [
        "alone",
        -9.204607464184809
      ],
      [
        "ago",
        -9.209964723183813
      ],
      [
        "saying",
        -9.211228345315359
      ],
      [
        "doubt",
        -9.211312663598882
      ],
      [
        "wouldn",
        -9.21186393685815
      ],
      [
        "message",
        -9.212089075198461
      ],
      [
        "!!!",
        -9.212753429101816
      ],
      [
        "parent",
        -9.216331469552264
      ],
      [
        "German",
        -9.216616130950348
      ],
      [
        "starte",
        -9.218652794153018
      ],
      [
        "speak",
        -9.219346082058046
      ],
      [
        "modern",
        -9.22060639504295
      ],
      [
        "emotional",
        -9.221886292934794
      ],
      [
        "attention",
        -9.224999953881419
      ],
      [
        "stage",
        -9.225099021958613
      ],
      [
        "despite",
        -9.22566692432951
      ],
      [
        "ley",
        -9.225855204784509
      ],
      [
        "single",
        -9.226090675279186
      ],
      [
        "turne",
        -9.230094561211242
      ],
      [
        "provide",
        -9.233237754769693
      ],
      [
        "ship",
        -9.235370078153245
      ],
      [
        "Or",
        -9.236702139988564
      ],
      [
        "detail",
        -9.236729412320859
      ],
      [
        "crew",
        -9.238157891508292
      ],
      [
        "typical",
        -9.238620396534543
      ],
      [
        "include",
        -9.238814222058515
      ],
      [
        "words",
        -9.239557875658402
      ],
      [
        "deserve",
        -9.239596385152465
      ],
      [
        "ive",
        -9.239857464414822
      ],
      [
        "bar",
        -9.240315860668229
      ],
      [
        "country",
        -9.242650311281079
      ],
      [
        "Richard",
        -9.243374574919674
      ],
      [
        "knew",
        -9.243752383411074
      ],
      [
        "Tom",
        -9.244151858405157
      ],
      [
        "silly",
        -9.244801899090678
      ],
      [
        "ance",
        -9.248319627102852
      ],
      [
        "hold",
        -9.251816024715794
      ],
      [
        "giving",
        -9.25359274333862
      ],
      [
        "George",
        -9.255148306042795
      ],
      [
        "among",
        -9.2592505237093
      ],
      [
        "sexual",
        -9.260314490641006
      ],
      [
        "producer",
        -9.261955561478779
      ],
      [
        "present",
        -9.262083167152905
      ],
      [
        "check",
        -9.262628800198433
      ],
      [
        "middle",
        -9.264938629901632
      ],
      [
        "image",
        -9.265624695610109
      ],
      [
        "major",
        -9.266598315321978
      ],
      [
        "Star",
        -9.268897618357549
      ],
      [
        "predictabl",
        -9.271921551513817
      ],
      [
        "Peter",
        -9.273307119551134
      ],
      [
        "romantic",
        -9.274327066169324
      ],
      [
        "Who",
        -9.276135489152082
      ],
      [
        "ke",
        -9.276528167711854
      ],
      [
        "Oscar",
        -9.276553878035749
      ],
      [
        "villain",
        -9.279004663423532
      ],
      [
        "prove",
        -9.281659634099192
      ],
      [
        "using",
        -9.281717356382119
      ],
      [
        "British",
        -9.283492057677861
      ],
      [
        "cover",
        -9.2835980393897
      ],
      [
        "box",
        -9.286948245714164
      ],
      [
        "cliché",
        -9.286986818802646
      ],
      [
        "told",
        -9.288519949838696
      ],
      [
        "wear",
        -9.289218270122525
      ],
      [
        "ends",
        -9.290403258642225
      ],
      [
        "moving",
        -9.290517228201793
      ],
      [
        "television",
        -9.2906165925721
      ],
      [
        "toward",
        -9.29336524761489
      ],
      [
        "scary",
        -9.297412110644393
      ],
      [
        "fast",
        -9.297643849899611
      ],
      [
        "Z",
        -9.297862282366847
      ],
      [
        "filmmaker",
        -9.301539983164155
      ],
      [
        "dog",
        -9.30345472287972
      ],
      [
        "produce",
        -9.304398082217004
      ],
      [
        "four",
        -9.306789317206352
      ],
      [
        "From",
        -9.307739828919548
      ],
      [
        "crime",
        -9.310932036718544
      ],
      [
        "Maybe",
        -9.312283684822418
      ],
      [
        "soundtrack",
        -9.313248590902342
      ],
      [
        "Go",
        -9.313542448630443
      ],
      [
        "adult",
        -9.316428721966837
      ],
      [
        "!\"",
        -9.31834312349119
      ],
      [
        "viewing",
        -9.318580204405873
      ],
      [
        "previous",
        -9.319786446348227
      ],
      [
        "deliver",
        -9.32052461867898
      ],
      [
        "asily",
        -9.322831072204819
      ],
      [
        "season",
        -9.326903536568896
      ],
      [
        "draw",
        -9.327059213322789
      ],
      [
        "emotion",
        -9.32711818403584
      ],
      [
        "straight",
        -9.328233768695572
      ],
      [
        "dull",
        -9.329117878039234
      ],
      [
        "material",
        -9.33014605523975
      ],
      [
        "spend",
        -9.330495759270729
      ],
      [
        "War",
        -9.33061812392904
      ],
      [
        "certain",
        -9.331028654887504
      ],
      [
        "realistic",
        -9.334870376019094
      ],
      [
        "sets",
        -9.33619753129743
      ],
      [
        "escape",
        -9.336887193927915
      ],
      [
        "Yes",
        -9.337684159948846
      ],
      [
        "difficult",
        -9.338141170176277
      ],
      [
        "Unfortunate",
        -9.339386091595456
      ],
      [
        "minute",
        -9.339899617246882
      ],
      [
        "aspect",
        -9.34123335234781
      ],
      [
        "setting",
        -9.341423885280975
      ],
      [
        "beyond",
        -9.343094969483449
      ],
      [
        "agree",
        -9.344242451166423
      ],
      [
        "ell",
        -9.34466925106912
      ],
      [
        "issue",
        -9.346047491547356
      ],
      [
        "future",
        -9.346202288738548
      ],
      [
        "free",
        -9.346847407629499
      ],
      [
        "ill",
        -9.34928107790246
      ],
      [
        "compare",
        -9.350819138220132
      ],
      [
        "water",
        -9.352554934944532
      ],
      [
        "above",
        -9.353737163312925
      ],
      [
        "gun",
        -9.354973070366093
      ],
      [
        "killing",
        -9.356402159008372
      ],
      [
        "victim",
        -9.356844693281191
      ],
      [
        "standard",
        -9.358820817182826
      ],
      [
        "working",
        -9.36072266720808
      ],
      [
        "entertainment",
        -9.36133560946388
      ],
      [
        "dance",
        -9.361528673595862
      ],
      [
        "open",
        -9.36202424795424
      ],
      [
        "enjoyabl",
        -9.362247057924414
      ],
      [
        "drive",
        -9.363072114083433
      ],
      [
        "creep",
        -9.364135070608558
      ],
      [
        "form",
        -9.366959252346458
      ],
      [
        "named",
        -9.368487159137452
      ],
      [
        "French",
        -9.370781520071144
      ],
      [
        "storyline",
        -9.375451998016551
      ],
      [
        "zombie",
        -9.37974817988566
      ],
      [
        "Most",
        -9.380646443377437
      ],
      [
        "please",
        -9.38118511855616
      ],
      [
        "easy",
        -9.381967314925038
      ],
      [
        "bunch",
        -9.38278819755423
      ],
      [
        "suspense",
        -9.383322672603676
      ],
      [
        "Ver",
        -9.383759381948934
      ],
      [
        "period",
        -9.384277483153708
      ],
      [
        "Like",
        -9.384348372951097
      ],
      [
        "discover",
        -9.38579880136254
      ],
      [
        "mess",
        -9.387236499363413
      ],
      [
        "fail",
        -9.38787776772589
      ],
      [
        "write",
        -9.388210136338714
      ],
      [
        "capture",
        -9.39024071564822
      ],
      [
        "normal",
        -9.390731525725567
      ],
      [
        "weak",
        -9.39220506225308
      ],
      [
        "city",
        -9.393211140796874
      ],
      [
        "deed",
        -9.395586710464062
      ],
      [
        "believabl",
        -9.396138614120451
      ],
      [
        "ated",
        -9.400236965602737
      ],
      [
        "songs",
        -9.401934505654314
      ],
      [
        "ability",
        -9.402333982604844
      ],
      [
        "imagine",
        -9.403195272007801
      ],
      [
        "sleep",
        -9.403940302852643
      ],
      [
        "gu",
        -9.403988202886048
      ],
      [
        "force",
        -9.407329489711177
      ],
      [
        "rich",
        -9.407780271032749
      ],
      [
        "famous",
        -9.409796705815221
      ],
      [
        "kept",
        -9.41053155023084
      ],
      [
        "bigge",
        -9.411275508633594
      ],
      [
        "dream",
        -9.411383519731537
      ],
      [
        "student",
        -9.41179865810421
      ],
      [
        "post",
        -9.414734758001185
      ],
      [
        "dumb",
        -9.41512595490278
      ],
      [
        "front",
        -9.417106188707395
      ],
      [
        "allow",
        -9.419104005538074
      ],
      [
        "cartoon",
        -9.41913787211941
      ],
      [
        "bring",
        -9.420016752549284
      ],
      [
        "ear",
        -9.420334560875368
      ],
      [
        "70",
        -9.421864522363816
      ],
      [
        "battle",
        -9.423365902193954
      ],
      [
        "explain",
        -9.424183277906408
      ],
      [
        "200",
        -9.424960658138454
      ],
      [
        "rock",
        -9.427035573705057
      ],
      [
        "ster",
        -9.428439361067998
      ],
      [
        "five",
        -9.431114957140842
      ],
      [
        "weird",
        -9.43329927814873
      ],
      [
        "showing",
        -9.433441085739506
      ],
      [
        "premise",
        -9.433978393291632
      ],
      [
        "superb",
        -9.43413330969819
      ],
      [
        "list",
        -9.435807910355807
      ],
      [
        "acted",
        -9.43669653996444
      ],
      [
        "York",
        -9.438786115081424
      ],
      [
        "appreciate",
        -9.439390322039447
      ],
      [
        "upon",
        -9.440034543541385
      ],
      [
        "America",
        -9.440842018150224
      ],
      [
        "decided",
        -9.44100712460531
      ],
      [
        "80",
        -9.443702422600673
      ],
      [
        "Mc",
        -9.44502984100475
      ],
      [
        "Watch",
        -9.445599222212373
      ],
      [
        "event",
        -9.446983548276785
      ],
      [
        "!)",
        -9.448163595327337
      ],
      [
        "soldier",
        -9.450422331453465
      ],
      [
        "Ben",
        -9.450744427562466
      ],
      [
        "overall",
        -9.451979816704522
      ],
      [
        "lame",
        -9.452541463668766
      ],
      [
        "effective",
        -9.452937015923183
      ],
      [
        "Movie",
        -9.454578164683612
      ],
      [
        "trouble",
        -9.455292773347509
      ],
      [
        "telling",
        -9.45626346492814
      ],
      [
        "animation",
        -9.45665823672894
      ],
      [
        "surprising",
        -9.456660113903226
      ],
      [
        "whe",
        -9.45731923715798
      ],
      [
        "30",
        -9.45739956892456
      ],
      [
        "cat",
        -9.4579912884278
      ],
      [
        "term",
        -9.458675084954749
      ],
      [
        "business",
        -9.460143820276766
      ],
      [
        "sub",
        -9.460956653739498
      ],
      [
        "week",
        -9.462109359133148
      ],
      [
        "cu",
        -9.462757512804096
      ],
      [
        "90",
        -9.462800910520286
      ],
      [
        "pro",
        -9.464340683842634
      ],
      [
        "King",
        -9.465903673470073
      ],
      [
        "chees",
        -9.467280465854092
      ],
      [
        "expected",
        -9.472446491936957
      ],
      [
        "notice",
        -9.473421046564525
      ],
      [
        "background",
        -9.474058813868371
      ],
      [
        "pick",
        -9.47468689534838
      ],
      [
        "ended",
        -9.47482198287127
      ],
      [
        "atmosphere",
        -9.475605656116397
      ],
      [
        "political",
        -9.476013454439272
      ],
      [
        "craz",
        -9.476316213962246
      ],
      [
        "forward",
        -9.47651141414087
      ],
      [
        "fantastic",
        -9.476979874725764
      ],
      [
        "ck",
        -9.478405021532666
      ],
      [
        "unfortunate",
        -9.479156797972875
      ],
      [
        "hair",
        -9.479222529565003
      ],
      [
        "societ",
        -9.480578655272728
      ],
      [
        "com",
        -9.481460768664228
      ],
      [
        "masterpiece",
        -9.482899162902786
      ],
      [
        "average",
        -9.483441115448551
      ],
      [
        "male",
        -9.483556419072624
      ],
      [
        "$",
        -9.484693678753777
      ],
      [
        "NOT",
        -9.48486084891637
      ],
      [
        "anyway",
        -9.485393816449413
      ],
      [
        "nature",
        -9.487790416579486
      ],
      [
        "portray",
        -9.488415622846642
      ],
      [
        "memorabl",
        -9.494422921362686
      ],
      [
        "ground",
        -9.494567759854416
      ],
      [
        "bu",
        -9.496505779820357
      ],
      [
        "Joe",
        -9.499885520116164
      ],
      [
        "orry",
        -9.500934051224391
      ],
      [
        "respect",
        -9.501156018127073
      ],
      [
        "ard",
        -9.502347956608299
      ],
      [
        "accent",
        -9.503250796697545
      ],
      [
        "amount",
        -9.503581094572096
      ],
      [
        "pull",
        -9.504261646364874
      ],
      [
        "US",
        -9.504704448942562
      ],
      [
        "space",
        -9.504972344298032
      ],
      [
        "romance",
        -9.505085025452702
      ],
      [
        "gone",
        -9.505451601819303
      ],
      [
        "joke",
        -9.506087959226715
      ],
      [
        "....",
        -9.506235616612335
      ],
      [
        "lthough",
        -9.507789791372751
      ],
      [
        "Good",
        -9.508102449936226
      ],
      [
        "truth",
        -9.508312788105556
      ],
      [
        "Film",
        -9.50912209085493
      ],
      [
        "stick",
        -9.509529137605531
      ],
      [
        "X",
        -9.509746687558858
      ],
      [
        "dramatic",
        -9.51061497566706
      ],
      [
        "field",
        -9.51190284033422
      ],
      [
        "pure",
        -9.517364414422968
      ],
      [
        "interested",
        -9.517516810364137
      ],
      [
        "constant",
        -9.517565348139758
      ],
      [
        "clever",
        -9.518037179208353
      ],
      [
        "public",
        -9.518898557082021
      ],
      [
        "continue",
        -9.51975294409873
      ],
      [
        "Black",
        -9.520688652706262
      ],
      [
        "Lee",
        -9.520702133398126
      ],
      [
        "aren",
        -9.522251420430788
      ],
      [
        "credit",
        -9.522860372415938
      ],
      [
        "forced",
        -9.526873379914633
      ],
      [
        "ful",
        -9.529070349220115
      ],
      [
        "footage",
        -9.529563333231817
      ],
      [
        "viewers",
        -9.532080565268025
      ],
      [
        "copy",
        -9.53424122975393
      ],
      [
        "pent",
        -9.53435309537753
      ],
      [
        "forget",
        -9.534639897696916
      ],
      [
        "?\"",
        -9.537140359276044
      ],
      [
        "secret",
        -9.537478654416908
      ],
      [
        "avoid",
        -9.537539436858538
      ],
      [
        "unique",
        -9.53771831267095
      ],
      [
        "50",
        -9.537823251539573
      ],
      [
        "gay",
        -9.53843996983605
      ],
      [
        "admit",
        -9.53923797180465
      ],
      [
        "girlfriend",
        -9.540740093393772
      ],
      [
        "sudden",
        -9.546121269202118
      ],
      [
        "par",
        -9.547639829639591
      ],
      [
        "illed",
        -9.548601919916912
      ],
      [
        "location",
        -9.549088945873116
      ],
      [
        "suggest",
        -9.54965593861613
      ],
      [
        "flaw",
        -9.552630824060476
      ],
      [
        "remain",
        -9.552639096869575
      ],
      [
        "reading",
        -9.553703149274464
      ],
      [
        "earlie",
        -9.553944144235473
      ],
      [
        "describe",
        -9.554302424868188
      ],
      [
        "eventual",
        -9.556077744892114
      ],
      [
        "ultimate",
        -9.557509816697161
      ],
      [
        "steal",
        -9.557818684161463
      ],
      [
        "anti",
        -9.558030463085093
      ],
      [
        "older",
        -9.562987841267441
      ],
      [
        "Other",
        -9.564641897154216
      ],
      [
        "Here",
        -9.565831024723234
      ],
      [
        "store",
        -9.565905349022767
      ],
      [
        "success",
        -9.5673022821242
      ],
      [
        "potential",
        -9.567560146563107
      ],
      [
        "possibl",
        -9.568277260253517
      ],
      [
        "ped",
        -9.5695195835295
      ],
      [
        "Love",
        -9.569699375786776
      ],
      [
        "means",
        -9.569764099264255
      ],
      [
        "myster",
        -9.569870968364002
      ],
      [
        "screenplay",
        -9.570398697596033
      ],
      [
        "powerful",
        -9.573315268624825
      ],
      [
        "Disney",
        -9.5745713305677
      ],
      [
        "unlike",
        -9.576150492995335
      ],
      [
        "successful",
        -9.576255034177052
      ],
      [
        "ities",
        -9.577117873708545
      ],
      [
        "Scott",
        -9.577265584682134
      ],
      [
        "train",
        -9.577845757088287
      ],
      [
        "popular",
        -9.579275412728029
      ],
      [
        "fear",
        -9.579893905446909
      ],
      [
        "plan",
        -9.582003615292564
      ],
      [
        "natural",
        -9.582344838552292
      ],
      [
        "law",
        -9.58453916556778
      ],
      [
        "maker",
        -9.586106592326317
      ],
      [
        "Wood",
        -9.586202843219924
      ],
      [
        "Japanese",
        -9.588764656226866
      ],
      [
        "roll",
        -9.589093234665333
      ],
      [
        "reveal",
        -9.58967582631552
      ],
      [
        "development",
        -9.590611869548077
      ],
      [
        "?)",
        -9.591048945577857
      ],
      [
        "third",
        -9.591184843533213
      ],
      [
        "Un",
        -9.592279080487053
      ],
      [
        "IN",
        -9.592565140043806
      ],
      [
        "cute",
        -9.594900924825069
      ],
      [
        "color",
        -9.595401343879661
      ],
      [
        "Great",
        -9.596722015078331
      ],
      [
        "credits",
        -9.599067683093361
      ],
      [
        "ecame",
        -9.601183284456084
      ],
      [
        "board",
        -9.601597585080487
      ],
      [
        "convincing",
        -9.603116508523282
      ],
      [
        "social",
        -9.604164930621693
      ],
      [
        "flat",
        -9.605019097685041
      ],
      [
        "shoot",
        -9.605755257527946
      ],
      [
        "king",
        -9.606731466819705
      ],
      [
        "These",
        -9.607071733942602
      ],
      [
        "William",
        -9.609026490869688
      ],
      [
        "trash",
        -9.613308393096519
      ],
      [
        "Jane",
        -9.613374450649584
      ],
      [
        "contain",
        -9.61400724520285
      ],
      [
        "\")",
        -9.615197577128072
      ],
      [
        "remake",
        -9.6153007058086
      ],
      [
        "199",
        -9.615880749287586
      ],
      [
        "Sam",
        -9.616944963037149
      ],
      [
        "neede",
        -9.61747482050454
      ],
      [
        "race",
        -9.61842326765625
      ],
      [
        "shame",
        -9.62007073624876
      ],
      [
        "teen",
        -9.621446404778673
      ],
      [
        "outside",
        -9.622848769223587
      ],
      [
        "misse",
        -9.623428682571607
      ],
      [
        "IMD",
        -9.623539905679857
      ],
      [
        "Gar",
        -9.626714764311945
      ],
      [
        "focus",
        -9.627514343878055
      ],
      [
        "brain",
        -9.627571500193417
      ],
      [
        "pace",
        -9.628420891988121
      ],
      [
        "brough",
        -9.628946028327091
      ],
      [
        "mark",
        -9.629200247581753
      ],
      [
        "painful",
        -9.631058400448474
      ],
      [
        "plain",
        -9.631517342778203
      ],
      [
        "catch",
        -9.6319636958272
      ],
      [
        "doctor",
        -9.633427695913525
      ],
      [
        "project",
        -9.633535573847595
      ],
      [
        "various",
        -9.635071960427316
      ],
      [
        "costume",
        -9.635676911816445
      ],
      [
        "pop",
        -9.635935263019288
      ],
      [
        "door",
        -9.638845452029006
      ],
      [
        "plent",
        -9.639545705086514
      ],
      [
        "hands",
        -9.64199768021872
      ],
      [
        "claim",
        -9.6424315046604
      ],
      [
        "Bill",
        -9.645177742149444
      ],
      [
        "attack",
        -9.645446301496932
      ],
      [
        "sci",
        -9.648417679434107
      ],
      [
        "moral",
        -9.648757605996952
      ],
      [
        "Italian",
        -9.649254563704886
      ],
      [
        "inside",
        -9.649321899379808
      ],
      [
        "Let",
        -9.64978896518162
      ],
      [
        "beat",
        -9.649927193952736
      ],
      [
        "master",
        -9.6523081096942
      ],
      [
        "Indian",
        -9.65428360168353
      ],
      [
        "chase",
        -9.655921351089901
      ],
      [
        "animal",
        -9.656130599829531
      ],
      [
        "answer",
        -9.65937652449189
      ],
      [
        "theme",
        -9.661361325349343
      ],
      [
        "subtle",
        -9.661656498691386
      ],
      [
        "positive",
        -9.662844241332152
      ],
      [
        "control",
        -9.663826114645442
      ],
      [
        "portrayal",
        -9.6646513744105
      ],
      [
        "culture",
        -9.665422607878092
      ],
      [
        "former",
        -9.665945280552329
      ],
      [
        "spot",
        -9.66768601183771
      ],
      [
        "leading",
        -9.667951221086334
      ],
      [
        "common",
        -9.668022581652917
      ],
      [
        "appearance",
        -9.668031583828707
      ],
      [
        "mid",
        -9.66916597910557
      ],
      [
        "match",
        -9.671642162503371
      ],
      [
        "studio",
        -9.672478523434055
      ],
      [
        "super",
        -9.673177486210765
      ],
      [
        "portraye",
        -9.673912472602144
      ],
      [
        "che",
        -9.674767284466009
      ],
      [
        "concept",
        -9.67561197347311
      ],
      [
        "equal",
        -9.675662086015427
      ],
      [
        "purpose",
        -9.67573431404228
      ],
      [
        "beauty",
        -9.676654731891269
      ],
      [
        "rated",
        -9.677296650654526
      ],
      [
        "feels",
        -9.67774017745303
      ],
      [
        "tension",
        -9.678221325826877
      ],
      [
        "Ro",
        -9.678704172231377
      ],
      [
        "ride",
        -9.678988065117759
      ],
      [
        "track",
        -9.680305951203742
      ],
      [
        "hop",
        -9.683290896371894
      ],
      [
        "travel",
        -9.683465742273967
      ],
      [
        "slight",
        -9.683686325247802
      ],
      [
        "15",
        -9.684163166908782
      ],
      [
        "trip",
        -9.68693262767668
      ],
      [
        "é",
        -9.68703942696453
      ],
      [
        "Night",
        -9.687481999162587
      ],
      [
        "Any",
        -9.688280928812897
      ],
      [
        "points",
        -9.688335030631052
      ],
      [
        "mistake",
        -9.688544266693835
      ],
      [
        "ki",
        -9.689778355494088
      ],
      [
        "western",
        -9.689823439585219
      ],
      [
        "ING",
        -9.689827192409574
      ],
      [
        "familiar",
        -9.690678317906002
      ],
      [
        "iness",
        -9.69231055561853
      ],
      [
        "lady",
        -9.695540931859124
      ],
      [
        "depth",
        -9.697601091552498
      ],
      [
        "World",
        -9.699379229615435
      ],
      [
        "regard",
        -9.702709737330249
      ],
      [
        "que",
        -9.704621408711436
      ],
      [
        "extra",
        -9.705218008187689
      ],
      [
        "Li",
        -9.707811486371266
      ],
      [
        "Director",
        -9.709329719898815
      ],
      [
        "intelligent",
        -9.710059835876436
      ],
      [
        "mood",
        -9.712264459875747
      ],
      [
        "player",
        -9.714342572947931
      ],
      [
        "Lo",
        -9.716507827674356
      ],
      [
        "Con",
        -9.716550639075617
      ],
      [
        "caugh",
        -9.717145048036654
      ],
      [
        "camp",
        -9.719119058624425
      ],
      [
        "exist",
        -9.719980536534319
      ],
      [
        "whom",
        -9.720000154905522
      ],
      [
        "language",
        -9.720865872079838
      ],
      [
        "cry",
        -9.724499723526652
      ],
      [
        "sick",
        -9.724776095872896
      ],
      [
        "Ca",
        -9.72739670249177
      ],
      [
        "Car",
        -9.728360745454342
      ],
      [
        "gang",
        -9.728399527881379
      ],
      [
        "lover",
        -9.728884083654536
      ],
      [
        "whatever",
        -9.732525263401183
      ],
      [
        "Will",
        -9.733114213328939
      ],
      [
        "wrot",
        -9.733122814736241
      ],
      [
        "nudi",
        -9.73477865409232
      ],
      [
        "edge",
        -9.734779488835649
      ],
      [
        "laughing",
        -9.737456196598846
      ],
      [
        "key",
        -9.737466379479372
      ],
      [
        "creature",
        -9.740080118035026
      ],
      [
        "Bar",
        -9.740564977742373
      ],
      [
        "state",
        -9.741040105997794
      ],
      [
        "fails",
        -9.741742042004097
      ],
      [
        "photograph",
        -9.741810952121822
      ],
      [
        "stand",
        -9.74294331134912
      ],
      [
        "members",
        -9.744229873782503
      ],
      [
        "soul",
        -9.746203915031188
      ],
      [
        "brief",
        -9.746302020100515
      ],
      [
        "Frank",
        -9.749574664633435
      ],
      [
        "See",
        -9.749932572127653
      ],
      [
        "drug",
        -9.750078451962274
      ],
      [
        "El",
        -9.75013958069048
      ],
      [
        "loud",
        -9.750523290672653
      ],
      [
        "pathetic",
        -9.751272265897025
      ],
      [
        "suck",
        -9.751471906831737
      ],
      [
        "sweet",
        -9.751986166904196
      ],
      [
        "choice",
        -9.752675713106687
      ],
      [
        "wide",
        -9.753749314238576
      ],
      [
        "unless",
        -9.75412579204133
      ],
      [
        "taste",
        -9.754126346779689
      ],
      [
        "search",
        -9.754388072466744
      ],
      [
        "street",
        -9.75489913750257
      ],
      [
        "Big",
        -9.757059879290713
      ],
      [
        "critic",
        -9.75923257641263
      ],
      [
        "Dead",
        -9.760208403883993
      ],
      [
        "Ra",
        -9.761945155234656
      ],
      [
        "Anyway",
        -9.762672038318392
      ],
      [
        "fake",
        -9.763455893335681
      ],
      [
        "married",
        -9.765447826993395
      ],
      [
        "following",
        -9.766505107935616
      ],
      [
        "House",
        -9.768268495347636
      ],
      [
        "further",
        -9.769091111870397
      ],
      [
        "mad",
        -9.770000965770134
      ],
      [
        "rape",
        -9.77299373030915
      ],
      [
        "worke",
        -9.77400446411448
      ],
      [
        "Rock",
        -9.77500802779388
      ],
      [
        "Ed",
        -9.775198511887654
      ],
      [
        "keeps",
        -9.777713222173086
      ],
      [
        "Jo",
        -9.778398852718357
      ],
      [
        "immediate",
        -9.778636987998784
      ],
      [
        "fantasy",
        -9.77960039105859
      ],
      [
        "exciting",
        -9.780567281234374
      ],
      [
        "bored",
        -9.781373148000103
      ],
      [
        "meaning",
        -9.78447737093753
      ],
      [
        "fashion",
        -9.784503788598826
      ],
      [
        "Where",
        -9.786990941261134
      ],
      [
        "count",
        -9.78766921506173
      ],
      [
        "knows",
        -9.787924562737135
      ],
      [
        "ver",
        -9.789145124555652
      ],
      [
        "amusing",
        -9.789491857450347
      ],
      [
        "vision",
        -9.791578761327411
      ],
      [
        "date",
        -9.794303407531359
      ],
      [
        "pointless",
        -9.794996060721505
      ],
      [
        "ble",
        -9.796865018338732
      ],
      [
        "casting",
        -9.797404929972132
      ],
      [
        "bizarre",
        -9.798008005749107
      ],
      [
        "genuine",
        -9.798008361372297
      ],
      [
        "60",
        -9.80016374027812
      ],
      [
        "Van",
        -9.802007097385596
      ],
      [
        "smart",
        -9.802923458010412
      ],
      [
        "solid",
        -9.802944954798885
      ],
      [
        "adde",
        -9.80478717459511
      ],
      [
        "prison",
        -9.804932438022169
      ],
      [
        "spirit",
        -9.8053211259726
      ],
      [
        "boys",
        -9.8064330058094
      ],
      [
        "Sp",
        -9.808569003841033
      ],
      [
        "Mac",
        -9.809556167026095
      ],
      [
        "earth",
        -9.810310612124432
      ],
      [
        "artist",
        -9.810370145989573
      ],
      [
        "building",
        -9.811920416344211
      ],
      [
        "sounds",
        -9.812969747796231
      ],
      [
        "office",
        -9.813513874774575
      ],
      [
        "suit",
        -9.815191713182326
      ],
      [
        "younger",
        -9.81630662939791
      ],
      [
        "literal",
        -9.818759939232885
      ],
      [
        "difference",
        -9.81976387602614
      ],
      [
        "Jim",
        -9.820680446168588
      ],
      [
        "cult",
        -9.820971705293596
      ],
      [
        "van",
        -9.821343076715848
      ],
      [
        "adventure",
        -9.821417013610423
      ],
      [
        "197",
        -9.821448232331122
      ],
      [
        "impressive",
        -9.821769054397631
      ],
      [
        "historical",
        -9.82266817716183
      ],
      [
        "High",
        -9.823320664060283
      ],
      [
        "motion",
        -9.823339101888951
      ],
      [
        "computer",
        -9.823764853253222
      ],
      [
        "unbelievabl",
        -9.823790300501107
      ],
      [
        "ties",
        -9.824693980545508
      ],
      [
        "tough",
        -9.827277152126818
      ],
      [
        "wall",
        -9.827720651149598
      ],
      [
        "introduce",
        -9.82825928713674
      ],
      [
        "ON",
        -9.828783842228432
      ],
      [
        "adaptation",
        -9.828822853697378
      ],
      [
        "ical",
        -9.829011019577887
      ],
      [
        "ears",
        -9.829322182859059
      ],
      [
        "angle",
        -9.831921050512967
      ],
      [
        "centur",
        -9.831929614173859
      ],
      [
        "100",
        -9.83375234204421
      ],
      [
        "relate",
        -9.833880214786621
      ],
      [
        "company",
        -9.834119595857079
      ],
      [
        "Still",
        -9.83455307060694
      ],
      [
        "Christmas",
        -9.834868682916374
      ],
      [
        "Christian",
        -9.83693073047234
      ],
      [
        "humour",
        -9.836996370622288
      ],
      [
        "lies",
        -9.83771626284569
      ],
      [
        "appeal",
        -9.837782059934113
      ],
      [
        "share",
        -9.838754536610754
      ],
      [
        "college",
        -9.84097206806913
      ],
      [
        "meant",
        -9.841336080144618
      ],
      [
        "ger",
        -9.841813485598749
      ],
      [
        "inter",
        -9.842829621507999
      ],
      [
        "sign",
        -9.84403693831461
      ],
      [
        "bother",
        -9.84411174827961
      ],
      [
        "cost",
        -9.844598788676448
      ],
      [
        "remind",
        -9.845229739530758
      ],
      [
        "road",
        -9.845731763515822
      ],
      [
        "step",
        -9.846081786760358
      ],
      [
        "struggle",
        -9.846276068954747
      ],
      [
        "touch",
        -9.846593249705212
      ],
      [
        "avail",
        -9.847116946911257
      ],
      [
        "million",
        -9.847153983175101
      ],
      [
        "involv",
        -9.84734079086532
      ],
      [
        "necessar",
        -9.849155989165864
      ],
      [
        "reference",
        -9.851386612394894
      ],
      [
        "visit",
        -9.852910680457
      ],
      [
        "glad",
        -9.853440101004043
      ],
      [
        "dancing",
        -9.854473346769767
      ],
      [
        "mere",
        -9.855084157197297
      ],
      [
        "slasher",
        -9.856457478638205
      ],
      [
        "proper",
        -9.859882808509699
      ],
      [
        "sent",
        -9.860804937040191
      ],
      [
        "build",
        -9.862572408083233
      ],
      [
        "Best",
        -9.863821318303323
      ],
      [
        "Chris",
        -9.86514932640145
      ],
      [
        "dies",
        -9.865165312244041
      ],
      [
        "teenager",
        -9.865314970719044
      ],
      [
        "40",
        -9.865659622564053
      ],
      [
        "genius",
        -9.865810283038158
      ],
      [
        "violent",
        -9.866114514582144
      ],
      [
        "impression",
        -9.866856059833019
      ],
      [
        "shooting",
        -9.868772383337067
      ],
      [
        "Sure",
        -9.870500507914926
      ],
      [
        "mouth",
        -9.871457197786405
      ],
      [
        "grow",
        -9.871620038719474
      ],
      [
        "Charles",
        -9.872430788603836
      ],
      [
        "baby",
        -9.875294632940111
      ],
      [
        "manner",
        -9.87541957257874
      ],
      [
        "impossibl",
        -9.87577895216982
      ],
      [
        "uses",
        -9.876904727795434
      ],
      [
        "scientist",
        -9.878417519302825
      ],
      [
        "pain",
        -9.87848065896226
      ],
      [
        "pass",
        -9.878898746443022
      ],
      [
        "conclusion",
        -9.879536846902369
      ],
      [
        "garbage",
        -9.88373103059282
      ],
      [
        "OF",
        -9.883751205509721
      ],
      [
        "limit",
        -9.884648152886395
      ],
      [
        "ghost",
        -9.885302536391253
      ],
      [
        "develope",
        -9.886682269597259
      ],
      [
        "develop",
        -9.887478566040324
      ],
      [
        "awesome",
        -9.888053413791607
      ],
      [
        "ca",
        -9.888430598900065
      ],
      [
        "disturbing",
        -9.889011330696196
      ],
      [
        "chemist",
        -9.8892543023161
      ],
      [
        "complex",
        -9.891340642072958
      ],
      [
        "party",
        -9.891948598178518
      ],
      [
        "mental",
        -9.89358757228159
      ],
      [
        "Mary",
        -9.894241659916055
      ],
      [
        "laughabl",
        -9.895328534766357
      ],
      [
        "fresh",
        -9.895753604578701
      ],
      [
        "Dan",
        -9.897653876929057
      ],
      [
        "six",
        -9.897872038999894
      ],
      [
        "rip",
        -9.898677398709395
      ],
      [
        "sitting",
        -9.89899096271224
      ],
      [
        "AND",
        -9.89909374705442
      ],
      [
        "phone",
        -9.900330976781909
      ],
      [
        "length",
        -9.901905645195214
      ],
      [
        "loose",
        -9.902180429874758
      ],
      [
        "Jones",
        -9.902462807271174
      ],
      [
        "cold",
        -9.90353971318599
      ],
      [
        "charm",
        -9.904046571556709
      ],
      [
        "Two",
        -9.904070201849331
      ],
      [
        "Though",
        -9.904235460694604
      ],
      [
        "finish",
        -9.90492347878995
      ],
      [
        "animate",
        -9.90750541656858
      ],
      [
        "reviewer",
        -9.9099355994696
      ],
      [
        "handle",
        -9.909993257629644
      ],
      [
        "physical",
        -9.912084362460108
      ],
      [
        "carry",
        -9.913358339823645
      ],
      [
        "Red",
        -9.913664789475684
      ],
      [
        "Martin",
        -9.914488107725429
      ],
      [
        "Final",
        -9.914723304110444
      ],
      [
        "ious",
        -9.914884784555877
      ],
      [
        "decade",
        -9.916219949238801
      ],
      [
        "City",
        -9.916525980971727
      ],
      [
        "lots",
        -9.916611566555584
      ],
      [
        "ight",
        -9.916771688458063
      ],
      [
        "interview",
        -9.918528104606423
      ],
      [
        "plus",
        -9.918855433902003
      ],
      [
        "worthy",
        -9.919586451263289
      ],
      [
        "receive",
        -9.92063159421804
      ],
      [
        "excuse",
        -9.921741861352224
      ],
      [
        "depict",
        -9.924395941793904
      ],
      [
        "leaving",
        -9.925063866582292
      ],
      [
        "torture",
        -9.925640176082378
      ],
      [
        "bomb",
        -9.926015839934603
      ],
      [
        "Co",
        -9.926462800415514
      ],
      [
        "exception",
        -9.92684121308472
      ],
      [
        "correct",
        -9.927287815617683
      ],
      [
        "display",
        -9.92811675486113
      ],
      [
        "accurate",
        -9.93063171287977
      ],
      [
        "criminal",
        -9.93063241326755
      ],
      [
        "jump",
        -9.933229535302658
      ],
      [
        "Du",
        -9.93336059137344
      ],
      [
        "Can",
        -9.93439921068806
      ],
      [
        "craft",
        -9.935104401315456
      ],
      [
        "Earth",
        -9.935112336567467
      ],
      [
        "boyfriend",
        -9.935458508324956
      ],
      [
        "ought",
        -9.935917755172632
      ],
      [
        "succeed",
        -9.936230769410624
      ],
      [
        "London",
        -9.93628215625954
      ],
      [
        "ker",
        -9.937863564011572
      ],
      [
        "okay",
        -9.939710691870005
      ],
      [
        "istic",
        -9.941705454645911
      ],
      [
        "award",
        -9.94322824452117
      ],
      [
        "Cor",
        -9.943924636126084
      ],
      [
        "heavy",
        -9.944133875377002
      ],
      [
        "accept",
        -9.944905629670341
      ],
      [
        "rule",
        -9.946188404462726
      ],
      [
        "gem",
        -9.949658891384484
      ],
      [
        "innocent",
        -9.949799453654254
      ],
      [
        "professional",
        -9.951275423343265
      ],
      [
        "expectation",
        -9.951566621013894
      ],
      [
        "treat",
        -9.95183552920836
      ],
      [
        "cinematic",
        -9.952424930111942
      ],
      [
        "Dark",
        -9.953419321833316
      ],
      [
        "mine",
        -9.953713250277405
      ],
      [
        "leg",
        -9.954182943439623
      ],
      [
        "dden",
        -9.956937180680256
      ],
      [
        "random",
        -9.96011552961731
      ],
      [
        "starring",
        -9.960370067366652
      ],
      [
        "ST",
        -9.960580937915372
      ],
      [
        "NO",
        -9.960648971631521
      ],
      [
        "opportunit",
        -9.961938456981247
      ],
      [
        "Paris",
        -9.96259113253695
      ],
      [
        "%",
        -9.963551759989201
      ],
      [
        "SPOILER",
        -9.963551759996573
      ],
      [
        "mysterious",
        -9.963625177830028
      ],
      [
        "People",
        -9.964706762659105
      ],
      [
        "Jean",
        -9.965135055999202
      ],
      [
        "militar",
        -9.967019974377502
      ],
      [
        "trailer",
        -9.967085204624464
      ],
      [
        "narrative",
        -9.968184344017217
      ],
      [
        "otten",
        -9.970726900439447
      ],
      [
        "pan",
        -9.97092709418412
      ],
      [
        "inspire",
        -9.971157915116134
      ],
      [
        "island",
        -9.971739002716802
      ],
      [
        "stunning",
        -9.97368075358327
      ],
      [
        "climax",
        -9.973992711254077
      ],
      [
        "rise",
        -9.974299647570842
      ],
      [
        "presence",
        -9.975172374665629
      ],
      [
        "revenge",
        -9.975331147864466
      ],
      [
        "vote",
        -9.975683493387535
      ],
      [
        "Tim",
        -9.975846628299392
      ],
      [
        "fell",
        -9.978209702553656
      ],
      [
        "Steve",
        -9.979229804657031
      ],
      [
        "frame",
        -9.979871759833454
      ],
      [
        "Charlie",
        -9.979965113853433
      ],
      [
        "kick",
        -9.980193108659645
      ],
      [
        "clean",
        -9.980995363916445
      ],
      [
        "Yet",
        -9.981891103207094
      ],
      [
        "approach",
        -9.982719355241631
      ],
      [
        "Never",
        -9.98313421246948
      ],
      [
        "desperate",
        -9.98454378707115
      ],
      [
        "shock",
        -9.984716869147604
      ],
      [
        "content",
        -9.984944474044681
      ],
      [
        "opera",
        -9.98586591147054
      ],
      [
        "Bad",
        -9.985978851096498
      ],
      [
        "current",
        -9.986951696968852
      ],
      [
        "survive",
        -9.98697691360401
      ],
      [
        "Pro",
        -9.98877810245446
      ],
      [
        "charming",
        -9.989091974987828
      ],
      [
        "Mor",
        -9.98933181103837
      ],
      [
        "require",
        -9.990498133709576
      ],
      [
        "Smith",
        -9.990697459316678
      ],
      [
        "wild",
        -9.991437599974294
      ],
      [
        "suppose",
        -9.992047238803803
      ],
      [
        "ang",
        -9.99221018039708
      ],
      [
        "graphic",
        -9.992375044238326
      ],
      [
        "journey",
        -9.992831364627135
      ],
      [
        "suspect",
        -9.993584540785488
      ],
      [
        "terrific",
        -9.995207402574867
      ],
      [
        "silent",
        -9.995446333280576
      ],
      [
        "Becau",
        -9.997466572629865
      ],
      [
        "science",
        -9.99753057606068
      ],
      [
        "government",
        -9.99759392000379
      ],
      [
        "OR",
        -9.997607625391474
      ],
      [
        "flashback",
        -9.998030203880905
      ],
      [
        "month",
        -9.998995119128551
      ],
      [
        "mix",
        -9.999065378416711
      ],
      [
        "wind",
        -9.99920558569402
      ],
      [
        "raise",
        -9.99941424424453
      ],
      [
        "198",
        -10.000304400077136
      ],
      [
        "occasional",
        -10.001151570865773
      ],
      [
        "conflict",
        -10.00118113715997
      ],
      [
        "nowhere",
        -10.001277572856967
      ],
      [
        "ice",
        -10.001281891617893
      ],
      [
        "singer",
        -10.001978710454587
      ],
      [
        "Ray",
        -10.00238994405288
      ],
      [
        "seek",
        -10.004120431670287
      ],
      [
        "196",
        -10.004162644705133
      ],
      [
        "affair",
        -10.005061601712889
      ],
      [
        "**",
        -10.00646238920463
      ],
      [
        "nast",
        -10.008112035173522
      ],
      [
        "Mark",
        -10.011570677946306
      ],
      [
        "0",
        -10.012864643397489
      ],
      [
        "ja",
        -10.012873931227134
      ],
      [
        "RE",
        -10.01291808397843
      ],
      [
        "agent",
        -10.01304792187343
      ],
      [
        "serve",
        -10.01398811377182
      ],
      [
        "blow",
        -10.014179008915299
      ],
      [
        "mission",
        -10.014378692698163
      ],
      [
        "comedie",
        -10.015466813208043
      ],
      [
        "qui",
        -10.015562315403876
      ],
      [
        "Russian",
        -10.015604803308497
      ],
      [
        "disappointment",
        -10.01610069611925
      ],
      [
        "Mad",
        -10.016545273351934
      ],
      [
        "somewhere",
        -10.017084564011867
      ],
      [
        "LY",
        -10.017352603241108
      ],
      [
        "chi",
        -10.018241271380933
      ],
      [
        "intende",
        -10.019804346628904
      ],
      [
        "AN",
        -10.020991801897614
      ],
      [
        "channel",
        -10.021763145479863
      ],
      [
        "13",
        -10.021774027931485
      ],
      [
        "desire",
        -10.021779995153878
      ],
      [
        "chose",
        -10.021948177283097
      ],
      [
        "Ka",
        -10.022261070799987
      ],
      [
        "disappointing",
        -10.023095000430509
      ],
      [
        "plane",
        -10.02359070061868
      ],
      [
        "Nothing",
        -10.024424068870754
      ],
      [
        "brutal",
        -10.024447534748612
      ],
      [
        "193",
        -10.02494857766916
      ],
      [
        "station",
        -10.025411705198177
      ],
      [
        "offer",
        -10.026204006982681
      ],
      [
        "bough",
        -10.026254643622297
      ],
      [
        "Despi",
        -10.027949253487447
      ],
      [
        "sight",
        -10.028676574072701
      ],
      [
        "11",
        -10.028774659267185
      ],
      [
        "Harry",
        -10.03044927192689
      ],
      [
        "teacher",
        -10.030955627126778
      ],
      [
        "noir",
        -10.031847090044678
      ],
      [
        "Ch",
        -10.03280111147706
      ],
      [
        "protagonist",
        -10.032833182381454
      ],
      [
        "minor",
        -10.034040915312573
      ],
      [
        "forgot",
        -10.035681069184793
      ],
      [
        "commercial",
        -10.036550658370203
      ],
      [
        "Bruce",
        -10.037796840689321
      ],
      [
        "stereotype",
        -10.040146857175756
      ],
      [
        "iding",
        -10.04044928725139
      ],
      [
        "individual",
        -10.041528887734607
      ],
      [
        "Too",
        -10.042661029908917
      ],
      [
        "touching",
        -10.044249204050717
      ],
      [
        "design",
        -10.044335979636667
      ],
      [
        "Tony",
        -10.045834601198528
      ],
      [
        "Mar",
        -10.046694560606388
      ],
      [
        "Hu",
        -10.04694938942696
      ],
      [
        "han",
        -10.050051518995677
      ],
      [
        "spoiler",
        -10.05057271616107
      ],
      [
        "May",
        -10.050819543304176
      ],
      [
        "Bu",
        -10.051324579242813
      ],
      [
        "ung",
        -10.052503310375245
      ],
      [
        "range",
        -10.05534081254303
      ],
      [
        "presente",
        -10.056331591828755
      ],
      [
        "relative",
        -10.057911453789016
      ],
      [
        "Hitchcock",
        -10.059154777040252
      ],
      [
        "detective",
        -10.05917100296244
      ],
      [
        "South",
        -10.059236473286344
      ],
      [
        "hire",
        -10.05930234801765
      ],
      [
        "happening",
        -10.060852386346038
      ],
      [
        "leader",
        -10.0616675574224
      ],
      [
        "system",
        -10.061803040959004
      ],
      [
        "witch",
        -10.062697757692066
      ],
      [
        "listen",
        -10.06291157344397
      ],
      [
        "boss",
        -10.064082412411214
      ],
      [
        "marriage",
        -10.06424349536396
      ],
      [
        "Su",
        -10.065371840089519
      ],
      [
        "promise",
        -10.065547233797787
      ],
      [
        "magic",
        -10.066290867663511
      ],
      [
        "tired",
        -10.06661435281887
      ],
      [
        "arrive",
        -10.066766787555036
      ],
      [
        "model",
        -10.067214888206136
      ],
      [
        "born",
        -10.067505530272047
      ],
      [
        "fiction",
        -10.067941837907998
      ],
      [
        "LE",
        -10.069939251159091
      ],
      [
        "weren",
        -10.07008738759535
      ],
      [
        "impresse",
        -10.071723242451949
      ],
      [
        "intense",
        -10.072593106865906
      ],
      [
        "perform",
        -10.074090698094047
      ],
      [
        "technical",
        -10.07450486511538
      ],
      [
        "reaction",
        -10.07478468154476
      ],
      [
        "core",
        -10.075694682701403
      ],
      [
        "Julie",
        -10.075797036847268
      ],
      [
        "outstanding",
        -10.077472635116429
      ],
      [
        "More",
        -10.077754954010079
      ],
      [
        "latter",
        -10.078579671379332
      ],
      [
        "hurt",
        -10.079540800614911
      ],
      [
        "expression",
        -10.08102913174164
      ],
      [
        "tape",
        -10.082499479234382
      ],
      [
        "reminde",
        -10.08293048006749
      ],
      [
        "giant",
        -10.08362683566697
      ],
      [
        "LA",
        -10.083819099295185
      ],
      [
        "grade",
        -10.083997367700638
      ],
      [
        "author",
        -10.085160123458227
      ],
      [
        "Onc",
        -10.08609720042722
      ],
      [
        "ick",
        -10.086418919403496
      ],
      [
        "justice",
        -10.089480792062943
      ],
      [
        "runs",
        -10.089687176568358
      ],
      [
        "fault",
        -10.090650982948665
      ],
      [
        "Stewart",
        -10.091411701771689
      ],
      [
        "12",
        -10.091590944424059
      ],
      [
        "held",
        -10.092506404636637
      ],
      [
        "ence",
        -10.093362426645118
      ],
      [
        "West",
        -10.094727957968288
      ],
      [
        "machine",
        -10.096672664049212
      ],
      [
        "suffer",
        -10.096689421189836
      ],
      [
        "Day",
        -10.097227237938142
      ],
      [
        "ach",
        -10.098475029022744
      ],
      [
        "member",
        -10.098936370516736
      ],
      [
        "vampire",
        -10.099706240287649
      ],
      [
        "god",
        -10.100678431174172
      ],
      [
        "encounter",
        -10.102048840773413
      ],
      [
        "creative",
        -10.102305544640615
      ],
      [
        "negative",
        -10.103284943604608
      ],
      [
        "compelling",
        -10.103345087915354
      ],
      [
        "fascinating",
        -10.104618997119413
      ],
      [
        "ide",
        -10.106712191687054
      ],
      [
        "desert",
        -10.107280124321436
      ],
      [
        "destroy",
        -10.10742253067372
      ],
      [
        "scener",
        -10.107879486941385
      ],
      [
        "18",
        -10.108202409860038
      ],
      [
        "shocking",
        -10.109112256485407
      ],
      [
        "Christopher",
        -10.111280287515928
      ],
      [
        "Fox",
        -10.111319257804343
      ],
      [
        "owner",
        -10.111619492496065
      ],
      [
        "essential",
        -10.112618757608843
      ],
      [
        "IS",
        -10.11287193000897
      ],
      [
        "confusing",
        -10.113959653904338
      ],
      [
        "pleasure",
        -10.11530863416225
      ],
      [
        "focuse",
        -10.115483959445942
      ],
      [
        "lic",
        -10.115731324096622
      ],
      [
        "alien",
        -10.11726680481659
      ],
      [
        "hospital",
        -10.119338687635395
      ],
      [
        "porn",
        -10.11941156404297
      ],
      [
        "collection",
        -10.120735514353537
      ],
      [
        "cross",
        -10.121730945736742
      ],
      [
        "blame",
        -10.122165676333456
      ],
      [
        "serial",
        -10.12339329856885
      ],
      [
        "seeming",
        -10.124183599144153
      ],
      [
        "warm",
        -10.124547531488652
      ],
      [
        "boat",
        -10.12500845806038
      ],
      [
        "ack",
        -10.125460220717233
      ],
      [
        "path",
        -10.126023694040914
      ],
      [
        "disaster",
        -10.126184489036659
      ],
      [
        "Hav",
        -10.126606749621267
      ],
      [
        "holes",
        -10.127696071074991
      ],
      [
        "extreme",
        -10.127726059813625
      ],
      [
        "Kelly",
        -10.127918718044018
      ],
      [
        "double",
        -10.128260659911495
      ],
      [
        "***",
        -10.128276598683343
      ],
      [
        "drag",
        -10.128617308691258
      ],
      [
        "pai",
        -10.129016197879526
      ],
      [
        "****",
        -10.129096295273346
      ],
      [
        "kin",
        -10.129247191151293
      ],
      [
        "information",
        -10.129931074872072
      ],
      [
        "likabl",
        -10.131059108815752
      ],
      [
        "Show",
        -10.132107315035856
      ],
      [
        "Cha",
        -10.133520126669637
      ],
      [
        "Both",
        -10.133913756632996
      ],
      [
        "Did",
        -10.134018404333858
      ],
      [
        "achieve",
        -10.134249883739646
      ],
      [
        "ric",
        -10.134896290022326
      ],
      [
        "process",
        -10.135654749382686
      ],
      [
        "Miss",
        -10.13889358079524
      ],
      [
        "Har",
        -10.138970949658358
      ],
      [
        "followe",
        -10.139805035764574
      ],
      [
        "safe",
        -10.139960491512163
      ],
      [
        "000",
        -10.141539782433624
      ],
      [
        "trust",
        -10.141765298431164
      ],
      [
        "Please",
        -10.142878438272422
      ],
      [
        "Dann",
        -10.14580113568464
      ],
      [
        "officer",
        -10.147885850213978
      ],
      [
        "club",
        -10.148040843718892
      ],
      [
        "Young",
        -10.148686084279019
      ],
      [
        "naked",
        -10.149923159756334
      ],
      [
        "imagination",
        -10.1508488950093
      ],
      [
        "accident",
        -10.150942400575921
      ],
      [
        "epic",
        -10.151310720522801
      ],
      [
        "onto",
        -10.15390059041202
      ],
      [
        "joy",
        -10.154784479494761
      ],
      [
        "Che",
        -10.155026426988188
      ],
      [
        "remote",
        -10.155488643739872
      ],
      [
        "memor",
        -10.156808641084345
      ],
      [
        "confused",
        -10.157915363711737
      ],
      [
        "market",
        -10.158359522909938
      ],
      [
        "artistic",
        -10.159030432199689
      ],
      [
        "fellow",
        -10.159105894098236
      ],
      [
        "directors",
        -10.159858430303208
      ],
      [
        "Th",
        -10.161570456524384
      ],
      [
        "194",
        -10.161681702577651
      ],
      [
        "Gu",
        -10.16169415353001
      ],
      [
        "Little",
        -10.162045136601122
      ],
      [
        "grand",
        -10.163035596241127
      ],
      [
        "Girl",
        -10.163458447294023
      ],
      [
        "factor",
        -10.165930444569366
      ],
      [
        "gra",
        -10.166736133020084
      ],
      [
        "Story",
        -10.167343759455498
      ],
      [
        "Billy",
        -10.16786123796717
      ],
      [
        "program",
        -10.17044554976523
      ],
      [
        "blue",
        -10.170546454241805
      ],
      [
        "industr",
        -10.170742412270217
      ],
      [
        "partner",
        -10.171983826678549
      ],
      [
        "traged",
        -10.172250667079286
      ],
      [
        "Q",
        -10.173005354311641
      ],
      [
        "passe",
        -10.173128453075378
      ],
      [
        "represent",
        -10.173333619485419
      ],
      [
        "dollar",
        -10.174939390349842
      ],
      [
        "pit",
        -10.17582436052154
      ],
      [
        "Angel",
        -10.176190404505238
      ],
      [
        "join",
        -10.177294340143549
      ],
      [
        "dresse",
        -10.177515898033057
      ],
      [
        "attractive",
        -10.179103481643882
      ],
      [
        "195",
        -10.179218379983606
      ],
      [
        "bear",
        -10.180349789966233
      ],
      [
        "suicide",
        -10.18051132865197
      ],
      [
        "assume",
        -10.18056479661005
      ],
      [
        "stands",
        -10.182077164887481
      ],
      [
        "knowing",
        -10.182387883931973
      ],
      [
        "horse",
        -10.182946384211318
      ],
      [
        "ounded",
        -10.183139966685733
      ],
      [
        "gorgeous",
        -10.183382827151481
      ],
      [
        "folks",
        -10.184797967689143
      ],
      [
        "mediocr",
        -10.185786176552394
      ],
      [
        "decision",
        -10.186262620162015
      ],
      [
        "favourite",
        -10.186268973445575
      ],
      [
        "thorough",
        -10.18627089418501
      ],
      [
        "carrie",
        -10.186508599451209
      ],
      [
        "Arthur",
        -10.187717034685013
      ],
      [
        "regular",
        -10.18915069228165
      ],
      [
        "Rob",
        -10.189228409126555
      ],
      [
        "nobody",
        -10.190230524212476
      ],
      [
        "putting",
        -10.191281889433878
      ],
      [
        "influence",
        -10.192052597071232
      ],
      [
        "generation",
        -10.192153570424958
      ],
      [
        "superior",
        -10.193505702122822
      ],
      [
        "Sad",
        -10.194998158609469
      ],
      [
        "Green",
        -10.195188062786452
      ],
      [
        "lesson",
        -10.195229299062067
      ],
      [
        "loving",
        -10.196043838256958
      ],
      [
        "uff",
        -10.19785984430608
      ],
      [
        "riving",
        -10.199118024137443
      ],
      [
        "Western",
        -10.199132064007532
      ],
      [
        "everybody",
        -10.20002416248542
      ],
      [
        "Jackson",
        -10.200412517834462
      ],
      [
        "und",
        -10.201702168918104
      ],
      [
        "commentar",
        -10.202005221407441
      ],
      [
        "pair",
        -10.202121137826516
      ],
      [
        "freak",
        -10.202291868295003
      ],
      [
        "finishe",
        -10.202836568838872
      ],
      [
        "highlight",
        -10.202884804924448
      ],
      [
        "Look",
        -10.202904846451993
      ],
      [
        "record",
        -10.203115718177134
      ],
      [
        "touche",
        -10.204430189743723
      ],
      [
        "addition",
        -10.204556450129736
      ],
      [
        "rough",
        -10.20560371697561
      ],
      [
        "Batman",
        -10.205882088604096
      ],
      [
        "Stan",
        -10.206588723858149
      ],
      [
        "concern",
        -10.206784872328793
      ],
      [
        "stuck",
        -10.207268466854394
      ],
      [
        "Bond",
        -10.207719680248303
      ],
      [
        "Arm",
        -10.208994058820624
      ],
      [
        "attitude",
        -10.209622361480612
      ],
      [
        "reach",
        -10.209658618538455
      ],
      [
        "pilot",
        -10.2105617888806
      ],
      [
        "quiet",
        -10.210979206965217
      ],
      [
        "Life",
        -10.212708640733801
      ],
      [
        "apartment",
        -10.212812268960937
      ],
      [
        "becoming",
        -10.213006923235454
      ],
      [
        "Time",
        -10.213158815492818
      ],
      [
        "skill",
        -10.213319551678724
      ],
      [
        "blind",
        -10.214260850494234
      ],
      [
        "absurd",
        -10.21535230607121
      ],
      [
        "bottom",
        -10.21552670622219
      ],
      [
        "initial",
        -10.217132611047496
      ],
      [
        "funnies",
        -10.217423792838598
      ],
      [
        "Shakespeare",
        -10.21849981681073
      ],
      [
        "Was",
        -10.21888513829437
      ],
      [
        "Fi",
        -10.218993876499436
      ],
      [
        "wit",
        -10.21962633782211
      ],
      [
        "passion",
        -10.22022038261467
      ],
      [
        "fill",
        -10.222961699849769
      ],
      [
        "guilt",
        -10.224479542587591
      ],
      [
        "unusual",
        -10.224563829557662
      ],
      [
        "judge",
        -10.22538064556381
      ],
      [
        "tragic",
        -10.225548190964487
      ],
      [
        "Jason",
        -10.22755500837658
      ],
      [
        "Death",
        -10.227755411859286
      ],
      [
        "witt",
        -10.228126132272148
      ],
      [
        "ible",
        -10.229004244697784
      ],
      [
        "twic",
        -10.231221717614018
      ],
      [
        "ER",
        -10.231485046953233
      ],
      [
        "impact",
        -10.232310574260826
      ],
      [
        "Mel",
        -10.232358859783144
      ],
      [
        "hill",
        -10.232875933663934
      ],
      [
        "ented",
        -10.232953469880737
      ],
      [
        "ngry",
        -10.233549443237797
      ],
      [
        "damn",
        -10.23380558087556
      ],
      [
        "Anne",
        -10.233861196586203
      ],
      [
        "een",
        -10.23416789460624
      ],
      [
        "thus",
        -10.234754867203574
      ],
      [
        "explanation",
        -10.23501674371067
      ],
      [
        "Far",
        -10.235115171700333
      ],
      [
        "Sch",
        -10.235344987375083
      ],
      [
        "lose",
        -10.235365391215339
      ],
      [
        "ignore",
        -10.236246890291106
      ],
      [
        "fraid",
        -10.23728067608055
      ],
      [
        "recognize",
        -10.237858246207846
      ],
      [
        "pleasant",
        -10.238034800105623
      ],
      [
        "Since",
        -10.238086209177766
      ],
      [
        "gangster",
        -10.238184150177524
      ],
      [
        "clue",
        -10.239143582942237
      ],
      [
        "strength",
        -10.239569094928141
      ],
      [
        "barel",
        -10.240021311405552
      ],
      [
        "sky",
        -10.241168749819348
      ],
      [
        "crowd",
        -10.241225219453547
      ],
      [
        "bank",
        -10.242015755102548
      ],
      [
        "fish",
        -10.242585138110208
      ],
      [
        "France",
        -10.242650061004769
      ],
      [
        "Kev",
        -10.243378817683233
      ],
      [
        "drugs",
        -10.24370173141509
      ],
      [
        "unk",
        -10.244569664017156
      ],
      [
        "print",
        -10.244758277781603
      ],
      [
        "nce",
        -10.245029925854503
      ],
      [
        "Per",
        -10.245380692316246
      ],
      [
        "offers",
        -10.245407361702892
      ],
      [
        "Park",
        -10.24651196807322
      ],
      [
        "luck",
        -10.246582781420775
      ],
      [
        "stock",
        -10.247517226394182
      ],
      [
        "picke",
        -10.248529148344524
      ],
      [
        "dated",
        -10.248653279401168
      ],
      [
        "Thomas",
        -10.248736691954274
      ],
      [
        "Henry",
        -10.24875082573869
      ],
      [
        "anger",
        -10.25000010308056
      ],
      [
        "sked",
        -10.251557632241402
      ],
      [
        "comparison",
        -10.253379234739953
      ],
      [
        "qua",
        -10.253631535955261
      ],
      [
        "segment",
        -10.254932718346582
      ],
      [
        "ruin",
        -10.255204055568099
      ],
      [
        "Ryan",
        -10.255259479787089
      ],
      [
        "energ",
        -10.256438986109933
      ],
      [
        "White",
        -10.257071344422243
      ],
      [
        "ward",
        -10.257214364227547
      ],
      [
        "AL",
        -10.257554903416343
      ],
      [
        "MA",
        -10.25756977279412
      ],
      [
        "weapon",
        -10.25798893312881
      ],
      [
        "cameo",
        -10.259284573928568
      ],
      [
        "childhood",
        -10.259654211266694
      ],
      [
        "Cat",
        -10.25978840343102
      ],
      [
        "AT",
        -10.259959919670958
      ],
      [
        "finding",
        -10.260303938875253
      ],
      [
        "Ru",
        -10.260332393768621
      ],
      [
        "study",
        -10.261584476535237
      ],
      [
        "Their",
        -10.262201284399282
      ],
      [
        "mini",
        -10.262282825195866
      ],
      [
        "sum",
        -10.262641455068195
      ],
      [
        "rescue",
        -10.262647804027885
      ],
      [
        "speech",
        -10.2626479178701
      ],
      [
        "Thing",
        -10.263693808662715
      ],
      [
        "deserved",
        -10.264061742209918
      ],
      [
        "friendship",
        -10.264881035245946
      ],
      [
        "religious",
        -10.265764701752012
      ],
      [
        "RA",
        -10.267030881212783
      ],
      [
        "foot",
        -10.267303450171601
      ],
      [
        "cha",
        -10.26756356444086
      ],
      [
        "paper",
        -10.269027232942355
      ],
      [
        "ugly",
        -10.269388781100727
      ],
      [
        "aside",
        -10.27049563412029
      ],
      [
        "1950",
        -10.270540846066371
      ],
      [
        "hang",
        -10.270914133520083
      ],
      [
        "personalit",
        -10.27198566098237
      ],
      [
        "theatre",
        -10.272336184300503
      ],
      [
        "willing",
        -10.272604416423116
      ],
      [
        "smile",
        -10.27262413504728
      ],
      [
        "books",
        -10.273066876310416
      ],
      [
        "knock",
        -10.273631902269308
      ],
      [
        "ski",
        -10.27549803919246
      ],
      [
        "unnecessar",
        -10.276779313114274
      ],
      [
        "planet",
        -10.277300799019926
      ],
      [
        "demand",
        -10.27756924429369
      ],
      [
        "media",
        -10.27892688087046
      ],
      [
        "wooden",
        -10.280240863333233
      ],
      [
        "aware",
        -10.28030583857597
      ],
      [
        "spin",
        -10.280875991064942
      ],
      [
        "teenage",
        -10.281154434046039
      ],
      [
        "sadly",
        -10.281299288633761
      ],
      [
        "DO",
        -10.282588644459189
      ],
      [
        "began",
        -10.282943003448397
      ],
      [
        "Second",
        -10.283089966628236
      ],
      [
        "Okay",
        -10.283181114714255
      ],
      [
        "Com",
        -10.283364672157468
      ],
      [
        "tune",
        -10.28342257931342
      ],
      [
        "turning",
        -10.283430303701763
      ],
      [
        "laughe",
        -10.284182141421546
      ],
      [
        "_",
        -10.284677791127347
      ],
      [
        "central",
        -10.284689777506507
      ],
      [
        "Stephen",
        -10.284690824656971
      ],
      [
        "imp",
        -10.2851446829475
      ],
      [
        "izing",
        -10.285215699305969
      ],
      [
        "window",
        -10.286331696391631
      ],
      [
        "Par",
        -10.28645745209829
      ],
      [
        "mom",
        -10.286572232241644
      ],
      [
        "CGI",
        -10.288324019104106
      ],
      [
        "Bob",
        -10.28860001837226
      ],
      [
        "apart",
        -10.28867628239747
      ],
      [
        "challenge",
        -10.28940894115
      ],
      [
        "winning",
        -10.289490040110545
      ],
      [
        "flash",
        -10.289542428903442
      ],
      [
        "allowe",
        -10.290360465732974
      ],
      [
        "thanks",
        -10.290537651053048
      ],
      [
        "Men",
        -10.29068198996887
      ],
      [
        "1970",
        -10.2911710983677
      ],
      [
        "clothes",
        -10.291883806455829
      ],
      [
        "instance",
        -10.292104419357866
      ],
      [
        "drop",
        -10.292445428064624
      ],
      [
        "Horror",
        -10.292665566257808
      ],
      [
        "convey",
        -10.292706879569442
      ],
      [
        "stunt",
        -10.293768739266262
      ],
      [
        "repeated",
        -10.294526857432228
      ],
      [
        "thin",
        -10.29463425493906
      ],
      [
        "Chan",
        -10.295100039554061
      ],
      [
        "dreams",
        -10.295301105346098
      ],
      [
        "appeare",
        -10.295663283474145
      ],
      [
        "lower",
        -10.296276618883251
      ],
      [
        "creat",
        -10.297282232467229
      ],
      [
        "Dur",
        -10.297467711204394
      ],
      [
        "connection",
        -10.297565842297313
      ],
      [
        "whatso",
        -10.300153714303859
      ],
      [
        "dying",
        -10.300476779677025
      ],
      [
        "idiot",
        -10.30075625476547
      ],
      [
        "Ann",
        -10.300984541699433
      ],
      [
        "combine",
        -10.302338044881072
      ],
      [
        "movement",
        -10.30320240126018
      ],
      [
        "mixe",
        -10.30595589275025
      ],
      [
        "VH",
        -10.306311263501266
      ],
      [
        "food",
        -10.306785837373116
      ],
      [
        "explore",
        -10.30709604442406
      ],
      [
        "hunt",
        -10.307985734661234
      ],
      [
        "choose",
        -10.308399864725594
      ],
      [
        "conversation",
        -10.308845723254606
      ],
      [
        "Jerr",
        -10.309023422689759
      ],
      [
        "independent",
        -10.310221139281294
      ],
      [
        "comedic",
        -10.310488570554053
      ],
      [
        "unexpected",
        -10.310503342723798
      ],
      [
        "Blood",
        -10.311657882131893
      ],
      [
        "redeeming",
        -10.31286786676106
      ],
      [
        "Guy",
        -10.313599232869539
      ],
      [
        "intriguing",
        -10.313735520487384
      ],
      [
        "insult",
        -10.313945988057421
      ],
      [
        "Boy",
        -10.314798026378519
      ],
      [
        "Louis",
        -10.315811066026914
      ],
      [
        "ED",
        -10.315970720131231
      ],
      [
        "dangerous",
        -10.317019386306914
      ],
      [
        "account",
        -10.317085606347561
      ],
      [
        "chick",
        -10.317305157251493
      ],
      [
        "Jeff",
        -10.317488953212603
      ],
      [
        "Hell",
        -10.31791812197761
      ],
      [
        "Qu",
        -10.318104975138763
      ],
      [
        "bright",
        -10.318524494402428
      ],
      [
        "bound",
        -10.319017615385121
      ],
      [
        "charge",
        -10.320354369671396
      ],
      [
        "Chinese",
        -10.321960132627149
      ],
      [
        "belief",
        -10.32295527110207
      ],
      [
        "floor",
        -10.323616083235963
      ],
      [
        "hotel",
        -10.32362883750641
      ],
      [
        "Johnny",
        -10.324228684189947
      ],
      [
        "shop",
        -10.32435235009082
      ],
      [
        "breath",
        -10.324352514479493
      ],
      [
        "soap",
        -10.324504409426698
      ],
      [
        "port",
        -10.324807787596898
      ],
      [
        "??",
        -10.327541234909592
      ],
      [
        "names",
        -10.327735776232174
      ],
      [
        "European",
        -10.327772838173967
      ],
      [
        "center",
        -10.329977219775675
      ],
      [
        "surreal",
        -10.330082024242746
      ],
      [
        "Carl",
        -10.330211360420966
      ],
      [
        "Mike",
        -10.330946869805771
      ],
      [
        "Brian",
        -10.331336127977103
      ],
      [
        "technique",
        -10.33191787358782
      ],
      [
        "disappear",
        -10.332229589505282
      ],
      [
        "radio",
        -10.333033637434909
      ],
      [
        "knowledge",
        -10.33355076283551
      ],
      [
        "engaging",
        -10.335261244349919
      ],
      [
        "spoil",
        -10.335525640090669
      ],
      [
        "gold",
        -10.335666618836992
      ],
      [
        "loss",
        -10.336153433146617
      ],
      [
        "forever",
        -10.336694842616097
      ],
      [
        "unknown",
        -10.337005049288873
      ],
      [
        "Allen",
        -10.337607912909181
      ],
      [
        "Brother",
        -10.33774681405869
      ],
      [
        "",
        -10.338612418347685
      ],
      [
        "priest",
        -10.33864901463653
      ],
      [
        "wood",
        -10.33923043175352
      ],
      [
        "cor",
        -10.33985860945316
      ],
      [
        "favor",
        -10.340167453245975
      ],
      [
        "contrast",
        -10.34029320179099
      ],
      [
        "abuse",
        -10.340312604598685
      ],
      [
        "prefer",
        -10.340405067298107
      ],
      [
        "belong",
        -10.340446284867056
      ],
      [
        "intelligenc",
        -10.341128098099198
      ],
      [
        "Which",
        -10.341976661817721
      ],
      [
        "martial",
        -10.341977232077902
      ],
      [
        "Matt",
        -10.34218625364236
      ],
      [
        "appropriate",
        -10.34419090707975
      ],
      [
        "Daniel",
        -10.345457399187765
      ],
      [
        ".....",
        -10.345501431724394
      ],
      [
        "Thos",
        -10.34561712889089
      ],
      [
        "Moore",
        -10.347049141969958
      ],
      [
        "load",
        -10.3485911094898
      ],
      [
        "opposite",
        -10.348739305048893
      ],
      [
        "ple",
        -10.349567231779059
      ],
      [
        "Adam",
        -10.35019786106984
      ],
      [
        "behavior",
        -10.350436877993388
      ],
      [
        "Harris",
        -10.350577577017624
      ],
      [
        "awkward",
        -10.35213759242722
      ],
      [
        "lous",
        -10.352359271189803
      ],
      [
        "stole",
        -10.352579564724492
      ],
      [
        "park",
        -10.353569784421646
      ],
      [
        "Howard",
        -10.354719454260955
      ],
      [
        "DE",
        -10.35578803293841
      ],
      [
        "research",
        -10.355973463081511
      ],
      [
        "gen",
        -10.356218006227374
      ],
      [
        "Williams",
        -10.35674714717117
      ],
      [
        "realis",
        -10.356752728683517
      ],
      [
        "TO",
        -10.357106151091072
      ],
      [
        "standing",
        -10.35773806407165
      ],
      [
        "eating",
        -10.357865714765207
      ],
      [
        "patient",
        -10.358185045535407
      ],
      [
        "heroine",
        -10.358435193407232
      ],
      [
        "capabl",
        -10.358532385745121
      ],
      [
        "Last",
        -10.35853639942517
      ],
      [
        "los",
        -10.358574421818759
      ],
      [
        "refuse",
        -10.358623398486635
      ],
      [
        "thrill",
        -10.358909305364044
      ],
      [
        "jo",
        -10.359094661731831
      ],
      [
        "Alan",
        -10.361025382895463
      ],
      [
        "target",
        -10.361453338531334
      ],
      [
        "communit",
        -10.36198068153719
      ],
      [
        "thousand",
        -10.362403388910916
      ],
      [
        "laughter",
        -10.362777884676504
      ],
      [
        "fate",
        -10.363574040264844
      ],
      [
        "bel",
        -10.363678328777148
      ],
      [
        "TH",
        -10.363822385632316
      ],
      [
        "ix",
        -10.364089926780451
      ],
      [
        "crack",
        -10.364472780328324
      ],
      [
        "rain",
        -10.365803801590516
      ],
      [
        "trick",
        -10.366974396809129
      ],
      [
        "Eric",
        -10.367142980786891
      ],
      [
        "memori",
        -10.367513100828738
      ],
      [
        "Eddie",
        -10.367597113215433
      ],
      [
        "village",
        -10.36766347941261
      ],
      [
        "Brown",
        -10.367680713383043
      ],
      [
        "paced",
        -10.367824755368542
      ],
      [
        "Before",
        -10.369392587684057
      ],
      [
        "mild",
        -10.369428190696214
      ],
      [
        "shouldn",
        -10.370807056765312
      ],
      [
        "delightful",
        -10.37287595375778
      ],
      [
        "earned",
        -10.374403520377166
      ],
      [
        "army",
        -10.375632706696491
      ],
      [
        "+",
        -10.37625586138577
      ],
      [
        "Take",
        -10.376296279018943
      ],
      [
        "cell",
        -10.376869495473162
      ],
      [
        "enter",
        -10.37695818254911
      ],
      [
        "protect",
        -10.377952411102642
      ],
      [
        "ALL",
        -10.378253917270037
      ],
      [
        "occur",
        -10.379726689078069
      ],
      [
        "psychological",
        -10.379783175578385
      ],
      [
        "twenty",
        -10.380529228897132
      ],
      [
        "sell",
        -10.380602745463355
      ],
      [
        "pacing",
        -10.381510158735413
      ],
      [
        "summer",
        -10.381522732552257
      ],
      [
        "Mal",
        -10.381544058557065
      ],
      [
        "failure",
        -10.381585170685526
      ],
      [
        "amp",
        -10.383147940422543
      ],
      [
        "hundred",
        -10.383255315886043
      ],
      [
        "arm",
        -10.383533367107631
      ],
      [
        "elling",
        -10.383659979744516
      ],
      [
        "Ford",
        -10.384159347680942
      ],
      [
        "drunk",
        -10.38479916982693
      ],
      [
        "understanding",
        -10.3854237230101
      ],
      [
        "responsibl",
        -10.386616154703079
      ],
      [
        "spectacular",
        -10.386773045908011
      ],
      [
        "bland",
        -10.387916370669458
      ],
      [
        "complain",
        -10.388251943416597
      ],
      [
        "remarkable",
        -10.38835429713633
      ],
      [
        "treate",
        -10.390015592580383
      ],
      [
        "position",
        -10.390131078082167
      ],
      [
        "Max",
        -10.390435362375875
      ],
      [
        "weight",
        -10.391215607273939
      ],
      [
        "helpe",
        -10.392718648750211
      ],
      [
        "hood",
        -10.392947778722542
      ],
      [
        "scream",
        -10.393321405987404
      ],
      [
        "ure",
        -10.393954143352849
      ],
      [
        "hide",
        -10.394618814411693
      ],
      [
        "product",
        -10.395472156315027
      ],
      [
        "intention",
        -10.39564920338617
      ],
      [
        "Col",
        -10.396804930356502
      ],
      [
        "sake",
        -10.397443319610371
      ],
      [
        "aging",
        -10.397729211689228
      ],
      [
        "via",
        -10.398223129193923
      ],
      [
        "dealing",
        -10.399075368450692
      ],
      [
        "ordinar",
        -10.39912392684477
      ],
      [
        "green",
        -10.399505193072468
      ],
      [
        "cops",
        -10.402079917817204
      ],
      [
        "perspective",
        -10.402759172550148
      ],
      [
        "rap",
        -10.403453024315787
      ],
      [
        "pen",
        -10.40360284704375
      ],
      [
        "insane",
        -10.404560126819327
      ],
      [
        "nonsense",
        -10.404998723032525
      ],
      [
        "vin",
        -10.40610859170855
      ],
      [
        "nable",
        -10.40653394628958
      ],
      [
        "corn",
        -10.406677131733845
      ],
      [
        "woods",
        -10.407479989042837
      ],
      [
        "praise",
        -10.408637353882717
      ],
      [
        "Pat",
        -10.409629447373568
      ],
      [
        "page",
        -10.409792712528818
      ],
      [
        "Taylor",
        -10.40994699120645
      ],
      [
        "crappy",
        -10.41001000004714
      ],
      [
        "Sha",
        -10.41055755445335
      ],
      [
        "gags",
        -10.410812275195923
      ],
      [
        "pretentious",
        -10.41175203655209
      ],
      [
        "skin",
        -10.411879246599764
      ],
      [
        "humorous",
        -10.413577093114366
      ],
      [
        "sole",
        -10.413895720434711
      ],
      [
        "ula",
        -10.414812119216052
      ],
      [
        "Sean",
        -10.416333558372711
      ],
      [
        "explained",
        -10.416516311755942
      ],
      [
        "church",
        -10.41718841367214
      ],
      [
        "terror",
        -10.417243329841014
      ],
      [
        "cable",
        -10.41826949386283
      ],
      [
        "regret",
        -10.419013955542884
      ],
      [
        "dozen",
        -10.419153382272976
      ],
      [
        "Pre",
        -10.420592111974253
      ],
      [
        "Grant",
        -10.421116699339308
      ],
      [
        "Nick",
        -10.421129364131364
      ],
      [
        "hits",
        -10.421194897321838
      ],
      [
        "prop",
        -10.422403147014563
      ],
      [
        "pal",
        -10.422897560428169
      ],
      [
        "endless",
        -10.42436664890414
      ],
      [
        "cru",
        -10.424538525361264
      ],
      [
        "80s",
        -10.42490271681715
      ],
      [
        "Up",
        -10.425230150849917
      ],
      [
        "source",
        -10.426099641975544
      ],
      [
        "Davis",
        -10.426306736355802
      ],
      [
        "Queen",
        -10.426368776536224
      ],
      [
        "scared",
        -10.42708410263162
      ],
      [
        "Lewis",
        -10.428315750600879
      ],
      [
        "Hall",
        -10.429986255386293
      ],
      [
        "inner",
        -10.430284784074498
      ],
      [
        "magnificent",
        -10.431826228316291
      ],
      [
        "dreadful",
        -10.431858934046167
      ],
      [
        "cruel",
        -10.43195706440583
      ],
      [
        "cent",
        -10.43219769196443
      ],
      [
        "laz",
        -10.432403321196592
      ],
      [
        "North",
        -10.43243034806028
      ],
      [
        "nail",
        -10.433557751110351
      ],
      [
        "rubbish",
        -10.433670716645988
      ],
      [
        "tim",
        -10.434128932914536
      ],
      [
        "Mer",
        -10.435145713414997
      ],
      [
        "Hill",
        -10.4352268200876
      ],
      [
        "service",
        -10.435525002367468
      ],
      [
        "Wayne",
        -10.43566154177064
      ],
      [
        "pretend",
        -10.436322700309592
      ],
      [
        "Ber",
        -10.437123802718002
      ],
      [
        "African",
        -10.437363140174705
      ],
      [
        "vehicle",
        -10.437371009999069
      ],
      [
        "lock",
        -10.438229121154414
      ],
      [
        "beside",
        -10.439091047973143
      ],
      [
        "Alien",
        -10.439329032513733
      ],
      [
        "embarrassing",
        -10.439804901439544
      ],
      [
        "Jud",
        -10.439838487196752
      ],
      [
        "abandon",
        -10.439846084393949
      ],
      [
        "recall",
        -10.440176595914703
      ],
      [
        "#",
        -10.441085015030085
      ],
      [
        "balance",
        -10.441430472307815
      ],
      [
        "Sara",
        -10.441970429417704
      ],
      [
        "mask",
        -10.442488708233338
      ],
      [
        "SE",
        -10.44309958432208
      ],
      [
        "subtitle",
        -10.443450760672093
      ],
      [
        "Robin",
        -10.444199423812684
      ],
      [
        "dimensional",
        -10.445000020013584
      ],
      [
        "Gene",
        -10.445518583312124
      ],
      [
        "HIS",
        -10.445534783515985
      ],
      [
        "tree",
        -10.447162772558709
      ],
      [
        "Ex",
        -10.448435665570408
      ],
      [
        "spoof",
        -10.449525218677547
      ],
      [
        "shadow",
        -10.451030256446636
      ],
      [
        "discovere",
        -10.451555627086242
      ],
      [
        "condition",
        -10.452310539777752
      ],
      [
        "virtual",
        -10.452310591400046
      ],
      [
        "execute",
        -10.452319617959635
      ],
      [
        "Andrew",
        -10.453433868944215
      ],
      [
        "lip",
        -10.453792481360903
      ],
      [
        "lacks",
        -10.454106432546652
      ],
      [
        "parody",
        -10.454227692656197
      ],
      [
        "flesh",
        -10.454276037513225
      ],
      [
        "guard",
        -10.454315814952793
      ],
      [
        "???",
        -10.455131756331866
      ],
      [
        "cap",
        -10.455450260190208
      ],
      [
        "Chi",
        -10.455527172920029
      ],
      [
        "Get",
        -10.455607815538777
      ],
      [
        "pur",
        -10.455960638486546
      ],
      [
        "routine",
        -10.456279210172134
      ],
      [
        "skip",
        -10.456611094833736
      ],
      [
        "convince",
        -10.456815002469554
      ],
      [
        "England",
        -10.457209481659119
      ],
      [
        "evidence",
        -10.45797097608958
      ],
      [
        "eight",
        -10.45973821929265
      ],
      [
        "specific",
        -10.459865031404625
      ],
      [
        "crash",
        -10.459880559742487
      ],
      [
        "numero",
        -10.460038804982773
      ],
      [
        "cares",
        -10.46143094169032
      ],
      [
        "Jennifer",
        -10.461762449259211
      ],
      [
        "debut",
        -10.46359311655236
      ],
      [
        "consist",
        -10.463772868371482
      ],
      [
        "heroe",
        -10.464022798615702
      ],
      [
        "hearted",
        -10.46414850792094
      ],
      [
        "lay",
        -10.464176843926163
      ],
      [
        "worker",
        -10.464785060588166
      ],
      [
        "Joan",
        -10.464787802897481
      ],
      [
        "speed",
        -10.465594388078024
      ],
      [
        "Again",
        -10.465861285332176
      ],
      [
        "risk",
        -10.466159544042352
      ],
      [
        "UN",
        -10.466315480897912
      ],
      [
        "expert",
        -10.467504485815281
      ],
      [
        "Lord",
        -10.467817139047376
      ],
      [
        "formula",
        -10.468426514885827
      ],
      [
        "curious",
        -10.46939001610215
      ],
      [
        "context",
        -10.46949778993898
      ],
      [
        "bag",
        -10.46959767223332
      ],
      [
        "uck",
        -10.469611991388494
      ],
      [
        "Alex",
        -10.469940365073247
      ],
      [
        "Australian",
        -10.470267661813576
      ],
      [
        "hole",
        -10.471172559801342
      ],
      [
        "practical",
        -10.471706627246366
      ],
      [
        "lam",
        -10.472890334593966
      ],
      [
        "youth",
        -10.473771937479906
      ],
      [
        "Ken",
        -10.474186729564998
      ],
      [
        "grown",
        -10.474188211253235
      ],
      [
        "stair",
        -10.47419945660699
      ],
      [
        "Avoid",
        -10.474591501579798
      ],
      [
        "Barry",
        -10.474979676910168
      ],
      [
        "traditional",
        -10.474996880677665
      ],
      [
        "experiment",
        -10.47505143696402
      ],
      [
        "Spanish",
        -10.47517047513017
      ],
      [
        "advice",
        -10.475379651377509
      ],
      [
        "section",
        -10.475734495650267
      ],
      [
        "Out",
        -10.475974204326388
      ],
      [
        "stone",
        -10.477373551407185
      ],
      [
        "Blue",
        -10.477562743876462
      ],
      [
        "terribl",
        -10.477613219174309
      ],
      [
        "Lynch",
        -10.47900451998738
      ],
      [
        "host",
        -10.479016888224635
      ],
      [
        "Water",
        -10.47938574399197
      ],
      [
        "Dick",
        -10.479444449970238
      ],
      [
        "Wow",
        -10.479972628050035
      ],
      [
        "!!!!",
        -10.480258947192212
      ],
      [
        ");",
        -10.480367077513367
      ],
      [
        "reflect",
        -10.480819018430676
      ],
      [
        "irritating",
        -10.480938480216537
      ],
      [
        "growing",
        -10.48098506344628
      ],
      [
        "categor",
        -10.481091368913546
      ],
      [
        "pictures",
        -10.48196586745966
      ],
      [
        "ONE",
        -10.482228732259083
      ],
      [
        "structure",
        -10.482876464551374
      ],
      [
        "separate",
        -10.482884900969106
      ],
      [
        "bill",
        -10.483406150253188
      ],
      [
        "Asian",
        -10.484998427128412
      ],
      [
        "truck",
        -10.486509035017626
      ],
      [
        "satire",
        -10.48777594422278
      ],
      [
        "replace",
        -10.488543722813617
      ],
      [
        "fest",
        -10.488847233470555
      ],
      [
        "sharp",
        -10.489238497707959
      ],
      [
        "Die",
        -10.489814805635342
      ],
      [
        "solve",
        -10.492373019642594
      ],
      [
        "frequent",
        -10.492623127722862
      ],
      [
        "Edward",
        -10.49467335344303
      ],
      [
        "Pol",
        -10.49467710539521
      ],
      [
        "Are",
        -10.496294036578515
      ],
      [
        "Anthony",
        -10.49654872174614
      ],
      [
        "liner",
        -10.497349931028081
      ],
      [
        "bloody",
        -10.49743963490858
      ],
      [
        "gory",
        -10.498954605552218
      ],
      [
        "fame",
        -10.500518384644234
      ],
      [
        "Street",
        -10.500573702991757
      ],
      [
        "root",
        -10.501346751815568
      ],
      [
        "Texas",
        -10.502475000858098
      ],
      [
        "identit",
        -10.502713858754769
      ],
      [
        "price",
        -10.502747100240247
      ],
      [
        "cash",
        -10.503465195934599
      ],
      [
        "unrealistic",
        -10.504514941928251
      ],
      [
        "device",
        -10.504641635826404
      ],
      [
        "shape",
        -10.504908322210468
      ],
      [
        "haunt",
        -10.505843837510719
      ],
      [
        "statement",
        -10.50652657973388
      ],
      [
        "letter",
        -10.506544174825535
      ],
      [
        "aged",
        -10.50791498865926
      ],
      [
        "concerne",
        -10.508245381996868
      ],
      [
        "rival",
        -10.508275769831542
      ],
      [
        "SO",
        -10.509768801383403
      ],
      [
        "Dar",
        -10.509957722975411
      ],
      [
        "entertaine",
        -10.511013780478628
      ],
      [
        "lucky",
        -10.511451261022085
      ],
      [
        "charisma",
        -10.513315240411437
      ],
      [
        "edite",
        -10.513634129048484
      ],
      [
        "lesbian",
        -10.514406204643183
      ],
      [
        "wave",
        -10.51480690695228
      ],
      [
        "shallow",
        -10.514877435829623
      ],
      [
        "Anna",
        -10.51496354907546
      ],
      [
        "Yea",
        -10.515177626587112
      ],
      [
        "pack",
        -10.51546485540991
      ],
      [
        "gain",
        -10.516087731724927
      ],
      [
        "existence",
        -10.51651638031163
      ],
      [
        "mountain",
        -10.516553062343942
      ],
      [
        "broken",
        -10.51727333001784
      ],
      [
        "thank",
        -10.518163532926982
      ],
      [
        "empty",
        -10.518420618393499
      ],
      [
        "witness",
        -10.51845004983012
      ],
      [
        "shocke",
        -10.520064331345338
      ],
      [
        "featur",
        -10.522215807234355
      ],
      [
        "circumstance",
        -10.522446401189903
      ],
      [
        "buil",
        -10.522497069680195
      ],
      [
        "lum",
        -10.523398656454798
      ],
      [
        "kiss",
        -10.52369917385133
      ],
      [
        "unfold",
        -10.524467737028484
      ],
      [
        "object",
        -10.524760874530495
      ],
      [
        "sheer",
        -10.525304663352994
      ],
      [
        "Steven",
        -10.525744578940435
      ],
      [
        "mal",
        -10.52685710107075
      ],
      [
        "Fred",
        -10.527991648142477
      ],
      [
        "erotic",
        -10.528551365176096
      ],
      [
        "Jimmy",
        -10.528620904285589
      ],
      [
        "bodie",
        -10.528765215154973
      ],
      [
        "wealth",
        -10.530552393440178
      ],
      [
        "16",
        -10.531101525787818
      ],
      [
        "Rose",
        -10.531770392413787
      ],
      [
        "legend",
        -10.532183537681327
      ],
      [
        "Pal",
        -10.53221794783396
      ],
      [
        "meeting",
        -10.532512355762819
      ],
      [
        "intellectual",
        -10.532600636987855
      ],
      [
        "instant",
        -10.532738111810609
      ],
      [
        "Morgan",
        -10.532992342199476
      ],
      [
        "scale",
        -10.534040953110257
      ],
      [
        "finger",
        -10.53496494871942
      ],
      [
        "unfunny",
        -10.536965141996495
      ],
      [
        "logical",
        -10.538055305847514
      ],
      [
        "performer",
        -10.538172863138733
      ],
      [
        "gre",
        -10.53819960033896
      ],
      [
        "morning",
        -10.538762446130601
      ],
      [
        "Tor",
        -10.539246035165313
      ],
      [
        "BE",
        -10.53972729668816
      ],
      [
        "ened",
        -10.540370814828288
      ],
      [
        "significant",
        -10.540776849092872
      ],
      [
        "jerk",
        -10.540795189681873
      ],
      [
        "quote",
        -10.541423282358556
      ],
      [
        "spite",
        -10.542571626291613
      ],
      [
        "sympath",
        -10.54272088084365
      ],
      [
        "Douglas",
        -10.542836828849394
      ],
      [
        "Moon",
        -10.54344092750243
      ],
      [
        "marry",
        -10.543607346798204
      ],
      [
        "Lady",
        -10.54371965994472
      ],
      [
        "pulle",
        -10.543949868300672
      ],
      [
        "table",
        -10.54457844019825
      ],
      [
        "Bur",
        -10.544846178210909
      ],
      [
        "relief",
        -10.545026936982971
      ],
      [
        "None",
        -10.545137243528554
      ],
      [
        "murdere",
        -10.546187601265622
      ],
      [
        "famili",
        -10.546625115631876
      ],
      [
        "erry",
        -10.546693034881237
      ],
      [
        "Dean",
        -10.546802906166922
      ],
      [
        "engage",
        -10.546830787365039
      ],
      [
        "hip",
        -10.547041814771646
      ],
      [
        "whil",
        -10.547432693157406
      ],
      [
        "appealing",
        -10.547444184012829
      ],
      [
        "puts",
        -10.548644835514686
      ],
      [
        "grew",
        -10.548669627560619
      ],
      [
        "drink",
        -10.54936213757157
      ],
      [
        "amaze",
        -10.549926618792831
      ],
      [
        "grace",
        -10.550774387525525
      ],
      [
        "combination",
        -10.55110754409871
      ],
      [
        "foreign",
        -10.55297741458196
      ],
      [
        "Space",
        -10.553154952711683
      ],
      [
        "sympathetic",
        -10.553179017045652
      ],
      [
        "Stone",
        -10.553729874133063
      ],
      [
        "frank",
        -10.55374813969282
      ],
      [
        "warning",
        -10.554121875943597
      ],
      [
        "Come",
        -10.555065868174804
      ],
      [
        "flow",
        -10.55517987545592
      ],
      [
        "Hol",
        -10.55550155544772
      ],
      [
        "treatment",
        -10.555586276416761
      ],
      [
        "nic",
        -10.556672588453658
      ],
      [
        "link",
        -10.557107429561817
      ],
      [
        "Barbara",
        -10.55736478097814
      ],
      [
        "Albert",
        -10.55746091282165
      ],
      [
        "Cap",
        -10.55900021078874
      ],
      [
        "Island",
        -10.55906393132428
      ],
      [
        "bringing",
        -10.559104032007511
      ],
      [
        "festival",
        -10.559450058136862
      ],
      [
        "Simon",
        -10.559966369204936
      ],
      [
        "logic",
        -10.560539940930038
      ],
      [
        "EN",
        -10.560805057089926
      ],
      [
        "Keaton",
        -10.561549214420252
      ],
      [
        "Actual",
        -10.56156351966633
      ],
      [
        "contemporar",
        -10.561579266612608
      ],
      [
        "Dog",
        -10.561581799005022
      ],
      [
        "commit",
        -10.562353951725145
      ],
      [
        "Part",
        -10.562439145825742
      ],
      [
        "gal",
        -10.563638766059906
      ],
      [
        "contrived",
        -10.563646861628133
      ],
      [
        "Hitler",
        -10.563646864626158
      ],
      [
        "25",
        -10.564066583156873
      ],
      [
        "dislike",
        -10.564280768029459
      ],
      [
        "Kid",
        -10.565871261813385
      ],
      [
        "native",
        -10.56636052209437
      ],
      [
        "Sal",
        -10.566633888193834
      ],
      [
        "ium",
        -10.567075716383622
      ],
      [
        "Really",
        -10.567131101504714
      ],
      [
        "disc",
        -10.567406228427426
      ],
      [
        "amateur",
        -10.56783410713411
      ],
      [
        "nightmare",
        -10.56799737396522
      ],
      [
        "Lu",
        -10.5685556081412
      ],
      [
        "Being",
        -10.56899513990006
      ],
      [
        "Han",
        -10.569237635265557
      ],
      [
        "Much",
        -10.57076873442001
      ],
      [
        "Old",
        -10.571430382959992
      ],
      [
        "satisfying",
        -10.571670108513185
      ],
      [
        "advance",
        -10.572097994375799
      ],
      [
        "Sun",
        -10.572711428256456
      ],
      [
        "Lind",
        -10.572962148229164
      ],
      [
        "pile",
        -10.573569381340869
      ],
      [
        "quirk",
        -10.574226979086834
      ],
      [
        "Del",
        -10.57563350826063
      ],
      [
        "burn",
        -10.575940320826195
      ],
      [
        "Clark",
        -10.576346162038494
      ],
      [
        "veteran",
        -10.576346425095299
      ],
      [
        "Three",
        -10.57635528647678
      ],
      [
        "comedian",
        -10.57635893162635
      ],
      [
        "BBC",
        -10.576361584549225
      ],
      [
        "walke",
        -10.577883364885123
      ],
      [
        "aired",
        -10.57821836658113
      ],
      [
        "degree",
        -10.578533547152729
      ],
      [
        "suffering",
        -10.580208869212436
      ],
      [
        "gross",
        -10.580457580949652
      ],
      [
        "football",
        -10.580631987335991
      ],
      [
        "push",
        -10.580697738465226
      ],
      [
        "Jesu",
        -10.580754866473356
      ],
      [
        "higher",
        -10.581572306688559
      ],
      [
        "till",
        -10.583070502106734
      ],
      [
        "dubbe",
        -10.583573280002735
      ],
      [
        "Hard",
        -10.584857152597072
      ],
      [
        "Europe",
        -10.585971442799488
      ],
      [
        "exceptional",
        -10.58631483664612
      ],
      [
        "insight",
        -10.586499379444792
      ],
      [
        "sucke",
        -10.58672000811502
      ],
      [
        "semi",
        -10.58683973986788
      ],
      [
        "?!",
        -10.586897980988933
      ],
      [
        "humanit",
        -10.58696236277274
      ],
      [
        "authentic",
        -10.587052284826683
      ],
      [
        "ng",
        -10.587093174409883
      ],
      [
        "spell",
        -10.58718135523486
      ],
      [
        "14",
        -10.587474720085849
      ],
      [
        "gift",
        -10.588025648411639
      ],
      [
        "Ju",
        -10.588520676872168
      ],
      [
        "Ram",
        -10.58860990888007
      ],
      [
        "starting",
        -10.58863105870713
      ],
      [
        "Halloween",
        -10.589207487281804
      ],
      [
        "tedious",
        -10.589243516484101
      ],
      [
        "exploitation",
        -10.589422981609452
      ],
      [
        "Walter",
        -10.589592404858381
      ],
      [
        "rental",
        -10.589909500731281
      ],
      [
        "wor",
        -10.589976142949256
      ],
      [
        "Japan",
        -10.591342792045715
      ],
      [
        "gonna",
        -10.59148440978899
      ],
      [
        "aka",
        -10.591531873913972
      ],
      [
        "handed",
        -10.592034542414552
      ],
      [
        "naive",
        -10.592489039117215
      ],
      [
        "Ted",
        -10.59252289840949
      ],
      [
        "Chaplin",
        -10.593531753519583
      ],
      [
        "saving",
        -10.593755166301566
      ],
      [
        "text",
        -10.594202890134667
      ],
      [
        "Sci",
        -10.594368948909352
      ],
      [
        "promising",
        -10.595747371995785
      ],
      [
        "saved",
        -10.59650043967748
      ],
      [
        "faith",
        -10.597620529050047
      ],
      [
        "pity",
        -10.59822926191201
      ],
      [
        "ideal",
        -10.59986677305476
      ],
      [
        "scenario",
        -10.600053434821008
      ],
      [
        "Academ",
        -10.600053462893595
      ],
      [
        "reache",
        -10.60006633620201
      ],
      [
        "delight",
        -10.600228844965137
      ],
      [
        "disgusting",
        -10.601583599452145
      ],
      [
        "religion",
        -10.602236840908702
      ],
      [
        "corny",
        -10.602607448877077
      ],
      [
        "berg",
        -10.603472994228877
      ],
      [
        "games",
        -10.603677561164947
      ],
      [
        "explosion",
        -10.604425024687744
      ],
      [
        "intrigue",
        -10.604425031325578
      ],
      [
        "val",
        -10.60510752072639
      ],
      [
        "offensive",
        -10.60661804438282
      ],
      [
        "Alic",
        -10.607552681182408
      ],
      [
        "accidental",
        -10.608666848715565
      ],
      [
        "Canadian",
        -10.608815871774409
      ],
      [
        "Plus",
        -10.608842087210077
      ],
      [
        "handsome",
        -10.609576342976005
      ],
      [
        "theatrical",
        -10.611019486328063
      ],
      [
        "Seagal",
        -10.611040394315532
      ],
      [
        "Brad",
        -10.611489046196233
      ],
      [
        "Tri",
        -10.612007173877847
      ],
      [
        "Cri",
        -10.613106653942069
      ],
      [
        "nominate",
        -10.613228144909709
      ],
      [
        "amateurish",
        -10.613255512600297
      ],
      [
        "ville",
        -10.613357821256077
      ],
      [
        "statu",
        -10.613760503928106
      ],
      [
        "realise",
        -10.615098621686702
      ],
      [
        "robot",
        -10.615413511319126
      ],
      [
        "unintentional",
        -10.615449023823235
      ],
      [
        "---",
        -10.616076325868987
      ],
      [
        "boot",
        -10.616746653102572
      ],
      [
        "Larry",
        -10.617660181795625
      ],
      [
        "surface",
        -10.617680360926975
      ],
      [
        "harsh",
        -10.617864816907598
      ],
      [
        "Does",
        -10.618346256104921
      ],
      [
        "improve",
        -10.619270950919276
      ],
      [
        "ux",
        -10.619716547522
      ],
      [
        "Vietnam",
        -10.61987854685837
      ],
      [
        "extraordinar",
        -10.619953977739627
      ],
      [
        "Cur",
        -10.620159037102717
      ],
      [
        "inspiration",
        -10.622118067381791
      ],
      [
        "careful",
        -10.622373508810222
      ],
      [
        "danger",
        -10.622690970985923
      ],
      [
        "Hart",
        -10.622914334543575
      ],
      [
        "pu",
        -10.623159811157594
      ],
      [
        "Mari",
        -10.624274073736707
      ],
      [
        "depiction",
        -10.624577631735981
      ],
      [
        "Gordon",
        -10.624809900339912
      ],
      [
        "topic",
        -10.62551677826405
      ],
      [
        "string",
        -10.625774701485213
      ],
      [
        "arts",
        -10.626622520456234
      ],
      [
        "zero",
        -10.626709799988554
      ],
      [
        "CH",
        -10.626953760324156
      ],
      [
        "guest",
        -10.62699837674252
      ],
      [
        "dig",
        -10.627202642607717
      ],
      [
        "Thank",
        -10.628049562394178
      ],
      [
        "Kill",
        -10.628467044986122
      ],
      [
        "Back",
        -10.628574589669961
      ],
      [
        "committe",
        -10.629214190645708
      ],
      [
        "screaming",
        -10.630271654199802
      ],
      [
        "freedom",
        -10.631070983948442
      ],
      [
        "Captain",
        -10.631080544914607
      ],
      [
        "alter",
        -10.631226586471715
      ],
      [
        "technolog",
        -10.63326509486916
      ],
      [
        "strict",
        -10.633280490708234
      ],
      [
        "sitcom",
        -10.63345134539082
      ],
      [
        "subplot",
        -10.633468494318052
      ],
      [
        "Kate",
        -10.633491912830095
      ],
      [
        "guns",
        -10.633507386203433
      ],
      [
        "!).",
        -10.6336319149741
      ],
      [
        "size",
        -10.633949155283963
      ],
      [
        "17",
        -10.63457640325506
      ],
      [
        "bird",
        -10.636078755019506
      ],
      [
        "Evil",
        -10.636184904672227
      ],
      [
        "Long",
        -10.636419927334472
      ],
      [
        "nation",
        -10.636786535307856
      ],
      [
        "Luc",
        -10.637032620704828
      ],
      [
        "End",
        -10.63722209108602
      ],
      [
        "blah",
        -10.637877784718746
      ],
      [
        "Bell",
        -10.637972993956312
      ],
      [
        "Roy",
        -10.638753266972955
      ],
      [
        "winner",
        -10.639928637044164
      ],
      [
        "Mont",
        -10.641250117410365
      ],
      [
        "Trek",
        -10.641315114775143
      ],
      [
        "scare",
        -10.641675466310689
      ],
      [
        "Jackie",
        -10.642192403032121
      ],
      [
        "gratuitous",
        -10.642375991804531
      ],
      [
        "motivation",
        -10.642376021361414
      ],
      [
        "screenwriter",
        -10.642437309324388
      ],
      [
        "ladies",
        -10.642643208200482
      ],
      [
        "psycho",
        -10.644465796581237
      ],
      [
        "depressing",
        -10.64465666072978
      ],
      [
        "MAN",
        -10.644810558682906
      ],
      [
        "rous",
        -10.64486550158691
      ],
      [
        "press",
        -10.645596452290906
      ],
      [
        "shine",
        -10.64575660365421
      ],
      [
        "ries",
        -10.645994440572014
      ],
      [
        "avi",
        -10.64668088627958
      ],
      [
        "ative",
        -10.64677830698363
      ],
      [
        "gging",
        -10.647413124119044
      ],
      [
        "Rick",
        -10.647585723695869
      ],
      [
        "Super",
        -10.648423143729502
      ],
      [
        "cutting",
        -10.648476269363229
      ],
      [
        "horribl",
        -10.65026732689935
      ],
      [
        "trans",
        -10.65083661185891
      ],
      [
        "excited",
        -10.651519495118892
      ],
      [
        "Helen",
        -10.651536259967532
      ],
      [
        "Emil",
        -10.652981496430183
      ],
      [
        "fix",
        -10.653443847966857
      ],
      [
        "harm",
        -10.653622807529704
      ],
      [
        "Anderson",
        -10.653820659402365
      ],
      [
        "grave",
        -10.653933773760937
      ],
      [
        "poster",
        -10.654219132854593
      ],
      [
        "critical",
        -10.655241161876958
      ],
      [
        "´",
        -10.656121906696269
      ],
      [
        "possibilit",
        -10.656122781877245
      ],
      [
        "Chuck",
        -10.656176706451827
      ],
      [
        "proud",
        -10.656235952859976
      ],
      [
        "trappe",
        -10.656386428286979
      ],
      [
        "underrate",
        -10.656677711894517
      ],
      [
        "revolve",
        -10.65670498144818
      ],
      [
        "Art",
        -10.656986221289237
      ],
      [
        "resemble",
        -10.658338993639298
      ],
      [
        "paint",
        -10.659317688316875
      ],
      [
        "driver",
        -10.66171416957486
      ],
      [
        "Fra",
        -10.662231023606484
      ],
      [
        "delivere",
        -10.662366926856834
      ],
      [
        "murderer",
        -10.662818601877031
      ],
      [
        "urge",
        -10.663598167698726
      ],
      [
        "buff",
        -10.66525557177003
      ],
      [
        "sensitive",
        -10.665391959718164
      ],
      [
        "reporter",
        -10.665568275315128
      ],
      [
        "resist",
        -10.66583625702563
      ],
      [
        "San",
        -10.665849825784434
      ],
      [
        "wake",
        -10.66604702564253
      ],
      [
        "Hal",
        -10.667380408911203
      ],
      [
        "Joseph",
        -10.667723622694579
      ],
      [
        "refreshing",
        -10.667726156855021
      ],
      [
        "substance",
        -10.66774973583411
      ],
      [
        "fool",
        -10.667770226806248
      ],
      [
        "Under",
        -10.667969069093706
      ],
      [
        "served",
        -10.668468720879881
      ],
      [
        "stoppe",
        -10.66871812143339
      ],
      [
        "heads",
        -10.668956484992686
      ],
      [
        "bond",
        -10.669856903492414
      ],
      [
        "forth",
        -10.66995023224853
      ],
      [
        "neighbor",
        -10.670028678568228
      ],
      [
        "official",
        -10.670064599248425
      ],
      [
        "Sho",
        -10.671326052989903
      ],
      [
        "shut",
        -10.67182199026687
      ],
      [
        "entertain",
        -10.672296649373063
      ],
      [
        "terrorist",
        -10.672544532494111
      ],
      [
        "trial",
        -10.67294512356932
      ],
      [
        "unit",
        -10.6736624410866
      ],
      [
        "notch",
        -10.67387236461816
      ],
      [
        "UK",
        -10.67435673544274
      ],
      [
        "junk",
        -10.67446445045756
      ],
      [
        "obsessed",
        -10.674748894153662
      ],
      [
        "Unit",
        -10.67504554499067
      ],
      [
        "Kong",
        -10.675117446488787
      ],
      [
        "Eye",
        -10.67523743142317
      ],
      [
        "qualit",
        -10.675268174126764
      ],
      [
        "magical",
        -10.6768993433488
      ],
      [
        "merit",
        -10.677841625805552
      ],
      [
        "Award",
        -10.678361707270522
      ],
      [
        "Jan",
        -10.678661846666916
      ],
      [
        "Picture",
        -10.679460188304642
      ],
      [
        "ancient",
        -10.67946020578026
      ],
      [
        "Through",
        -10.67952584501583
      ],
      [
        "Patrick",
        -10.679758551450265
      ],
      [
        "LL",
        -10.680402498801648
      ],
      [
        "CE",
        -10.68087931913303
      ],
      [
        "cuts",
        -10.681476811870546
      ],
      [
        "Roger",
        -10.682310894845665
      ],
      [
        "loses",
        -10.683839103902098
      ],
      [
        "trap",
        -10.683997398163402
      ],
      [
        "breaking",
        -10.684274132322857
      ],
      [
        "Jon",
        -10.684680858845477
      ],
      [
        "blonde",
        -10.684765117350999
      ],
      [
        "training",
        -10.684770636325347
      ],
      [
        "Kim",
        -10.685406581358599
      ],
      [
        "uncle",
        -10.686052352148163
      ],
      [
        "Elizabeth",
        -10.686569209599107
      ],
      [
        "Saturday",
        -10.686569216175203
      ],
      [
        "wreck",
        -10.686675274913783
      ],
      [
        "Str",
        -10.687368337580034
      ],
      [
        "Festival",
        -10.688950162496774
      ],
      [
        "Washington",
        -10.688950168426972
      ],
      [
        "snake",
        -10.689017644786993
      ],
      [
        "dancer",
        -10.689402345085409
      ],
      [
        "hack",
        -10.689660346984418
      ],
      [
        "broad",
        -10.69072737276707
      ],
      [
        "associate",
        -10.691336804972988
      ],
      [
        "welcome",
        -10.691340065445585
      ],
      [
        "mature",
        -10.691431819373982
      ],
      [
        "Dennis",
        -10.691512176293735
      ],
      [
        "Our",
        -10.69171537960052
      ],
      [
        "Gra",
        -10.692027848814265
      ],
      [
        "Gold",
        -10.69218209266073
      ],
      [
        "neck",
        -10.692241276692794
      ],
      [
        "Have",
        -10.693050670376323
      ],
      [
        "angel",
        -10.693387461801711
      ],
      [
        "Apparent",
        -10.693741951895689
      ],
      [
        "slapstick",
        -10.693776837573228
      ],
      [
        "1960",
        -10.693856366676147
      ],
      [
        "criticism",
        -10.693879189108177
      ],
      [
        "Play",
        -10.694531279310867
      ],
      [
        "rely",
        -10.695349329311842
      ],
      [
        "maintain",
        -10.696334317471845
      ],
      [
        "therefor",
        -10.69805607600718
      ],
      [
        "iron",
        -10.698497863513873
      ],
      [
        "gritt",
        -10.698591485300984
      ],
      [
        "interpretation",
        -10.698613250168595
      ],
      [
        "colour",
        -10.698748326190298
      ],
      [
        "gag",
        -10.698993671063462
      ],
      [
        "log",
        -10.699246539683463
      ],
      [
        "bullet",
        -10.699367616838165
      ],
      [
        "eeper",
        -10.700833123772103
      ],
      [
        "birth",
        -10.700930515354406
      ],
      [
        "bore",
        -10.701115934772282
      ],
      [
        "THING",
        -10.701635826095107
      ],
      [
        "Irish",
        -10.703502230559476
      ],
      [
        "Power",
        -10.703572216828952
      ],
      [
        "China",
        -10.704517417196385
      ],
      [
        "propaganda",
        -10.705777496314427
      ],
      [
        "Zombie",
        -10.705780111166698
      ],
      [
        "wins",
        -10.70580098750905
      ],
      [
        "blend",
        -10.706199823889538
      ],
      [
        "Year",
        -10.707859521136275
      ],
      [
        "prior",
        -10.70820659813758
      ],
      [
        "strike",
        -10.708206909658866
      ],
      [
        "health",
        -10.708209194893428
      ],
      [
        "sentimental",
        -10.708363298261979
      ],
      [
        "Wils",
        -10.708739056496654
      ],
      [
        "WWI",
        -10.70955852155896
      ],
      [
        "twisted",
        -10.710417207811965
      ],
      [
        "chain",
        -10.71090018980895
      ],
      [
        "00",
        -10.711064964276488
      ],
      [
        "command",
        -10.711093688126727
      ],
      [
        "holding",
        -10.711098773295507
      ],
      [
        "melodrama",
        -10.712971411227999
      ],
      [
        "summar",
        -10.71309281554593
      ],
      [
        "environment",
        -10.713117694999617
      ],
      [
        "sentence",
        -10.71317602713052
      ],
      [
        "according",
        -10.713676730964195
      ],
      [
        "Friday",
        -10.715523126519617
      ],
      [
        "massive",
        -10.715610111228912
      ],
      [
        "chief",
        -10.71571537887268
      ],
      [
        "Master",
        -10.715941148340324
      ],
      [
        "pol",
        -10.716179503901806
      ],
      [
        "bitter",
        -10.71620314232926
      ],
      [
        "surrounding",
        -10.716478453455515
      ],
      [
        "Kar",
        -10.71676920798496
      ],
      [
        "Bro",
        -10.717150985604556
      ],
      [
        "watchabl",
        -10.71790568143475
      ],
      [
        "excitement",
        -10.717972747706291
      ],
      [
        "mirror",
        -10.717972911565589
      ],
      [
        "false",
        -10.717994032648985
      ],
      [
        "lawyer",
        -10.71835935152981
      ],
      [
        "prisoner",
        -10.718554191865323
      ],
      [
        "define",
        -10.720061863295136
      ],
      [
        "uring",
        -10.720550684949352
      ],
      [
        "1930",
        -10.720574389891498
      ],
      [
        "faithful",
        -10.720727002715826
      ],
      [
        "aunt",
        -10.722495616724565
      ],
      [
        "Murphy",
        -10.722892810286819
      ],
      [
        "cliche",
        -10.722900335214504
      ],
      [
        "Later",
        -10.722951880605237
      ],
      [
        "vague",
        -10.723015030555374
      ],
      [
        "mate",
        -10.723059739861643
      ],
      [
        "Baby",
        -10.72336977286642
      ],
      [
        "enemy",
        -10.723589302588962
      ],
      [
        "heavi",
        -10.72460123357147
      ],
      [
        "construct",
        -10.725242446702321
      ],
      [
        "cre",
        -10.725266068265661
      ],
      [
        "Tarzan",
        -10.725361951377533
      ],
      [
        "department",
        -10.725363949805153
      ],
      [
        "Lou",
        -10.725534677457334
      ],
      [
        "creator",
        -10.725732193897372
      ],
      [
        "severe",
        -10.726416690119542
      ],
      [
        "court",
        -10.727059124849019
      ],
      [
        "connect",
        -10.727287134541752
      ],
      [
        "fines",
        -10.727435144930647
      ],
      [
        "cal",
        -10.727447874266119
      ],
      [
        "execution",
        -10.727837188858256
      ],
      [
        "private",
        -10.727847975254772
      ],
      [
        "Beside",
        -10.72826401432011
      ],
      [
        "talks",
        -10.729111817686288
      ],
      [
        "consistent",
        -10.731460976463438
      ],
      [
        "stereotypical",
        -10.732816072822452
      ],
      [
        "Susan",
        -10.733186399228213
      ],
      [
        "Ze",
        -10.733533955495414
      ],
      [
        "cave",
        -10.734161476714487
      ],
      [
        "demon",
        -10.73450110938329
      ],
      [
        "opens",
        -10.735001817239825
      ],
      [
        "exploit",
        -10.735122322424118
      ],
      [
        "hearing",
        -10.735194615468016
      ],
      [
        "pregnan",
        -10.735302289659925
      ],
      [
        "Donald",
        -10.735378980442045
      ],
      [
        "existent",
        -10.735433796293865
      ],
      [
        "prepared",
        -10.735759910425049
      ],
      [
        "tense",
        -10.735852936205355
      ],
      [
        "Johnson",
        -10.736915648379188
      ],
      [
        "HA",
        -10.737142604759196
      ],
      [
        "affect",
        -10.737249273414509
      ],
      [
        "Down",
        -10.737584326083091
      ],
      [
        "river",
        -10.7377341623049
      ],
      [
        "Russell",
        -10.737862227343163
      ],
      [
        "prevent",
        -10.737969420649724
      ],
      [
        "Holme",
        -10.739600906484927
      ],
      [
        "dirty",
        -10.739933152923838
      ],
      [
        "wedding",
        -10.740309595119545
      ],
      [
        "frightening",
        -10.74062032692838
      ],
      [
        "hype",
        -10.740626008088554
      ],
      [
        "multi",
        -10.740782661769877
      ],
      [
        "changing",
        -10.7415526551035
      ],
      [
        "wishe",
        -10.742251501517332
      ],
      [
        "hook",
        -10.742326463902382
      ],
      [
        "storm",
        -10.742812443855254
      ],
      [
        "puppet",
        -10.742819187377966
      ],
      [
        "THAT",
        -10.742874555756423
      ],
      [
        "headed",
        -10.743062554703616
      ],
      [
        "uch",
        -10.743089358547504
      ],
      [
        "rippe",
        -10.743201342356368
      ],
      [
        "ANY",
        -10.743323268496372
      ],
      [
        "expose",
        -10.743365561593938
      ],
      [
        "sports",
        -10.743524884476999
      ],
      [
        "ruine",
        -10.743662364109714
      ],
      [
        "glimpse",
        -10.74533811483677
      ],
      [
        "California",
        -10.745397340974892
      ],
      [
        "majorit",
        -10.745614509737369
      ],
      [
        "dude",
        -10.746027518330802
      ],
      [
        "defeat",
        -10.746269006400599
      ],
      [
        "photo",
        -10.746403131348186
      ],
      [
        "Broadway",
        -10.747865532535585
      ],
      [
        "Jewish",
        -10.747916017191164
      ],
      [
        "Doctor",
        -10.74791922109312
      ],
      [
        "finale",
        -10.750156447273138
      ],
      [
        "Gun",
        -10.750515276709756
      ],
      [
        "jail",
        -10.750908255088808
      ],
      [
        "politic",
        -10.751415763221
      ],
      [
        "multiple",
        -10.752965396931229
      ],
      [
        "supernatural",
        -10.753135935397406
      ],
      [
        "Parker",
        -10.753695299912694
      ],
      [
        "NY",
        -10.75430766874593
      ],
      [
        "credible",
        -10.754456953383908
      ],
      [
        "punch",
        -10.754559210566361
      ],
      [
        "robber",
        -10.754795068039908
      ],
      [
        "motive",
        -10.756069896839419
      ],
      [
        "contact",
        -10.756543601964403
      ],
      [
        "Christ",
        -10.756926241000148
      ],
      [
        "ju",
        -10.757253579584276
      ],
      [
        "suspenseful",
        -10.758323070431036
      ],
      [
        "Sometime",
        -10.758354112940452
      ],
      [
        "refer",
        -10.758876929707506
      ],
      [
        "loser",
        -10.758888998469061
      ],
      [
        "settle",
        -10.758926773692146
      ],
      [
        "venge",
        -10.759176211742103
      ],
      [
        "invite",
        -10.76059074662718
      ],
      [
        "Mexican",
        -10.760608134452855
      ],
      [
        "tradition",
        -10.760785539184456
      ],
      [
        "oul",
        -10.761548588800661
      ],
      [
        "rick",
        -10.762009848030267
      ],
      [
        "stranger",
        -10.762344851077165
      ],
      [
        "miles",
        -10.763231252976436
      ],
      [
        "Tre",
        -10.764406631265679
      ],
      [
        "remove",
        -10.7650058121577
      ],
      [
        "reputation",
        -10.765720976367811
      ],
      [
        "inept",
        -10.76640759746851
      ],
      [
        "interaction",
        -10.766762390487997
      ],
      [
        "landscape",
        -10.768320467684404
      ],
      [
        "guide",
        -10.768487125668324
      ],
      [
        "Nazi",
        -10.768598400158915
      ],
      [
        "forgettabl",
        -10.769176578243083
      ],
      [
        "Add",
        -10.769340470735722
      ],
      [
        "peace",
        -10.77079835168146
      ],
      [
        "Dracula",
        -10.77088178533737
      ],
      [
        "minded",
        -10.771471359488986
      ],
      [
        "About",
        -10.771959812310241
      ],
      [
        "Mil",
        -10.772947695831736
      ],
      [
        "makeup",
        -10.773291773592478
      ],
      [
        "reward",
        -10.773456376504411
      ],
      [
        "appy",
        -10.774039200676356
      ],
      [
        "arch",
        -10.774327762388054
      ],
      [
        "admire",
        -10.774649941730873
      ],
      [
        "pun",
        -10.77495275886897
      ],
      [
        "Julia",
        -10.77603180655789
      ],
      [
        "Such",
        -10.776069804049882
      ],
      [
        "performe",
        -10.776122927231555
      ],
      [
        "mainstream",
        -10.776227295703452
      ],
      [
        "rum",
        -10.776249083608537
      ],
      [
        "Unlike",
        -10.776294326996684
      ],
      [
        "eath",
        -10.776788899872953
      ],
      [
        "Each",
        -10.777015683386793
      ],
      [
        "description",
        -10.778674889276108
      ],
      [
        "loyal",
        -10.778686504276621
      ],
      [
        "cultural",
        -10.77869115032222
      ],
      [
        "network",
        -10.779128144282879
      ],
      [
        "haunting",
        -10.779200113593891
      ],
      [
        "purchase",
        -10.77981244595547
      ],
      [
        "variet",
        -10.780462729219309
      ],
      [
        "=",
        -10.781284986582563
      ],
      [
        "method",
        -10.781295041838359
      ],
      [
        "Africa",
        -10.781296646604082
      ],
      [
        "rank",
        -10.781968415421726
      ],
      [
        "Victor",
        -10.78324648620882
      ],
      [
        "stumble",
        -10.783645344026244
      ],
      [
        "General",
        -10.783988141306061
      ],
      [
        "AR",
        -10.784621844108322
      ],
      [
        "ES",
        -10.785319171425893
      ],
      [
        "breast",
        -10.785484608077226
      ],
      [
        "heck",
        -10.785631905387728
      ],
      [
        "viewe",
        -10.786475122959626
      ],
      [
        "USA",
        -10.786526345909696
      ],
      [
        "Eastwood",
        -10.786565897186957
      ],
      [
        "confront",
        -10.78685133113802
      ],
      [
        "creation",
        -10.786892114026825
      ],
      [
        "continuit",
        -10.7872701589014
      ],
      [
        "Basical",
        -10.787475679342464
      ],
      [
        "hanging",
        -10.787747145621163
      ],
      [
        "CA",
        -10.788551830976854
      ],
      [
        "advise",
        -10.789163199243635
      ],
      [
        "BS",
        -10.790418590660444
      ],
      [
        "matche",
        -10.791162413704143
      ],
      [
        "TE",
        -10.791354732414842
      ],
      [
        "eanwhile",
        -10.79252617960811
      ],
      [
        "pic",
        -10.793192791773027
      ],
      [
        "arrest",
        -10.793580959429487
      ],
      [
        "1980",
        -10.793674197994143
      ],
      [
        "para",
        -10.794082448203113
      ],
      [
        "treasure",
        -10.794447555079035
      ],
      [
        "India",
        -10.794609970451535
      ],
      [
        "fictional",
        -10.794770421438558
      ],
      [
        "profound",
        -10.795536916922321
      ],
      [
        "States",
        -10.795878483048114
      ],
      [
        "surround",
        -10.796118593969862
      ],
      [
        "plant",
        -10.796122460724632
      ],
      [
        "inevitabl",
        -10.796583394509398
      ],
      [
        "incident",
        -10.79677056855477
      ],
      [
        "dress",
        -10.799449503064572
      ],
      [
        "Killer",
        -10.800032587807273
      ],
      [
        "esigned",
        -10.800645776648224
      ],
      [
        "streets",
        -10.800667412522781
      ],
      [
        "disagree",
        -10.800670757491593
      ],
      [
        "beach",
        -10.800676922659193
      ],
      [
        "Lane",
        -10.800892156807919
      ],
      [
        "gate",
        -10.801227000933729
      ],
      [
        "funnie",
        -10.802109355484138
      ],
      [
        "noise",
        -10.80337778478867
      ],
      [
        "Mill",
        -10.803480265683259
      ],
      [
        "insist",
        -10.803666082705615
      ],
      [
        "render",
        -10.803705307981728
      ],
      [
        "Roman",
        -10.803879170187548
      ],
      [
        "Lost",
        -10.803918623641408
      ],
      [
        "powers",
        -10.80458521767671
      ],
      [
        "benefit",
        -10.805095647686251
      ],
      [
        "jealous",
        -10.805095772111027
      ],
      [
        "atrocious",
        -10.805095834475011
      ],
      [
        "Warner",
        -10.8051036025965
      ],
      [
        "aught",
        -10.805279918596089
      ],
      [
        "chair",
        -10.805735848906318
      ],
      [
        "comical",
        -10.806269229848159
      ],
      [
        "fatal",
        -10.806941516956627
      ],
      [
        "ludicrous",
        -10.807776586536189
      ],
      [
        "attend",
        -10.808635106639663
      ],
      [
        "greed",
        -10.80880007056485
      ],
      [
        "national",
        -10.808808249975105
      ],
      [
        "Rain",
        -10.809395663782503
      ],
      [
        "Wild",
        -10.809720113020852
      ],
      [
        "VERY",
        -10.810116913623313
      ],
      [
        "concert",
        -10.810479009773212
      ],
      [
        "narration",
        -10.810479354101043
      ],
      [
        "shirt",
        -10.810505405982637
      ],
      [
        "unconvincing",
        -10.81052038665468
      ],
      [
        "hopeful",
        -10.811191839023333
      ],
      [
        "repeat",
        -10.811776721141129
      ],
      [
        "apping",
        -10.812125119473826
      ],
      [
        "teens",
        -10.812293574005897
      ],
      [
        "Law",
        -10.812677986457995
      ],
      [
        "Fu",
        -10.813018683489211
      ],
      [
        "Betty",
        -10.813181852033129
      ],
      [
        "Luke",
        -10.813574039698207
      ],
      [
        "East",
        -10.814056817051675
      ],
      [
        "consequence",
        -10.814199653141628
      ],
      [
        "format",
        -10.81461407802814
      ],
      [
        "destroye",
        -10.815561804753496
      ],
      [
        "Nor",
        -10.816036436124303
      ],
      [
        "Way",
        -10.816245552443327
      ],
      [
        "Mon",
        -10.816773088752067
      ],
      [
        "uke",
        -10.817129389696122
      ],
      [
        "Jay",
        -10.817319044432816
      ],
      [
        "Home",
        -10.818473982263576
      ],
      [
        "provoking",
        -10.818572909673458
      ],
      [
        "Channel",
        -10.818573950435372
      ],
      [
        "shift",
        -10.818593587501152
      ],
      [
        "Bre",
        -10.81862129943734
      ],
      [
        "clos",
        -10.818942771863224
      ],
      [
        "cars",
        -10.819536409721593
      ],
      [
        "):",
        -10.819586525441258
      ],
      [
        "punk",
        -10.82016221549867
      ],
      [
        "egg",
        -10.82130481667707
      ],
      [
        "President",
        -10.821607753081587
      ],
      [
        "caring",
        -10.822312073271346
      ],
      [
        "crude",
        -10.823010317036246
      ],
      [
        "corpse",
        -10.824017919967874
      ],
      [
        "EVER",
        -10.824229647289382
      ],
      [
        "hunter",
        -10.824406518894456
      ],
      [
        "Grand",
        -10.82447419465771
      ],
      [
        "universe",
        -10.826747458142002
      ],
      [
        "homosexual",
        -10.826830889317566
      ],
      [
        "Fan",
        -10.826860542629788
      ],
      [
        "pool",
        -10.826938981187844
      ],
      [
        "locke",
        -10.82715038240098
      ],
      [
        "prime",
        -10.82757570225641
      ],
      [
        "SH",
        -10.827848566765832
      ],
      [
        "Vampire",
        -10.829487061210978
      ],
      [
        "jungle",
        -10.82948708796551
      ],
      [
        "nurse",
        -10.829515497887595
      ],
      [
        "assistant",
        -10.829576821480863
      ],
      [
        "Golden",
        -10.829728868690092
      ],
      [
        "believ",
        -10.830187870134676
      ],
      [
        "pushe",
        -10.83033301195713
      ],
      [
        "ages",
        -10.830958685169037
      ],
      [
        "Definite",
        -10.832234318619967
      ],
      [
        "predict",
        -10.83292499899596
      ],
      [
        "Dave",
        -10.833007326994995
      ],
      [
        "gger",
        -10.833206235695902
      ],
      [
        "mor",
        -10.834141650633798
      ],
      [
        "Carpenter",
        -10.834989352554025
      ],
      [
        "painting",
        -10.83499157475258
      ],
      [
        "char",
        -10.83588177717279
      ],
      [
        "worry",
        -10.835940743692518
      ],
      [
        "CO",
        -10.836569906422628
      ],
      [
        "oursel",
        -10.836607258268886
      ],
      [
        "Marie",
        -10.836938722008995
      ],
      [
        "Something",
        -10.837062340802436
      ],
      [
        "sacrifice",
        -10.837378982228191
      ],
      [
        "legendar",
        -10.838139776701725
      ],
      [
        "complaint",
        -10.838454441336246
      ],
      [
        "ace",
        -10.83958314306346
      ],
      [
        "goal",
        -10.840465768294228
      ],
      [
        "Laura",
        -10.840818793700565
      ],
      [
        "Ring",
        -10.841774121196206
      ],
      [
        "convinced",
        -10.842218746216437
      ],
      [
        "YOU",
        -10.842943912513372
      ],
      [
        "Fulci",
        -10.843299495125752
      ],
      [
        "education",
        -10.843299544661232
      ],
      [
        "cousin",
        -10.84330177982844
      ],
      [
        "Hoffman",
        -10.843315736489
      ],
      [
        "Hugh",
        -10.843520116288403
      ],
      [
        "faced",
        -10.844338054618516
      ],
      [
        "GM",
        -10.844401374972247
      ],
      [
        "honor",
        -10.845206672779003
      ],
      [
        "Hong",
        -10.845226976721404
      ],
      [
        "complicated",
        -10.845303274591224
      ],
      [
        "Nex",
        -10.845399034221067
      ],
      [
        "elder",
        -10.845434348047181
      ],
      [
        "Sinatra",
        -10.846085237984127
      ],
      [
        "securit",
        -10.846615461820516
      ],
      [
        "conscious",
        -10.848787342216916
      ],
      [
        "tremendous",
        -10.848878236504465
      ],
      [
        "Seriousl",
        -10.848878862173049
      ],
      [
        "Phillip",
        -10.848997119230727
      ],
      [
        "passing",
        -10.851612278127991
      ],
      [
        "advantage",
        -10.85167937515411
      ],
      [
        "doll",
        -10.851972739177004
      ],
      [
        "Santa",
        -10.852219214474143
      ],
      [
        "screening",
        -10.85239549462378
      ],
      [
        "Brooks",
        -10.852931462506636
      ],
      [
        "Music",
        -10.853157535893004
      ],
      [
        "argue",
        -10.853201475197746
      ],
      [
        "spoken",
        -10.853512842841234
      ],
      [
        "clips",
        -10.854088647078783
      ],
      [
        "thi",
        -10.854444756675012
      ],
      [
        "gruesome",
        -10.854488387836334
      ],
      [
        "stomach",
        -10.854489126043617
      ],
      [
        "Kurt",
        -10.854835772730503
      ],
      [
        "nude",
        -10.854859235130355
      ],
      [
        "vast",
        -10.855125159594584
      ],
      [
        "ffered",
        -10.85618628459337
      ],
      [
        "depend",
        -10.856804091501868
      ],
      [
        "Wolf",
        -10.857309163652866
      ],
      [
        "tongue",
        -10.857340129760026
      ],
      [
        "warne",
        -10.857975861511559
      ],
      [
        "types",
        -10.858777492198428
      ],
      [
        "Yu",
        -10.858858259648478
      ],
      [
        "express",
        -10.85896201083261
      ],
      [
        "anime",
        -10.859038641245832
      ],
      [
        "defend",
        -10.859383465115028
      ],
      [
        "Sh",
        -10.859582256582087
      ],
      [
        "possesse",
        -10.860241659605945
      ],
      [
        "pose",
        -10.860263697386001
      ],
      [
        "Doo",
        -10.860529732946599
      ],
      [
        "warn",
        -10.860817419457693
      ],
      [
        "smoke",
        -10.860978330312768
      ],
      [
        "characterization",
        -10.861504935446042
      ],
      [
        "bothere",
        -10.862138127380506
      ],
      [
        "error",
        -10.862310043616759
      ],
      [
        "MOVIE",
        -10.862962973040824
      ],
      [
        "trilog",
        -10.862970851766855
      ],
      [
        "slave",
        -10.863271241767103
      ],
      [
        "Carr",
        -10.863334499272494
      ],
      [
        "EL",
        -10.863567067732774
      ],
      [
        "Sir",
        -10.863841575546733
      ],
      [
        "mic",
        -10.864937617176974
      ],
      [
        "teeth",
        -10.865408127933183
      ],
      [
        "TR",
        -10.86557309323927
      ],
      [
        "wound",
        -10.865687409881344
      ],
      [
        "buddy",
        -10.865816855144665
      ],
      [
        "Roberts",
        -10.866863847609658
      ],
      [
        "unch",
        -10.867604287068943
      ],
      [
        "castle",
        -10.867924442417987
      ],
      [
        "dinosaur",
        -10.868652887989718
      ],
      [
        "Sunday",
        -10.86926707020249
      ],
      [
        "understo",
        -10.869582970278785
      ],
      [
        "icker",
        -10.869717024111836
      ],
      [
        "Ron",
        -10.869934764747939
      ],
      [
        "demonstrate",
        -10.870295828981979
      ],
      [
        "covere",
        -10.871146562061234
      ],
      [
        "Wars",
        -10.871363120157291
      ],
      [
        "imager",
        -10.871447798763352
      ],
      [
        "minimal",
        -10.87157619254494
      ],
      [
        "Bor",
        -10.871891536740375
      ],
      [
        "Son",
        -10.873135227469648
      ],
      [
        "Cinema",
        -10.873953546456658
      ],
      [
        "Micke",
        -10.874324564492738
      ],
      [
        "increasing",
        -10.874375505134553
      ],
      [
        "turkey",
        -10.874377891129672
      ],
      [
        "Vincent",
        -10.874519995351303
      ],
      [
        "Rat",
        -10.87460924615839
      ],
      [
        "preview",
        -10.874656861105937
      ],
      [
        "competent",
        -10.874703514031603
      ],
      [
        "Michell",
        -10.875518549989046
      ],
      [
        "Tru",
        -10.876014811899854
      ],
      [
        "user",
        -10.876321403107166
      ],
      [
        "grab",
        -10.877006754244766
      ],
      [
        "/>*",
        -10.877343961108735
      ],
      [
        "brave",
        -10.878239686844177
      ],
      [
        "struggl",
        -10.879606309719044
      ],
      [
        "obnoxious",
        -10.880130758978105
      ],
      [
        "Famil",
        -10.880180959915066
      ],
      [
        "Cage",
        -10.880357104402213
      ],
      [
        "mash",
        -10.881587319103879
      ],
      [
        "Kath",
        -10.882202719841395
      ],
      [
        "cheat",
        -10.882683799047793
      ],
      [
        "Prince",
        -10.88272866332797
      ],
      [
        "rushe",
        -10.882893816420001
      ],
      [
        "establishe",
        -10.88382570319816
      ],
      [
        "grim",
        -10.883957904960948
      ],
      [
        "Laure",
        -10.8856063412795
      ],
      [
        "outrageous",
        -10.885920333056655
      ],
      [
        "*****",
        -10.886266261038969
      ],
      [
        "witnesse",
        -10.886480075606762
      ],
      [
        "Devil",
        -10.887351445489617
      ],
      [
        "Sound",
        -10.887797453461637
      ],
      [
        "iring",
        -10.88799074858455
      ],
      [
        "listening",
        -10.88880086656281
      ],
      [
        "marvelous",
        -10.888827650298674
      ],
      [
        "uniform",
        -10.888828258250413
      ],
      [
        "facial",
        -10.888881020208064
      ],
      [
        "1940",
        -10.888962376218265
      ],
      [
        "FBI",
        -10.889078176982462
      ],
      [
        "flight",
        -10.889083051780705
      ],
      [
[...]
