{
  "version": "1.0",
  "truncation": null,
  "padding": null,
  "added_tokens": [
    {
      "id": 0,
      "content": "[UNK]",
      "single_word": false,
      "lstrip": false,
      "rstrip": false,
      "normalized": false,
      "special": true
    },
    {
      "id": 1,
      "content": "[CLS]",
      "single_word": false,
      "lstrip": false,
      "rstrip": false,
      "normalized": false,
      "special": true
    },
    {
      "id": 2,
      "content": "[SEP]",
      "single_word": false,
      "lstrip": false,
      "rstrip": false,
      "normalized": false,
      "special": true
    },
    {
      "id": 3,
      "content": "[PAD]",
      "single_word": false,
      "lstrip": false,
      "rstrip": false,
      "normalized": false,
      "special": true
    },
    {
      "id": 4,
      "content": "[MASK]",
      "single_word": false,
      "lstrip": false,
      "rstrip": false,
      "normalized": false,
      "special": true
    }
  ],
  "normalizer": null,
  "pre_tokenizer": {
    "type": "Whitespace"
  },
  "post_processor": null,
  "decoder": null,
  "model": {
    "type": "Unigram",
    "unk_id": 0,
    "vocab": [
      [
        "[UNK]",
        0.0
      ],
      [
        "[CLS]",
        0.0
      ],
      [
        "[SEP]",
        0.0
      ],
      [
        "[PAD]",
        0.0
      ],
      [
        "[MASK]",
        0.0
      ],
      [
        "s",
        -2.890256961391355
      ],
      [
        "t",
        -3.17843972342261
      ],
      [
        "the",
        -3.3781615436319026
      ],
      [
        "a",
        -3.4867955170264047
      ],
      [
        ",",
        -3.494676438498873
      ],
      [
        ".",
        -3.581214943653247
      ],
      [
        "o",
        -3.6390955335075343
      ],
      [
        "e",
        -3.8040032439366627
      ],
      [
        "and",
        -4.009328572073201
      ],
      [
        "of",
        -4.115062244932647
      ],
      [
        "i",
        -4.153636290985521
      ],
      [
        "d",
        -4.156535707377838
      ],
      [
        "'",
        -4.199940857231599
      ],
      [
        "I",
        -4.310451146109694
      ],
      [
        "is",
        -4.429089759826063
      ],
      [
        "y",
        -4.446252534512849
      ],
      [
        "br",
        -4.451942905363069
      ],
      [
        "in",
        -4.523705504894817
      ],
      [
        "ly",
        -4.7491895578931285
      ],
      [
        "that",
        -4.842578392323931
      ],
      [
        "\"",
        -4.935269041277563
      ],
      [
        "this",
        -4.999747898007849
      ],
      [
        "n",
        -5.010860839914455
      ],
      [
        "-",
        -5.0541771541166725
      ],
      [
        "on",
        -5.0784989703240875
      ],
      [
        "ing",
        -5.104113509349244
      ],
      [
        "r",
        -5.111572732729552
      ],
      [
        "/><",
        -5.161295477641978
      ],
      [
        "/>",
        -5.168121364896823
      ],
      [
        "was",
        -5.207319731384793
      ],
      [
        "The",
        -5.22831062294625
      ],
      [
        "movie",
        -5.255348183066287
      ],
      [
        "with",
        -5.3108355705835475
      ],
      [
        "for",
        -5.319534031353726
      ],
      [
        "film",
        -5.319664777071193
      ],
      [
        ".<",
        -5.429745279595981
      ],
      [
        "b",
        -5.4691863846872835
      ],
      [
        "but",
        -5.534121292383341
      ],
      [
        "(",
        -5.542274330766336
      ],
      [
        "you",
        -5.638145929482526
      ],
      [
        "are",
        -5.642651117239536
      ],
      [
        "m",
        -5.652684996707279
      ],
      [
        "not",
        -5.687190362331053
      ],
      [
        "his",
        -5.720317635336269
      ],
      [
        "have",
        -5.740906332500364
      ],
      [
        "he",
        -5.744163722925103
      ],
      [
        "one",
        -5.783300800060044
      ],
      [
        "f",
        -5.817821926661276
      ],
      [
        "all",
        -5.930321409326261
      ],
      [
        "an",
        -5.932931428290647
      ],
      [
        "like",
        -5.987341837172686
      ],
      [
        "by",
        -6.007295849052461
      ],
      [
        "who",
        -6.008814792376077
      ],
      [
        ")",
        -6.026796849225544
      ],
      [
        "her",
        -6.104835815472253
      ],
      [
        "out",
        -6.117778432912658
      ],
      [
        "from",
        -6.118312096427056
      ],
      [
        "about",
        -6.253875683950293
      ],
      [
        "has",
        -6.2583468656309105
      ],
      [
        "just",
        -6.279518339728087
      ],
      [
        "some",
        -6.280523183811043
      ],
      [
        "can",
        -6.317650077548887
      ],
      [
        "they",
        -6.320508110062518
      ],
      [
        "A",
        -6.321530686298363
      ],
      [
        "h",
        -6.38124006086497
      ],
      [
        "good",
        -6.40609680453257
      ],
      [
        "Thi",
        -6.406683672332855
      ],
      [
        "more",
        -6.413639648975257
      ],
      [
        "up",
        -6.437418266300906
      ],
      [
        "character",
        -6.440082241819836
      ],
      [
        "what",
        -6.455911437704797
      ],
      [
        "very",
        -6.473555720462247
      ],
      [
        "time",
        -6.475731116301699
      ],
      [
        "w",
        -6.481757550052686
      ],
      [
        "!",
        -6.515881204884588
      ],
      [
        "l",
        -6.541047439283906
      ],
      [
        "there",
        -6.544982552913757
      ],
      [
        "man",
        -6.5450977187883
      ],
      [
        "would",
        -6.5758215481884825
      ],
      [
        "?",
        -6.585337517991999
      ],
      [
        "when",
        -6.614561116459447
      ],
      [
        "even",
        -6.620565374646285
      ],
      [
        "me",
        -6.631076797728474
      ],
      [
        "which",
        -6.6468623833964635
      ],
      [
        "story",
        -6.6484119999984586
      ],
      [
        "u",
        -6.6510340354258535
      ],
      [
        "get",
        -6.659691269450324
      ],
      [
        "had",
        -6.662267157230392
      ],
      [
        "really",
        -6.672200198401828
      ],
      [
        "their",
        -6.680340887194687
      ],
      [
        "him",
        -6.6901261860428605
      ],
      [
        "<",
        -6.698465174848453
      ],
      [
        "ever",
        -6.7189948424046015
      ],
      [
        "were",
        -6.719035645634024
      ],
      [
        "other",
        -6.726643786479501
      ],
      [
        "how",
        -6.72851054765129
      ],
      [
        "than",
        -6.807210892496977
      ],
      [
        "she",
        -6.81384984106224
      ],
      [
        "great",
        -6.824020622091176
      ],
      [
        ":",
        -6.836987097158618
      ],
      [
        "bad",
        -6.8400886356974695
      ],
      [
        "much",
        -6.842848981144675
      ],
      [
        "well",
        -6.843704604529082
      ],
      [
        "way",
        -6.859833695245529
      ],
      [
        "...",
        -6.8660630302283625
      ],
      [
        "any",
        -6.867189669268258
      ],
      [
        "been",
        -6.868401534379046
      ],
      [
        "most",
        -6.876923243470667
      ],
      [
        "will",
        -6.902370879450329
      ],
      [
        "into",
        -6.906964153334695
      ],
      [
        "people",
        -6.910962456508022
      ],
      [
        "thing",
        -6.950168876139296
      ],
      [
        "love",
        -6.9540318239704355
      ],
      [
        "make",
        -6.955195738292598
      ],
      [
        "becau",
        -6.960677822145318
      ],
      [
        "made",
        -6.995721807596093
      ],
      [
        "first",
        -7.017136462381535
      ],
      [
        "could",
        -7.04023941094211
      ],
      [
        "self",
        -7.0445671092130215
      ],
      [
        "also",
        -7.047575298049901
      ],
      [
        "show",
        -7.064285040055312
      ],
      [
        "think",
        -7.06440646758808
      ],
      [
        "over",
        -7.06801044619613
      ],
      [
        "But",
        -7.109028504986528
      ],
      [
        "them",
        -7.117079147800313
      ],
      [
        "And",
        -7.134479895161675
      ],
      [
        "don",
        -7.149196491906151
      ],
      [
        "S",
        -7.149344884267391
      ],
      [
        "seem",
        -7.1543839915986975
      ],
      [
        "watch",
        -7.162601960219666
      ],
      [
        "/",
        -7.163401537667889
      ],
      [
        "plot",
        -7.172729717006195
      ],
      [
        "actor",
        -7.183156842013286
      ],
      [
        "seen",
        -7.185415544408441
      ],
      [
        "where",
        -7.185449454413931
      ],
      [
        "know",
        -7.189777802323029
      ],
      [
        "being",
        -7.217849598652876
      ],
      [
        "end",
        -7.225833232364797
      ],
      [
        "say",
        -7.227129482803591
      ],
      [
        "T",
        -7.230361340775575
      ],
      [
        ";",
        -7.230379876055403
      ],
      [
        "year",
        -7.231331406745815
      ],
      [
        "ve",
        -7.233377796628497
      ],
      [
        "acting",
        -7.234091454477721
      ],
      [
        "life",
        -7.244177956031965
      ],
      [
        "two",
        -7.245049673999118
      ],
      [
        "want",
        -7.248276074974646
      ],
      [
        "your",
        -7.251009902109825
      ],
      [
        "never",
        -7.265572457113054
      ],
      [
        "There",
        -7.266358402760604
      ],
      [
        "after",
        -7.28108075481463
      ],
      [
        "did",
        -7.28939213256097
      ],
      [
        "through",
        -7.293012403613018
      ],
      [
        "little",
        -7.313182959720558
      ],
      [
        "go",
        -7.313263415742869
      ],
      [
        "off",
        -7.316978267195381
      ],
      [
        "best",
        -7.3191350428547395
      ],
      [
        "scene",
        -7.322419377312
      ],
      [
        "He",
        -7.340469185652294
      ],
      [
        "c",
        -7.342869204901156
      ],
      [
        "does",
        -7.349494171864523
      ],
      [
        "better",
        -7.355892501928535
      ],
      [
        "take",
        -7.358951156121057
      ],
      [
        "M",
        -7.37171425308175
      ],
      [
        "part",
        -7.415166508665186
      ],
      [
        "),",
        -7.419658567563051
      ],
      [
        "back",
        -7.461452108174797
      ],
      [
        "again",
        -7.464139218474962
      ],
      [
        ").",
        -7.469137972823992
      ],
      [
        "find",
        -7.4723657198919256
      ],
      [
        "p",
        -7.474029109894355
      ],
      [
        "still",
        -7.481757595928897
      ],
      [
        "old",
        -7.485446529815535
      ],
      [
        "movies",
        -7.4911370643810695
      ],
      [
        "something",
        -7.492966305000266
      ],
      [
        "scenes",
        -7.4989991114032435
      ],
      [
        "work",
        -7.504786574396878
      ],
      [
        "should",
        -7.505059415476401
      ],
      [
        "such",
        -7.506265366849512
      ],
      [
        "give",
        -7.5164296761107074
      ],
      [
        "here",
        -7.524781338730751
      ],
      [
        "real",
        -7.525611297809302
      ],
      [
        "performance",
        -7.577240817113291
      ],
      [
        "10",
        -7.595359730904486
      ],
      [
        "those",
        -7.6014233455211855
      ],
      [
        "though",
        -7.605963674170598
      ],
      [
        "doesn",
        -7.6080670838271836
      ],
      [
        "films",
        -7.6096252452857005
      ],
      [
        "guy",
        -7.615543174503101
      ],
      [
        "lot",
        -7.621615631938408
      ],
      [
        "didn",
        -7.621937789997254
      ],
      [
        "watching",
        -7.622274859256946
      ],
      [
        "look",
        -7.622409221859527
      ],
      [
        "these",
        -7.62264752246057
      ],
      [
        "funny",
        -7.62975558732464
      ],
      [
        "play",
        -7.64358819330427
      ],
      [
        "B",
        -7.643684674057454
      ],
      [
        "while",
        -7.647071724748292
      ],
      [
        "role",
        -7.64928655678076
      ],
      [
        "--",
        -7.652222782966023
      ],
      [
        "long",
        -7.659943891279726
      ],
      [
        "down",
        -7.665144702053812
      ],
      [
        "going",
        -7.6684678695662445
      ],
      [
        "director",
        -7.669155242438471
      ],
      [
        "same",
        -7.697928758616971
      ],
      [
        "before",
        -7.698482605455688
      ],
      [
        "day",
        -7.705281094446093
      ],
      [
        "few",
        -7.708547703492677
      ],
      [
        "round",
        -7.718618229697691
      ],
      [
        "why",
        -7.7264983645801255
      ],
      [
        "cast",
        -7.730922736527383
      ],
      [
        "&",
        -7.732765843694304
      ],
      [
        "right",
        -7.741973355782196
      ],
      [
        "own",
        -7.764150909610414
      ],
      [
        "nothing",
        -7.771599952438763
      ],
      [
        "fact",
        -7.780172693689908
      ],
      [
        "another",
        -7.78518928421774
      ],
      [
        "2",
        -7.785930188794797
      ],
      [
        "makes",
        -7.788499565234167
      ],
      [
        "now",
        -7.788662159216809
      ],
      [
        "girl",
        -7.790364495615226
      ],
      [
        "ll",
        -7.811300424366541
      ],
      [
        "quite",
        -7.8166689943491505
      ],
      [
        "action",
        -7.821022432755495
      ],
      [
        "thought",
        -7.8299875584387255
      ],
      [
        "pretty",
        -7.834567314446138
      ],
      [
        "every",
        -7.835838739469224
      ],
      [
        "nough",
        -7.841735015697761
      ],
      [
        "original",
        -7.842376364631983
      ],
      [
        "horror",
        -7.845687226219576
      ],
      [
        "bit",
        -7.846968236988477
      ],
      [
        "What",
        -7.847200808972964
      ],
      [
        "You",
        -7.852658283737592
      ],
      [
        "world",
        -7.860732736895578
      ],
      [
        "new",
        -7.861179776241135
      ],
      [
        "got",
        -7.861861347901145
      ],
      [
        "eries",
        -7.86332647928845
      ],
      [
        "g",
        -7.870222258896371
      ],
      [
        "enjoy",
        -7.873515579861614
      ],
      [
        "able",
        -7.8740219554603215
      ],
      [
        "hard",
        -7.885445583246106
      ],
      [
        "between",
        -7.9019011177069025
      ],
      [
        "young",
        -7.904374170298061
      ],
      [
        "point",
        -7.9051031730045445
      ],
      [
        "come",
        -7.912022003877036
      ],
      [
        "kind",
        -7.91444855864245
      ],
      [
        "How",
        -7.922449939911152
      ],
      [
        "must",
        -7.927251686914657
      ],
      [
        "far",
        -7.929751930639622
      ],
      [
        "may",
        -7.930686934010124
      ],
      [
        "saw",
        -7.931099251010124
      ],
      [
        "script",
        -7.933048950714696
      ],
      [
        "comedy",
        -7.939736493683075
      ],
      [
        "less",
        -7.9441435127434055
      ],
      [
        "feel",
        -7.9525451915751315
      ],
      [
        "alway",
        -7.954351063560351
      ],
      [
        "leas",
        -7.95563624932212
      ],
      [
        "music",
        -7.962705605648088
      ],
      [
        "interesting",
        -7.963794211199948
      ],
      [
        "whole",
        -7.964851758512173
      ],
      [
        "1",
        -7.968895487075605
      ],
      [
        "high",
        -7.971975894636953
      ],
      [
        "both",
        -7.973649191951148
      ],
      [
        "complete",
        -7.977815810172679
      ],
      [
        "big",
        -7.986486506927626
      ],
      [
        "almost",
        -7.9894387716283415
      ],
      [
        "TV",
        -7.998115992258571
      ],
      [
        "making",
        -7.999512233149888
      ],
      [
        "kid",
        -8.000300824342625
      ],
      [
        "shot",
        -8.001002673140388
      ],
      [
        "She",
        -8.003741893501763
      ],
      [
        "place",
        -8.00564517682543
      ],
      [
        "might",
        -8.009988326903072
      ],
      [
        "believe",
        -8.015230454641102
      ],
      [
        "without",
        -8.019515553819215
      ],
      [
        "reason",
        -8.021843700602014
      ],
      [
        "effect",
        -8.02305886042725
      ],
      [
        "minutes",
        -8.026847695730947
      ],
      [
        "start",
        -8.034253522708548
      ],
      [
        "O",
        -8.039011105499583
      ],
      [
        "anything",
        -8.053902649885748
      ],
      [
        "become",
        -8.056237952063892
      ],
      [
        "last",
        -8.059604767242627
      ],
      [
        "family",
        -8.061445981831413
      ],
      [
        "So",
        -8.062603599455242
      ],
      [
        "screen",
        -8.062858825299568
      ],
      [
        "fun",
        -8.06600488228189
      ],
      [
        "actuall",
        -8.066692727795495
      ],
      [
        "moment",
        -8.067229915861077
      ],
      [
        "They",
        -8.09057658755787
      ],
      [
        "ness",
        -8.093006325136773
      ],
      [
        "our",
        -8.095881603796153
      ],
      [
        "probabl",
        -8.098464299472539
      ],
      [
        "That",
        -8.101987408238058
      ],
      [
        "need",
        -8.102369359702381
      ],
      [
        "main",
        -8.109162413195662
      ],
      [
        "American",
        -8.112495134651166
      ],
      [
        "each",
        -8.113285491921712
      ],
      [
        "ending",
        -8.114951117578737
      ],
      [
        "woman",
        -8.11909610088098
      ],
      [
        "sure",
        -8.122017072706255
      ],
      [
        "found",
        -8.124582555823565
      ],
      [
        "idea",
        -8.126395271737527
      ],
      [
        "since",
        -8.12784708295837
      ],
      [
        "audience",
        -8.13044429404545
      ],
      [
        "done",
        -8.13115203754711
      ],
      [
        "worth",
        -8.140429187530247
      ],
      [
        "tell",
        -8.153036453574385
      ],
      [
        "3",
        -8.154429703666807
      ],
      [
        "playe",
        -8.154456418077972
      ],
      [
        "put",
        -8.155054061883538
      ],
      [
        "rather",
        -8.157496137389094
      ],
      [
        "book",
        -8.160348136902085
      ],
      [
        "DVD",
        -8.161435152580635
      ],
      [
        "poor",
        -8.16695040179194
      ],
      [
        "gets",
        -8.168132195207589
      ],
      [
        "worst",
        -8.169446760532981
      ],
      [
        "live",
        -8.171424472421107
      ],
      [
        "When",
        -8.175097430183113
      ],
      [
        "course",
        -8.178336089134978
      ],
      [
        "away",
        -8.182571025482508
      ],
      [
        "times",
        -8.18557433104678
      ],
      [
        "looking",
        -8.193460945125812
      ],
      [
        "final",
        -8.19546228260907
      ],
      [
        "different",
        -8.198036600967663
      ],
      [
        "beautiful",
        -8.203121145647989
      ],
      [
        "trying",
        -8.204599195808527
      ],
      [
        "anyone",
        -8.20512317100489
      ],
      [
        "episode",
        -8.206239658827354
      ],
      [
        "For",
        -8.211725074761915
      ],
      [
        "job",
        -8.219656616234845
      ],
      [
        "sense",
        -8.223011673200745
      ],
      [
        "special",
        -8.226769365529995
      ],
      [
        "D",
        -8.22986502021903
      ],
      [
        "let",
        -8.22988013988187
      ],
      [
        "goes",
        -8.232059765761754
      ],
      [
        "One",
        -8.247935809855258
      ],
      [
        "together",
        -8.251838796354416
      ],
      [
        "low",
        -8.252458765991328
      ],
      [
        "We",
        -8.25582414648458
      ],
      [
        "version",
        -8.263100774932765
      ],
      [
        "especiall",
        -8.26555944356588
      ],
      [
        "half",
        -8.267558180582702
      ],
      [
        "either",
        -8.268910045388765
      ],
      [
        "short",
        -8.270988275654483
      ],
      [
        "help",
        -8.272056424143646
      ],
      [
        "problem",
        -8.273658775101705
      ],
      [
        "watche",
        -8.282313721077013
      ],
      [
        "money",
        -8.289013773024893
      ],
      [
        "laugh",
        -8.289865460438207
      ],
      [
        "comes",
        -8.298110542027988
      ],
      [
        "having",
        -8.303355005644413
      ],
      [
        "perfect",
        -8.30915672920158
      ],
      [
        "nice",
        -8.313786461774491
      ],
      [
        "All",
        -8.314476345801685
      ],
      [
        "line",
        -8.315032615246412
      ],
      [
        "happen",
        -8.316211040547186
      ],
      [
        "head",
        -8.31954632914219
      ],
      [
        "mind",
        -8.321804232981155
      ],
      [
        "nstead",
        -8.321958541935903
      ],
      [
        "John",
        -8.321978702541802
      ],
      [
        "recommend",
        -8.324460272511834
      ],
      [
        "said",
        -8.324531805999548
      ],
      [
        "men",
        -8.327855598042465
      ],
      [
        "ity",
        -8.329842990214996
      ],
      [
        "true",
        -8.333871130007337
      ],
      [
        "Not",
        -8.334638014795873
      ],
      [
        "sex",
        -8.337339039421314
      ],
      [
        "someone",
        -8.341684057463754
      ],
      [
        "three",
        -8.34191690996387
      ],
      [
        "hour",
        -8.345175772520673
      ],
      [
        "face",
        -8.347541894603113
      ],
      [
        "read",
        -8.351848692589385
      ],
      [
        "top",
        -8.356012538341735
      ],
      [
        "lead",
        -8.358564351827724
      ],
      [
        "No",
        -8.363759655759019
      ],
      [
        "My",
        -8.363768916314376
      ],
      [
        "E",
        -8.364174731387331
      ],
      [
        "under",
        -8.365953326825847
      ],
      [
        "left",
        -8.367373825265005
      ],
      [
        "second",
        -8.367685088048885
      ],
      [
        "fan",
        -8.368335549446654
      ],
      [
        "5",
        -8.371941884037797
      ],
      [
        "wife",
        -8.37247256228375
      ],
      [
        "budget",
        -8.377213959345363
      ],
      [
        "full",
        -8.379373445987225
      ],
      [
        "everything",
        -8.38044665224519
      ],
      [
        "used",
        -8.384121769491234
      ],
      [
        "actual",
        -8.386094485203559
      ],
      [
        "night",
        -8.38865175704115
      ],
      [
        "use",
        -8.388816431719263
      ],
      [
        "fall",
        -8.389006328590392
      ],
      [
        "else",
        -8.392118132290689
      ],
      [
        "looks",
        -8.393705961417032
      ],
      [
        "entire",
        -8.394310421114588
      ],
      [
        "hear",
        -8.398560508561093
      ],
      [
        "waste",
        -8.402710923324102
      ],
      [
        "P",
        -8.405066228134379
      ],
      [
        "C",
        -8.4050825472081
      ],
      [
        "excellent",
        -8.405685762368064
      ],
      [
        "later",
        -8.40799657907284
      ],
      [
        "piece",
        -8.409625356937514
      ],
      [
        "during",
        -8.41524746484132
      ],
      [
        "human",
        -8.416382320523336
      ],
      [
        "star",
        -8.416831232147436
      ],
      [
        "camera",
        -8.41813105257224
      ],
      [
        "plays",
        -8.419982807375481
      ],
      [
        "home",
        -8.423314224920372
      ],
      [
        "everyone",
        -8.42394028258616
      ],
      [
        "k",
        -8.423960123714158
      ],
      [
        "keep",
        -8.428264849633562
      ],
      [
        "fight",
        -8.428759544055058
      ],
      [
        "classic",
        -8.43113078184341
      ],
      [
        "wasn",
        -8.432134724861015
      ],
      [
        "once",
        -8.435936475277032
      ],
      [
        "production",
        -8.43739025046867
      ],
      [
        "war",
        -8.438797021509213
      ],
      [
        "remember",
        -8.440206247498875
      ],
      [
        "total",
        -8.440492915380432
      ],
      [
        "attempt",
        -8.442923844691602
      ],
      [
        "father",
        -8.446398322821102
      ],
      [
        "death",
        -8.450865517374451
      ],
      [
        "shows",
        -8.452223420737086
      ],
      [
        "serious",
        -8.455206454782704
      ],
      [
        "mean",
        -8.455513404996777
      ],
      [
        "4",
        -8.460950808184137
      ],
      [
        "release",
        -8.462770931031654
      ],
      [
        "house",
        -8.471856328326872
      ],
      [
        "name",
        -8.475023825084659
      ],
      [
        "simply",
        -8.476287073153141
      ],
      [
        "rest",
        -8.480764632747205
      ],
      [
        "couple",
        -8.482488705685427
      ],
      [
        "light",
        -8.48279531365629
      ],
      [
        "person",
        -8.482843285553413
      ],
      [
        "close",
        -8.483114451839034
      ],
      [
        "Hollywood",
        -8.483146331645795
      ],
      [
        "change",
        -8.486129611629678
      ],
      [
        "wonderful",
        -8.488826098675633
      ],
      [
        "expect",
        -8.489055630356942
      ],
      [
        "stupid",
        -8.4894919753766
      ],
      [
        "talent",
        -8.492321965265827
      ],
      [
        "usual",
        -8.501934963919776
      ],
      [
        "wrong",
        -8.501998203399095
      ],
      [
        "try",
        -8.506610967640544
      ],
      [
        "video",
        -8.513961375816159
      ],
      [
        "boring",
        -8.523906912025353
      ],
      [
        "understand",
        -8.525984836036203
      ],
      [
        "awful",
        -8.52756254450266
      ],
      [
        "supposed",
        -8.528415474462008
      ],
      [
        "came",
        -8.529046840259133
      ],
      [
        "kill",
        -8.532708774283591
      ],
      [
        "school",
        -8.534070676939685
      ],
      [
        "friend",
        -8.542090489933132
      ],
      [
        "particular",
        -8.546052320898287
      ],
      [
        "title",
        -8.546926773715706
      ],
      [
        "style",
        -8.549761070639835
      ],
      [
        "small",
        -8.55075777397546
      ],
      [
        "leave",
        -8.55211673519606
      ],
      [
        "women",
        -8.556537829862597
      ],
      [
        "ally",
        -8.559002811167778
      ],
      [
        "Well",
        -8.561245723884632
      ],
      [
        "along",
        -8.562471720980792
      ],
      [
        "surprise",
        -8.5646570451358
      ],
      [
        "won",
        -8.567327499288716
      ],
      [
        "until",
        -8.56735158468295
      ],
      [
        "sort",
        -8.568163043293536
      ],
      [
        "act",
        -8.56879519384164
      ],
      [
        "lack",
        -8.569693042444673
      ],
      [
        "clear",
        -8.573100213918629
      ],
      [
        "writer",
        -8.580024281303444
      ],
      [
        "given",
        -8.580390901032846
      ],
      [
        "ready",
        -8.580582223799034
      ],
      [
        "side",
        -8.580839792508439
      ],
      [
        "black",
        -8.588348345532948
      ],
      [
        "flick",
        -8.590267731847199
      ],
      [
        "mention",
        -8.59109081575098
      ],
      [
        "friends",
        -8.593540915024425
      ],
      [
        "near",
        -8.597097499827987
      ],
      [
        "dialogue",
        -8.59770808928945
      ],
      [
        "appear",
        -8.605777509500014
      ],
      [
        "case",
        -8.607925269879528
      ],
      [
        "hope",
        -8.610829088850023
      ],
      [
        "review",
        -8.611548940363171
      ],
      [
        "On",
        -8.6134026738419
      ],
      [
        "wonder",
        -8.614836771311294
      ],
      [
        "age",
        -8.61649668586352
      ],
      [
        "feature",
        -8.62040119226056
      ],
      [
        "After",
        -8.621961212822841
      ],
      [
        "body",
        -8.627202618786546
      ],
      [
        "trul",
        -8.630273402263512
      ],
      [
        "sequence",
        -8.63188855445202
      ],
      [
        "Even",
        -8.632494340446888
      ],
      [
        "next",
        -8.635245281190286
      ],
      [
        "THE",
        -8.635625900359495
      ],
      [
        "comment",
        -8.637979851521823
      ],
      [
        "*",
        -8.640656262163665
      ],
      [
        "doing",
        -8.641787510479753
      ],
      [
        "fel",
        -8.643278086628483
      ],
      [
        "often",
        -8.644382250931905
      ],
      [
        "terrible",
        -8.644525505064642
      ],
      [
        "mother",
        -8.645138113812243
      ],
      [
        "move",
        -8.647857412115577
      ],
      [
        "car",
        -8.6485765996856
      ],
      [
        "writte",
        -8.649873249417668
      ],
      [
        "maybe",
        -8.652662293674808
      ],
      [
        "v",
        -8.659129625695988
      ],
      [
        "base",
        -8.660845629332638
      ],
      [
        "experience",
        -8.66093427239937
      ],
      [
        "drama",
        -8.66148762667143
      ],
      [
        "R",
        -8.664421499587736
      ],
      [
        "although",
        -8.66778514206744
      ],
      [
        "H",
        -8.671417922513632
      ],
      [
        "went",
        -8.679728821996175
      ],
      [
        "dead",
        -8.681027681834523
      ],
      [
        "definite",
        -8.68223318163076
      ],
      [
        "lines",
        -8.682711404220663
      ],
      [
        "care",
        -8.683792094866332
      ],
      [
        "An",
        -8.684771262656588
      ],
      [
        "example",
        -8.688590967172594
      ],
      [
        "7",
        -8.691450967263979
      ],
      [
        "boy",
        -8.69528918676847
      ],
      [
        "Some",
        -8.69565099923275
      ],
      [
        "feeling",
        -8.696887806329737
      ],
      [
        "entertaining",
        -8.70032362269049
      ],
      [
        "called",
        -8.702843888092374
      ],
      [
        "actress",
        -8.70663568206701
      ],
      [
        "matter",
        -8.7075296277506
      ],
      [
        "Man",
        -8.710456329965616
      ],
      [
        "couldn",
        -8.71247089500533
      ],
      [
        "turn",
        -8.71521290769143
      ],
      [
        "picture",
        -8.717744539613783
      ],
      [
        "children",
        -8.718361060986833
      ],
      [
        "game",
        -8.718387007086578
      ],
      [
        "F",
        -8.72010186508274
      ],
      [
        "With",
        -8.723693353821517
      ],
      [
        "Don",
        -8.725735569554605
      ],
      [
        "slow",
        -8.729268023963742
      ],
      [
        "sound",
        -8.733865836772514
      ],
      [
        "cinema",
        -8.734468359141108
      ],
      [
        "worse",
        -8.738005954983752
      ],
      [
        "consider",
        -8.739322520985924
      ],
      [
        "heart",
        -8.740789091443073
      ],
      [
        "voice",
        -8.74143387442841
      ],
      [
        "guess",
        -8.750576088331176
      ],
      [
        "involve",
        -8.755961494886803
      ],
      [
        "beginning",
        -8.757055487411183
      ],
      [
        "His",
        -8.75960920594374
      ],
      [
        "stars",
        -8.762068023001575
      ],
      [
        "direction",
        -8.763757539062961
      ],
      [
        "hat",
        -8.765234854657587
      ],
      [
        "begin",
        -8.766405239904058
      ],
      [
        "fine",
        -8.768003404594534
      ],
      [
        "late",
        -8.768220522471816
      ],
      [
        "certainly",
        -8.770426507545082
      ],
      [
        "humor",
        -8.771958762294364
      ],
      [
        "favorite",
        -8.777092210875134
      ],
      [
        "brilliant",
        -8.778199535607236
      ],
      [
        "create",
        -8.78118212545876
      ],
      [
        "call",
        -8.78232202051916
      ],
      [
        "8",
        -8.783624929576252
      ],
      [
        "murder",
        -8.78598695391254
      ],
      [
        "amazing",
        -8.790449878426344
      ],
      [
        "While",
        -8.790966788576206
      ],
      [
        "strong",
        -8.792458020366233
      ],
      [
        "killer",
        -8.79280156831176
      ],
      [
        "several",
        -8.793467127654793
      ],
      [
        "Also",
        -8.795631564779747
      ],
      [
        "town",
        -8.79802771927125
      ],
      [
        "rhaps",
        -8.798362913843505
      ],
      [
        "relationship",
        -8.801728584301578
      ],
      [
        "arly",
        -8.802802965765217
      ],
      [
        "art",
        -8.807302342013664
      ],
      [
        "quality",
        -8.80827452014373
      ],
      [
        "run",
        -8.808296673313302
      ],
      [
        "Michael",
        -8.812746960666296
      ],
      [
        "genre",
        -8.815367314879543
      ],
      [
        "Now",
        -8.81579331099611
      ],
      [
        "Why",
        -8.818987681659125
      ],
      [
        "direct",
        -8.820239021450979
      ],
      [
        "writing",
        -8.820443353359865
      ],
      [
        "Of",
        -8.822462896444366
      ],
      [
        "manage",
        -8.826327476770608
      ],
      [
        "past",
        -8.830182422501316
      ],
      [
        "stuff",
        -8.835977816404304
      ],
      [
        "viewer",
        -8.837019559784949
      ],
      [
        "support",
        -8.83806076700465
      ],
      [
        "G",
        -8.839355268933486
      ],
      [
        "follow",
        -8.841678000857879
      ],
      [
        "tries",
        -8.847078116691144
      ],
      [
        "",
        -8.847333486286026
      ],
      [
        "number",
        -8.847476119465767
      ],
      [
        "New",
        -8.855233783653667
      ],
      [
        "daughter",
        -8.857245210308527
      ],
      [
        "group",
        -8.857571714515956
      ],
      [
        "meet",
        -8.861231094105538
      ],
      [
        "wait",
        -8.861456186271724
      ],
      [
        "lost",
        -8.86411584591962
      ],
      [
        "th",
        -8.865865002102428
      ],
      [
        "learn",
        -8.86766458273468
      ],
      [
        "etc",
        -8.879924512223994
      ],
      [
        "type",
        -8.884044426882372
      ],
      [
        "history",
        -8.889411741556865
      ],
      [
        "today",
        -8.893375768694888
      ],
      [
        "child",
        -8.896845038330442
      ],
      [
        "gave",
        -8.898929452730897
      ],
      [
        "J",
        -8.901001127748284
      ],
      [
        "level",
        -8.902255978264769
      ],
      [
        "wise",
        -8.907930566550512
      ],
      [
        "ask",
        -8.908489926878909
      ],
      [
        "9",
        -8.90941560630305
      ],
      [
        "dark",
        -8.909571060173388
      ],
      [
        "miss",
        -8.909825614470146
      ],
      [
        "!<",
        -8.909903306202144
      ],
      [
        "fans",
        -8.910627521620802
      ],
      [
        "situation",
        -8.914027361090167
      ],
      [
        "question",
        -8.914436107712206
      ],
      [
        "basic",
        -8.921914672943796
      ],
      [
        "deal",
        -8.923484863815803
      ],
      [
        "score",
        -8.929631418927283
      ],
      [
        "themsel",
        -8.930232312263641
      ],
      [
        "view",
        -8.933214278423527
      ],
      [
        "white",
        -8.93581520092718
      ],
      [
        "horrible",
        -8.936058204305954
      ],
      [
        "evil",
        -8.936805619870722
      ],
      [
        "lives",
        -8.938210683055667
      ],
      [
        "coming",
        -8.93959373287726
      ],
      [
        "z",
        -8.941342598846344
      ],
      [
        "behind",
        -8.942897370863074
      ],
      [
        "decent",
        -8.943402448255858
      ],
      [
        "kille",
        -8.945748383372415
      ],
      [
        "exact",
        -8.946766930866142
      ],
      [
        "K",
        -8.94795937356556
      ],
      [
        "order",
        -8.94832072412307
      ],
      [
        "stop",
        -8.950027930848425
      ],
      [
        "chance",
        -8.951380714416779
      ],
      [
        "novel",
        -8.955729041305274
      ],
      [
        "eyes",
        -8.959473291898686
      ],
      [
        "realize",
        -8.963848752752662
      ],
      [
        "Just",
        -8.964574171270808
      ],
      [
        "element",
        -8.965972945989183
      ],
      [
        "took",
        -8.970365412335251
      ],
      [
        "W",
        -8.97230912084924
      ],
      [
        "brother",
        -8.972708582820143
      ],
      [
        "ves",
        -8.972839038260112
      ],
      [
        "hilarious",
        -8.985820780559745
      ],
      [
        "turns",
        -8.98600082924623
      ],
      [
        "Robert",
        -8.993303116747935
      ],
      [
        "career",
        -8.996979438221846
      ],
      [
        "directe",
        -8.99861049549236
      ],
      [
        "crap",
        -9.001902307024993
      ],
      [
        "figure",
        -9.002773046958776
      ],
      [
        "thinking",
        -9.002839035273883
      ],
      [
        "important",
        -9.003235671139338
      ],
      [
        "fair",
        -9.004500742437978
      ],
      [
        "save",
        -9.011296620425348
      ],
      [
        "Every",
        -9.012089917111687
      ],
      [
        "personal",
        -9.013133491922467
      ],
      [
        "interest",
        -9.013394204458587
      ],
      [
        "known",
        -9.015601797934472
      ],
      [
        "cut",
        -9.016598478452675
      ],
      [
        "add",
        -9.017063761333509
      ],
      [
        "N",
        -9.017473111835745
      ],
      [
        "David",
        -9.022812232575092
      ],
      [
        "violen",
        -9.02345582554836
      ],
      [
        "strange",
        -9.026906825170634
      ],
      [
        "storie",
        -9.03009407809777
      ],
      [
        "ridiculous",
        -9.031357142304163
      ],
      [
        "includ",
        -9.032388167503578
      ],
      [
        "word",
        -9.033309433861252
      ],
      [
        "husband",
        -9.033736999553899
      ],
      [
        "cool",
        -9.034292728606244
      ],
      [
        "effort",
        -9.036357974102348
      ],
      [
        "6",
        -9.037348083650016
      ],
      [
        "incredibl",
        -9.038630841501794
      ],
      [
        "simple",
        -9.042080746668965
      ],
      [
        "James",
        -9.044572850728294
      ],
      [
        "room",
        -9.045353959009127
      ],
      [
        "opinion",
        -9.045721863601907
      ],
      [
        "obvious",
        -9.048705236218765
      ],
      [
        "disappoint",
        -9.050392722371019
      ],
      [
        "extremely",
        -9.055099960297838
      ],
      [
        "twist",
        -9.055452628061254
      ],
      [
        "police",
        -9.057580671418812
      ],
      [
        "recent",
        -9.058322074131045
      ],
      [
        "result",
        -9.058364907204057
      ],
      [
        "decide",
        -9.05937534546356
      ],
      [
        "L",
        -9.062273265568855
      ],
      [
        "cheap",
        -9.06310608547728
      ],
      [
        "general",
        -9.063365284638225
      ],
      [
        "wish",
        -9.0637639001426
      ],
      [
        "English",
        -9.064719740168197
      ],
      [
        "sequel",
        -9.066678398052424
      ],
      [
        "value",
        -9.066678651570555
      ],
      [
        "musical",
        -9.066905884504624
      ],
      [
        "happ",
        -9.068968108015074
      ],
      [
        "others",
        -9.072713757495446
      ],
      [
        "song",
        -9.073803938112313
      ],
      [
        "except",
        -9.07448344029936
      ],
      [
        "20",
        -9.074733826488979
      ],
      [
        "!!",
        -9.077308329425493
      ],
      [
        "similar",
        -9.079672252121352
      ],
      [
        "local",
        -9.080047744657435
      ],
      [
        "quick",
        -9.087233237092454
      ],
      [
        "obviously",
        -9.092027545832012
      ],
      [
        "apparent",
        -9.094660444630414
      ],
      [
        "female",
        -9.094692069871087
      ],
      [
        "blood",
        -9.09814829666463
      ],
      [
        "happens",
        -9.101480240862173
      ],
      [
        "stay",
        -9.10280491208814
      ],
      [
        "First",
        -9.103746655058398
      ],
      [
        "annoying",
        -9.105251548028534
      ],
      [
        "works",
        -9.105961618120693
      ],
      [
        "return",
        -9.1063785846739
      ],
      [
        "visual",
        -9.10656651920581
      ],
      [
        "cause",
        -9.107256625042378
      ],
      [
        "reality",
        -9.11377412388778
      ],
      [
        "Al",
        -9.11400873198537
      ],
      [
        "opening",
        -9.114069708734437
      ],
      [
        "thriller",
        -9.11551355690706
      ],
      [
        "taken",
        -9.118183589408423
      ],
      [
        "team",
        -9.118910402881774
      ],
      [
        "across",
        -9.119111654266
      ],
      [
        "hell",
        -9.121683501161895
      ],
      [
        "dialog",
        -9.122866989951724
      ],
      [
        "huge",
        -9.125707437044596
      ],
      [
        "looke",
        -9.12638210959697
      ],
      [
        "subject",
        -9.131504929513225
      ],
      [
        "documentar",
        -9.131938063293301
      ],
      [
        "Y",
        -9.134126363909715
      ],
      [
        "talk",
        -9.13550200440618
      ],
      [
        "gore",
        -9.136899540163096
      ],
      [
        "jokes",
        -9.137150776801839
      ],
      [
        "Jack",
        -9.138880214937128
      ],
      [
        "buy",
        -9.1420350838479
      ],
      [
        "deep",
        -9.142107737654353
      ],
      [
        "throw",
        -9.142782949465888
      ],
      [
        "large",
        -9.14379989471162
      ],
      [
        "soon",
        -9.144255029174321
      ],
      [
        "talking",
        -9.14528171984018
      ],
      [
        "monster",
        -9.146620234581071
      ],
      [
        "OK",
        -9.151006620654154
      ],
      [
        "wouldn",
        -9.151377512091297
      ],
      [
        "cinematograph",
        -9.152067946922832
      ],
      [
        "`",
        -9.154114453499304
      ],
      [
        "theater",
        -9.154625615755927
      ],
      [
        "rent",
        -9.155258306976284
      ],
      [
        "sometime",
        -9.156302542430385
      ],
      [
        "comic",
        -9.157875088683898
      ],
      [
        "living",
        -9.157983048493723
      ],
      [
        "alone",
        -9.158611601343727
      ],
      [
        "power",
        -9.159110425193557
      ],
      [
        "rating",
        -9.16286353149449
      ],
      [
        "saying",
        -9.164098259899948
      ],
      [
        "unning",
        -9.165285121415952
      ],
      [
        "sister",
        -9.165449024037876
      ],
      [
        "message",
        -9.166745228927446
      ],
      [
        "possible",
        -9.167247360186987
      ],
      [
        "honest",
        -9.168124081979283
      ],
      [
        "German",
        -9.171368113980463
      ],
      [
        "class",
        -9.17388003861219
      ],
      [
        "taking",
        -9.173913700814914
      ],
      [
        "turne",
        -9.177041901087971
      ],
      [
        "pay",
        -9.17778454940387
      ],
      [
        "walk",
        -9.179408076485108
      ],
      [
        "Over",
        -9.179665053024227
      ],
      [
        "attention",
        -9.180071619011997
      ],
      [
        "despite",
        -9.180566453189243
      ],
      [
        "speak",
        -9.180665457493527
      ],
      [
        "God",
        -9.181582695765883
      ],
      [
        "include",
        -9.188469737453058
      ],
      [
        "provide",
        -9.188886457501097
      ],
      [
        "single",
        -9.190283741516367
      ],
      [
        "emotional",
        -9.191029725321384
      ],
      [
        "detail",
        -9.191466104135207
      ],
      [
        "due",
        -9.19256334804611
      ],
      [
        "parent",
        -9.19329230609106
      ],
      [
        "absolutel",
        -9.193741881941882
      ],
      [
        "typical",
        -9.194483270884286
      ],
      [
        "deserve",
        -9.194855789705528
      ],
      [
        "ago",
        -9.195107751968361
      ],
      [
        "knew",
        -9.197224003462509
      ],
      [
        "country",
        -9.197347370928767
      ],
      [
        "silly",
        -9.199118415331645
      ],
      [
        "George",
        -9.209664046384638
      ],
      [
        "producer",
        -9.213849489978964
      ],
      [
        "among",
        -9.213926232999423
      ],
      [
        "words",
        -9.21572788177804
      ],
      [
        "stage",
        -9.216609390854885
      ],
      [
        "middle",
        -9.219814533525376
      ],
      [
        "modern",
        -9.22016432932135
      ],
      [
        "present",
        -9.221199851191528
      ],
      [
        "Paul",
        -9.222860090010307
      ],
      [
        "image",
        -9.224458114312656
      ],
      [
        "starte",
        -9.224650938887466
      ],
      [
        "predictabl",
        -9.22656773761139
      ],
      [
        "ried",
        -9.22703024339285
      ],
      [
        "major",
        -9.229131584106042
      ],
      [
        "told",
        -9.229903341826125
      ],
      [
        "hold",
        -9.230916106975016
      ],
      [
        "Oscar",
        -9.2312258923473
      ],
      [
        "edit",
        -9.232606671809885
      ],
      [
        "British",
        -9.238189522714395
      ],
      [
        "cliché",
        -9.24168790765836
      ],
      [
        "television",
        -9.245279795613861
      ],
      [
        "moving",
        -9.24541276934563
      ],
      [
        "toward",
        -9.248134577983123
      ],
      [
        "tale",
        -9.248808461768691
      ],
      [
        "villain",
        -9.24960869293443
      ],
      [
        "romantic",
        -9.249916059159949
      ],
      [
        "break",
        -9.251006652379553
      ],
      [
        "x",
        -9.252211545664313
      ],
      [
        "scary",
        -9.253012896367004
      ],
      [
        "doubt",
        -9.254947864835582
      ],
      [
        "filmmaker",
        -9.256233907665163
      ],
      [
        "ends",
        -9.256386230498677
      ],
      [
        "prove",
        -9.257686790546934
      ],
      [
        "From",
        -9.26244262804366
      ],
      [
        "Who",
        -9.263214207054707
      ],
      [
        "!!!",
        -9.264566219781408
      ],
      [
        "crime",
        -9.265040135019191
      ],
      [
        "soundtrack",
        -9.267939116859981
      ],
      [
        "U",
        -9.268578480914385
      ],
      [
        "Maybe",
        -9.26864894306217
      ],
      [
        "fast",
        -9.268994117354168
      ],
      [
        "adult",
        -9.269461562855716
      ],
      [
        "previous",
        -9.274488345849178
      ],
      [
        "viewing",
        -9.276754244121179
      ],
      [
        "asily",
        -9.27685599560619
      ],
      [
        "absolute",
        -9.277349959469515
      ],
      [
        "giving",
        -9.278771811303816
      ],
      [
        "sexual",
        -9.279741011540104
      ],
      [
        "box",
        -9.279848609188452
      ],
      [
        "using",
        -9.280267065328669
      ],
      [
        "season",
        -9.281522970449565
      ],
      [
        "deliver",
        -9.283994864783768
      ],
      [
        "produce",
        -9.284191510039463
      ],
      [
        "Dr",
        -9.28797760497249
      ],
      [
        "escape",
        -9.28798822278128
      ],
      [
        "sets",
        -9.290093398328022
      ],
      [
        "realistic",
        -9.29138271044961
      ],
      [
        "four",
        -9.291430099383433
      ],
      [
        "difficult",
        -9.292905983499043
      ],
      [
        "Her",
        -9.29317085656275
      ],
      [
        "Unfortunate",
        -9.294082637605495
      ],
      [
        "cover",
        -9.294438626650283
      ],
      [
        "minute",
        -9.295469529159488
      ],
      [
        "aspect",
        -9.295952841308889
      ],
      [
        "Yes",
        -9.297349500144644
      ],
      [
        "beyond",
        -9.297795507062517
      ],
      [
        "straight",
        -9.298592797680762
      ],
      [
        "certain",
        -9.299858064926534
      ],
      [
        "future",
        -9.30090210948128
      ],
      [
        "compare",
        -9.304228369293124
      ],
      [
        "Richard",
        -9.305798931311013
      ],
      [
        "Peter",
        -9.306701257385118
      ],
      [
        "dull",
        -9.306730577401579
      ],
      [
        "War",
        -9.306945003728366
      ],
      [
        "fire",
        -9.308952287505608
      ],
      [
        "material",
        -9.309634624690847
      ],
      [
        "above",
        -9.309638063944416
      ],
      [
        "killing",
        -9.310279767097878
      ],
      [
        "setting",
        -9.310475775602082
      ],
      [
        "issue",
        -9.310870983467703
      ],
      [
        "wear",
        -9.311563242024105
      ],
      [
        "check",
        -9.315849411521368
      ],
      [
        "entertainment",
        -9.315995278841385
      ],
      [
        "bring",
        -9.316199619971503
      ],
      [
        "standard",
        -9.318509738664696
      ],
      [
        "emotion",
        -9.319042688769656
      ],
      [
        "open",
        -9.321550062842633
      ],
      [
        "French",
        -9.325478967154336
      ],
      [
        "enjoyabl",
        -9.325577515582246
      ],
      [
        "storyline",
        -9.329895819580338
      ],
      [
        "dance",
        -9.334109276069714
      ],
      [
        "zombie",
        -9.334452150404152
      ],
      [
        "Most",
        -9.335784024291979
      ],
      [
        "drive",
        -9.335946155328974
      ],
      [
        "bunch",
        -9.336542037525593
      ],
      [
        "victim",
        -9.33764628799029
      ],
      [
        "suspense",
        -9.337674078498388
      ],
      [
        "Like",
        -9.338977143039184
      ],
      [
        "working",
        -9.342912223138804
      ],
      [
        "please",
        -9.343610495623539
      ],
      [
        "write",
        -9.346052766105572
      ],
      [
        "easy",
        -9.346154011074812
      ],
      [
        "!\"",
        -9.347037439143959
      ],
      [
        "agree",
        -9.349413766241206
      ],
      [
        "form",
        -9.351706931175611
      ],
      [
        "free",
        -9.353668002714402
      ],
      [
        "songs",
        -9.353770472551759
      ],
      [
        "mess",
        -9.355656881748374
      ],
      [
        "imagine",
        -9.359630369733996
      ],
      [
        "Star",
        -9.361231366488862
      ],
      [
        "fail",
        -9.362173189989683
      ],
      [
        "bigge",
        -9.36255915738181
      ],
      [
        "cop",
        -9.36335385659563
      ],
      [
        "weak",
        -9.363372572000845
      ],
      [
        "water",
        -9.364513386884738
      ],
      [
        "creep",
        -9.364669708989846
      ],
      [
        "famous",
        -9.364820223043395
      ],
      [
        "kept",
        -9.365568461188854
      ],
      [
        "sleep",
        -9.365936979668305
      ],
      [
        "student",
        -9.366499423183642
      ],
      [
        "discover",
        -9.36809687346481
      ],
      [
        "named",
        -9.368644295452604
      ],
      [
        "period",
        -9.369809206334615
      ],
      [
        "normal",
        -9.370342904350828
      ],
      [
        "Tom",
        -9.372256843971087
      ],
      [
        "spend",
        -9.374868480295092
      ],
      [
        "capture",
        -9.375115068931812
      ],
      [
        "city",
        -9.37556847984165
      ],
      [
        "believabl",
        -9.375900291685866
      ],
      [
        "five",
        -9.382271679165889
      ],
      [
        "upon",
        -9.383047444647225
      ],
      [
        "cartoon",
        -9.383383447090985
      ],
      [
        "lthough",
        -9.384231420383813
      ],
      [
        "showing",
        -9.384718197690878
      ],
      [
        "rate",
        -9.385060551942221
      ],
      [
        "De",
        -9.385553211347919
      ],
      [
        "superb",
        -9.387674755559622
      ],
      [
        "weird",
        -9.387999205463728
      ],
      [
        "premise",
        -9.388696219343117
      ],
      [
        "explain",
        -9.389062829265924
      ],
      [
        "ability",
        -9.391403566017448
      ],
      [
        "200",
        -9.393027039603332
      ],
      [
        "decided",
        -9.394852128611852
      ],
      [
        "America",
        -9.396659434802391
      ],
      [
        "front",
        -9.397393839071771
      ],
      [
        "dog",
        -9.397946781131907
      ],
      [
        "event",
        -9.40046707092445
      ],
      [
        "King",
        -9.403051486774899
      ],
      [
        "acted",
        -9.404083088531806
      ],
      [
        "overall",
        -9.404634348870632
      ],
      [
        "70",
        -9.404755689589162
      ],
      [
        "appreciate",
        -9.405092590020306
      ],
      [
        "soldier",
        -9.40512258480862
      ],
      [
        "telling",
        -9.40650633183878
      ],
      [
        "dream",
        -9.407967666576123
      ],
      [
        "utter",
        -9.409189925393568
      ],
      [
        "Movie",
        -9.409275942015867
      ],
      [
        "Or",
        -9.409729639798122
      ],
      [
        "animation",
        -9.411360305781013
      ],
      [
        "business",
        -9.414842707748939
      ],
      [
        "crew",
        -9.415565046177846
      ],
      [
        "Watch",
        -9.417501923512305
      ],
      [
        "V",
        -9.422982105931041
      ],
      [
        "week",
        -9.425499973388003
      ],
      [
        "30",
        -9.425867821757027
      ],
      [
        "notice",
        -9.426024116907227
      ],
      [
        "background",
        -9.428717256222413
      ],
      [
        "forward",
        -9.429479010250436
      ],
      [
        "atmosphere",
        -9.430306755268063
      ],
      [
        "male",
        -9.430974114413766
      ],
      [
        "fantastic",
        -9.431206436353648
      ],
      [
        "political",
        -9.433575604168434
      ],
      [
        "unfortunate",
        -9.43385676703658
      ],
      [
        "York",
        -9.435147839904776
      ],
      [
        "societ",
        -9.435278846995441
      ],
      [
        "whe",
        -9.43568376230953
      ],
      [
        "force",
        -9.435942986254709
      ],
      [
        "masterpiece",
        -9.437562040587379
      ],
      [
        "average",
        -9.438208095979155
      ],
      [
        "expected",
        -9.438272501399538
      ],
      [
        "anyway",
        -9.439386762810962
      ],
      [
        "effective",
        -9.440147482016094
      ],
      [
        "surprising",
        -9.440266106209856
      ],
      [
        "Joe",
        -9.441227621465135
      ],
      [
        "!)",
        -9.444054499206901
      ],
      [
        "lame",
        -9.445578508763004
      ],
      [
        "portray",
        -9.447456755150789
      ],
      [
        "red",
        -9.447801504581804
      ],
      [
        "80",
        -9.453964548058682
      ],
      [
        "amount",
        -9.459074193483794
      ],
      [
        "romance",
        -9.460083934159169
      ],
      [
        "pure",
        -9.461008622493239
      ],
      [
        "joke",
        -9.461948566873836
      ],
      [
        "gone",
        -9.462586223454773
      ],
      [
        "accent",
        -9.462587316935442
      ],
      [
        "aren",
        -9.462660106590121
      ],
      [
        "pull",
        -9.463127912498113
      ],
      [
        "chees",
        -9.463632175004811
      ],
      [
        "truth",
        -9.464722473510168
      ],
      [
        "Lee",
        -9.464894190493247
      ],
      [
        "dramatic",
        -9.465377837576293
      ],
      [
        "constant",
        -9.472266304876289
      ],
      [
        "clever",
        -9.472773941388745
      ],
      [
        "memorabl",
        -9.474126813626153
      ],
      [
        "trouble",
        -9.47496582002038
      ],
      [
        "$",
        -9.477257135201855
      ],
      [
        "continue",
        -9.479462363369901
      ],
      [
        "allow",
        -9.48225826489552
      ],
      [
        "footage",
        -9.484235796099892
      ],
      [
        "ship",
        -9.484793001640544
      ],
      [
        "space",
        -9.487260792717258
      ],
      [
        "NOT",
        -9.489191843297435
      ],
      [
        "ment",
        -9.491084012887491
      ],
      [
        "viewers",
        -9.492126562380644
      ],
      [
        "unique",
        -9.492416569426581
      ],
      [
        "secret",
        -9.493319877687092
      ],
      [
        "gay",
        -9.493622716325605
      ],
      [
        "girlfriend",
        -9.495493205284088
      ],
      [
        "forced",
        -9.496533740371548
      ],
      [
        "rich",
        -9.497913990047492
      ],
      [
        "pick",
        -9.498318356962706
      ],
      [
        "interested",
        -9.498844712603027
      ],
      [
        "sudden",
        -9.500784482076597
      ],
      [
        "orry",
        -9.500824209703932
      ],
      [
        "avoid",
        -9.502175489489959
      ],
      [
        "respect",
        -9.502298998374002
      ],
      [
        "forget",
        -9.503478297243166
      ],
      [
        "theme",
        -9.503645939592719
      ],
      [
        "suggest",
        -9.504422042065597
      ],
      [
        "earlie",
        -9.507453049820345
      ],
      [
        "nature",
        -9.508287036716762
      ],
      [
        "describe",
        -9.508501033656941
      ],
      [
        "reading",
        -9.508523518205727
      ],
      [
        "Here",
        -9.508641572124343
      ],
      [
        "flaw",
        -9.508646482363579
      ],
      [
        "location",
        -9.509003348592103
      ],
      [
        "eventual",
        -9.51073938999713
      ],
      [
        "ultimate",
        -9.512210904033779
      ],
      [
        "....",
        -9.515782619910764
      ],
      [
        "Black",
        -9.515839990995085
      ],
      [
        "draw",
        -9.516233520302038
      ],
      [
        "admit",
        -9.517382630338947
      ],
      [
        "remain",
        -9.517944299091628
      ],
      [
        "Other",
        -9.51814992035423
      ],
      [
        "means",
        -9.52059622075581
      ],
      [
        "ended",
        -9.521698638427694
      ],
      [
        "potential",
        -9.522260900007412
      ],
      [
        "myster",
        -9.524567727744795
      ],
      [
        "screenplay",
        -9.525145292842655
      ],
      [
        "powerful",
        -9.52805908465358
      ],
      [
        "possibl",
        -9.528073537640097
      ],
      [
        "Disney",
        -9.529272276552682
      ],
      [
        "successful",
        -9.53091938855157
      ],
      [
        "Scott",
        -9.531517556092668
      ],
      [
        "older",
        -9.532115899928716
      ],
      [
        "unlike",
        -9.533262507133383
      ],
      [
        "credit",
        -9.533342678744026
      ],
      [
        "90",
        -9.53696258080452
      ],
      [
        "gun",
        -9.539490726756304
      ],
      [
        "copy",
        -9.540876172105246
      ],
      [
        "These",
        -9.542572990815382
      ],
      [
        "Japanese",
        -9.54346136658496
      ],
      [
        "ecame",
        -9.543956636875208
      ],
      [
        "stick",
        -9.545006171121752
      ],
      [
        "development",
        -9.545492503285
      ],
      [
        "third",
        -9.545857468005181
      ],
      [
        "reveal",
        -9.547726157524135
      ],
      [
        "dumb",
        -9.548538258369089
      ],
      [
        "credits",
        -9.551812101097651
      ],
      [
        "maker",
        -9.5523533521811
      ],
      [
        "neede",
        -9.553750588863705
      ],
      [
        "Good",
        -9.55729299865854
      ],
      [
        "convincing",
        -9.557825574818622
      ],
      [
        "Do",
        -9.559000090049976
      ],
      [
        "William",
        -9.563087599617202
      ],
      [
        "shoot",
        -9.567034576657889
      ],
      [
        "public",
        -9.567574712654764
      ],
      [
        "remake",
        -9.567616435375388
      ],
      [
        "term",
        -9.569366058721208
      ],
      [
        "misse",
        -9.571769412008564
      ],
      [
        "popular",
        -9.571929808702311
      ],
      [
        "contain",
        -9.572975510860719
      ],
      [
        "cute",
        -9.573447575386894
      ],
      [
        "shame",
        -9.573653485309912
      ],
      [
        "illed",
        -9.57394065991125
      ],
      [
        "field",
        -9.57430101674646
      ],
      [
        "battle",
        -9.575132316854823
      ],
      [
        "50",
        -9.575806072981976
      ],
      [
        "steal",
        -9.576341232590964
      ],
      [
        "store",
        -9.576559448544959
      ],
      [
        "natural",
        -9.577258433176684
      ],
      [
        "IMD",
        -9.579348229801637
      ],
      [
        "?)",
        -9.580421712133791
      ],
      [
        "pent",
        -9.582266935610566
      ],
      [
        "Let",
        -9.58410937908857
      ],
      [
        "pace",
        -9.585150553553525
      ],
      [
        "success",
        -9.585267992523818
      ],
      [
        "rock",
        -9.585610192393146
      ],
      [
        "painful",
        -9.585768326660585
      ],
      [
        "Ver",
        -9.58643565712677
      ],
      [
        "list",
        -9.586438358380757
      ],
      [
        "focus",
        -9.58739688812057
      ],
      [
        "doctor",
        -9.588094400887577
      ],
      [
        "hands",
        -9.588298339360893
      ],
      [
        "Ben",
        -9.588649244528014
      ],
      [
        "199",
        -9.589203026167871
      ],
      [
        "various",
        -9.589734520722132
      ],
      [
        "trash",
        -9.589792661746934
      ],
      [
        "costume",
        -9.590135647771168
      ],
      [
        "plent",
        -9.593944729857604
      ],
      [
        "?\"",
        -9.59440178538367
      ],
      [
        "ities",
        -9.594769918761914
      ],
      [
        "brough",
        -9.598300053164941
      ],
      [
        "plan",
        -9.598662063128373
      ],
      [
        "inside",
        -9.599049279847064
      ],
      [
        "color",
        -9.603736025795914
      ],
      [
        "Italian",
        -9.6039586567593
      ],
      [
        "hair",
        -9.604087019260746
      ],
      [
        "attack",
        -9.604500112334623
      ],
      [
        "craz",
        -9.60576501904108
      ],
      [
        "ground",
        -9.606567208265066
      ],
      [
        "plain",
        -9.612306394664243
      ],
      [
        "chase",
        -9.613903259500132
      ],
      [
        "animal",
        -9.616815673154303
      ],
      [
        "positive",
        -9.617618158532306
      ],
      [
        "ex",
        -9.618435256046453
      ],
      [
        "portrayal",
        -9.619300238038715
      ],
      [
        "Great",
        -9.620609837992227
      ],
      [
        "catch",
        -9.621124190041858
      ],
      [
        "portraye",
        -9.623474402508567
      ],
      [
        "lover",
        -9.626603590725681
      ],
      [
        "Jane",
        -9.626929596610587
      ],
      [
        "studio",
        -9.627041664442029
      ],
      [
        "feels",
        -9.627767296997433
      ],
      [
        "led",
        -9.628194126797998
      ],
      [
        "project",
        -9.628526897928921
      ],
      [
        "concept",
        -9.630316431039653
      ],
      [
        "beauty",
        -9.631327758954864
      ],
      [
        "appearance",
        -9.634061252772288
      ],
      [
        "flat",
        -9.634159688417054
      ],
      [
        "Film",
        -9.637820111380798
      ],
      [
        "equal",
        -9.640689054644625
      ],
      [
        "culture",
        -9.640813072013028
      ],
      [
        "match",
        -9.64137781016659
      ],
      [
        "points",
        -9.64206227844889
      ],
      [
        "moral",
        -9.643006140654819
      ],
      [
        "social",
        -9.644556720848678
      ],
      [
        "leading",
        -9.644869749197515
      ],
      [
        "mistake",
        -9.647796583470605
      ],
      [
        "\")",
        -9.648417864768195
      ],
      [
        "familiar",
        -9.650115081896802
      ],
      [
        "depth",
        -9.652324190900087
      ],
      [
        "15",
        -9.653743425246578
      ],
      [
        "World",
        -9.65407096377811
      ],
      [
        "ance",
        -9.657576361248566
      ],
      [
        "whom",
        -9.658523136822453
      ],
      [
        "outside",
        -9.659826202039035
      ],
      [
        "regard",
        -9.661053434640198
      ],
      [
        "purpose",
        -9.663632114972682
      ],
      [
        "Director",
        -9.663960179919503
      ],
      [
        "player",
        -9.664528823527277
      ],
      [
        "caugh",
        -9.665251226593131
      ],
      [
        "former",
        -9.667885120245767
      ],
      [
        "lady",
        -9.668269985804274
      ],
      [
        "mood",
        -9.668423135723483
      ],
      [
        "Bill",
        -9.671928078283072
      ],
      [
        "post",
        -9.672165650337366
      ],
      [
        "US",
        -9.673030857767166
      ],
      [
        "Indian",
        -9.673102189697401
      ],
      [
        "language",
        -9.675566956471778
      ],
      [
        "tension",
        -9.679563853812652
      ],
      [
        "exist",
        -9.681545008063065
      ],
      [
        "Love",
        -9.684726277429478
      ],
      [
        "sick",
        -9.68592886287848
      ],
      [
        "anti",
        -9.686049759599182
      ],
      [
        "western",
        -9.686460692085685
      ],
      [
        "whatever",
        -9.687796174020342
      ],
      [
        "beat",
        -9.689001900592013
      ],
      [
        "wrot",
        -9.690190082590338
      ],
      [
        "answer",
        -9.690734256967266
      ],
      [
        "laughing",
        -9.690854137066857
      ],
      [
        "nudi",
        -9.69093083836647
      ],
      [
        "intelligent",
        -9.6929102113288
      ],
      [
        "fails",
        -9.693484188634523
      ],
      [
        "control",
        -9.693638965351134
      ],
      [
        "creature",
        -9.694766798785183
      ],
      [
        "extra",
        -9.697016781682192
      ],
      [
        "Will",
        -9.700010576137846
      ],
      [
        "members",
        -9.700900993766439
      ],
      [
        "cry",
        -9.701199361918384
      ],
      [
        "bar",
        -9.702225015889608
      ],
      [
        "worke",
        -9.705581220420584
      ],
      [
        "common",
        -9.707294507841262
      ],
      [
        "wide",
        -9.707370079906344
      ],
      [
        "choice",
        -9.708232323436205
      ],
      [
        "unless",
        -9.708754373358214
      ],
      [
        "Any",
        -9.710595075626973
      ],
      [
        "Sam",
        -9.711990793142093
      ],
      [
        "Dead",
        -9.714104551255357
      ],
      [
        "sweet",
        -9.715685017761826
      ],
      [
        "street",
        -9.716018486440621
      ],
      [
        "Anyway",
        -9.717312392357455
      ],
      [
        "fake",
        -9.718846975381368
      ],
      [
        "married",
        -9.72012853467204
      ],
      [
        "brief",
        -9.720334466234348
      ],
      [
        "following",
        -9.720389326578427
      ],
      [
        "photograph",
        -9.721338342213109
      ],
      [
        "further",
        -9.723827318989333
      ],
      [
        "spot",
        -9.724010891663037
      ],
      [
        "pathetic",
        -9.725236036218671
      ],
      [
        "La",
        -9.725890351844164
      ],
      [
        "camp",
        -9.72782859168569
      ],
      [
        "Wood",
        -9.727855805261829
      ],
      [
        "keeps",
        -9.72923635957585
      ],
      [
        "state",
        -9.729843009976078
      ],
      [
        "taste",
        -9.731068864013013
      ],
      [
        "drug",
        -9.73244326535085
      ],
      [
        "immediate",
        -9.733358075422782
      ],
      [
        "gang",
        -9.733512170147167
      ],
      [
        "knows",
        -9.734271194373271
      ],
      [
        "fantasy",
        -9.734301114099532
      ],
      [
        "exciting",
        -9.735525849592976
      ],
      [
        "ear",
        -9.736020249552343
      ],
      [
        "fashion",
        -9.73745378598089
      ],
      [
        "Where",
        -9.740145032442223
      ],
      [
        "train",
        -9.741521449466735
      ],
      [
        "bored",
        -9.744616917581943
      ],
      [
        "amusing",
        -9.744690444149004
      ],
      [
        "meaning",
        -9.747987297086638
      ],
      [
        "pointless",
        -9.749098519694641
      ],
      [
        "Go",
        -9.75113689291342
      ],
      [
        "genuine",
        -9.752709129950386
      ],
      [
        "bizarre",
        -9.75294333912397
      ],
      [
        "iness",
        -9.755663550348936
      ],
      [
        "trip",
        -9.756605790729056
      ],
      [
        "Night",
        -9.758004085581563
      ],
      [
        "hop",
        -9.760536533164665
      ],
      [
        "spirit",
        -9.76069073028647
      ],
      [
        "casting",
        -9.761285947713063
      ],
      [
        "sounds",
        -9.764414135063227
      ],
      [
        "artist",
        -9.76568668231193
      ],
      [
        "travel",
        -9.766004089274333
      ],
      [
        "sub",
        -9.767390641976355
      ],
      [
        "sci",
        -9.767988952389732
      ],
      [
        "board",
        -9.76875121300224
      ],
      [
        "rated",
        -9.770007682766458
      ],
      [
        "younger",
        -9.770348952642294
      ],
      [
        "office",
        -9.770766173167047
      ],
      [
        "Big",
        -9.771577336114703
      ],
      [
        "boys",
        -9.772298513125008
      ],
      [
        "building",
        -9.773345266323911
      ],
      [
        "literal",
        -9.773468318910759
      ],
      [
        "difference",
        -9.77446094960646
      ],
      [
        "House",
        -9.775939771163582
      ],
      [
        "impressive",
        -9.776458870057304
      ],
      [
        "critic",
        -9.776803562284261
      ],
      [
        "historical",
        -9.777397441001394
      ],
      [
        "unbelievabl",
        -9.77859606138675
      ],
      [
        "197",
        -9.778692818361616
      ],
      [
        "adaptation",
        -9.783504641549804
      ],
      [
        "introduce",
        -9.784391374397213
      ],
      [
        "meant",
        -9.785997970566857
      ],
      [
        "Gar",
        -9.787288163762323
      ],
      [
        "bother",
        -9.787476726561088
      ],
      [
        "computer",
        -9.78752078048305
      ],
      [
        "Still",
        -9.788851279168417
      ],
      [
        "100",
        -9.789025685752918
      ],
      [
        "Christmas",
        -9.78957146115498
      ],
      [
        "relate",
        -9.790622939331445
      ],
      [
        "humour",
        -9.791657167046253
      ],
      [
        "earth",
        -9.791936578893328
      ],
      [
        "appeal",
        -9.792703974990335
      ],
      [
        "suck",
        -9.794088421516587
      ],
      [
        "race",
        -9.795390251718011
      ],
      [
        "college",
        -9.795672785941774
      ],
      [
        "company",
        -9.795682141287573
      ],
      [
        "share",
        -9.797691261496421
      ],
      [
        "fear",
        -9.798435374664262
      ],
      [
        "struggle",
        -9.799452756432443
      ],
      [
        "roll",
        -9.79973046265637
      ],
      [
        "rape",
        -9.80065200507164
      ],
      [
        "pop",
        -9.800843744361014
      ],
      [
        "million",
        -9.80184500341734
      ],
      [
        "solid",
        -9.802739198294887
      ],
      [
        "remind",
        -9.803769624824097
      ],
      [
        "ears",
        -9.804631181228451
      ],
      [
        "tough",
        -9.804871966731634
      ],
      [
        "See",
        -9.805912140287344
      ],
      [
        "involv",
        -9.806344043907417
      ],
      [
        "dancing",
        -9.809058515198172
      ],
      [
        "subtle",
        -9.810738676684817
      ],
      [
        "slasher",
        -9.811420954567588
      ],
      [
        "Jim",
        -9.814441943890623
      ],
      [
        "mere",
        -9.814861374503309
      ],
      [
        "Van",
        -9.817115802970694
      ],
      [
        "Best",
        -9.81779924746198
      ],
      [
        "violent",
        -9.817864238008628
      ],
      [
        "teenager",
        -9.818176721951332
      ],
      [
        "necessar",
        -9.818344017206595
      ],
      [
        "Sure",
        -9.819593713467889
      ],
      [
        "genius",
        -9.82048803709403
      ],
      [
        "shooting",
        -9.823574549776351
      ],
      [
        "adventure",
        -9.824999599228669
      ],
      [
        "touch",
        -9.826981730847603
      ],
      [
        "cost",
        -9.827102722170416
      ],
      [
        "date",
        -9.82849582016629
      ],
      [
        "impossibl",
        -9.829271296612063
      ],
      [
        "manner",
        -9.832112043124809
      ],
      [
        "loud",
        -9.832352451235463
      ],
      [
        "60",
        -9.83260777640078
      ],
      [
        "Charles",
        -9.833084783590456
      ],
      [
        "scientist",
        -9.833125826489182
      ],
      [
        "conclusion",
        -9.834209660860548
      ],
      [
        "mark",
        -9.835899488636908
      ],
      [
        "stand",
        -9.837780382591784
      ],
      [
        "claim",
        -9.837808951110214
      ],
      [
        "door",
        -9.838414026714123
      ],
      [
        "garbage",
        -9.838438048008513
      ],
      [
        "brain",
        -9.839150552431644
      ],
      [
        "motion",
        -9.839348622892093
      ],
      [
        "ghost",
        -9.839693842926879
      ],
      [
        "impression",
        -9.842394310631757
      ],
      [
        "disturbing",
        -9.843497380339704
      ],
      [
        "chemist",
        -9.843937905803905
      ],
      [
        "develop",
        -9.846165247321162
      ],
      [
        "glad",
        -9.84680047443596
      ],
      [
        "search",
        -9.84719153119342
      ],
      [
        "cold",
        -9.847239650977581
      ],
      [
        "ill",
        -9.847734137055717
      ],
      [
        "track",
        -9.849751701161921
      ],
      [
        "party",
        -9.852275291390555
      ],
      [
        "key",
        -9.854932524605669
      ],
      [
        "mad",
        -9.855123480153747
      ],
      [
        "awesome",
        -9.855823651641966
      ],
      [
        "Jones",
        -9.856534718911835
      ],
      [
        "laughabl",
        -9.857422728486895
      ],
      [
        "Two",
        -9.858357662522959
      ],
      [
        "complex",
        -9.859557402672973
      ],
      [
        "reference",
        -9.860064039318068
      ],
      [
        "super",
        -9.860865927912439
      ],
      [
        "Though",
        -9.862156155348199
      ],
      [
        "cult",
        -9.862410224783144
      ],
      [
        "reviewer",
        -9.8626608007363
      ],
      [
        "finish",
        -9.863914477982185
      ],
      [
        "master",
        -9.864903121570073
      ],
      [
        "avail",
        -9.865164926165773
      ],
      [
        "develope",
        -9.865450084584708
      ],
      [
        "physical",
        -9.866534602589091
      ],
      [
        "centur",
        -9.867150464337541
      ],
      [
        "lots",
        -9.867230687598319
      ],
      [
        "mental",
        -9.867910508750331
      ],
      [
        "length",
        -9.86805943712828
      ],
      [
        "Final",
        -9.86829892241568
      ],
      [
        "road",
        -9.86833257773209
      ],
      [
        "carry",
        -9.868501059457273
      ],
      [
        "City",
        -9.868679922556492
      ],
      [
        "forgot",
        -9.869277946424539
      ],
      [
        "Martin",
        -9.870273372221863
      ],
      [
        "prison",
        -9.871837005567603
      ],
      [
        "receive",
        -9.875332660415923
      ],
      [
        "Frank",
        -9.875347824270328
      ],
      [
        "excuse",
        -9.876439787589902
      ],
      [
        "loose",
        -9.876887824195673
      ],
      [
        "uses",
        -9.87823421679082
      ],
      [
        "depict",
        -9.879081280982259
      ],
      [
        "torture",
        -9.879279220027488
      ],
      [
        "leaving",
        -9.879850472171555
      ],
      [
        "exception",
        -9.881079856176813
      ],
      [
        "pain",
        -9.881623010230463
      ],
      [
        "OF",
        -9.881658608829305
      ],
      [
        "charm",
        -9.881739780890033
      ],
      [
        "High",
        -9.882168003285717
      ],
      [
        "Chris",
        -9.882888848235078
      ],
      [
        "plus",
        -9.883057712070936
      ],
      [
        "X",
        -9.883448513029713
      ],
      [
        "display",
        -9.883687388098574
      ],
      [
        "sitting",
        -9.8839180387768
      ],
      [
        "baby",
        -9.885151505186164
      ],
      [
        "criminal",
        -9.885332975943049
      ],
      [
        "boyfriend",
        -9.89006300801864
      ],
      [
        "animate",
        -9.890182901799456
      ],
      [
        "Mary",
        -9.890258750027453
      ],
      [
        "succeed",
        -9.890931858070111
      ],
      [
        "limit",
        -9.8909700296511
      ],
      [
        "teen",
        -9.89163816069156
      ],
      [
        "grow",
        -9.89466728846171
      ],
      [
        "okay",
        -9.89469770680018
      ],
      [
        "lies",
        -9.89486800891582
      ],
      [
        "adde",
        -9.898877480203573
      ],
      [
        "smart",
        -9.899243861279635
      ],
      [
        "opportunit",
        -9.900772198666779
      ],
      [
        "build",
        -9.904402915831932
      ],
      [
        "innocent",
        -9.904499548355455
      ],
      [
        "Christian",
        -9.904565711735371
      ],
      [
        "expectation",
        -9.905837692635384
      ],
      [
        "Red",
        -9.906374637014297
      ],
      [
        "cinematic",
        -9.906938147177339
      ],
      [
        "Dark",
        -9.907568002797412
      ],
      [
        "edge",
        -9.90766990011555
      ],
      [
        "London",
        -9.907896016121304
      ],
      [
        "mid",
        -9.91056522643975
      ],
      [
        "law",
        -9.912200887521333
      ],
      [
        "random",
        -9.914667155438977
      ],
      [
        "starring",
        -9.915865638005481
      ],
      [
        "jump",
        -9.917421394775491
      ],
      [
        "SPOILER",
        -9.918273529835506
      ],
      [
        "mysterious",
        -9.918330856730275
      ],
      [
        "pre",
        -9.918720762073544
      ],
      [
        "Earth",
        -9.919364795690086
      ],
      [
        "People",
        -9.919407598473054
      ],
      [
        "wall",
        -9.921327826941251
      ],
      [
        "tic",
        -9.921677404166964
      ],
      [
        "trailer",
        -9.921751661272255
      ],
      [
        "island",
        -9.922672327095722
      ],
      [
        "narrative",
        -9.922881694060894
      ],
      [
        "fresh",
        -9.925823367381543
      ],
      [
        "dies",
        -9.925984410507546
      ],
      [
        "stunning",
        -9.927832775187717
      ],
      [
        "ought",
        -9.928502917500087
      ],
      [
        "climax",
        -9.92869378233885
      ],
      [
        "worthy",
        -9.928859834497395
      ],
      [
        "presence",
        -9.928874129897503
      ],
      [
        "ight",
        -9.929719092711146
      ],
      [
        "revenge",
        -9.931165949600327
      ],
      [
        "inspire",
        -9.931493971698249
      ],
      [
        "decade",
        -9.931519249696816
      ],
      [
        "ride",
        -9.932653668867388
      ],
      [
        "Never",
        -9.93309456282213
      ],
      [
        "six",
        -9.933925221274917
      ],
      [
        "count",
        -9.934430998681004
      ],
      [
        "Charlie",
        -9.934603423828143
      ],
      [
        "Steve",
        -9.93514284587093
      ],
      [
        "ation",
        -9.93573446421308
      ],
      [
        "militar",
        -9.936882553221096
      ],
      [
        "Becau",
        -9.937855980956574
      ],
      [
        "heavy",
        -9.938309703580565
      ],
      [
        "desperate",
        -9.939339254809838
      ],
      [
        "Rock",
        -9.940498989848944
      ],
      [
        "survive",
        -9.940905778692919
      ],
      [
        "approach",
        -9.941720227990492
      ],
      [
        "pass",
        -9.941920609273946
      ],
      [
        "charming",
        -9.943321168714341
      ],
      [
        "phone",
        -9.943989382280247
      ],
      [
        "shock",
        -9.944533696435734
      ],
      [
        "wild",
        -9.946662272493203
      ],
      [
        "suppose",
        -9.94749478191001
      ],
      [
        "journey",
        -9.94753127069184
      ],
      [
        "Smith",
        -9.947951753660629
      ],
      [
        "suspect",
        -9.948367568357172
      ],
      [
        "award",
        -9.949860046251345
      ],
      [
        "terrific",
        -9.949908478542737
      ],
      [
        "silent",
        -9.949978851444065
      ],
      [
        "Can",
        -9.951159379017675
      ],
      [
        "kick",
        -9.95147448144738
      ],
      [
        "science",
        -9.952281306234095
      ],
      [
        "%",
        -9.952518535850048
      ],
      [
        "flashback",
        -9.95259505848884
      ],
      [
        "Despi",
        -9.953401684441141
      ],
      [
        "month",
        -9.953705928599813
      ],
      [
        "professional",
        -9.953950243853583
      ],
      [
        "angle",
        -9.954488535303689
      ],
      [
        "nowhere",
        -9.955455561085337
      ],
      [
        "conflict",
        -9.955882261900573
      ],
      [
        "occasional",
        -9.956092942811232
      ],
      [
        "visit",
        -9.959720002612585
      ],
      [
        "affair",
        -9.959720853641478
      ],
      [
        "198",
        -9.95981491925749
      ],
      [
        "agent",
        -9.960003776782806
      ],
      [
        "indee",
        -9.96292212108878
      ],
      [
        "bough",
        -9.963786342787285
      ],
      [
        "soul",
        -9.96756675364704
      ],
      [
        "singer",
        -9.969540956904757
      ],
      [
        "government",
        -9.969584402251467
      ],
      [
        "comedie",
        -9.96983577596194
      ],
      [
        "Russian",
        -9.969953387073609
      ],
      [
        "disappointment",
        -9.970589873752786
      ],
      [
        "mix",
        -9.972313199956174
      ],
      [
        "raise",
        -9.972739004082284
      ],
      [
        "somewhere",
        -9.972824598604733
      ],
      [
        "Bad",
        -9.975161464504549
      ],
      [
        "handle",
        -9.975325408516044
      ],
      [
        "Ray",
        -9.975568080233177
      ],
      [
        "suit",
        -9.97646204753664
      ],
      [
        "channel",
        -9.976467420479397
      ],
      [
        "chose",
        -9.97652997174352
      ],
      [
        "cat",
        -9.976662030168185
      ],
      [
        "desire",
        -9.97697237724006
      ],
      [
        "disappointing",
        -9.977090093307737
      ],
      [
        "blow",
        -9.978922545531498
      ],
      [
        "Nothing",
        -9.978957307257502
      ],
      [
        "proper",
        -9.979905527805137
      ],
      [
        "mouth",
        -9.980983804450325
      ],
      [
        "193",
        -9.984601319695066
      ],
      [
        "40",
        -9.98499495592403
      ],
      [
        "Jean",
        -9.985110676886801
      ],
      [
        "offer",
        -9.98558162795589
      ],
      [
        "Harry",
        -9.986216819897297
      ],
      [
        "seek",
        -9.986239871979851
      ],
      [
        "station",
        -9.986756286204198
      ],
      [
        "protagonist",
        -9.98753427063668
      ],
      [
        "Yet",
        -9.98832410784867
      ],
      [
        "opera",
        -9.990119635116848
      ],
      [
        "rule",
        -9.990525137640391
      ],
      [
        "Bruce",
        -9.992494560614515
      ],
      [
        "stereotype",
        -9.994214195005906
      ],
      [
        "weren",
        -9.994220647588087
      ],
      [
        "plane",
        -9.995558058696858
      ],
      [
        "minor",
        -9.995964347355695
      ],
      [
        "Paris",
        -9.99609883097137
      ],
      [
        "individual",
        -9.99623627954837
      ],
      [
        "fell",
        -9.997147555357742
      ],
      [
        "touching",
        -9.998420125233901
      ],
      [
        "Tony",
        -9.999932327695994
      ],
      [
        "Ed",
        -10.000120913522458
      ],
      [
        "sign",
        -10.000251886863794
      ],
      [
        "content",
        -10.00094863527336
      ],
      [
        "brutal",
        -10.003427414740273
      ],
      [
        "commercial",
        -10.003727312131211
      ],
      [
        "13",
        -10.00419293521077
      ],
      [
        "spoiler",
        -10.004587956945105
      ],
      [
        "graphic",
        -10.004804011605064
      ],
      [
        "ING",
        -10.005869998599259
      ],
      [
        "relative",
        -10.012670896178681
      ],
      [
        "vision",
        -10.012996866747953
      ],
      [
        "Hitchcock",
        -10.013854110277745
      ],
      [
        "detective",
        -10.013873767638698
      ],
      [
        "happening",
        -10.013988109839293
      ],
      [
        "frame",
        -10.01416082563275
      ],
      [
        "196",
        -10.015402936049476
      ],
      [
        "teacher",
        -10.01620799441788
      ],
      [
        "scener",
        -10.018402923141299
      ],
      [
        "marriage",
        -10.018944124113629
      ],
      [
        "sent",
        -10.019634387392282
      ],
      [
        "promise",
        -10.02021224408438
      ],
      [
        "magic",
        -10.02026578025389
      ],
      [
        "runs",
        -10.020909385148917
      ],
      [
        "Mark",
        -10.021187240096127
      ],
      [
        "arrive",
        -10.021340503139594
      ],
      [
        "fiction",
        -10.022660912437765
      ],
      [
        "hurt",
        -10.025376878251379
      ],
      [
        "hire",
        -10.02548792762705
      ],
      [
        "intense",
        -10.02616554840079
      ],
      [
        "require",
        -10.02627254642615
      ],
      [
        "technical",
        -10.028823031538748
      ],
      [
        "tired",
        -10.030636534664499
      ],
      [
        "design",
        -10.031395235379255
      ],
      [
        "outstanding",
        -10.03205635360704
      ],
      [
        "Onc",
        -10.034146793892136
      ],
      [
        "current",
        -10.035254357975397
      ],
      [
        "noir",
        -10.035950568387543
      ],
      [
        "boss",
        -10.037698187566571
      ],
      [
        "giant",
        -10.03886619349912
      ],
      [
        "accept",
        -10.039331494641242
      ],
      [
        "interview",
        -10.039856891824861
      ],
      [
        "LY",
        -10.041094838941788
      ],
      [
        "More",
        -10.041787349286132
      ],
      [
        "presente",
        -10.04192925997815
      ],
      [
        "perform",
        -10.0420831300838
      ],
      [
        "Z",
        -10.042292007997059
      ],
      [
        "South",
        -10.042361586930314
      ],
      [
        "gem",
        -10.044965957034858
      ],
      [
        "Stewart",
        -10.046117161287832
      ],
      [
        "ley",
        -10.046638333563191
      ],
      [
        "dden",
        -10.048687701421038
      ],
      [
        "craft",
        -10.049861916545566
      ],
      [
        "West",
        -10.050269459188359
      ],
      [
        "Day",
        -10.050676785981945
      ],
      [
        "machine",
        -10.051382301624164
      ],
      [
        "held",
        -10.052266169813212
      ],
      [
        "accurate",
        -10.053596945439999
      ],
      [
        "model",
        -10.054966975868144
      ],
      [
        "vampire",
        -10.05527516461512
      ],
      [
        "suffer",
        -10.05595395538395
      ],
      [
        "encounter",
        -10.056703990861237
      ],
      [
        "compelling",
        -10.057927383465431
      ],
      [
        "negative",
        -10.057986345819916
      ],
      [
        "impresse",
        -10.05833160929651
      ],
      [
        "fascinating",
        -10.059315797744336
      ],
      [
        "shocking",
        -10.063469066117715
      ],
      [
        "Christopher",
        -10.0660760809524
      ],
      [
        "destroy",
        -10.06638307536772
      ],
      [
        "reaction",
        -10.066562322022108
      ],
      [
        "expression",
        -10.067161704694719
      ],
      [
        "essential",
        -10.067319950567931
      ],
      [
        "confusing",
        -10.068660525686855
      ],
      [
        "pleasure",
        -10.07028718029521
      ],
      [
        "seeming",
        -10.072072636640836
      ],
      [
        "porn",
        -10.073469144492798
      ],
      [
        "system",
        -10.074048578087833
      ],
      [
        "serve",
        -10.074073509108075
      ],
      [
        "blame",
        -10.075222802778018
      ],
      [
        "pai",
        -10.075613128895586
      ],
      [
        "creative",
        -10.077219947300277
      ],
      [
        "12",
        -10.077755347718805
      ],
      [
        "Fox",
        -10.079378402603993
      ],
      [
        "extreme",
        -10.080688046549831
      ],
      [
        "disaster",
        -10.08084869844122
      ],
      [
        "Le",
        -10.081543319046713
      ],
      [
        "Kelly",
        -10.081884255783454
      ],
      [
        "NO",
        -10.08230529932599
      ],
      [
        "double",
        -10.082675632288586
      ],
      [
        "correct",
        -10.085219225639431
      ],
      [
        "ties",
        -10.088372372729278
      ],
      [
        "Both",
        -10.088458455539094
      ],
      [
        "serial",
        -10.090370463584893
      ],
      [
        "likabl",
        -10.090876193803876
      ],
      [
        "step",
        -10.091533312433237
      ],
      [
        "hospital",
        -10.091709302303741
      ],
      [
        "par",
        -10.092730777857408
      ],
      [
        "drag",
        -10.094681496655689
      ],
      [
        "epic",
        -10.095728860056589
      ],
      [
        "born",
        -10.096802217073481
      ],
      [
        "information",
        -10.097140157609807
      ],
      [
        "Please",
        -10.097313707081842
      ],
      [
        "achieve",
        -10.097582249729594
      ],
      [
        "officer",
        -10.098698873764745
      ],
      [
        "Dann",
        -10.099362959127824
      ],
      [
        "safe",
        -10.100389464764394
      ],
      [
        "barel",
        -10.101037051999555
      ],
      [
        "onto",
        -10.101517630105064
      ],
      [
        "warm",
        -10.10344650705887
      ],
      [
        "naked",
        -10.104216126017368
      ],
      [
        "accident",
        -10.104762268284098
      ],
      [
        "rip",
        -10.105394987806651
      ],
      [
        "imagination",
        -10.105549831750348
      ],
      [
        "directors",
        -10.105939016024362
      ],
      [
        "club",
        -10.106316881812912
      ],
      [
        "remote",
        -10.109725722149742
      ],
      [
        "bu",
        -10.11035269834295
      ],
      [
        "AND",
        -10.11138590090324
      ],
      [
        "confused",
        -10.112506445558086
      ],
      [
        "artistic",
        -10.11296192847836
      ],
      [
        "author",
        -10.116528714818667
      ],
      [
        "Little",
        -10.116746017874577
      ],
      [
        "194",
        -10.120284488922845
      ],
      [
        "Young",
        -10.120938911615697
      ],
      [
        "Story",
        -10.121775876896915
      ],
      [
        "stands",
        -10.121941126720284
      ],
      [
        "Billy",
        -10.122825787260052
      ],
      [
        "holes",
        -10.124332103908756
      ],
      [
        "fault",
        -10.12466029225915
      ],
      [
        "focuse",
        -10.124692922718726
      ],
      [
        "process",
        -10.124953975968277
      ],
      [
        "Hav",
        -10.124956422489753
      ],
      [
        "fellow",
        -10.12502011219944
      ],
      [
        "industr",
        -10.125381699120542
      ],
      [
        "ck",
        -10.127780942795441
      ],
      [
        "alien",
        -10.127960755311385
      ],
      [
        "dollar",
        -10.129580842056711
      ],
      [
        "lesson",
        -10.13078436130305
      ],
      [
        "knowing",
        -10.131394162457127
      ],
      [
        "factor",
        -10.132141667842768
      ],
      [
        "member",
        -10.132578929101191
      ],
      [
        "god",
        -10.13323872002935
      ],
      [
        "attractive",
        -10.134031925917746
      ],
      [
        "suicide",
        -10.135213505869658
      ],
      [
        "assume",
        -10.135242496208516
      ],
      [
        "gorgeous",
        -10.13808400787902
      ],
      [
        "folks",
        -10.138642420234834
      ],
      [
        "**",
        -10.14020877506924
      ],
      [
        "decision",
        -10.140963694334005
      ],
      [
        "favourite",
        -10.141034589803
      ],
      [
        "thorough",
        -10.141602634863753
      ],
      [
        "Arthur",
        -10.142423324887293
      ],
      [
        "Show",
        -10.142823032193995
      ],
      [
        "intende",
        -10.143030948277138
      ],
      [
        "nobody",
        -10.144648931036562
      ],
      [
        "collection",
        -10.145201925476378
      ],
      [
        "putting",
        -10.145700906000213
      ],
      [
        "generation",
        -10.14706890454057
      ],
      [
        "influence",
        -10.147128621765138
      ],
      [
        "represent",
        -10.147140425448644
      ],
      [
        "mediocr",
        -10.148230165390935
      ],
      [
        "Too",
        -10.14880944236436
      ],
      [
        "superior",
        -10.148845993457897
      ],
      [
        "loving",
        -10.149945218323188
      ],
      [
        "cross",
        -10.150520191405423
      ],
      [
        "finishe",
        -10.151772901458429
      ],
      [
        "touche",
        -10.152814321175923
      ],
      [
        "commentar",
        -10.153346193160477
      ],
      [
        "com",
        -10.15433503877847
      ],
      [
        "everybody",
        -10.154600131368353
      ],
      [
        "Jackson",
        -10.155008514778228
      ],
      [
        "Look",
        -10.15525058205247
      ],
      [
        "clean",
        -10.155458668319092
      ],
      [
        "highlight",
        -10.157325047358935
      ],
      [
        "mine",
        -10.158104117036594
      ],
      [
        "addition",
        -10.15923019910723
      ],
      [
        "***",
        -10.160222449523054
      ],
      [
        "stuck",
        -10.160275490065633
      ],
      [
        "Batman",
        -10.160336374060936
      ],
      [
        "record",
        -10.162430620892302
      ],
      [
        "Girl",
        -10.163809430864212
      ],
      [
        "regular",
        -10.164207130670883
      ],
      [
        "Bond",
        -10.16433850983492
      ],
      [
        "attitude",
        -10.164396769217449
      ],
      [
        "11",
        -10.164914151954346
      ],
      [
        "iding",
        -10.165106966572097
      ],
      [
        "pilot",
        -10.165245414050734
      ],
      [
        "concern",
        -10.165769688236104
      ],
      [
        "apartment",
        -10.167386628434368
      ],
      [
        "Life",
        -10.167564820706449
      ],
      [
        "horse",
        -10.169730171818813
      ],
      [
        "bottom",
        -10.170227422975419
      ],
      [
        "initial",
        -10.171773547223877
      ],
      [
        "listen",
        -10.172814514574329
      ],
      [
        "Tim",
        -10.173551905271875
      ],
      [
        "Miss",
        -10.173736981790652
      ],
      [
        "000",
        -10.174611012099664
      ],
      [
        "Dan",
        -10.174627600977573
      ],
      [
        "skill",
        -10.175035610612943
      ],
      [
        "core",
        -10.176347613885653
      ],
      [
        "latter",
        -10.177188899000749
      ],
      [
        "quiet",
        -10.177730702552743
      ],
      [
        "sight",
        -10.177974423174618
      ],
      [
        "otten",
        -10.178681485970397
      ],
      [
        "boat",
        -10.178840598362868
      ],
      [
        "unusual",
        -10.179221857519316
      ],
      [
        "guilt",
        -10.179732934537629
      ],
      [
        "joy",
        -10.18018469618434
      ],
      [
        "funnies",
        -10.180439589428284
      ],
      [
        "nast",
        -10.181251013332496
      ],
      [
        "Mac",
        -10.181694934597775
      ],
      [
        "ch",
        -10.181957263627869
      ],
      [
        "Jason",
        -10.182215466409492
      ],
      [
        "Death",
        -10.182247823693285
      ],
      [
        "impact",
        -10.182469152318408
      ],
      [
        "becoming",
        -10.182493461256332
      ],
      [
        "tragic",
        -10.183836491790172
      ],
      [
        "twic",
        -10.185802711062797
      ],
      [
        "ngry",
        -10.188359961988851
      ],
      [
        "tape",
        -10.18929494958595
      ],
      [
        "explanation",
        -10.189721225356017
      ],
      [
        "lose",
        -10.190842411404827
      ],
      [
        "ignore",
        -10.190863336386627
      ],
      [
        "aside",
        -10.191161836861696
      ],
      [
        "fraid",
        -10.191743040590342
      ],
      [
        "Anne",
        -10.192187854318764
      ],
      [
        "justice",
        -10.192264802736632
      ],
      [
        "recognize",
        -10.192372748525145
      ],
      [
        "pleasant",
        -10.192747029745375
      ],
      [
        "Since",
        -10.192764701531665
      ],
      [
        "gangster",
        -10.19276899181855
      ],
      [
        "apart",
        -10.193413335203854
      ],
      [
        "clue",
        -10.193914961405707
      ],
      [
        "drugs",
        -10.194464727507544
      ],
      [
        "crowd",
        -10.195736951801521
      ],
      [
        "picke",
        -10.19670869039657
      ],
      [
        "Kev",
        -10.197357846888476
      ],
      [
        "Western",
        -10.198740380272978
      ],
      [
        "ling",
        -10.200080801123265
      ],
      [
        "reach",
        -10.200829610051835
      ],
      [
        "traged",
        -10.200870913753281
      ],
      [
        "ard",
        -10.203297205507186
      ],
      [
        "Henry",
        -10.203445894169871
      ],
      [
        "Thomas",
        -10.203483501378994
      ],
      [
        "offers",
        -10.2053509412148
      ],
      [
        "reminde",
        -10.206214095192161
      ],
      [
        "fill",
        -10.20623304756705
      ],
      [
        "dated",
        -10.206524934323145
      ],
      [
        "cameo",
        -10.207358705881044
      ],
      [
        "Their",
        -10.208043135839542
      ],
      [
        "comparison",
        -10.208076670370428
      ],
      [
        "passion",
        -10.208492925973616
      ],
      [
        "carrie",
        -10.208571452159031
      ],
      [
        "dresse",
        -10.208711811834572
      ],
      [
        "laughe",
        -10.2087916149401
      ],
      [
        "Ryan",
        -10.209754714000798
      ],
      [
        "personalit",
        -10.210166765706695
      ],
      [
        "segment",
        -10.210288718381268
      ],
      [
        "White",
        -10.210324968261826
      ],
      [
        "finding",
        -10.210528235124283
      ],
      [
        "grade",
        -10.211028386913249
      ],
      [
        "Thing",
        -10.211556318464188
      ],
      [
        "weapon",
        -10.21268980713868
      ],
      [
        "smile",
        -10.214235352035047
      ],
      [
        "childhood",
        -10.21433357341828
      ],
      [
        "study",
        -10.215727188982488
      ],
      [
        "speech",
        -10.21734815444922
      ],
      [
        "judge",
        -10.217883883744259
      ],
      [
        "willing",
        -10.218782093457532
      ],
      [
        "rescue",
        -10.218930380964714
      ],
      [
        "sked",
        -10.219268181903885
      ],
      [
        "friendship",
        -10.219431592617234
      ],
      [
        "memor",
        -10.219896055947665
      ],
      [
        "religious",
        -10.220466466686783
      ],
      [
        "absurd",
        -10.220472421932666
      ],
      [
        "thus",
        -10.22190419477052
      ],
      [
        "195",
        -10.222353109108315
      ],
      [
        "passe",
        -10.2231608603355
      ],
      [
        "Perha",
        -10.223562882937316
      ],
      [
        "energ",
        -10.225142475972948
      ],
      [
        "1950",
        -10.225215535360649
      ],
      [
        "theatre",
        -10.228458970746619
      ],
      [
        "Park",
        -10.22935260082876
      ],
      [
        "appeare",
        -10.229704014374512
      ],
      [
        "unnecessar",
        -10.23146798255361
      ],
      [
        "aware",
        -10.232706712538423
      ],
      [
        "sadly",
        -10.234679655014407
      ],
      [
        "wooden",
        -10.234826665367772
      ],
      [
        "allowe",
        -10.235971089263128
      ],
      [
        "books",
        -10.236165686209983
      ],
      [
        "ounded",
        -10.236167844062875
      ],
      [
        "thin",
        -10.236289947362682
      ],
      [
        "began",
        -10.23729005057415
      ],
      [
        "ugly",
        -10.237697570304558
      ],
      [
        "Second",
        -10.237789330245523
      ],
      [
        "Okay",
        -10.238142942445654
      ],
      [
        "teenage",
        -10.238437873851533
      ],
      [
        "turning",
        -10.239300897967098
      ],
      [
        "central",
        -10.239383447598206
      ],
      [
        "Stephen",
        -10.2393896271873
      ],
      [
        "thanks",
        -10.242889020376435
      ],
      [
        "CGI",
        -10.24306105192719
      ],
      [
        "winning",
        -10.244182752249777
      ],
      [
        "1970",
        -10.245840910586374
      ],
      [
        "damn",
        -10.24601347668948
      ],
      [
        "instance",
        -10.246246447081457
      ],
      [
        "Horror",
        -10.24736626267553
      ],
      [
        "convey",
        -10.247374768500002
      ],
      [
        "blind",
        -10.24773253888571
      ],
      [
        "Jerr",
        -10.248961598495708
      ],
      [
        "stunt",
        -10.249110880819284
      ],
      [
        "repeated",
        -10.249179241473804
      ],
      [
        "Arm",
        -10.249679249015095
      ],
      [
        "slightl",
        -10.250736023299662
      ],
      [
        "whatso",
        -10.251184838316604
      ],
      [
        "treat",
        -10.251731160993852
      ],
      [
        "strength",
        -10.251979738999278
      ],
      [
        "connection",
        -10.252806511417017
      ],
      [
        "planet",
        -10.252867597546278
      ],
      [
        "followe",
        -10.253154265367522
      ],
      [
        "Did",
        -10.253793037404002
      ],
      [
        "idiot",
        -10.25550660685077
      ],
      [
        "stock",
        -10.256878875913973
      ],
      [
        "Guy",
        -10.257063554700643
      ],
      [
        "movement",
        -10.257465939781987
      ],
      [
        "market",
        -10.257927511571367
      ],
      [
        "challenge",
        -10.258726007853113
      ],
      [
        "drop",
        -10.25983718834661
      ],
      [
        "combine",
        -10.25988417714247
      ],
      [
        "program",
        -10.260306974267033
      ],
      [
        "clothes",
        -10.260351739105415
      ],
      [
        "dreams",
        -10.261075278222524
      ],
      [
        "food",
        -10.26120150024575
      ],
      [
        "VH",
        -10.26218307072595
      ],
      [
        "choose",
        -10.262324610963617
      ],
      [
        "dying",
        -10.26277145893183
      ],
      [
        "Un",
        -10.263634378365694
      ],
      [
        "independent",
        -10.264809166435981
      ],
      [
        "comedic",
        -10.265173711765506
      ],
      [
        "unexpected",
        -10.265185751306532
      ],
      [
        "desert",
        -10.267339657527852
      ],
      [
        "intriguing",
        -10.268436608030527
      ],
      [
        "vote",
        -10.269116263963262
      ],
      [
        "insult",
        -10.269407257563657
      ],
      [
        "redeeming",
        -10.271099698154545
      ],
      [
        "chick",
        -10.271524677021757
      ],
      [
        "dangerous",
        -10.271724016236384
      ],
      [
        "nce",
        -10.27173120929813
      ],
      [
        "bank",
        -10.271924010816162
      ],
      [
        "anted",
        -10.272060641237164
      ],
      [
        "fish",
        -10.272065415433847
      ],
      [
        "sell",
        -10.272691092318375
      ],
      [
        "belief",
        -10.272698356102522
      ],
      [
        "Louis",
        -10.272784672827017
      ],
      [
        "witt",
        -10.273024890886695
      ],
      [
        "mission",
        -10.274146277011821
      ],
      [
        "mixe",
        -10.276234937569551
      ],
      [
        "ented",
        -10.276443647927296
      ],
      [
        "Chinese",
        -10.276661737653908
      ],
      [
        "floor",
        -10.278314430546438
      ],
      [
        "hotel",
        -10.278318918194323
      ],
      [
        "Johnny",
        -10.278871036790534
      ],
      [
        "leader",
        -10.279436494244106
      ],
      [
        "conversation",
        -10.28095138037985
      ],
      [
        "names",
        -10.282006696113088
      ],
      [
        "European",
        -10.282170208628898
      ],
      [
        "join",
        -10.28250359393117
      ],
      [
        "demand",
        -10.283687742776866
      ],
      [
        "Shakespeare",
        -10.28403168175106
      ],
      [
        "deserved",
        -10.285096550789735
      ],
      [
        "Brian",
        -10.285134439093289
      ],
      [
        "technique",
        -10.286618935333149
      ],
      [
        "disappear",
        -10.287281202841406
      ],
      [
        "knowledge",
        -10.288320659330102
      ],
      [
        "Allen",
        -10.291562963059256
      ],
      [
        "unknown",
        -10.291668118385104
      ],
      [
        "Brother",
        -10.291895356126906
      ],
      [
        "forever",
        -10.291934773008087
      ],
      [
        "",
        -10.293313507031412
      ],
      [
        "favor",
        -10.293368569149553
      ],
      [
        "Was",
        -10.294269997586614
      ],
      [
        "blue",
        -10.295616522906698
      ],
      [
        "intelligenc",
        -10.295707919565046
      ],
      [
        "riving",
        -10.29619397002288
      ],
      [
        "martial",
        -10.29667789484309
      ],
      [
        "Which",
        -10.29667910802948
      ],
      [
        "spoil",
        -10.297964935451766
      ],
      [
        "range",
        -10.298839348268807
      ],
      [
        "appropriate",
        -10.299310997330199
      ],
      [
        "soap",
        -10.299464433996068
      ],
      [
        "Thos",
        -10.301492558423764
      ],
      [
        "Moore",
        -10.302653485791552
      ],
      [
        "opposite",
        -10.303738449071218
      ],
      [
        "king",
        -10.304793411523573
      ],
      [
        "Mike",
        -10.30634652890279
      ],
      [
        "shouldn",
        -10.306466897406601
      ],
      [
        "rise",
        -10.306625846805018
      ],
      [
        "Harris",
        -10.306868135912358
      ],
      [
        "pair",
        -10.306922968608685
      ],
      [
        "awkward",
        -10.307134862199955
      ],
      [
        "explore",
        -10.307986682653752
      ],
      [
        "Howard",
        -10.308976304805332
      ],
      [
        "Alan",
        -10.30949207758804
      ],
      [
        "owner",
        -10.309508637540159
      ],
      [
        "mom",
        -10.310642538886924
      ],
      [
        "refuse",
        -10.310824969455691
      ],
      [
        "per",
        -10.313139331286393
      ],
      [
        "Last",
        -10.31430076846144
      ],
      [
        ".....",
        -10.31464766103663
      ],
      [
        "leg",
        -10.315089479418141
      ],
      [
        "hang",
        -10.31540257786041
      ],
      [
        "target",
        -10.315867906773082
      ],
      [
        "stole",
        -10.316282314088035
      ],
      [
        "thousand",
        -10.31717272230679
      ],
      [
        "tune",
        -10.317849336126233
      ],
      [
        "heroine",
        -10.317888743851551
      ],
      [
        "abuse",
        -10.31791906687252
      ],
      [
        "charge",
        -10.318136917119277
      ],
      [
        "capabl",
        -10.319231600263699
      ],
      [
        "cops",
        -10.320457388335166
      ],
      [
        "paced",
        -10.32127406356816
      ],
      [
        "bear",
        -10.321575465875597
      ],
      [
        "Eddie",
        -10.322320524772492
      ],
      [
        "behavior",
        -10.322917790007526
      ],
      [
        "paper",
        -10.323360715512727
      ],
      [
        "May",
        -10.323435195928308
      ],
      [
        "Ford",
        -10.323458612799854
      ],
      [
        "Before",
        -10.324041886198888
      ],
      [
        "engaging",
        -10.324468264584054
      ],
      [
        "mild",
        -10.326134101394247
      ],
      [
        "delightful",
        -10.327545422605251
      ],
      [
        "Adam",
        -10.327938923439895
      ],
      [
        "Eric",
        -10.328747285785848
      ],
      [
        "bland",
        -10.3289144830665
      ],
      [
        "Jeff",
        -10.329087196984192
      ],
      [
        "creat",
        -10.331419429979224
      ],
      [
        "army",
        -10.33269283656352
      ],
      [
        "psychological",
        -10.334462703959346
      ],
      [
        "j",
        -10.3350419530503
      ],
      [
        "trust",
        -10.33559847294789
      ],
      [
        "priest",
        -10.336141166783047
      ],
      [
        "failure",
        -10.336219578456078
      ],
      [
        "pacing",
        -10.33646100882871
      ],
      [
        "hundred",
        -10.337956154150856
      ],
      [
        "understanding",
        -10.338460484223212
      ],
      [
        "foot",
        -10.338573483136528
      ],
      [
        "partner",
        -10.340058048775276
      ],
      [
        "bright",
        -10.341200454373753
      ],
      [
        "responsibl",
        -10.341405659504403
      ],
      [
        "spectacular",
        -10.34147413670948
      ],
      [
        "remarkable",
        -10.341685500072618
      ],
      [
        "loss",
        -10.342274530319997
      ],
      [
        "deed",
        -10.343362840928842
      ],
      [
        "product",
        -10.349157018497461
      ],
      [
        "intention",
        -10.349940472645795
      ],
      [
        "twenty",
        -10.350565720684662
      ],
      [
        "Mc",
        -10.350846629299369
      ],
      [
        "communit",
        -10.35112839663021
      ],
      [
        "helpe",
        -10.352466674166397
      ],
      [
        "dealing",
        -10.35428498927809
      ],
      [
        "Green",
        -10.354456432774821
      ],
      [
        "summer",
        -10.35485380499036
      ],
      [
        "gags",
        -10.355225336289582
      ],
      [
        "eating",
        -10.355227548324198
      ],
      [
        "perspective",
        -10.3574602612379
      ],
      [
        "insane",
        -10.35867973142926
      ],
      [
        "nonsense",
        -10.35961458353669
      ],
      [
        "hide",
        -10.3603319898207
      ],
      [
        "rough",
        -10.361606740664424
      ],
      [
        "Brown",
        -10.362271298097266
      ],
      [
        "Taylor",
        -10.364654895178628
      ],
      [
        "crappy",
        -10.364676713014212
      ],
      [
        "Bob",
        -10.364763632162639
      ],
      [
        "memori",
        -10.3655663600857
      ],
      [
        "pretentious",
        -10.366475677901267
      ],
      [
        "Sean",
        -10.367410486518445
      ],
      [
        "media",
        -10.367545667182874
      ],
      [
        "humorous",
        -10.368288918803454
      ],
      [
        "drunk",
        -10.369563368513978
      ],
      [
        "wit",
        -10.370930076318455
      ],
      [
        "explained",
        -10.370995886394482
      ],
      [
        "account",
        -10.371794525649882
      ],
      [
        "HIS",
        -10.373527146470769
      ],
      [
        "dozen",
        -10.374141449344915
      ],
      [
        "IS",
        -10.374416433314634
      ],
      [
        "gold",
        -10.375104027585309
      ],
      [
        "ordinar",
        -10.376466712704808
      ],
      [
        "endless",
        -10.376538195747866
      ],
      [
        "contrast",
        -10.376760659295183
      ],
      [
        "hits",
        -10.37693674095648
      ],
      [
        "Grant",
        -10.377891527718695
      ],
      [
        "80s",
        -10.378194962106729
      ],
      [
        "lacks",
        -10.379562805340113
      ],
      [
        "lower",
        -10.379966982393526
      ],
      [
        "Davis",
        -10.380357252322302
      ],
      [
        "scared",
        -10.380719335709614
      ],
      [
        "source",
        -10.38175180165668
      ],
      [
        "church",
        -10.382828223662877
      ],
      [
        "Lewis",
        -10.383530718771105
      ],
      [
        "+",
        -10.383709735004086
      ],
      [
        "treate",
        -10.383881486941057
      ],
      [
        "France",
        -10.384476064739353
      ],
      [
        "dreadful",
        -10.3866317799001
      ],
      [
        "Men",
        -10.386895157770752
      ],
      [
        "magnificent",
        -10.387932406302426
      ],
      [
        "rubbish",
        -10.388371804924418
      ],
      [
        "recall",
        -10.389061758112437
      ],
      [
        "window",
        -10.389823276474011
      ],
      [
        "Wayne",
        -10.390295210437625
      ],
      [
        "African",
        -10.391261017116717
      ],
      [
        "vehicle",
        -10.392072089641887
      ],
      [
        "patient",
        -10.392377951178862
      ],
      [
        "Ann",
        -10.392955570108551
      ],
      [
        "beside",
        -10.39315821395152
      ],
      [
        "Robin",
        -10.393840856743074
      ],
      [
        "radio",
        -10.393926716530032
      ],
      [
        "abandon",
        -10.394325256283363
      ],
      [
        "embarrassing",
        -10.394478244935671
      ],
      [
        "realis",
        -10.394826828950706
      ],
      [
        "Williams",
        -10.394990078888007
      ],
      [
        "praise",
        -10.395527043419918
      ],
      [
        "standing",
        -10.397720150463385
      ],
      [
        "subtitle",
        -10.398461330203816
      ],
      [
        "path",
        -10.399663610198758
      ],
      [
        "dimensional",
        -10.399722896484855
      ],
      [
        "cares",
        -10.401000282609388
      ],
      [
        "pretend",
        -10.402621901417437
      ],
      [
        "Julie",
        -10.402763871924673
      ],
      [
        "spoof",
        -10.403758449005316
      ],
      [
        "shadow",
        -10.405580763945117
      ],
      [
        "virtual",
        -10.40701166959914
      ],
      [
        "Andrew",
        -10.407717108578849
      ],
      [
        "cable",
        -10.407987194863997
      ],
      [
        "execute",
        -10.40802943357183
      ],
      [
        "parody",
        -10.408914111829116
      ],
      [
        "routine",
        -10.410889531329602
      ],
      [
        "England",
        -10.411143753031828
      ],
      [
        "belong",
        -10.411816439640244
      ],
      [
        "convince",
        -10.412128338048532
      ],
      [
        "evidence",
        -10.413217284451775
      ],
      [
        "Joan",
        -10.415191066454636
      ],
      [
        "hunt",
        -10.415824443642364
      ],
      [
        "youth",
        -10.416227803311637
      ],
      [
        "Jennifer",
        -10.416464960590687
      ],
      [
        "numero",
        -10.41650425011531
      ],
      [
        "heroe",
        -10.41753229683772
      ],
      [
        "specific",
        -10.419841563693259
      ],
      [
        "Again",
        -10.42021658522724
      ],
      [
        "Blood",
        -10.421389357269039
      ],
      [
        "park",
        -10.42165959106279
      ],
      [
        "expert",
        -10.422181008203491
      ],
      [
        "Lord",
        -10.422860530883703
      ],
      [
        "condition",
        -10.424072256116473
      ],
      [
        "bomb",
        -10.424074723212643
      ],
      [
        "curious",
        -10.424112308090045
      ],
      [
        "Alex",
        -10.424232287458873
      ],
      [
        "Australian",
        -10.424286746039636
      ],
      [
        "Barry",
        -10.427326824857737
      ],
      [
        "Time",
        -10.427609872118857
      ],
      [
        "mask",
        -10.42792672947608
      ],
      [
        "****",
        -10.42831949844614
      ],
      [
        "Avoid",
        -10.429052473837864
      ],
      [
        "discovere",
        -10.429178499997029
      ],
      [
        "Spanish",
        -10.429874074947499
      ],
      [
        "debut",
        -10.430349841963533
      ],
      [
        "advice",
        -10.430847477525509
      ],
      [
        "pictures",
        -10.432052108148294
      ],
      [
        "Lynch",
        -10.43370688529411
      ],
      [
        "Up",
        -10.434071507654794
      ],
      [
        "growing",
        -10.434439169462934
      ],
      [
        "irritating",
        -10.43564224647071
      ],
      [
        "terribl",
        -10.436610109749408
      ],
      [
        "Boy",
        -10.437513439066684
      ],
      [
        "structure",
        -10.437823957263124
      ],
      [
        "separate",
        -10.438615243595684
      ],
      [
        "Sara",
        -10.439213425323025
      ],
      [
        "Asian",
        -10.439333610694133
      ],
      [
        "satire",
        -10.4421466599631
      ],
      [
        "slight",
        -10.442402214188935
      ],
      [
        "ON",
        -10.443071086229871
      ],
      [
        "scream",
        -10.443537264016078
      ],
      [
        "replace",
        -10.445463484092581
      ],
      [
        "grown",
        -10.445515605333386
      ],
      [
        "Wow",
        -10.445532168208175
      ],
      [
        "print",
        -10.446448477715592
      ],
      [
        "traditional",
        -10.446635455808249
      ],
      [
        "Dick",
        -10.449190640385304
      ],
      [
        "context",
        -10.449305612756014
      ],
      [
        "Edward",
        -10.449318187999888
      ],
      [
        "edite",
        -10.45012897810939
      ],
      [
        "prefer",
        -10.450184683257985
      ],
      [
        "Anthony",
        -10.451261322675938
      ],
      [
        "green",
        -10.451688635161974
      ],
      [
        "practical",
        -10.451764030921877
      ],
      [
        "bloody",
        -10.453740878845164
      ],
      [
        "root",
        -10.454395872636582
      ],
      [
        "fame",
        -10.454972013550979
      ],
      [
        "speed",
        -10.456118692879002
      ],
      [
        "concerne",
        -10.457184125394367
      ],
      [
        "liner",
        -10.457240795735995
      ],
      [
        "Texas",
        -10.457286905482508
      ],
      [
        "puts",
        -10.458364481070387
      ],
      [
        "Queen",
        -10.458868405428026
      ],
      [
        "unrealistic",
        -10.459181515488503
      ],
      [
        "device",
        -10.459260520941374
      ],
      [
        "haunt",
        -10.45980975479209
      ],
      [
        "crack",
        -10.460579929670242
      ],
      [
        "identit",
        -10.460973554111144
      ],
      [
        "statement",
        -10.461187412662483
      ],
      [
        "weight",
        -10.461760204348412
      ],
      [
        "shop",
        -10.462720270036066
      ],
      [
        "fate",
        -10.46455168130585
      ],
      [
        "0",
        -10.46773127754102
      ],
      [
        "??",
        -10.46862449728615
      ],
      [
        "lesbian",
        -10.469107260186126
      ],
      [
        "sake",
        -10.469414091082381
      ],
      [
        "shallow",
        -10.469449634118813
      ],
      [
        "broken",
        -10.470853633620415
      ],
      [
        "existence",
        -10.471172751585815
      ],
      [
        "Nick",
        -10.472553178048221
      ],
      [
        "empty",
        -10.473644543524914
      ],
      [
        "North",
        -10.47449952286682
      ],
      [
        "Matt",
        -10.47501239534876
      ],
      [
        "sheer",
        -10.47518014024701
      ],
      [
        "Mad",
        -10.475360471697336
      ],
      [
        "Angel",
        -10.475857652129138
      ],
      [
        "None",
        -10.476170125900733
      ],
      [
        "luck",
        -10.477041718226761
      ],
      [
        "circumstance",
        -10.477147489851205
      ],
      [
        "gory",
        -10.477453650990903
      ],
      [
        "witch",
        -10.47768655541606
      ],
      [
        "frequent",
        -10.47798080465562
      ],
      [
        "Steven",
        -10.47825340938218
      ],
      [
        "ice",
        -10.478307398563008
      ],
      [
        "village",
        -10.47917047712747
      ],
      [
        "occur",
        -10.480255507810888
      ],
      [
        "Take",
        -10.480297718808362
      ],
      [
        "18",
        -10.480327992491361
      ],
      [
        "murdere",
        -10.48042319554581
      ],
      [
        "service",
        -10.481154688237561
      ],
      [
        "featur",
        -10.481200677288768
      ],
      [
        "laughter",
        -10.481507990293837
      ],
      [
        "wind",
        -10.481707915623169
      ],
      [
        "Yea",
        -10.482251432335332
      ],
      [
        "bodie",
        -10.482780572234827
      ],
      [
        "Jimmy",
        -10.483301290538705
      ],
      [
        "sharp",
        -10.4835933237465
      ],
      [
        "los",
        -10.484348756771446
      ],
      [
        "meeting",
        -10.485778521304367
      ],
      [
        "legend",
        -10.486152747806305
      ],
      [
        "load",
        -10.486560156617315
      ],
      [
        "intellectual",
        -10.487297127336262
      ],
      [
        "Morgan",
        -10.487461355376187
      ],
      [
        "Get",
        -10.488441451330495
      ],
      [
        "pulle",
        -10.488657775101771
      ],
      [
        "worker",
        -10.488841167964672
      ],
      [
        "formula",
        -10.490006893572366
      ],
      [
        "Max",
        -10.490265889516369
      ],
      [
        "performer",
        -10.49030093400541
      ],
      [
        "Dean",
        -10.490348485459904
      ],
      [
        "price",
        -10.490923042758368
      ],
      [
        "charisma",
        -10.490940732400889
      ],
      [
        "unfunny",
        -10.491526693342326
      ],
      [
        "page",
        -10.49181583530951
      ],
      [
        "risk",
        -10.492723239887304
      ],
      [
        "morning",
        -10.49343122653686
      ],
      [
        "freak",
        -10.493966346075318
      ],
      [
        "witness",
        -10.494034821301202
      ],
      [
        ");",
        -10.49441435802638
      ],
      [
        "regret",
        -10.494502137013498
      ],
      [
        "woods",
        -10.496683922659676
      ],
      [
        "experiment",
        -10.497224004717353
      ],
      [
        "Douglas",
        -10.497536617446345
      ],
      [
        "scale",
        -10.49768851540678
      ],
      [
        "Lady",
        -10.497956513812255
      ],
      [
        "relief",
        -10.499219925108822
      ],
      [
        "Dur",
        -10.49967756526917
      ],
      [
        "famili",
        -10.500725971676534
      ],
      [
        "IN",
        -10.501144652161532
      ],
      [
        "appealing",
        -10.501578176593938
      ],
      [
        "grew",
        -10.501864485024567
      ],
      [
        "elling",
        -10.501880707833532
      ],
      [
        "quote",
        -10.502380809675241
      ],
      [
        "!!!!",
        -10.502670189723291
      ],
      [
        "section",
        -10.503465726465244
      ],
      [
        "grace",
        -10.503571590321375
      ],
      [
        "cash",
        -10.504023699218575
      ],
      [
        "amaze",
        -10.504358503262633
      ],
      [
        "anger",
        -10.504390979254843
      ],
      [
        "Hell",
        -10.50483814729494
      ],
      [
        "Space",
        -10.505164693114487
      ],
      [
        "ated",
        -10.505403934951007
      ],
      [
        "Are",
        -10.505428791207663
      ],
      [
        "Stone",
        -10.505520250992422
      ],
      [
        "combination",
        -10.505816549814345
      ],
      [
        "whil",
        -10.506353772917636
      ],
      [
        "wealth",
        -10.507520921584982
      ],
      [
        "foreign",
        -10.507772021476178
      ],
      [
        "sympathetic",
        -10.507911543200503
      ],
      [
        "truck",
        -10.508672031417433
      ],
      [
        "warning",
        -10.510082586594693
      ],
      [
        "research",
        -10.510667908054618
      ],
      [
        "buil",
        -10.51090990332096
      ],
      [
        "hearted",
        -10.51161128219826
      ],
      [
        "Barbara",
        -10.51206017913754
      ],
      [
        "Albert",
        -10.512101430515361
      ],
      [
        "Gene",
        -10.51234749161684
      ],
      [
        "festival",
        -10.514154220921117
      ],
      [
        "treatment",
        -10.51513902020319
      ],
      [
        "reflect",
        -10.516117217126952
      ],
      [
        "Actual",
        -10.516256725162132
      ],
      [
        "instant",
        -10.516336305371134
      ],
      [
        "Keaton",
        -10.51642776906726
      ],
      [
        "Chan",
        -10.51653539191539
      ],
      [
        "earned",
        -10.517248267987526
      ],
      [
        "Hitler",
        -10.518347947864676
      ],
      [
        "Fred",
        -10.51902511276744
      ],
      [
        "dislike",
        -10.519032432331791
      ],
      [
        "contrived",
        -10.519134819885007
      ],
      [
        "complain",
        -10.519594017739472
      ],
      [
        "Really",
        -10.519622139461937
      ],
      [
        "Being",
        -10.52074262845329
      ],
      [
        "sum",
        -10.52159086893003
      ],
      [
        "marry",
        -10.52184678349931
      ],
      [
        "enter",
        -10.521896475906413
      ],
      [
        "amateur",
        -10.522541299039307
      ],
      [
        "nightmare",
        -10.522668274229783
      ],
      [
        "con",
        -10.523731377175217
      ],
      [
        "Much",
        -10.52479043127105
      ],
      [
        "sucke",
        -10.52504635703415
      ],
      [
        "letter",
        -10.525294950057134
      ],
      [
        "position",
        -10.52630004802559
      ],
      [
        "consist",
        -10.527780207826675
      ],
      [
        "hill",
        -10.528905100445968
      ],
      [
        "quirk",
        -10.528920246747088
      ],
      [
        "arts",
        -10.530619495211166
      ],
      [
        "engage",
        -10.530711358751352
      ],
      [
        "comedian",
        -10.531056320126359
      ],
      [
        "Clark",
        -10.531077394507886
      ],
      [
        "veteran",
        -10.53109439905516
      ],
      [
        "BBC",
        -10.531262058919879
      ],
      [
        "logic",
        -10.531345358628602
      ],
      [
        "Three",
        -10.531438168303861
      ],
      [
        "host",
        -10.531471901992393
      ],
      [
        "25",
        -10.531710857856662
      ],
      [
        "mini",
        -10.532496658083515
      ],
      [
        "degree",
        -10.533217058941286
      ],
      [
        "humanit",
        -10.533733716685912
      ],
      [
        "Island",
        -10.53377994787806
      ],
      [
        "native",
        -10.533909040560243
      ],
      [
        "suffering",
        -10.534416813642375
      ],
      [
        "push",
        -10.534859244784897
      ],
      [
        "higher",
        -10.534923011802416
      ],
      [
        "balance",
        -10.535226909166493
      ],
      [
        "Jesu",
        -10.53537531358843
      ],
      [
        "object",
        -10.535573126649867
      ],
      [
        "dubbe",
        -10.537924128166463
      ],
      [
        "drink",
        -10.53829727600015
      ],
      [
        "thrill",
        -10.539076374054059
      ],
      [
        "wor",
        -10.540426152709195
      ],
      [
        "corn",
        -10.54054243885721
      ],
      [
        "starting",
        -10.54108671973988
      ],
      [
        "ruin",
        -10.541204795795363
      ],
      [
        "Simon",
        -10.541239497343943
      ],
      [
        "authentic",
        -10.541753298606107
      ],
      [
        "gift",
        -10.542129123091257
      ],
      [
        "insight",
        -10.542498785938275
      ],
      [
        "Europe",
        -10.543778470025128
      ],
      [
        "Halloween",
        -10.543914188920477
      ],
      [
        "tedious",
        -10.543962084517005
      ],
      [
        "Walter",
        -10.543999732679827
      ],
      [
        "gonna",
        -10.546122165130853
      ],
      [
        "protect",
        -10.546172480805334
      ],
      [
        "Japan",
        -10.546291027786843
      ],
      [
        "exploitation",
        -10.546657458318442
      ],
      [
        "saved",
        -10.548212551388595
      ],
      [
        "Chaplin",
        -10.548234827835781
      ],
      [
        "breath",
        -10.549153410310286
      ],
      [
        "Part",
        -10.550269830632452
      ],
      [
        "faith",
        -10.55219369615054
      ],
      [
        "rental",
        -10.553213177404988
      ],
      [
        "delight",
        -10.553637108204924
      ],
      [
        "cell",
        -10.553877165795418
      ],
      [
        "lous",
        -10.554736654978855
      ],
      [
        "scenario",
        -10.554754525035555
      ],
      [
        "Academ",
        -10.55475456100256
      ],
      [
        "Rob",
        -10.554899696064751
      ],
      [
        "Brad",
        -10.555358959929197
      ],
      [
        "Street",
        -10.555523827143679
      ],
      [
        "corny",
        -10.555841134775708
      ],
      [
        "disgusting",
        -10.556122041936385
      ],
      [
        "football",
        -10.556810568570073
      ],
      [
        "Alic",
        -10.556871088959102
      ],
      [
        "religion",
        -10.557019755443193
      ],
      [
        "saving",
        -10.557094170549
      ],
      [
        "shape",
        -10.557456910269488
      ],
      [
        "flow",
        -10.557830448888776
      ],
      [
        "lucky",
        -10.55871484460124
      ],
      [
        "explosion",
        -10.559126113349521
      ],
      [
        "intrigue",
        -10.559126113599085
      ],
      [
        "satisfying",
        -10.560409019728688
      ],
      [
        "14",
        -10.56051074189571
      ],
      [
        "realise",
        -10.560718194144656
      ],
      [
        "offensive",
        -10.561319102484166
      ],
      [
        "exceptional",
        -10.561373888808514
      ],
      [
        "Fi",
        -10.562826466945989
      ],
      [
        "Canadian",
        -10.56351909015221
      ],
      [
        "Plus",
        -10.563535042696767
      ],
      [
        "handsome",
        -10.563668223109428
      ],
      [
        "accidental",
        -10.565426597220686
      ],
      [
        "nable",
        -10.565647942366152
      ],
      [
        "Seagal",
        -10.565729149989838
      ],
      [
        "burn",
        -10.566459157928623
      ],
      [
        "aired",
        -10.56657291451534
      ],
      [
        "theatrical",
        -10.567898921473812
      ],
      [
        "amateurish",
        -10.56794980833115
      ],
      [
        "???",
        -10.568179065558159
      ],
      [
        "nominate",
        -10.568306008345736
      ],
      [
        "Re",
        -10.56831857962136
      ],
      [
        "Does",
        -10.569454215754792
      ],
      [
        "Kate",
        -10.57009502605983
      ],
      [
        "unintentional",
        -10.570144778856472
      ],
      [
        "Die",
        -10.570199119242975
      ],
      [
        "robot",
        -10.5707429802159
      ],
      [
        "surreal",
        -10.571047328526262
      ],
      [
        "improve",
        -10.572192726305435
      ],
      [
        "Larry",
        -10.572360249857022
      ],
      [
        "games",
        -10.572420714416337
      ],
      [
        "harsh",
        -10.57252351202206
      ],
      [
        "#",
        -10.57301230340375
      ],
      [
        "inspiration",
        -10.576823556384621
      ],
      [
        "wood",
        -10.577138947805565
      ],
      [
        "careful",
        -10.577225012506938
      ],
      [
        "depiction",
        -10.579241033502681
      ],
      [
        "Gordon",
        -10.579412709084862
      ],
      [
        "Out",
        -10.579742687860882
      ],
      [
        "guest",
        -10.581270107589459
      ],
      [
        "thank",
        -10.58211859661578
      ],
      [
        "Blue",
        -10.583276956412469
      ],
      [
        "Thank",
        -10.583663468232542
      ],
      [
        "screaming",
        -10.583913004389546
      ],
      [
        "zero",
        -10.5841866980594
      ],
      [
        "Anna",
        -10.584796566925139
      ],
      [
        "freedom",
        -10.585769697284892
      ],
      [
        "Captain",
        -10.585825593382104
      ],
      [
        "danger",
        -10.586433996887877
      ],
      [
        "nail",
        -10.58657539454293
      ],
      [
        "subplot",
        -10.587513477419185
      ],
      [
        "technolog",
        -10.588009865191095
      ],
      [
        "eight",
        -10.588068464028979
      ],
      [
        "sitcom",
        -10.588073230867089
      ],
      [
        "skin",
        -10.590328334639818
      ],
      [
        "Evil",
        -10.59049292659973
      ],
      [
        "center",
        -10.591225924265505
      ],
      [
        "hole",
        -10.592549646841757
      ],
      [
        "ful",
        -10.593535815210743
      ],
      [
        "winner",
        -10.59406077076417
      ],
      [
        "sole",
        -10.5956881440582
      ],
      [
        "Jackie",
        -10.596308534975456
      ],
      [
        "hood",
        -10.596723656807074
      ],
      [
        "topic",
        -10.59679518047093
      ],
      [
        "gratuitous",
        -10.597083813173416
      ],
      [
        "screenwriter",
        -10.597178584103286
      ],
      [
        "ladies",
        -10.59719921287405
      ],
      [
        "flesh",
        -10.597558814764735
      ],
      [
        "flash",
        -10.598648534000771
      ],
      [
        "Moon",
        -10.598894476649273
      ],
      [
        "gain",
        -10.598901604460782
      ],
      [
        "aged",
        -10.599467112957594
      ],
      [
        "depressing",
        -10.599644938177082
      ],
      [
        "underrate",
        -10.59994199651063
      ],
      [
        "delivere",
        -10.600418411903814
      ],
      [
        "Ra",
        -10.601106427401135
      ],
      [
        "size",
        -10.602760945910028
      ],
      [
        "inner",
        -10.604121116379522
      ],
      [
        "rival",
        -10.60524735790375
      ],
      [
        "pack",
        -10.605453799357644
      ],
      [
        "Sci",
        -10.605500224090784
      ],
      [
        "Helen",
        -10.606225691276844
      ],
      [
        "wave",
        -10.607493493335905
      ],
      [
        "excited",
        -10.607596573268019
      ],
      [
        "promising",
        -10.608497178043507
      ],
      [
        "contemporar",
        -10.608727878613449
      ],
      [
        "grand",
        -10.609157512059326
      ],
      [
        "horribl",
        -10.609264592914428
      ],
      [
        "Anderson",
        -10.609486266320314
      ],
      [
        "resemble",
        -10.61009864606002
      ],
      [
        "´",
        -10.610822995379996
      ],
      [
        "proud",
        -10.610840562208361
      ],
      [
        "handed",
        -10.611001090846628
      ],
      [
        "scare",
        -10.611205034638736
      ],
      [
        "cutting",
        -10.612353807548734
      ],
      [
        "_",
        -10.613429677662031
      ],
      [
        "murderer",
        -10.61392578197119
      ],
      [
        "Roy",
        -10.616486255550456
      ],
      [
        "Kid",
        -10.616991718227858
      ],
      [
        "guns",
        -10.617065737478885
      ],
      [
        "Lind",
        -10.617863287947833
      ],
      [
        "Come",
        -10.618232823649706
      ],
      [
        "stair",
        -10.618431470592942
      ],
      [
        "Hall",
        -10.619143987601154
      ],
      [
        "pity",
        -10.61946167146941
      ],
      [
        "sensitive",
        -10.620093063061892
      ],
      [
        "reporter",
        -10.620188643663354
      ],
      [
        "stoppe",
        -10.620276715070274
      ],
      [
        "gross",
        -10.620596412320957
      ],
      [
        "driver",
        -10.621271187707187
      ],
      [
        "Joseph",
        -10.622424302382946
      ],
      [
        "substance",
        -10.62243999309269
      ],
      [
        "refreshing",
        -10.622548024536695
      ],
      [
        "neighbor",
        -10.624764154819816
      ],
      [
        "advance",
        -10.62635637244143
      ],
      [
        "entertaine",
        -10.626699555643388
      ],
      [
        "Eye",
        -10.627290032693264
      ],
      [
        "Stan",
        -10.627502719800823
      ],
      [
        "notch",
        -10.627729537463718
      ],
      [
        "Daniel",
        -10.628514715420378
      ],
      [
        "bird",
        -10.628763573816844
      ],
      [
        "Kong",
        -10.629541569527722
      ],
      [
        "surface",
        -10.62969151419175
      ],
      [
        "knock",
        -10.62999868984735
      ],
      [
        "obsessed",
        -10.630065494291582
      ],
      [
        "Unit",
        -10.630074002335645
      ],
      [
        "cruel",
        -10.630184280840801
      ],
      [
        "Award",
        -10.631418063249662
      ],
      [
        "entertain",
        -10.631734646450933
      ],
      [
        "magical",
        -10.631858896511522
      ],
      [
        "UK",
        -10.63260940120206
      ],
      [
        "motivation",
        -10.633120939027322
      ],
      [
        "forth",
        -10.633758798080638
      ],
      [
        "ancient",
        -10.634161274421958
      ],
      [
        "Through",
        -10.634173418927634
      ],
      [
        "Patrick",
        -10.634272679012497
      ],
      [
        "Back",
        -10.634612235077864
      ],
      [
        "fest",
        -10.634922438499906
      ],
      [
        "dancer",
        -10.635269950415744
      ],
      [
        "terrorist",
        -10.636745038711068
      ],
      [
        "qualit",
        -10.636924883938278
      ],
      [
        "significant",
        -10.637337034548572
      ],
      [
        "blonde",
        -10.637454003527534
      ],
      [
        "Roger",
        -10.637938901693976
      ],
      [
        "Chuck",
        -10.638540453459587
      ],
      [
        "breaking",
        -10.640166950383424
      ],
      [
        "Elizabeth",
        -10.6412706922858
      ],
      [
        "Saturday",
        -10.641288116822857
      ],
      [
        "Old",
        -10.641721153388435
      ],
      [
        "Hard",
        -10.641873574717515
      ],
      [
        "bound",
        -10.64244647558942
      ],
      [
        "pile",
        -10.643169563389947
      ],
      [
        "trappe",
        -10.64355209132369
      ],
      [
        "Festival",
        -10.64365132733117
      ],
      [
        "Washington",
        -10.643651597247988
      ],
      [
        "reache",
        -10.643844209439797
      ],
      [
        "skip",
        -10.644532653327449
      ],
      [
        "shocke",
        -10.64459292529077
      ],
      [
        "bond",
        -10.644966027484614
      ],
      [
        "Co",
        -10.645832592966306
      ],
      [
        "cuts",
        -10.645848473596853
      ],
      [
        "loses",
        -10.646009361333741
      ],
      [
        "Our",
        -10.646143843567401
      ],
      [
        "associate",
        -10.64644734421173
      ],
      [
        "Dennis",
        -10.647109262404044
      ],
      [
        "Wils",
        -10.647205193932741
      ],
      [
        "critical",
        -10.647224144052746
      ],
      [
        "semi",
        -10.647374007609145
      ],
      [
        "Apparent",
        -10.648435104175928
      ],
      [
        "1960",
        -10.648515000577508
      ],
      [
        "criticism",
        -10.648537607501613
      ],
      [
        "slapstick",
        -10.649403326140433
      ],
      [
        "bringing",
        -10.650842292589582
      ],
      [
        "Trek",
        -10.650872767072011
      ],
      [
        "maintain",
        -10.652071693075559
      ],
      [
        "bullet",
        -10.653665848704845
      ],
      [
        "finale",
        -10.65387838005282
      ],
      [
        "solve",
        -10.654425656552306
      ],
      [
        "wins",
        -10.657087643204061
      ],
      [
        "naive",
        -10.657286560555121
      ],
      [
        "fool",
        -10.657308724327326
      ],
      [
        "Power",
        -10.658154540181993
      ],
      [
        "THING",
        -10.658316691275797
      ],
      [
        "Irish",
        -10.658336657659575
      ],
      [
        "Year",
        -10.658443043071188
      ],
      [
        "unfold",
        -10.659226514933696
      ],
      [
        "Zombie",
        -10.659696416977837
      ],
      [
        "propaganda",
        -10.660499996530788
      ],
      [
        "China",
        -10.660614949063646
      ],
      [
        "!).",
        -10.66061870522039
      ],
      [
        "rely",
        -10.660786240653547
      ],
      [
        "therefor",
        -10.661417290998553
      ],
      [
        "strike",
        -10.662932731356019
      ],
      [
        "merit",
        -10.663381033698698
      ],
      [
        "crash",
        -10.66372842738923
      ],
      [
        "bag",
        -10.66381484246039
      ],
      [
        "WWI",
        -10.664592607801529
      ],
      [
        "twisted",
        -10.6646525921022
      ],
      [
        "colour",
        -10.665328822829467
      ],
      [
        "holding",
        -10.666196726884857
      ],
      [
        "jerk",
        -10.66640149596131
      ],
      [
        "majorit",
        -10.666648593018744
      ],
      [
        "environment",
        -10.667211487094082
      ],
      [
        "melodrama",
        -10.667729213374564
      ],
      [
        "statu",
        -10.667873538622755
      ],
      [
        "sentence",
        -10.668102128078328
      ],
      [
        "according",
        -10.668232663044591
      ],
      [
        "trick",
        -10.668502880428832
      ],
      [
        "interpretation",
        -10.668756005795167
      ],
      [
        "Li",
        -10.669529701981372
      ],
      [
        "massive",
        -10.670243724871817
      ],
      [
        "surrounding",
        -10.670292620512257
      ],
      [
        "Friday",
        -10.670555167591443
      ],
      [
        "training",
        -10.67141940780375
      ],
      [
        "16",
        -10.671517522756242
      ],
      [
        "string",
        -10.67253280425475
      ],
      [
        "mirror",
        -10.672673869734641
      ],
      [
        "lawyer",
        -10.67281325403928
      ],
      [
        "excitement",
        -10.672878506180721
      ],
      [
        "prisoner",
        -10.672973539572059
      ],
      [
        "committe",
        -10.673100698614649
      ],
      [
        "wishe",
        -10.673335290748014
      ],
      [
        "ALL",
        -10.674094761927087
      ],
      [
        "poster",
        -10.674283495074466
      ],
      [
        "possibilit",
        -10.6750747181896
      ],
      [
        "1930",
        -10.675235679180009
      ],
      [
        "faithful",
        -10.675567318110481
      ],
      [
        "birth",
        -10.677262442569878
      ],
      [
        "erotic",
        -10.677556017298947
      ],
      [
        "cliche",
        -10.677595261370918
      ],
      [
        "Murphy",
        -10.677597795310467
      ],
      [
        "vague",
        -10.677642632493598
      ],
      [
        "credible",
        -10.678469379452961
      ],
      [
        "cars",
        -10.678518509766578
      ],
      [
        "enemy",
        -10.678636828083288
      ],
      [
        "talks",
        -10.678658283187609
      ],
      [
        "Later",
        -10.679154814700684
      ],
      [
        "Tarzan",
        -10.680063024349245
      ],
      [
        "department",
        -10.680082900819055
      ],
      [
        "creator",
        -10.680287906762691
      ],
      [
        "snake",
        -10.680708356914279
      ],
      [
        "ruine",
        -10.681153401957353
      ],
      [
        "spite",
        -10.681434879117768
      ],
      [
        "revolve",
        -10.68165656339533
      ],
      [
        "hook",
        -10.682399330770998
      ],
      [
        "Kim",
        -10.682571337919837
      ],
      [
        "private",
        -10.682599726406337
      ],
      [
        "Beside",
        -10.682718880553491
      ],
      [
        "Luc",
        -10.682893433525877
      ],
      [
        "Rose",
        -10.683583413094201
      ],
      [
        "bitter",
        -10.685156663037175
      ],
      [
        "Carl",
        -10.685725986783371
      ],
      [
        "consistent",
        -10.686517271872127
      ],
      [
        "ONE",
        -10.687605128815562
      ],
      [
        "stereotypical",
        -10.688066995934157
      ],
      [
        "buff",
        -10.688951221118382
      ],
      [
        "Have",
        -10.689513559295708
      ],
      [
        "Ted",
        -10.689727672007677
      ],
      [
        "sports",
        -10.6899429424598
      ],
      [
        "existent",
        -10.690110181414157
      ],
      [
        "prepared",
        -10.690166212057608
      ],
      [
        "ca",
        -10.690454119635744
      ],
      [
        "Donald",
        -10.690641149174816
      ],
      [
        "Vietnam",
        -10.691251174649572
      ],
      [
        "Johnson",
        -10.691304794536041
      ],
      [
        "ville",
        -10.69230076182793
      ],
      [
        "prevent",
        -10.692533820327249
      ],
      [
        "hearing",
        -10.692617149288722
      ],
      [
        "Russell",
        -10.692650981823633
      ],
      [
        "walke",
        -10.694184010534897
      ],
      [
        "dirty",
        -10.694565776078793
      ],
      [
        "TO",
        -10.694958914994656
      ],
      [
        "false",
        -10.694997705403416
      ],
      [
        "wedding",
        -10.695055976038276
      ],
      [
        "frightening",
        -10.695202799054716
      ],
      [
        "ell",
        -10.696072549501512
      ],
      [
        "court",
        -10.69641168659657
      ],
      [
        "expose",
        -10.69641885831081
      ],
      [
        "17",
        -10.696462184958705
      ],
      [
        "aging",
        -10.697426084203922
      ],
      [
        "THAT",
        -10.697583087809551
      ],
      [
        "Car",
        -10.698066507895234
      ],
      [
        "Holme",
        -10.69861671756635
      ],
      [
        "junk",
        -10.699715647041529
      ],
      [
        "glimpse",
        -10.700038873297697
      ],
      [
        "California",
        -10.700062124426442
      ],
      [
        "sympath",
        -10.701621316502562
      ],
      [
        "Cat",
        -10.701628386419522
      ],
      [
        "dude",
        -10.701939147302436
      ],
      [
        "opens",
        -10.70212256413657
      ],
      [
        "stranger",
        -10.702459253685214
      ],
      [
        "Doctor",
        -10.702583809262954
      ],
      [
        "Jewish",
        -10.70259554550314
      ],
      [
        "Broadway",
        -10.702624059747668
      ],
      [
        "iron",
        -10.703973217060753
      ],
      [
        "trial",
        -10.70427798912896
      ],
      [
        "DO",
        -10.705480151154607
      ],
      [
        "arm",
        -10.706277991186234
      ],
      [
        "robber",
        -10.706674192812162
      ],
      [
        "welcome",
        -10.707656736342354
      ],
      [
        "supernatural",
        -10.707795452939703
      ],
      [
        "wake",
        -10.70786029534202
      ],
      [
        "Parker",
        -10.707970214598813
      ],
      [
        "contact",
        -10.708700455394908
      ],
      [
        "San",
        -10.709161703731858
      ],
      [
        "van",
        -10.709617444779848
      ],
      [
        "ED",
        -10.711054241288267
      ],
      [
        "commit",
        -10.711221341819627
      ],
      [
        "kiss",
        -10.711923597034218
      ],
      [
        "punch",
        -10.712435599234041
      ],
      [
        "loser",
        -10.7133336454819
      ],
      [
        "gritt",
        -10.713417905996744
      ],
      [
        "suspenseful",
        -10.713567661053103
      ],
      [
        "politic",
        -10.713691805569997
      ],
      [
        "sky",
        -10.714840147970609
      ],
      [
        "Mexican",
        -10.714996284689873
      ],
      [
        "Sometime",
        -10.715360909456173
      ],
      [
        "categor",
        -10.715443916009317
      ],
      [
        "tradition",
        -10.715446393623584
      ],
      [
        "ANY",
        -10.715567050181914
      ],
      [
        "execution",
        -10.717717760920728
      ],
      [
        "hype",
        -10.718852138473299
      ],
      [
        "remove",
        -10.718918263748284
      ],
      [
        "hip",
        -10.72036872351756
      ],
      [
        "reputation",
        -10.720421652216324
      ],
      [
        "defeat",
        -10.72055812277772
      ],
      [
        "inept",
        -10.720680939533807
      ],
      [
        "interaction",
        -10.720835843125862
      ],
      [
        "river",
        -10.720854394613156
      ],
      [
        "viewe",
        -10.721069714422853
      ],
      [
        "puppet",
        -10.722984164042588
      ],
      [
        "landscape",
        -10.723006722818639
      ],
      [
        "forgettabl",
        -10.723038915715648
      ],
      [
        "Long",
        -10.723469529263387
      ],
      [
        "severe",
        -10.723958319969753
      ],
      [
        "Nazi",
        -10.724440752353555
      ],
      [
        "performe",
        -10.72466976901823
      ],
      [
        "Dracula",
        -10.725587175359834
      ],
      [
        "jail",
        -10.726154820710494
      ],
      [
        "About",
        -10.726345261488994
      ],
      [
        "via",
        -10.726584599717418
      ],
      [
        "Unlike",
        -10.727038927679782
      ],
      [
        "admire",
        -10.72782067613683
      ],
      [
        "makeup",
        -10.72789427972624
      ],
      [
        "extraordinar",
        -10.728259297839031
      ],
      [
        "Such",
        -10.72840285036509
      ],
      [
        "Far",
        -10.728598397307355
      ],
      [
        "nation",
        -10.730112778867014
      ],
      [
        "laz",
        -10.730496927668742
      ],
      [
        "Each",
        -10.73085656964761
      ],
      [
        "mainstream",
        -10.730918441802917
      ],
      [
        "watchabl",
        -10.731301264168597
      ],
      [
        "sentimental",
        -10.731625413174498
      ],
      [
        "teens",
        -10.733178901339777
      ],
      [
        "official",
        -10.733366875445704
      ],
      [
        "description",
        -10.733384683576212
      ],
      [
        "haunting",
        -10.733534959676469
      ],
      [
        "network",
        -10.733689004313176
      ],
      [
        "purchase",
        -10.733840928167428
      ],
      [
        "variet",
        -10.73495855340632
      ],
      [
        "Dog",
        -10.735115176122854
      ],
      [
        "prior",
        -10.735815390719123
      ],
      [
        "Julia",
        -10.735817278693204
      ],
      [
        "peace",
        -10.73591696170529
      ],
      [
        "NY",
        -10.737052998381728
      ],
      [
        "Africa",
        -10.737152512524904
      ],
      [
        "reward",
        -10.737453627698066
      ],
      [
        "till",
        -10.73800246854179
      ],
      [
        "Victor",
        -10.7380768859928
      ],
      [
        "stumble",
        -10.738229918304569
      ],
      [
        "continuit",
        -10.738583473819403
      ],
      [
        "General",
        -10.738675645243813
      ],
      [
        "Ring",
        -10.739099376453336
      ],
      [
        "Mel",
        -10.74008200868828
      ],
      [
        "headed",
        -10.740465167110717
      ],
      [
        "demon",
        -10.740604605197616
      ],
      [
        "ened",
        -10.741162814649279
      ],
      [
        "Eastwood",
        -10.741257104812824
      ],
      [
        "creation",
        -10.742236460687282
      ],
      [
        "Basical",
        -10.742427034805559
      ],
      [
        "invite",
        -10.74352036384128
      ],
      [
        "motive",
        -10.743892671333423
      ],
      [
        "ke",
        -10.744592291377455
      ],
      [
        "breast",
        -10.745954872722123
      ],
      [
        "heads",
        -10.748441581384236
      ],
      [
        "inevitabl",
        -10.748578136677297
      ],
      [
        "1980",
        -10.749200569676443
      ],
      [
        "States",
        -10.749283066656819
      ],
      [
        "profound",
        -10.749426927677169
      ],
      [
        "changing",
        -10.749581420865123
      ],
      [
        "treasure",
        -10.750023612297271
      ],
      [
        "Kill",
        -10.750115591540702
      ],
      [
        "India",
        -10.750450759461586
      ],
      [
        "hanging",
        -10.751317307788257
      ],
      [
        "bore",
        -10.751788295621838
      ],
      [
        "streets",
        -10.75196511394758
      ],
      [
        "Lost",
        -10.752647392624631
      ],
      [
        "tim",
        -10.754039465267201
      ],
      [
        "Killer",
        -10.754759748740124
      ],
      [
        "ski",
        -10.755387725991481
      ],
      [
        "health",
        -10.756738287027975
      ],
      [
        "chair",
        -10.756850569803383
      ],
      [
        "minded",
        -10.757290868342515
      ],
      [
        "funnie",
        -10.758534996045356
      ],
      [
        "greed",
        -10.759156608800883
      ],
      [
        "benefit",
        -10.759796723607103
      ],
      [
        "jealous",
        -10.759797295783974
      ],
      [
        "Warner",
        -10.759800551659316
      ],
      [
        "atrocious",
        -10.76060108581315
      ],
      [
        "noise",
        -10.760757849131132
      ],
      [
        "comical",
        -10.761076047837335
      ],
      [
        "destroye",
        -10.761670650311284
      ],
      [
        "ludicrous",
        -10.762477675217363
      ],
      [
        "ver",
        -10.762587571606064
      ],
      [
        "Q",
        -10.763461155730278
      ],
      [
        "Sun",
        -10.764748570455996
      ],
      [
        "VERY",
        -10.764942505764923
      ],
      [
        "narration",
        -10.765176616009093
      ],
      [
        "unconvincing",
        -10.765194790259745
      ],
      [
        "broad",
        -10.766178580593387
      ],
      [
        "Lane",
        -10.766715734891935
      ],
      [
        "repeat",
        -10.766829734239714
      ],
      [
        "fines",
        -10.767046359645793
      ],
      [
        "Luke",
        -10.767903636212687
      ],
      [
        "consequence",
        -10.768122074910893
      ],
      [
        "Betty",
        -10.769497458002446
      ],
      [
        "strict",
        -10.771890493658205
      ],
      [
        "angel",
        -10.772265361053188
      ],
      [
        "?!",
        -10.77273914095597
      ],
      [
        "Baby",
        -10.77300679761105
      ],
      [
        "provoking",
        -10.773276096811106
      ],
      [
        "Channel",
        -10.773279123797607
      ],
      [
        "incident",
        -10.774010124951255
      ],
      [
        "define",
        -10.774029676941941
      ],
      [
        "prime",
        -10.775497026839144
      ],
      [
        "President",
        -10.776121309563424
      ],
      [
        "istic",
        -10.776257745064402
      ],
      [
        "eath",
        -10.776515206334029
      ],
      [
        "dress",
        -10.777074053514326
      ],
      [
        "uncle",
        -10.77743212663259
      ],
      [
        "heck",
        -10.778056700359278
      ],
      [
        "):",
        -10.778132927035847
      ],
      [
        "corpse",
        -10.778789640891942
      ],
      [
        "tree",
        -10.779217868453994
      ],
      [
        "crude",
        -10.77949029270922
      ],
      [
        "bill",
        -10.779601328973442
      ],
      [
        "hunter",
        -10.780158648549616
      ],
      [
        "mature",
        -10.780176919232712
      ],
      [
        "complaint",
        -10.780927722244705
      ],
      [
        "universe",
        -10.781448458656225
      ],
      [
        "homosexual",
        -10.78149778014527
      ],
      [
        "é",
        -10.782205471183355
      ],
      [
        "aka",
        -10.783731183505811
      ],
      [
        "cultural",
        -10.784152097707985
      ],
      [
        "jungle",
        -10.784188838453218
      ],
      [
        "shirt",
        -10.784194975618984
      ],
      [
        "Golden",
        -10.784268462554596
      ],
      [
        "El",
        -10.784411047031702
      ],
      [
        "Vampire",
        -10.78505667005362
      ],
      [
        "assistant",
        -10.785696736011435
      ],
      [
        "Alien",
        -10.785714865095535
      ],
      [
        "concert",
        -10.786723556764898
      ],
      [
        "Laure",
        -10.786916462509563
      ],
      [
        "Definite",
        -10.786937302772827
      ],
      [
        "painting",
        -10.787873618295983
      ],
      [
        "chief",
        -10.788845433784928
      ],
      [
        "Carpenter",
        -10.789690260299288
      ],
      [
        "sacrifice",
        -10.790034482222019
      ],
      [
        "heavi",
        -10.790431945985869
      ],
      [
        "Something",
        -10.79200012242309
      ],
      [
        "legendar",
        -10.7929544567885
      ],
      [
        "grab",
        -10.793423074781181
      ],
      [
        "Brooks",
        -10.793682362433728
      ],
      [
        "goal",
        -10.793753919536378
      ],
      [
        "clos",
        -10.794149591554152
      ],
      [
        "Rick",
        -10.79415968319304
      ],
      [
        "Susan",
        -10.795113482150306
      ],
      [
        "USA",
        -10.795218328548865
      ],
      [
        "convinced",
        -10.79602225384345
      ],
      [
        "Laura",
        -10.796315023144313
      ],
      [
        "EVER",
        -10.796410900403565
      ],
      [
        "Your",
        -10.797618901629754
      ],
      [
        "shift",
        -10.797983902998109
      ],
      [
        "Fulci",
        -10.798000852684385
      ],
      [
        "cousin",
        -10.798026710203736
      ],
      [
        "Hugh",
        -10.79804649420565
      ],
      [
        "pro",
        -10.798058315662992
      ],
      [
        "Hoffman",
        -10.798079272387021
      ],
      [
        "Nex",
        -10.798409634665544
      ],
      [
        "elder",
        -10.798514731257
      ],
      [
        "education",
        -10.798992194602153
      ],
      [
        "complicated",
        -10.799929097692985
      ],
      [
        "bothere",
        -10.800504108077604
      ],
      [
        "Sinatra",
        -10.80078612860743
      ],
      [
        "covere",
        -10.80166277733294
      ],
      [
        "screening",
        -10.80236483141283
      ],
      [
        "shine",
        -10.802701608439076
      ],
      [
        "multiple",
        -10.803487260454816
      ],
      [
        "tremendous",
        -10.80357932522176
      ],
      [
        "faced",
        -10.803816371059796
      ],
      [
        "gging",
        -10.806220373601244
      ],
      [
        "Master",
        -10.806550745348373
      ],
      [
        "vast",
        -10.808357212362818
      ],
      [
        "inter",
        -10.809146148485667
      ],
      [
        "gruesome",
        -10.809189487691183
      ],
      [
        "stomach",
        -10.809197015975876
      ],
      [
        "Law",
        -10.809864291425132
      ],
      [
        "nude",
        -10.80990350983826
      ],
      [
        "format",
        -10.810709080633803
      ],
      [
        "warn",
        -10.811135644255426
      ],
      [
        "imager",
        -10.812004135305008
      ],
      [
        "anime",
        -10.812294918673867
      ],
      [
        "tongue",
        -10.812611380103444
      ],
      [
        "pushe",
        -10.812764085461284
      ],
      [
        "cheat",
        -10.812870491812212
      ],
      [
        "ffered",
        -10.813234399238183
      ],
      [
        "pool",
        -10.81359525492839
      ],
      [
        "Emil",
        -10.814339296282592
      ],
      [
        "Kurt",
        -10.815148928182461
      ],
      [
        "characterization",
        -10.815692884563182
      ],
      [
        "Wars",
        -10.81628479251657
      ],
      [
        "MOVIE",
        -10.817664089108774
      ],
      [
        "trilog",
        -10.817665466904973
      ],
      [
        "express",
        -10.818168186355827
      ],
      [
        "error",
        -10.819299081508909
      ],
      [
        "teeth",
        -10.819323472857317
      ],
      [
        "summar",
        -10.819411129188913
      ],
      [
        "buddy",
        -10.820667180637873
      ],
      [
        "possesse",
        -10.82083656444619
      ],
      [
        "believ",
        -10.821280140933206
      ],
      [
        "castle",
        -10.821455677140724
      ],
      [
        "wound",
        -10.82254528538109
      ],
      [
        "preview",
        -10.823241319214318
      ],
      [
        "dinosaur",
        -10.823356597277623
      ],
      [
        "demonstrate",
        -10.823813387851796
      ],
      [
        "Sunday",
        -10.823840237047998
      ],
      [
        "Music",
        -10.824821229733569
      ],
      [
        "WW",
        -10.826069674982246
      ],
      [
        "Micke",
        -10.828519849469473
      ],
      [
        "blend",
        -10.828596846279304
      ],
      [
        "Cage",
        -10.829033661831202
      ],
      [
        "turkey",
        -10.829085633061197
      ],
      [
        "increasing",
        -10.829194929567455
      ],
      [
        "Vincent",
        -10.829195919956467
      ],
      [
        "passing",
        -10.829585187018676
      ],
      [
        "Michell",
        -10.829649385633948
      ],
      [
        "competent",
        -10.829701676157677
      ],
      [
        "End",
        -10.829728689292821
      ],
      [
        "brave",
        -10.830223107748779
      ],
      [
        "paint",
        -10.830862616000376
      ],
      [
        "Home",
        -10.831004576487015
      ],
      [
        "understo",
        -10.832679624011211
      ],
      [
        "nurse",
        -10.833567659724029
      ],
      [
        "Santa",
        -10.833826059286732
      ],
      [
        "flight",
        -10.834331126481727
      ],
      [
        "esigned",
        -10.83465199448163
      ],
      [
        "method",
        -10.834828912798766
      ],
      [
        "obnoxious",
        -10.834833930625518
      ],
      [
        "establishe",
        -10.835585464793002
      ],
      [
        "disagree",
        -10.835661163769407
      ],
      [
        "spoken",
        -10.836247237754591
      ],
      [
        "honor",
        -10.836418811085192
      ],
      [
        "connect",
        -10.836647522292047
      ],
      [
        "types",
        -10.836925301234746
      ],
      [
        "Prince",
        -10.837523959612732
      ],
      [
        "powers",
        -10.838056709424935
      ],
      [
        "securit",
        -10.838262917512441
      ],
      [
        "struggl",
        -10.838606560235302
      ],
      [
        "spell",
        -10.839245520204326
      ],
      [
        "Return",
        -10.839308862863117
      ],
      [
        "settle",
        -10.839684178376597
      ],
      [
        "Devil",
        -10.840438529409559
      ],
      [
        "cave",
        -10.840569512761686
      ],
      [
        "outrageous",
        -10.840625049230681
      ],
      [
        "caring",
        -10.841237200566528
      ],
      [
        "Marie",
        -10.841881781293129
      ],
      [
        "listening",
        -10.84236298271836
      ],
      [
        "witnesse",
        -10.843086328387379
      ],
      [
        "conscious",
        -10.843454834689204
      ],
      [
        "uniform",
        -10.843528325885693
      ],
      [
        "facial",
        -10.843531647265408
      ],
      [
        "marvelous",
        -10.843533228091367
      ],
      [
        "FBI",
        -10.843580996241414
      ],
      [
        "grave",
        -10.843592927226469
      ],
      [
        "1940",
        -10.843648382075354
      ],
      [
        "uninteresting",
        -10.843682026128928
      ],
      [
        "hopeless",
        -10.84395301540248
      ],
      [
        "occasion",
        -10.845929783204806
      ],
      [
        "Kane",
        -10.84620799289144
      ],
      [
        "/>*",
        -10.847694836272357
      ],
      [
        "Lisa",
        -10.847885783534917
      ],
      [
        "beach",
        -10.849431621363811
      ],
      [
        "doom",
        -10.850340214867382
      ],
      [
        "Miller",
        -10.8510783522661
      ],
      [
        "shut",
        -10.852073592366313
      ],
      [
        "multi",
        -10.85230839176637
      ],
      [
        "starre",
        -10.853089538351586
      ],
      [
        "Acting",
        -10.854781623770274
      ],
      [
        "Lloyd",
        -10.855240747239495
      ],
      [
        "introduction",
        -10.855242256576192
      ],
      [
        "Hunter",
        -10.855328207396505
      ],
      [
        "weekend",
        -10.855704799204624
      ],
      [
        "Full",
        -10.85630549694016
      ],
      [
        "text",
        -10.857360349805779
      ],
      [
        "East",
        -10.857575810292076
      ],
      [
        "pregnan",
        -10.85762001890499
      ],
      [
        "Along",
        -10.858059736844883
      ],
      [
        "argument",
        -10.859009823818177
      ],
      [
        "Superman",
        -10.859532706177543
      ],
      [
        "storm",
        -10.859843995172126
      ],
      [
        "racis",
        -10.860487284140714
      ],
      [
        "arrest",
        -10.860560648782503
      ],
      [
        "evident",
        -10.861149151337285
      ],
      [
        "neck",
        -10.862170651270779
      ],
      [
        "afterward",
        -10.862755703915521
      ],
      [
        "SO",
        -10.863300710475366
      ],
      [
        "miles",
        -10.863716303304788
      ],
      [
        "Freddy",
        -10.86437884945886
      ],
      [
        "Welles",
        -10.864771317776448
      ],
      [
        "Dave",
        -10.86480719389573
      ],
      [
        "Cole",
        -10.865929679382585
      ],
      [
        "spin",
        -10.867141574689544
      ],
      [
        "damage",
        -10.867244403625868
      ],
      [
        "throwing",
        -10.868025255133555
      ],
      [
        "campy",
        -10.868282427314185
      ],
      [
        "beer",
        -10.869309462000693
      ],
      [
        "curse",
        -10.869765554121035
      ],
      [
        "eeper",
        -10.86987465546134
      ],
      [
        "YOU",
        -10.869902612105822
      ],
      [
        "Famil",
        -10.870064575860132
      ],
      [
        "heaven",
        -10.870103051970084
      ],
      [
        "cringe",
        -10.87016753792732
      ],
      [
        "Sir",
        -10.870297927057305
      ],
      [
        "surround",
        -10.870696401640284
      ],
      [
        "quest",
        -10.870739406391865
      ],
      [
        "psycho",
        -10.870947695889955
      ],
      [
        "Hong",
        -10.871132859315175
      ],
      [
        "Tomm",
        -10.871557507046763
      ],
      [
        "Jay",
        -10.87251855790078
      ],
      [
        "argue",
        -10.872927906849768
      ],
      [
        "Obvious",
        -10.87307188788132
      ],
      [
        "warne",
        -10.873117679361963
      ],
      [
        "Lou",
        -10.875219813748084
      ],
      [
        "Soviet",
        -10.876076345679483
      ],
      [
        "retarded",
        -10.87613520232561
      ],
      [
        "---",
        -10.876143167752883
      ],
      [
        "1990",
        -10.876230481570948
      ],
      [
        "Someone",
        -10.87764571340061
      ],
      [
        "tense",
        -10.87777620288184
      ],
      [
        "Top",
        -10.878977317708566
      ],
      [
        "mountain",
        -10.879028476111525
      ],
      [
        "Catherine",
        -10.879145633831087
      ],
      [
        "indie",
        -10.879429724189656
      ],
      [
        "packe",
        -10.87963746232722
      ],
      [
        "Che",
        -10.880889322967331
      ],
      [
        "parallel",
        -10.882074463788879
      ],
      [
        "blah",
        -10.882085516561236
      ],
      [
        "uclear",
        -10.882106362639103
      ],
      [
        "queen",
        -10.88221206344845
      ],
      [
        "racist",
        -10.882428995634097
      ],
      [
        "LOVE",
        -10.882886865183616
      ],
      [
        "hysterical",
        -10.882906863613993
      ],
      [
        "Ron",
        -10.885076144124934
      ],
      [
        "Columbo",
        -10.88514285274621
      ],
      [
        "Oliver",
        -10.885923572837724
      ],
      [
        "laid",
        -10.886803301286406
      ],
      [
        "drinking",
        -10.887691566881383
      ],
      [
        "Add",
        -10.887784511367435
      ],
      [
        "subsequent",
        -10.888177789296865
      ],
      [
        "horrific",
        -10.888177789388756
      ],
      [
        "Cooper",
        -10.88819585801335
      ],
      [
        "Arn",
        -10.888358178548302
      ],
      [
        "plague",
        -10.888699430844145
      ],
      [
        "Karen",
        -10.889229478583534
      ],
      [
        "mindless",
        -10.889770077029912
      ],
      [
        "forest",
        -10.890312138285093
      ],
      [
        "eager",
        -10.891400109740683
      ],
      [
        "Poor",
        -10.892487705171236
      ],
      [
        "Jon",
        -10.89272581910349
      ],
      [
        "wreck",
        -10.892989473033742
      ],
      [
        "doll",
        -10.893708531696433
      ],
      [
        "arms",
        -10.893776774030258
      ],
      [
        "advantage",
        -10.89406903637729
      ],
      [
        "upset",
        -10.894125301501326
      ],
      [
        "international",
        -10.894313491024766
      ],
      [
        "link",
        -10.895095769845486
      ],
      [
        "void",
        -10.895699020358673
      ],
      [
        "Rating",
        -10.89674281625027
      ],
      [
        "Los",
        -10.897231001808565
      ],
      [
        "extent",
        -10.897241568282105
      ],
      [
        "Burton",
        -10.897257922760938
      ],
      [
        "LA",
        -10.897328968593104
      ],
      [
        "medical",
        -10.897410379397087
      ],
      [
        "chilling",
        -10.897725769506486
      ],
      [
        "True",
        -10.89809280413327
      ],
      [
        "guard",
        -10.898769791586872
      ],
      [
        "rushe",
        -10.89883568412703
      ],
      [
        "sleaz",
        -10.899294622649933
      ],
      [
        "Page",
        -10.899859457275067
      ],
      [
        "dinner",
        -10.899956581220739
      ],
      [
        "Police",
        -10.900449084985862
      ],
      [
        "resist",
        -10.901247972897398
      ],
      [
        "rap",
        -10.903346347469636
      ],
      [
        "blatant",
        -10.903515551625723
      ],
      [
        "measure",
        -10.904950987281456
      ],
      [
        "ideal",
        -10.905579845625095
      ],
      [
        "poignant",
        -10.906611494198899
      ],
      [
        "Spoiler",
        -10.906613753295506
      ],
      [
        "ticket",
        -10.906819887083442
      ],
      [
        "Check",
        -10.907132538734693
      ],
      [
        "fictional",
        -10.9079199228085
      ],
      [
        "determined",
        -10.908235451041467
      ],
      [
        "Give",
        -10.908939085683436
      ],
      [
        "accuse",
        -10.909028779280817
      ],
      [
        "baseball",
        -10.909834604999546
      ],
      [
        "vampires",
        -10.909858405710864
      ],
      [
        "breathtaking",
        -10.909868190732004
      ],
      [
        "depend",
        -10.910508002757332
      ],
      [
        "walks",
        -10.912380242405188
      ],
      [
        "controversial",
        -10.9128427857219
      ],
      [
        "afternoon",
        -10.912874819924351
      ],
      [
        "prostitute",
        -10.913221164176525
      ],
      [
        "refer",
        -10.913650299281645
      ],
      [
        "45",
        -10.913703427907915
      ],
      [
        "signed",
        -10.91457875899805
      ],
      [
        "struck",
        -10.914810342317608
      ],
      [
        "homage",
        -10.915969441324126
      ],
      [
        "credibil",
        -10.915996236285064
      ],
      [
        "gag",
        -10.916611831327836
      ],
      [
        "border",
        -10.917647672019442
      ],
      [
        "cheer",
        -10.91854062180758
      ],
      [
        "Wolf",
        -10.918569707112516
      ],
      [
        "guarantee",
        -10.91909212757317
      ],
      [
        "Probabl",
        -10.919092576808637
      ],
      [
        "Would",
        -10.919093196537666
      ],
      [
        "franchise",
        -10.919096575781007
      ],
      [
        "Heaven",
        -10.919097480663012
      ],
      [
        "float",
        -10.91912066381941
      ],
      [
        "copie",
        -10.919176795813058
      ],
      [
        "Blair",
        -10.919214966135243
      ],
      [
        "outfit",
        -10.921804454017781
      ],
      [
        "Lesl",
        -10.92200563893898
      ],
      [
        "Character",
        -10.922225133088855
      ],
      [
        "proceed",
        -10.922465121350196
      ],
      [
        "shark",
        -10.922676995069754
      ],
      [
        "shout",
        -10.923014680550434
      ],
      [
        "reminiscen",
        -10.923121381769995
      ],
      [
        "finger",
        -10.923944778480063
      ],
      [
        "rippe",
        -10.924170886138253
      ],
      [
        "task",
        -10.924399075659647
      ],
      [
        "overlook",
        -10.925227690964729
      ],
      [
        "staye",
        -10.925516347330895
      ],
      [
        "emed",
        -10.925552085037422
      ],
      [
        "sincere",
        -10.92580832449806
      ],
      [
        "MST3",
        -10.92677539849321
      ],
      [
        "plastic",
        -10.927419253744425
      ],
      [
        "Mario",
        -10.927738129838364
      ],
      [
        "striking",
        -10.92855633919891
      ],
      [
        "idiotic",
        -10.928617866093706
      ],
      [
        "Greek",
        -10.928719808562137
      ],
      [
        "urban",
        -10.92888279166288
      ],
      [
        "exercise",
        -10.929208870223835
      ],
      [
        "Grade",
        -10.929617943052392
      ],
      [
        "spiritual",
        -10.930764837855568
      ],
      [
        "proof",
        -10.931646951468274
      ],
      [
        "nnocence",
        -10.931730554903659
      ],
      [
        "prop",
        -10.932042053454179
      ],
      [
        "Seriousl",
        -10.933369195697374
      ],
      [
        "Australia",
        -10.934607411808438
      ],
      [
        "revelation",
        -10.934929520039736
      ],
      [
        "monkey",
        -10.935128262757736
      ],
      [
        "Sound",
        -10.935934415674868
      ],
      [
        "matche",
        -10.936082377889733
      ],
      [
        "Walker",
        -10.936311228598163
      ],
      [
        "user",
        -10.936379291553784
      ],
      [
        "stronge",
        -10.937001861560486
      ],
      [
        "Super",
        -10.937423429138818
      ],
      [
        "ible",
        -10.937907824130939
      ],
      [
        "confusion",
        -10.938112730508774
      ],
      [
        "served",
        -10.938402379528387
      ],
      [
        "Water",
        -10.939480840192582
      ],
      [
        "Sad",
        -10.94037542003032
      ],
      [
        "chain",
        -10.94059295483176
      ],
      [
        "Sutherland",
        -10.941323737218962
      ],
      [
        "Conner",
        -10.941326725706729
      ],
      [
        "Cinema",
        -10.941395959133036
      ],
      [
        "stretch",
        -10.941470571047404
      ],
      [
        "predict",
        -10.941715194196831
      ],
      [
        "Monster",
        -10.941729806599694
      ],
      [
        "cynical",
        -10.941743099419677
      ],
      [
        "achievement",
        -10.942177438865972
      ],
      [
        "delivery",
        -10.942486632850322
      ],
      [
        "national",
        -10.942725693125254
      ],
      [
        "sinister",
        -10.943300916240279
      ],
      [
        "embarrasse",
        -10.94482388948867
      ],
      [
        "Mexic",
        -10.944904484396469
      ],
      [
        "divorce",
        -10.945229640121353
      ],
      [
        "firm",
        -10.94589833548602
      ],
      [
        "terror",
        -10.946135898712036
      ],
      [
        "generate",
        -10.946515495837417
      ],
      [
        "ntry",
        -10.947455732552331
      ],
      [
        "Pacino",
        -10.947796369839462
      ],
      [
        "threat",
        -10.948850057555838
      ],
      [
        "Lug",
        -10.94895919482399
      ],
      [
        "Maria",
        -10.949111986831436
      ],
      [
        "command",
        -10.949929717795795
      ],
      [
        "lonely",
        -10.950052294111222
      ],
      [
        "Caine",
        -10.95068947330288
      ],
      [
        "construct",
        -10.950762295797261
      ],
      [
        "presentation",
        -10.951101392037458
      ],
      [
        "stylish",
        -10.951128375385807
      ],
      [
        "Bergman",
        -10.95115257682897
      ],
      [
        "24",
        -10.951341842372265
      ],
      [
        "2000",
        -10.951815184257487
      ],
      [
        "logical",
        -10.952326038135826
      ],
      [
        "ashamed",
        -10.952914353475084
      ],
      [
        "threaten",
        -10.953630845715756
      ],
      [
        "adding",
        -10.954167240236625
      ],
      [
        "albe",
        -10.954217143455011
      ],
      [
        "upper",
        -10.954281661243787
      ],
      [
        "fabulous",
        -10.954536050831791
      ],
      [
        "cheese",
        -10.955691116780368
      ],
      [
        "fade",
        -10.956062979930733
      ],
      [
        "forgive",
        -10.956575156630539
      ],
      [
        "Philip",
        -10.9566078885723
      ],
      [
        "Tru",
        -10.957410773422698
      ],
      [
        "identify",
        -10.957497425259078
      ],
      [
        "intensit",
        -10.957506258628449
      ],
      [
        "ive",
        -10.957566261509175
      ],
      [
        "Right",
        -10.957986877407214
      ],
      [
        "Actor",
        -10.95806873595798
      ],
      [
        "Nir",
        -10.958159940871521
      ],
      [
        ":)",
        -10.9586673360545
      ],
      [
        "immense",
        -10.961399918197696
      ],
      [
        "helping",
        -10.961557988338972
      ],
      [
        "bridge",
        -10.961845946837926
      ],
      [
        "Pitt",
        -10.961949839861411
      ],
      [
        "PG",
        -10.962518203289669
      ],
      [
        "Burt",
        -10.962716514475904
      ],
      [
        "crie",
        -10.963084049504868
      ],
      [
        "cheek",
        -10.964037991548658
      ],
      [
        "Cameron",
        -10.964051395342622
      ],
      [
        "dust",
        -10.964310519847947
      ],
      [
        "gripping",
        -10.964323409650245
      ],
      [
        "sheriff",
        -10.964387793570932
      ],
      [
        "overcome",
        -10.964392977002664
      ],
      [
        "Ken",
        -10.964708902680954
      ],
      [
        "lovable",
        -10.964856083045841
      ],
      [
        "smoke",
        -10.965764584827555
      ],
      [
        "Had",
        -10.966044957278369
      ],
      [
        "trap",
        -10.966219045784896
      ],
      [
        "Stanwy",
        -10.967357968335598
      ],
      [
        "deliberate",
        -10.967393513346465
      ],
      [
        "obsession",
        -10.967406041525505
      ],
      [
        "tribute",
        -10.969015196186694
      ],
      [
        "contribute",
        -10.969962841102177
      ],
      [
        "considerabl",
        -10.969990007131349
      ],
      [
        "backdrop",
        -10.970225321288524
      ],
      [
        "National",
        -10.970666538155136
      ],
      [
        "School",
        -10.970670662934491
      ],
      [
        "kung",
        -10.970764516445467
      ],
      [
        "Jamie",
        -10.9739780950109
      ],
      [
        "Kennedy",
        -10.974059596463357
      ],
      [
        "REAL",
        -10.97442630659326
      ],
      [
        "MAN",
        -10.974584722415562
      ],
      [
        "Make",
        -10.974639913423456
      ],
      [
        "Eve",
        -10.976105112449694
      ],
      [
        "basi",
        -10.976147907111844
      ],
      [
        "ironic",
        -10.976466603608719
      ],
      [
        "fighter",
        -10.977172192152945
      ],
      [
        "Nancy",
        -10.977612507941767
      ],
      [
        "Victoria",
        -10.97782749124199
      ],
      [
        "block",
        -10.97943000376334
      ],
      [
        "wanna",
        -10.980312349247935
      ],
      [
        "throat",
        -10.980740449332458
      ],
      [
        "nerd",
        -10.98152193431249
      ],
      [
        "connected",
        -10.981842471425374
      ],
      [
        "emerge",
        -10.981865989385204
      ],
      [
        "useless",
        -10.982027596039813
      ],
      [
        "Father",
        -10.982152838624152
      ],
      [
        "speaks",
        -10.982526868242083
      ],
      [
        "fond",
        -10.983103688691262
      ],
      [
        "goof",
        -10.983654026558376
      ],
      [
        "Bollywood",
        -10.984011614358435
      ],
      [
        "imaginative",
        -10.984126834378788
      ],
      [
        "Comedy",
        -10.984214437606393
      ],
      [
        "Fire",
        -10.984318059369508
      ],
      [
        "Grace",
        -10.984425113029435
      ],
      [
        "button",
        -10.98487629764613
      ],
      [
        "exploit",
        -10.984975429861628
      ],
      [
        "accepte",
        -10.985660461945011
      ],
      [
        "clips",
        -10.985848249166136
      ],
      [
        "Hal",
        -10.986425856743963
      ],
      [
        "principal",
        -10.987300317563095
      ],
      [
        "portrait",
        -10.987302038702286
      ],
      [
        "Rachel",
        -10.987323110282272
      ],
      [
        "Scar",
        -10.987797918217709
      ],
      [
        "Think",
        -10.988181442962674
      ],
      [
        "appalling",
        -10.988645906666244
      ],
      [
        "countri",
        -10.990959487267055
      ],
      [
        "magazine",
        -10.991077480986663
      ],
      [
        "!),",
        -10.991292654782253
      ],
      [
        "spook",
        -10.992181923147426
      ],
      [
        "Mari",
        -10.992348654022019
      ],
      [
        "Universal",
        -10.994045700115148
      ],
      [
        "atmospheric",
        -10.99404570221914
      ],
      [
        "Britain",
        -10.994254183096542
      ],
      [
        "aliens",
        -10.99427284889179
      ],
      [
        "Powell",
        -10.994416944561522
      ],
      [
        "folk",
        -10.995818229962453
      ],
      [
        "slave",
        -10.995823181100445
      ],
      [
        "Fair",
        -10.99609659825476
      ],
      [
        "Christ",
        -10.997697091019756
      ],
      [
        "ooked",
        -10.997757395615057
      ],
      [
        "Wild",
        -10.99792839565152
      ],
      [
        "guide",
        -10.998604247878948
      ],
      [
        "manager",
        -10.998862754190121
      ],
      [
[...]
