{
  "version": "1.0",
  "truncation": null,
  "padding": null,
  "added_tokens": [
    {
      "id": 0,
      "content": "[UNK]",
      "single_word": false,
      "lstrip": false,
      "rstrip": false,
      "normalized": false,
      "special": true
    },
    {
      "id": 1,
      "content": "[CLS]",
      "single_word": false,
      "lstrip": false,
      "rstrip": false,
      "normalized": false,
      "special": true
    },
    {
      "id": 2,
      "content": "[SEP]",
      "single_word": false,
      "lstrip": false,
      "rstrip": false,
      "normalized": false,
      "special": true
    },
    {
      "id": 3,
      "content": "[PAD]",
      "single_word": false,
      "lstrip": false,
      "rstrip": false,
      "normalized": false,
      "special": true
    },
    {
      "id": 4,
      "content": "[MASK]",
      "single_word": false,
      "lstrip": false,
      "rstrip": false,
      "normalized": false,
      "special": true
    }
  ],
  "normalizer": null,
  "pre_tokenizer": {
    "type": "Whitespace"
  },
  "post_processor": null,
  "decoder": null,
  "model": {
    "type": "WordPiece",
    "unk_token": "[UNK]",
    "continuing_subword_prefix": "##",
    "max_input_chars_per_word": 100,
    "vocab": {
      "[UNK]": 0,
      "[CLS]": 1,
      "[SEP]": 2,
      "[PAD]": 3,
      "[MASK]": 4,
      "\b": 5,
      "\u0010": 6,
      "!": 7,
      "\"": 8,
      "#": 9,
      "$": 10,
      "%": 11,
      "&": 12,
      "'": 13,
      "(": 14,
      ")": 15,
      "*": 16,
      "+": 17,
      ",": 18,
      "-": 19,
      ".": 20,
      "/": 21,
      "0": 22,
      "1": 23,
      "2": 24,
      "3": 25,
      "4": 26,
      "5": 27,
      "6": 28,
      "7": 29,
      "8": 30,
      "9": 31,
      ":": 32,
      ";": 33,
      "<": 34,
      "=": 35,
      ">": 36,
      "?": 37,
      "@": 38,
      "A": 39,
      "B": 40,
      "C": 41,
      "D": 42,
      "E": 43,
      "F": 44,
      "G": 45,
      "H": 46,
      "I": 47,
      "J": 48,
      "K": 49,
      "L": 50,
      "M": 51,
      "N": 52,
      "O": 53,
      "P": 54,
      "Q": 55,
      "R": 56,
      "S": 57,
      "T": 58,
      "U": 59,
      "V": 60,
      "W": 61,
      "X": 62,
      "Y": 63,
      "Z": 64,
      "[": 65,
      "\\": 66,
      "]": 67,
      "^": 68,
      "_": 69,
      "`": 70,
      "a": 71,
      "b": 72,
      "c": 73,
      "d": 74,
      "e": 75,
      "f": 76,
      "g": 77,
      "h": 78,
      "i": 79,
      "j": 80,
      "k": 81,
      "l": 82,
      "m": 83,
      "n": 84,
      "o": 85,
      "p": 86,
      "q": 87,
      "r": 88,
      "s": 89,
      "t": 90,
      "u": 91,
      "v": 92,
      "w": 93,
      "x": 94,
      "y": 95,
      "z": 96,
      "{": 97,
      "|": 98,
      "}": 99,
      "~": 100,
      "": 101,
      "": 102,
      "": 103,
      "": 104,
      "": 105,
      "": 106,
      "": 107,
      "": 108,
      "": 109,
      "": 110,
      "¡": 111,
      "¢": 112,
      "£": 113,
      "¤": 114,
      "¦": 115,
      "§": 116,
      "¨": 117,
      "©": 118,
      "ª": 119,
      "«": 120,
      "­": 121,
      "®": 122,
      "°": 123,
      "³": 124,
      "´": 125,
      "·": 126,
      "º": 127,
      "»": 128,
      "½": 129,
      "¾": 130,
      "¿": 131,
      "À": 132,
      "Á": 133,
      "Â": 134,
      "Ã": 135,
      "Ä": 136,
      "Å": 137,
      "Æ": 138,
      "Ç": 139,
      "È": 140,
      "É": 141,
      "Ê": 142,
      "Ï": 143,
      "Ð": 144,
      "Ó": 145,
      "Õ": 146,
      "Ö": 147,
      "Ø": 148,
      "Ü": 149,
      "Þ": 150,
      "ß": 151,
      "à": 152,
      "á": 153,
      "â": 154,
      "ã": 155,
      "ä": 156,
      "å": 157,
      "æ": 158,
      "ç": 159,
      "è": 160,
      "é": 161,
      "ê": 162,
      "ë": 163,
      "ì": 164,
      "í": 165,
      "î": 166,
      "ï": 167,
      "ð": 168,
      "ñ": 169,
      "ò": 170,
      "ó": 171,
      "ô": 172,
      "õ": 173,
      "ö": 174,
      "ø": 175,
      "ù": 176,
      "ú": 177,
      "û": 178,
      "ü": 179,
      "ý": 180,
      "ğ": 181,
      "ı": 182,
      "ō": 183,
      "Ż": 184,
      "א": 185,
      "ג": 186,
      "ו": 187,
      "י": 188,
      "כ": 189,
      "ל": 190,
      "מ": 191,
      "ן": 192,
      "ר": 193,
      "–": 194,
      "‘": 195,
      "’": 196,
      "“": 197,
      "”": 198,
      "…": 199,
      "″": 200,
      "₤": 201,
      "▼": 202,
      "★": 203,
      "、": 204,
      "": 205,
      "，": 206,
      "##h": 207,
      "##a": 208,
      "##m": 209,
      "##r": 210,
      "##o": 211,
      "##c": 212,
      "##k": 213,
      "##u": 214,
      "##t": 215,
      "##d": 216,
      "##y": 217,
      "##i": 218,
      "##n": 219,
      "##g": 220,
      "##V": 221,
      "##A": 222,
      "##R": 223,
      "##T": 224,
      "##S": 225,
      "##e": 226,
      "##s": 227,
      "##b": 228,
      "##l": 229,
      "##p": 230,
      "##H": 231,
      "##I": 232,
      "##C": 233,
      "##E": 234,
      "##9": 235,
      "##8": 236,
      "##2": 237,
      "##Y": 238,
      "##D": 239,
      "##f": 240,
      "##x": 241,
      "##q": 242,
      "##M": 243,
      "##P": 244,
      "##L": 245,
      "##z": 246,
      "##v": 247,
      "##w": 248,
      "##j": 249,
      "##W": 250,
      "##O": 251,
      "##N": 252,
      "##,": 253,
      "##é": 254,
      "##*": 255,
      "##!": 256,
      "##\"": 257,
      "##G": 258,
      "##1": 259,
      "##5": 260,
      "##F": 261,
      "##ó": 262,
      "##á": 263,
      "##B": 264,
      "##X": 265,
      "##è": 266,
      "##ö": 267,
      "##6": 268,
      "##0": 269,
      "##.": 270,
      "##(": 271,
      "##?": 272,
      "##)": 273,
      "##$": 274,
      "##K": 275,
      "##U": 276,
      "##<": 277,
      "##3": 278,
      "###": 279,
      "##4": 280,
      "##/": 281,
      "##J": 282,
      "##>": 283,
      "##%": 284,
      "##^": 285,
      "##'": 286,
      "##Q": 287,
      "##-": 288,
      "##7": 289,
      "##_": 290,
      "##+": 291,
      "##Z": 292,
      "##ä": 293,
      "##ý": 294,
      "##à": 295,
      "##ø": 296,
      "##:": 297,
      "##ñ": 298,
      "##Õ": 299,
      "##ô": 300,
      "##]": 301,
      "##=": 302,
      "##ë": 303,
      "##ü": 304,
      "##&": 305,
      "##@": 306,
      "##å": 307,
      "##ç": 308,
      "##ï": 309,
      "##í": 310,
      "##;": 311,
      "##»": 312,
      "##}": 313,
      "##…": 314,
      "##": 315,
      "##ã": 316,
      "##\b": 317,
      "##": 318,
      "##È": 319,
      "##õ": 320,
      "##¡": 321,
      "##¨": 322,
      "##~": 323,
      "##\\": 324,
      "##ß": 325,
      "##ê": 326,
      "##ì": 327,
      "##": 328,
      "##û": 329,
      "##â": 330,
      "##Ó": 331,
      "##«": 332,
      "##–": 333,
      "##ú": 334,
      "##ג": 335,
      "##א": 336,
      "##ל": 337,
      "##`": 338,
      "##½": 339,
      "##|": 340,
      "##¦": 341,
      "##ð": 342,
      "##æ": 343,
      "##É": 344,
      "##[": 345,
      "##”": 346,
      "##¤": 347,
      "##’": 348,
      "##î": 349,
      "##§": 350,
      "##Á": 351,
      "##▼": 352,
      "##“": 353,
      "##ò": 354,
      "##": 355,
      "##": 356,
      "##º": 357,
      "##ō": 358,
      "##ù": 359,
      "##Ê": 360,
      "##★": 361,
      "##ר": 362,
      "##מ": 363,
      "##ו": 364,
      "##ן": 365,
      "##ı": 366,
      "##·": 367,
      "##{": 368,
      "##": 369,
      "##": 370,
      "##£": 371,
      "##Å": 372,
      "##": 373,
      "##Ã": 374,
      "##¿": 375,
      "##ğ": 376,
      "th": 377,
      "##er": 378,
      "the": 379,
      "##in": 380,
      "##nd": 381,
      "##at": 382,
      "##es": 383,
      "##or": 384,
      "##en": 385,
      "##ing": 386,
      "##ou": 387,
      "##is": 388,
      "##on": 389,
      "##ed": 390,
      "##ar": 391,
      "and": 392,
      "##ll": 393,
      "of": 394,
      "to": 395,
      "##an": 396,
      "##it": 397,
      "##as": 398,
      "in": 399,
      "##re": 400,
      "br": 401,
      "##om": 402,
      "is": 403,
      "##ic": 404,
      "/>": 405,
      "##le": 406,
      "##ot": 407,
      "##ut": 408,
      "##al": 409,
      "##ct": 410,
      "it": 411,
      "##il": 412,
      "be": 413,
      "wh": 414,
      "##ie": 415,
      "Th": 416,
      "##ly": 417,
      "##st": 418,
      "##ov": 419,
      "on": 420,
      "that": 421,
      "##ow": 422,
      "re": 423,
      "##ent": 424,
      "##ad": 425,
      "##ve": 426,
      "this": 427,
      "##ch": 428,
      "##ion": 429,
      "##et": 430,
      "##ay": 431,
      "st": 432,
      "##gh": 433,
      "##se": 434,
      "mov": 435,
      "was": 436,
      "##ith": 437,
      "/><": 438,
      "##im": 439,
      "for": 440,
      "##id": 441,
      "##ilm": 442,
      "The": 443,
      "film": 444,
      "as": 445,
      "##all": 446,
      "##oo": 447,
      "##ere": 448,
      "##ce": 449,
      "with": 450,
      "##ver": 451,
      "an": 452,
      "##am": 453,
      "se": 454,
      "##ld": 455,
      "##ir": 456,
      "movie": 457,
      "sh": 458,
      "you": 459,
      "##ke": 460,
      "##ur": 461,
      "##ter": 462,
      "ha": 463,
      "he": 464,
      ".<": 465,
      "li": 466,
      "but": 467,
      "##ill": 468,
      "##ers": 469,
      "##th": 470,
      "not": 471,
      "ch": 472,
      "##ally": 473,
      "##ck": 474,
      "##ess": 475,
      "##ri": 476,
      "are": 477,
      "##ome": 478,
      "##est": 479,
      "his": 480,
      "##em": 481,
      "##pe": 482,
      "at": 483,
      "##ra": 484,
      "##ould": 485,
      "##ul": 486,
      "have": 487,
      "su": 488,
      "##ght": 489,
      "##ust": 490,
      "##ro": 491,
      "##el": 492,
      "fr": 493,
      "##un": 494,
      "sc": 495,
      "act": 496,
      "##ain": 497,
      "do": 498,
      "##ore": 499,
      "who": 500,
      "ex": 501,
      "one": 502,
      "##ble": 503,
      "so": 504,
      "pl": 505,
      "com": 506,
      "##ood": 507,
      "##out": 508,
      "all": 509,
      "ab": 510,
      "we": 511,
      "##act": 512,
      "al": 513,
      "##ol": 514,
      "##ant": 515,
      "##pp": 516,
      "##ak": 517,
      "by": 518,
      "##us": 519,
      "##ag": 520,
      "##ies": 521,
      "##art": 522,
      "de": 523,
      "##ous": 524,
      "##op": 525,
      "like": 526,
      "wor": 527,
      "##her": 528,
      "It": 529,
      "out": 530,
      "##ist": 531,
      "her": 532,
      "or": 533,
      "they": 534,
      "from": 535,
      "ne": 536,
      "##ast": 537,
      "##one": 538,
      "some": 539,
      "con": 540,
      "##ost": 541,
      "##ven": 542,
      "##ation": 543,
      "##um": 544,
      "##ough": 545,
      "##ight": 546,
      "##au": 547,
      "en": 548,
      "##ate": 549,
      "di": 550,
      "##fe": 551,
      "just": 552,
      "##ich": 553,
      "about": 554,
      "has": 555,
      "me": 556,
      "##and": 557,
      "##os": 558,
      "##atch": 559,
      "##..": 560,
      "##ery": 561,
      "##ard": 562,
      "##ind": 563,
      "##ory": 564,
      "##ack": 565,
      "char": 566,
      "##ive": 567,
      "can": 568,
      "tim": 569,
      "##ort": 570,
      "un": 571,
      "##pt": 572,
      "##ud": 573,
      "up": 574,
      "##ook": 575,
      "This": 576,
      "le": 577,
      "##ake": 578,
      "##reat": 579,
      "good": 580,
      "charact": 581,
      "man": 582,
      "pro": 583,
      "any": 584,
      "tr": 585,
      "ever": 586,
      "##ong": 587,
      "int": 588,
      "get": 589,
      "more": 590,
      "watch": 591,
      "see": 592,
      "##ig": 593,
      "##od": 594,
      "fe": 595,
      "very": 596,
      "what": 597,
      "would": 598,
      "##ity": 599,
      "##ound": 600,
      "there": 601,
      "my": 602,
      "##ff": 603,
      "##ame": 604,
      "##ite": 605,
      "time": 606,
      "bec": 607,
      "##ge": 608,
      "story": 609,
      "no": 610,
      "##able": 611,
      "go": 612,
      "when": 613,
      "pr": 614,
      "##ell": 615,
      "if": 616,
      "which": 617,
      "##oy": 618,
      "scen": 619,
      "she": 620,
      "##ci": 621,
      "...": 622,
      "##hing": 623,
      "really": 624,
      "had": 625,
      "even": 626,
      "##ab": 627,
      "only": 628,
      "show": 629,
      "Wh": 630,
      "their": 631,
      "##ue": 632,
      "##ure": 633,
      "cl": 634,
      "per": 635,
      "him": 636,
      "##ther": 637,
      "##itt": 638,
      "were": 639,
      "##ap": 640,
      "##ink": 641,
      "##ick": 642,
      "##og": 643,
      "kn": 644,
      "##ious": 645,
      "them": 646,
      "ar": 647,
      "than": 648,
      "##our": 649,
      "did": 650,
      "##ine": 651,
      "##ful": 652,
      "##ond": 653,
      "end": 654,
      "##ence": 655,
      "##ars": 656,
      "##uch": 657,
      "##ays": 658,
      "does": 659,
      "##man": 660,
      "##ade": 661,
      "##so": 662,
      "##rect": 663,
      "look": 664,
      "pe": 665,
      "##pl": 666,
      "##ause": 667,
      "##ment": 668,
      "great": 669,
      "bad": 670,
      "##ish": 671,
      "much": 672,
      "bet": 673,
      "##te": 674,
      "lov": 675,
      "im": 676,
      "##av": 677,
      "other": 678,
      "how": 679,
      "qu": 680,
      "over": 681,
      "##ice": 682,
      "could": 683,
      "been": 684,
      "will": 685,
      "##ople": 686,
      "well": 687,
      "##irst": 688,
      "##ple": 689,
      "into": 690,
      "know": 691,
      "most": 692,
      "##ide": 693,
      "thr": 694,
      "pre": 695,
      "##ose": 696,
      "##iv": 697,
      "##lf": 698,
      "people": 699,
      "##ry": 700,
      "tw": 701,
      "think": 702,
      "##ass": 703,
      "off": 704,
      "##per": 705,
      "ad": 706,
      "##int": 707,
      "too": 708,
      "because": 709,
      "dis": 710,
      "us": 711,
      "direct": 712,
      "Ch": 713,
      "real": 714,
      "##age": 715,
      "ag": 716,
      "every": 717,
      "##ne": 718,
      "po": 719,
      "am": 720,
      "##fter": 721,
      "part": 722,
      "In": 723,
      "make": 724,
      "##oll": 725,
      "##for": 726,
      "##ors": 727,
      "##ob": 728,
      "made": 729,
      "wr": 730,
      "thing": 731,
      "first": 732,
      "##other": 733,
      "##ac": 734,
      "##ull": 735,
      "And": 736,
      "fun": 737,
      "##ile": 738,
      "##pr": 739,
      "way": 740,
      "##aw": 741,
      "##ny": 742,
      "also": 743,
      "##ty": 744,
      "mak": 745,
      "##ict": 746,
      "##ach": 747,
      "don": 748,
      "##are": 749,
      "movies": 750,
      "##qu": 751,
      "seem": 752,
      "##ian": 753,
      "##ace": 754,
      "gu": 755,
      "bl": 756,
      "But": 757,
      "its": 758,
      "character": 759,
      "##ary": 760,
      "work": 761,
      "##ated": 762,
      "sp": 763,
      "##gin": 764,
      "##ep": 765,
      "##ical": 766,
      "inter": 767,
      "##own": 768,
      "characters": 769,
      "##iew": 770,
      "play": 771,
      "te": 772,
      "fl": 773,
      "cr": 774,
      "##ually": 775,
      "##tain": 776,
      "ye": 777,
      "plot": 778,
      "##fect": 779,
      "##cc": 780,
      "films": 781,
      "Sh": 782,
      "##ph": 783,
      "##pect": 784,
      "He": 785,
      "seen": 786,
      "then": 787,
      "##iz": 788,
      "##self": 789,
      "ser": 790,
      "your": 791,
      "want": 792,
      "aw": 793,
      "##ber": 794,
      "##ng": 795,
      "being": 796,
      "##omet": 797,
      "##nder": 798,
      "##ens": 799,
      "##ces": 800,
      ").": 801,
      "after": 802,
      "love": 803,
      "##ip": 804,
      "##ance": 805,
      "many": 806,
      "say": 807,
      "two": 808,
      "acting": 809,
      "##ittle": 810,
      "##ang": 811,
      "never": 812,
      "There": 813,
      "##ath": 814,
      "St": 815,
      "life": 816,
      "where": 817,
      "##urn": 818,
      "##get": 819,
      "##ans": 820,
      "##mer": 821,
      "back": 822,
      "through": 823,
      "ro": 824,
      "##ark": 825,
      "somet": 826,
      "hor": 827,
      "##ents": 828,
      "19": 829,
      "best": 830,
      "little": 831,
      "rem": 832,
      "des": 833,
      "rec": 834,
      "##ult": 835,
      "##ild": 836,
      "ve": 837,
      "##ily": 838,
      "better": 839,
      "),": 840,
      "##ather": 841,
      "##wn": 842,
      "##oc": 843,
      "##ise": 844,
      "##oth": 845,
      "gr": 846,
      "If": 847,
      "##ions": 848,
      "##du": 849,
      "scene": 850,
      "##augh": 851,
      "##ire": 852,
      "spe": 853,
      "##ual": 854,
      "find": 855,
      "perfor": 856,
      "sl": 857,
      "##ever": 858,
      "should": 859,
      "##ought": 860,
      "##thing": 861,
      "Al": 862,
      "##igh": 863,
      "min": 864,
      "under": 865,
      "dr": 866,
      "scenes": 867,
      "##ves": 868,
      "##we": 869,
      "feel": 870,
      "##ase": 871,
      "##iend": 872,
      "##ting": 873,
      "again": 874,
      "##lie": 875,
      "##ater": 876,
      "att": 877,
      "res": 878,
      "10": 879,
      "inc": 880,
      "still": 881,
      "here": 882,
      "something": 883,
      "old": 884,
      "str": 885,
      "kill": 886,
      "##ock": 887,
      "##ree": 888,
      "##ave": 889,
      "such": 890,
      "##if": 891,
      "##ia": 892,
      "##ning": 893,
      "interest": 894,
      "may": 895,
      "##ably": 896,
      "##me": 897,
      "##ense": 898,
      "happ": 899,
      "##ating": 900,
      "##ail": 901,
      "hum": 902,
      "##oun": 903,
      "lot": 904,
      "these": 905,
      "##fore": 906,
      "##ving": 907,
      "##ations": 908,
      "sur": 909,
      "##arly": 910,
      "##ason": 911,
      "--": 912,
      "##alk": 913,
      "##less": 914,
      "cast": 915,
      "performan": 916,
      "cont": 917,
      "##reen": 918,
      "point": 919,
      "##ror": 920,
      "mus": 921,
      "Fr": 922,
      "actors": 923,
      "ap": 924,
      "doesn": 925,
      "those": 926,
      "##ect": 927,
      "fam": 928,
      "didn": 929,
      "watching": 930,
      "tra": 931,
      "##be": 932,
      "dec": 933,
      "guy": 934,
      "gir": 935,
      "sim": 936,
      "##ying": 937,
      "gen": 938,
      "##joy": 939,
      "As": 940,
      "wom": 941,
      "funny": 942,
      "years": 943,
      "down": 944,
      "##vel": 945,
      "id": 946,
      "set": 947,
      "view": 948,
      "##ffect": 949,
      "##ial": 950,
      "enjoy": 951,
      "es": 952,
      "makes": 953,
      "fact": 954,
      "comed": 955,
      "belie": 956,
      "start": 957,
      "em": 958,
      "##erson": 959,
      "going": 960,
      "ob": 961,
      "Br": 962,
      "##ute": 963,
      "Jo": 964,
      "tak": 965,
      "##az": 966,
      "produ": 967,
      "actually": 968,
      "director": 969,
      "before": 970,
      "same": 971,
      "##ool": 972,
      "ev": 973,
      "few": 974,
      "##oss": 975,
      "fin": 976,
      "##iss": 977,
      "though": 978,
      "long": 979,
      "sub": 980,
      "##ash": 981,
      "##ead": 982,
      "comp": 983,
      "why": 984,
      "now": 985,
      "pret": 986,
      "exce": 987,
      "##ale": 988,
      "##ew": 989,
      "##ub": 990,
      "while": 991,
      "ori": 992,
      "ter": 993,
      "##ience": 994,
      "ke": 995,
      "young": 996,
      "big": 997,
      "got": 998,
      "##ffer": 999,
      "thought": 1000,
      "##cial": 1001,
      "rel": 1002,
      "own": 1003,
      "laugh": 1004,
      "##ft": 1005,
      "turn": 1006,
      "bit": 1007,
      "##arr": 1008,
      "tri": 1009,
      "##les": 1010,
      "You": 1011,
      "An": 1012,
      "sm": 1013,
      "supp": 1014,
      "nothing": 1015,
      "origin": 1016,
      "another": 1017,
      "##ript": 1018,
      "new": 1019,
      "##ction": 1020,
      "friend": 1021,
      "high": 1022,
      "##ings": 1023,
      "##ible": 1024,
      "comple": 1025,
      "screen": 1026,
      "##ug": 1027,
      "girl": 1028,
      "##ons": 1029,
      "stu": 1030,
      "##onder": 1031,
      "che": 1032,
      "inv": 1033,
      "effect": 1034,
      "##aut": 1035,
      "##ib": 1036,
      "##old": 1037,
      "around": 1038,
      "##der": 1039,
      "quite": 1040,
      "app": 1041,
      "##iting": 1042,
      "How": 1043,
      "things": 1044,
      "seems": 1045,
      "pretty": 1046,
      "right": 1047,
      "hard": 1048,
      "##air": 1049,
      "need": 1050,
      "##ince": 1051,
      "enough": 1052,
      "##meric": 1053,
      "far": 1054,
      "Americ": 1055,
      "##ically": 1056,
      "##ways": 1057,
      "world": 1058,
      "acc": 1059,
      "##ention": 1060,
      "ins": 1061,
      "script": 1062,
      "##ween": 1063,
      "horror": 1064,
      "kid": 1065,
      "original": 1066,
      "person": 1067,
      "What": 1068,
      "take": 1069,
      "wonder": 1070,
      "##ness": 1071,
      "##ately": 1072,
      "kind": 1073,
      "They": 1074,
      "between": 1075,
      "must": 1076,
      "##ced": 1077,
      "op": 1078,
      "##ank": 1079,
      "appe": 1080,
      "music": 1081,
      "action": 1082,
      "give": 1083,
      "sec": 1084,
      "##inem": 1085,
      "##ord": 1086,
      "series": 1087,
      "##ved": 1088,
      "##app": 1089,
      "##most": 1090,
      "##utes": 1091,
      "class": 1092,
      "sex": 1093,
      "enter": 1094,
      "role": 1095,
      "bor": 1096,
      "comedy": 1097,
      "reason": 1098,
      "##aid": 1099,
      "tell": 1100,
      "##ward": 1101,
      "isn": 1102,
      "put": 1103,
      "gets": 1104,
      "##vious": 1105,
      "mom": 1106,
      "both": 1107,
      "main": 1108,
      "She": 1109,
      "saw": 1110,
      "always": 1111,
      "times": 1112,
      "hel": 1113,
      "car": 1114,
      "read": 1115,
      "interesting": 1116,
      "whole": 1117,
      "hand": 1118,
      "done": 1119,
      "So": 1120,
      "least": 1121,
      "child": 1122,
      "##ased": 1123,
      "##icul": 1124,
      "cons": 1125,
      "##oot": 1126,
      "come": 1127,
      "lead": 1128,
      "sound": 1129,
      "beaut": 1130,
      "##its": 1131,
      "##!!": 1132,
      "without": 1133,
      "ep": 1134,
      "almost": 1135,
      "##ount": 1136,
      "shot": 1137,
      "\",": 1138,
      "cam": 1139,
      "##ner": 1140,
      "\".": 1141,
      "expect": 1142,
      "##ress": 1143,
      "##ody": 1144,
      "##ope": 1145,
      "##over": 1146,
      "ide": 1147,
      "worth": 1148,
      "rev": 1149,
      "differ": 1150,
      "might": 1151,
      "##press": 1152,
      "cinem": 1153,
      "minutes": 1154,
      "##raph": 1155,
      "##ully": 1156,
      "expl": 1157,
      "ind": 1158,
      "ll": 1159,
      "complete": 1160,
      "cra": 1161,
      "##rible": 1162,
      "##hn": 1163,
      "aud": 1164,
      "Se": 1165,
      "war": 1166,
      "##ines": 1167,
      "call": 1168,
      "##bably": 1169,
      "##ently": 1170,
      "making": 1171,
      "bu": 1172,
      "##ouse": 1173,
      "last": 1174,
      "Be": 1175,
      "##li": 1176,
      "##uring": 1177,
      "anything": 1178,
      "book": 1179,
      "##xt": 1180,
      "TV": 1181,
      "ph": 1182,
      "cle": 1183,
      "performance": 1184,
      "family": 1185,
      "inst": 1186,
      "begin": 1187,
      "De": 1188,
      "##red": 1189,
      "help": 1190,
      "cour": 1191,
      "##wh": 1192,
      "##ane": 1193,
      "art": 1194,
      "##stand": 1195,
      "entertain": 1196,
      "We": 1197,
      "##cially": 1198,
      "imp": 1199,
      "care": 1200,
      "##**": 1201,
      "##son": 1202,
      "##alog": 1203,
      "el": 1204,
      "##ism": 1205,
      "found": 1206,
      "Not": 1207,
      "That": 1208,
      "John": 1209,
      "away": 1210,
      "run": 1211,
      "probably": 1212,
      "ext": 1213,
      "For": 1214,
      "##ife": 1215,
      "sequ": 1216,
      "let": 1217,
      "##oney": 1218,
      "##mend": 1219,
      "All": 1220,
      "##istic": 1221,
      "##ures": 1222,
      "##ative": 1223,
      "##ives": 1224,
      "woman": 1225,
      "##ert": 1226,
      "dialog": 1227,
      "##ign": 1228,
      "ent": 1229,
      "##ition": 1230,
      "sure": 1231,
      "played": 1232,
      "##aster": 1233,
      "Re": 1234,
      "since": 1235,
      "DV": 1236,
      "##ange": 1237,
      "##ok": 1238,
      "##ER": 1239,
      "##als": 1240,
      "##apt": 1241,
      "rather": 1242,
      "##ject": 1243,
      "add": 1244,
      "DVD": 1245,
      "##though": 1246,
      "mind": 1247,
      "##pecially": 1248,
      "##isod": 1249,
      "abs": 1250,
      "mean": 1251,
      "worst": 1252,
      "poor": 1253,
      ".\"": 1254,
      "##ling": 1255,
      "##ten": 1256,
      "When": 1257,
      "##illi": 1258,
      "our": 1259,
      "##led": 1260,
      "lik": 1261,
      "My": 1262,
      "vers": 1263,
      "##ah": 1264,
      "happen": 1265,
      "##ember": 1266,
      "##ros": 1267,
      "keep": 1268,
      "##osed": 1269,
      "looking": 1270,
      "##wood": 1271,
      "episod": 1272,
      "course": 1273,
      "anyone": 1274,
      "ty": 1275,
      "believe": 1276,
      "##alf": 1277,
      "##ime": 1278,
      "##atter": 1279,
      "trying": 1280,
      "each": 1281,
      "Bl": 1282,
      "boy": 1283,
      "##oint": 1284,
      "del": 1285,
      "##ingly": 1286,
      "##00": 1287,
      "##ollow": 1288,
      "cre": 1289,
      "##olly": 1290,
      "##iver": 1291,
      "##ertain": 1292,
      "##ither": 1293,
      "surpr": 1294,
      "day": 1295,
      "##ates": 1296,
      "##ograph": 1297,
      "job": 1298,
      "less": 1299,
      "sch": 1300,
      "bud": 1301,
      "comes": 1302,
      "Le": 1303,
      "pol": 1304,
      "##ret": 1305,
      "ending": 1306,
      "place": 1307,
      "sense": 1308,
      "##ady": 1309,
      "yet": 1310,
      "##ommend": 1311,
      "##blem": 1312,
      "##umb": 1313,
      "different": 1314,
      "##uck": 1315,
      "shows": 1316,
      "goes": 1317,
      "par": 1318,
      "Un": 1319,
      "perfect": 1320,
      "One": 1321,
      "mon": 1322,
      "TH": 1323,
      "rest": 1324,
      "pres": 1325,
      "conf": 1326,
      "especially": 1327,
      "def": 1328,
      "dram": 1329,
      "stand": 1330,
      "American": 1331,
      "##hip": 1332,
      "short": 1333,
      "Chr": 1334,
      "prov": 1335,
      "##iter": 1336,
      "##ues": 1337,
      "creat": 1338,
      "problem": 1339,
      "##ics": 1340,
      "##empt": 1341,
      "##ney": 1342,
      "ac": 1343,
      "##iece": 1344,
      "gl": 1345,
      "super": 1346,
      "##ks": 1347,
      "head": 1348,
      "##dd": 1349,
      "##ower": 1350,
      "wasn": 1351,
      "effects": 1352,
      "actor": 1353,
      "fan": 1354,
      "watched": 1355,
      "half": 1356,
      "looks": 1357,
      "##iful": 1358,
      "port": 1359,
      "recommend": 1360,
      "##ilar": 1361,
      "money": 1362,
      "##lud": 1363,
      "year": 1364,
      "cou": 1365,
      "##aps": 1366,
      "##ality": 1367,
      "##ider": 1368,
      "##ortun": 1369,
      "##io": 1370,
      "##ray": 1371,
      "##ream": 1372,
      "miss": 1373,
      "follow": 1374,
      "sit": 1375,
      "toget": 1376,
      "##gr": 1377,
      "together": 1378,
      "##ster": 1379,
      "Rob": 1380,
      "exper": 1381,
      "##ments": 1382,
      "certain": 1383,
      "##ann": 1384,
      "plays": 1385,
      "##ences": 1386,
      "fav": 1387,
      "audience": 1388,
      "talk": 1389,
      "gi": 1390,
      "##itch": 1391,
      "understand": 1392,
      "having": 1393,
      "said": 1394,
      "someone": 1395,
      "second": 1396,
      "takes": 1397,
      "rele": 1398,
      "##ru": 1399,
      "At": 1400,
      "imag": 1401,
      "ey": 1402,
      "##arn": 1403,
      "else": 1404,
      "special": 1405,
      "poss": 1406,
      "nice": 1407,
      "##ont": 1408,
      "review": 1409,
      "night": 1410,
      "##way": 1411,
      "true": 1412,
      "three": 1413,
      "hour": 1414,
      "Sc": 1415,
      "himself": 1416,
      "##era": 1417,
      "left": 1418,
      "##llent": 1419,
      "Mar": 1420,
      "vis": 1421,
      "##pid": 1422,
      "top": 1423,
      "##ames": 1424,
      "fall": 1425,
      "##land": 1426,
      "comm": 1427,
      "version": 1428,
      "friends": 1429,
      "disc": 1430,
      "##ollywood": 1431,
      "wife": 1432,
      "##ix": 1433,
      "##ature": 1434,
      "idea": 1435,
      "obvious": 1436,
      "Ar": 1437,
      "everything": 1438,
      "budget": 1439,
      "##atic": 1440,
      "ass": 1441,
      "##ited": 1442,
      "sty": 1443,
      "use": 1444,
      "##ists": 1445,
      "##ern": 1446,
      "##ox": 1447,
      "Sp": 1448,
      "came": 1449,
      "##ional": 1450,
      "##ross": 1451,
      "beautiful": 1452,
      "##ply": 1453,
      "Ste": 1454,
      "sk": 1455,
      "invol": 1456,
      "entire": 1457,
      "On": 1458,
      "det": 1459,
      "dist": 1460,
      "sing": 1461,
      "mur": 1462,
      "ref": 1463,
      "##cing": 1464,
      "seeing": 1465,
      "##reak": 1466,
      "##ier": 1467,
      "##ted": 1468,
      "##ton": 1469,
      "includ": 1470,
      "Cl": 1471,
      "during": 1472,
      "tot": 1473,
      "home": 1474,
      "men": 1475,
      "##fully": 1476,
      "exc": 1477,
      "##ides": 1478,
      "##day": 1479,
      "later": 1480,
      "everyone": 1481,
      "ed": 1482,
      "ele": 1483,
      "tal": 1484,
      "##sy": 1485,
      "##0s": 1486,
      "used": 1487,
      "excellent": 1488,
      "However": 1489,
      "mem": 1490,
      "heart": 1491,
      "##uth": 1492,
      "stupid": 1493,
      "once": 1494,
      "##ired": 1495,
      "lack": 1496,
      "fight": 1497,
      "low": 1498,
      "attempt": 1499,
      "##appoint": 1500,
      "##ets": 1501,
      "No": 1502,
      "##ird": 1503,
      "##amp": 1504,
      "death": 1505,
      "completely": 1506,
      "##ins": 1507,
      "hist": 1508,
      "##cept": 1509,
      "human": 1510,
      "##ren": 1511,
      "##til": 1512,
      "open": 1513,
      "Well": 1514,
      "serious": 1515,
      "##ove": 1516,
      "##omb": 1517,
      "mar": 1518,
      "Don": 1519,
      "disappoint": 1520,
      "beh": 1521,
      "##olute": 1522,
      "##ised": 1523,
      "remember": 1524,
      "cop": 1525,
      "simply": 1526,
      "##ese": 1527,
      "anim": 1528,
      "##att": 1529,
      "vide": 1530,
      "sus": 1531,
      "word": 1532,
      "##ared": 1533,
      "father": 1534,
      "co": 1535,
      "Christ": 1536,
      "Hollywood": 1537,
      "##ented": 1538,
      "line": 1539,
      "stud": 1540,
      "tit": 1541,
      "##ys": 1542,
      "sy": 1543,
      "##iol": 1544,
      "loc": 1545,
      "defin": 1546,
      "gener": 1547,
      "along": 1548,
      "##ract": 1549,
      "wrong": 1550,
      "song": 1551,
      "school": 1552,
      "##oon": 1553,
      "hero": 1554,
      "##gg": 1555,
      "emot": 1556,
      "Man": 1557,
      "##ied": 1558,
      "##aring": 1559,
      "mess": 1560,
      "dra": 1561,
      "gra": 1562,
      "##ography": 1563,
      "camera": 1564,
      "black": 1565,
      "pict": 1566,
      "supposed": 1567,
      "dep": 1568,
      "either": 1569,
      "production": 1570,
      "boring": 1571,
      "try": 1572,
      "##ott": 1573,
      "ret": 1574,
      "performances": 1575,
      "kids": 1576,
      "absolute": 1577,
      "fail": 1578,
      "house": 1579,
      "##itten": 1580,
      "##uly": 1581,
      "conc": 1582,
      "eas": 1583,
      "particul": 1584,
      "small": 1585,
      "pass": 1586,
      "##idd": 1587,
      "classic": 1588,
      "couple": 1589,
      "Car": 1590,
      "##my": 1591,
      "except": 1592,
      "exam": 1593,
      "hope": 1594,
      "Mr": 1595,
      "rom": 1596,
      "women": 1597,
      "given": 1598,
      "name": 1599,
      "##ax": 1600,
      "bas": 1601,
      "sort": 1602,
      "##vin": 1603,
      "count": 1604,
      "until": 1605,
      "star": 1606,
      "##ote": 1607,
      "flick": 1608,
      "sad": 1609,
      "##oice": 1610,
      "favor": 1611,
      "ple": 1612,
      "cor": 1613,
      "humor": 1614,
      "becom": 1615,
      "##haps": 1616,
      "awful": 1617,
      "##elt": 1618,
      "cred": 1619,
      "viol": 1620,
      "##lish": 1621,
      "full": 1622,
      "pain": 1623,
      "##ape": 1624,
      "portray": 1625,
      "Mich": 1626,
      "##itely": 1627,
      "won": 1628,
      "truly": 1629,
      "To": 1630,
      "moments": 1631,
      "light": 1632,
      "##ities": 1633,
      "Some": 1634,
      "After": 1635,
      "getting": 1636,
      "dri": 1637,
      "##ize": 1638,
      "itself": 1639,
      "##oles": 1640,
      "video": 1641,
      "##ps": 1642,
      "##sel": 1643,
      "instead": 1644,
      "##atur": 1645,
      "murder": 1646,
      "##velop": 1647,
      "THE": 1648,
      "##thers": 1649,
      "Jack": 1650,
      "##iness": 1651,
      "amaz": 1652,
      "##med": 1653,
      "unf": 1654,
      "##enn": 1655,
      "mod": 1656,
      "consider": 1657,
      "adv": 1658,
      "style": 1659,
      "##sc": 1660,
      "face": 1661,
      "##rib": 1662,
      "cut": 1663,
      "##IN": 1664,
      "##ike": 1665,
      "##ric": 1666,
      "playing": 1667,
      "##orm": 1668,
      "next": 1669,
      "Even": 1670,
      "coll": 1671,
      "##aj": 1672,
      "##ison": 1673,
      "##ows": 1674,
      "terrible": 1675,
      "##ility": 1676,
      "doing": 1677,
      "however": 1678,
      "reg": 1679,
      "##que": 1680,
      "##ister": 1681,
      "dead": 1682,
      "##tern": 1683,
      "although": 1684,
      "maybe": 1685,
      "guess": 1686,
      "episode": 1687,
      "lines": 1688,
      "##cess": 1689,
      "gives": 1690,
      "power": 1691,
      "##ork": 1692,
      "often": 1693,
      "##unch": 1694,
      "##cy": 1695,
      "wonderful": 1696,
      "dialogue": 1697,
      "##ident": 1698,
      "..": 1699,
      "##ger": 1700,
      "others": 1701,
      "piece": 1702,
      "##ories": 1703,
      "##reme": 1704,
      "Dav": 1705,
      "form": 1706,
      "couldn": 1707,
      "early": 1708,
      "mother": 1709,
      "##illy": 1710,
      "slow": 1711,
      "stars": 1712,
      "written": 1713,
      "went": 1714,
      "##cum": 1715,
      "wa": 1716,
      "develop": 1717,
      "##aughter": 1718,
      ",\"": 1719,
      "##imes": 1720,
      "ann": 1721,
      "become": 1722,
      "impress": 1723,
      "Me": 1724,
      "liked": 1725,
      "With": 1726,
      "##olog": 1727,
      "live": 1728,
      "actress": 1729,
      "quest": 1730,
      "entertaining": 1731,
      "##ony": 1732,
      "case": 1733,
      "##ized": 1734,
      "Is": 1735,
      "##ined": 1736,
      "mention": 1737,
      "##yn": 1738,
      "called": 1739,
      "matter": 1740,
      "##ibly": 1741,
      "##illiant": 1742,
      "##orn": 1743,
      "##und": 1744,
      "felt": 1745,
      "trans": 1746,
      "dark": 1747,
      "children": 1748,
      "##ush": 1749,
      "His": 1750,
      "##ouch": 1751,
      "##ortunately": 1752,
      "##oid": 1753,
      "##iller": 1754,
      "##ael": 1755,
      "Ever": 1756,
      "relations": 1757,
      "strong": 1758,
      "New": 1759,
      "title": 1760,
      "##body": 1761,
      "##ming": 1762,
      "rid": 1763,
      "absolutely": 1764,
      "side": 1765,
      "worse": 1766,
      "sever": 1767,
      "##ler": 1768,
      "red": 1769,
      "##ley": 1770,
      "beginning": 1771,
      "guys": 1772,
      "Char": 1773,
      "succ": 1774,
      "fant": 1775,
      "drama": 1776,
      "mis": 1777,
      "certainly": 1778,
      "waste": 1779,
      "definitely": 1780,
      "##oub": 1781,
      "##ular": 1782,
      "##oke": 1783,
      "##pite": 1784,
      "##uss": 1785,
      "against": 1786,
      "extreme": 1787,
      "##used": 1788,
      "loved": 1789,
      "sw": 1790,
      "Eng": 1791,
      "pop": 1792,
      "Then": 1793,
      "blood": 1794,
      "brilliant": 1795,
      "master": 1796,
      "close": 1797,
      "past": 1798,
      "##eth": 1799,
      "cinema": 1800,
      "##ision": 1801,
      "seemed": 1802,
      "cent": 1803,
      "##selves": 1804,
      "##ready": 1805,
      "While": 1806,
      "et": 1807,
      "##pped": 1808,
      "wanted": 1809,
      "picture": 1810,
      "several": 1811,
      "Also": 1812,
      "##eng": 1813,
      "pred": 1814,
      "!!!": 1815,
      "somewh": 1816,
      "Now": 1817,
      "dem": 1818,
      "already": 1819,
      "relationship": 1820,
      "becomes": 1821,
      "##sych": 1822,
      "Pr": 1823,
      "example": 1824,
      "##arb": 1825,
      "success": 1826,
      "adm": 1827,
      "pur": 1828,
      "based": 1829,
      "ear": 1830,
      "totally": 1831,
      "game": 1832,
      "##line": 1833,
      "able": 1834,
      "Michael": 1835,
      "Of": 1836,
      "fans": 1837,
      "##els": 1838,
      "Why": 1839,
      "##ement": 1840,
      "direction": 1841,
      "##ains": 1842,
      "quality": 1843,
      "Mc": 1844,
      "lives": 1845,
      "Just": 1846,
      "town": 1847,
      "deal": 1848,
      "sn": 1849,
      "##oil": 1850,
      "##ench": 1851,
      "list": 1852,
      "##ief": 1853,
      "mor": 1854,
      "av": 1855,
      "self": 1856,
      "support": 1857,
      "stuff": 1858,
      "walk": 1859,
      "inf": 1860,
      "Robert": 1861,
      "capt": 1862,
      "deser": 1863,
      "200": 1864,
      "##rif": 1865,
      "##rew": 1866,
      "##riend": 1867,
      "##ided": 1868,
      "##unk": 1869,
      "fine": 1870,
      "grou": 1871,
      "##iving": 1872,
      "lost": 1873,
      "wants": 1874,
      "##ts": 1875,
      "daughter": 1876,
      "cann": 1877,
      "comment": 1878,
      "Gr": 1879,
      "vill": 1880,
      "unc": 1881,
      "##aving": 1882,
      "works": 1883,
      "##ene": 1884,
      "son": 1885,
      "##ms": 1886,
      "Ge": 1887,
      "import": 1888,
      "##ages": 1889,
      "writing": 1890,
      "cur": 1891,
      "nov": 1892,
      "susp": 1893,
      "Dan": 1894,
      "val": 1895,
      "eff": 1896,
      "Ed": 1897,
      "occ": 1898,
      "Her": 1899,
      "stop": 1900,
      "throughout": 1901,
      "##play": 1902,
      "annoy": 1903,
      "med": 1904,
      "May": 1905,
      "etc": 1906,
      "##amed": 1907,
      "touch": 1908,
      "cult": 1909,
      "fem": 1910,
      "Every": 1911,
      "docum": 1912,
      "history": 1913,
      "mag": 1914,
      "##orge": 1915,
      "situ": 1916,
      "hon": 1917,
      "##ett": 1918,
      "tries": 1919,
      "fair": 1920,
      "##chn": 1921,
      "stra": 1922,
      "learn": 1923,
      "teen": 1924,
      "sat": 1925,
      "viewer": 1926,
      "##OT": 1927,
      "break": 1928,
      "##ung": 1929,
      "enjoyed": 1930,
      "col": 1931,
      "gave": 1932,
      "final": 1933,
      "genre": 1934,
      "psych": 1935,
      "num": 1936,
      "##use": 1937,
      "level": 1938,
      "deliver": 1939,
      "Pl": 1940,
      "##eter": 1941,
      "##ination": 1942,
      "crit": 1943,
      "foot": 1944,
      "##using": 1945,
      "shoot": 1946,
      "##yp": 1947,
      "##etic": 1948,
      "appear": 1949,
      "##ien": 1950,
      "##ged": 1951,
      "##ik": 1952,
      "turns": 1953,
      "parts": 1954,
      "mot": 1955,
      "##ude": 1956,
      "##ient": 1957,
      "finally": 1958,
      "amazing": 1959,
      "prom": 1960,
      "type": 1961,
      "today": 1962,
      "##ron": 1963,
      "rep": 1964,
      "days": 1965,
      "hilar": 1966,
      "favorite": 1967,
      "themselves": 1968,
      "late": 1969,
      "Ger": 1970,
      "Ke": 1971,
      "....": 1972,
      ".)": 1973,
      "horrible": 1974,
      "contin": 1975,
      "killer": 1976,
      "Do": 1977,
      "##ajor": 1978,
      "moment": 1979,
      "fig": 1980,
      "##vable": 1981,
      "typ": 1982,
      "document": 1983,
      "##itive": 1984,
      "behind": 1985,
      "group": 1986,
      "##ured": 1987,
      "##ution": 1988,
      "exact": 1989,
      "pick": 1990,
      "starts": 1991,
      "myself": 1992,
      "##ards": 1993,
      "##ific": 1994,
      "killed": 1995,
      "wish": 1996,
      "##iet": 1997,
      "ask": 1998,
      "God": 1999,
      "intell": 2000,
      "evil": 2001,
      "##okes": 2002,
      "##up": 2003,
      "perhaps": 2004,
      "thinking": 2005,
      "cost": 2006,
      "Any": 2007,
      "##antly": 2008,
      "opp": 2009,
      "##akes": 2010,
      "Pa": 2011,
      "says": 2012,
      "decent": 2013,
      "prof": 2014,
      "##ats": 2015,
      "eyes": 2016,
      "effort": 2017,
      "white": 2018,
      "##ried": 2019,
      "known": 2020,
      "##iculous": 2021,
      "incred": 2022,
      "took": 2023,
      "!!": 2024,
      "##astic": 2025,
      "voice": 2026,
      "##aves": 2027,
      "directed": 2028,
      "Am": 2029,
      "speak": 2030,
      "##usb": 2031,
      "win": 2032,
      "hilarious": 2033,
      "happens": 2034,
      "heard": 2035,
      "##ising": 2036,
      "Ind": 2037,
      "##ior": 2038,
      "!<": 2039,
      "Brit": 2040,
      "Con": 2041,
      "const": 2042,
      "experience": 2043,
      "##ump": 2044,
      "non": 2045,
      "Or": 2046,
      "ste": 2047,
      "feeling": 2048,
      "rent": 2049,
      "soon": 2050,
      "cinemat": 2051,
      "##uge": 2052,
      "girls": 2053,
      "chang": 2054,
      "##tra": 2055,
      "!)": 2056,
      "tele": 2057,
      "Har": 2058,
      "##usband": 2059,
      "David": 2060,
      "##eless": 2061,
      "##gn": 2062,
      "##like": 2063,
      "Ne": 2064,
      "room": 2065,
      ").<": 2066,
      "Pe": 2067,
      "major": 2068,
      "involved": 2069,
      "##ether": 2070,
      "clich": 2071,
      "sle": 2072,
      "##owing": 2073,
      "cool": 2074,
      "##gu": 2075,
      "Tr": 2076,
      "ridiculous": 2077,
      "hit": 2078,
      "##AN": 2079,
      "husband": 2080,
      "War": 2081,
      "Per": 2082,
      "##AT": 2083,
      "hold": 2084,
      "told": 2085,
      "stories": 2086,
      "##aces": 2087,
      "roles": 2088,
      "shock": 2089,
      "dream": 2090,
      "sol": 2091,
      "Oh": 2092,
      "bus": 2093,
      "##right": 2094,
      "cheap": 2095,
      "opin": 2096,
      "predict": 2097,
      "##ters": 2098,
      "coming": 2099,
      "cannot": 2100,
      "age": 2101,
      "James": 2102,
      "##anger": 2103,
      "esc": 2104,
      "##ator": 2105,
      "##antic": 2106,
      "writer": 2107,
      "looked": 2108,
      "##ances": 2109,
      "chance": 2110,
      "extremely": 2111,
      "##zy": 2112,
      "score": 2113,
      "including": 2114,
      "swe": 2115,
      "result": 2116,
      "weak": 2117,
      "##ST": 2118,
      "##ek": 2119,
      "ant": 2120,
      "violence": 2121,
      "bo": 2122,
      "order": 2123,
      "##ians": 2124,
      "Tom": 2125,
      "##cer": 2126,
      "leave": 2127,
      "English": 2128,
      "crap": 2129,
      "Ad": 2130,
      "##urt": 2131,
      "wouldn": 2132,
      "quick": 2133,
      "appar": 2134,
      "ago": 2135,
      "shown": 2136,
      "techn": 2137,
      "##iddle": 2138,
      "##ffic": 2139,
      "polit": 2140,
      "bring": 2141,
      "##ex": 2142,
      "novel": 2143,
      "Ph": 2144,
      "event": 2145,
      "particularly": 2146,
      "happened": 2147,
      "Rich": 2148,
      "musical": 2149,
      "##ique": 2150,
      "dev": 2151,
      "##aced": 2152,
      "obviously": 2153,
      "simple": 2154,
      "talent": 2155,
      "desc": 2156,
      "##rop": 2157,
      "##ral": 2158,
      "fa": 2159,
      "pos": 2160,
      "taken": 2161,
      "country": 2162,
      "Je": 2163,
      "##arch": 2164,
      "##mak": 2165,
      "##LL": 2166,
      "\")": 2167,
      "##urb": 2168,
      "##ational": 2169,
      "##side": 2170,
      "##OR": 2171,
      "subject": 2172,
      "##gan": 2173,
      "Di": 2174,
      "jokes": 2175,
      "##nded": 2176,
      "##ON": 2177,
      "##omp": 2178,
      "First": 2179,
      "##outh": 2180,
      "return": 2181,
      "brother": 2182,
      "##ugg": 2183,
      "197": 2184,
      "career": 2185,
      "var": 2186,
      "##rodu": 2187,
      "released": 2188,
      "sym": 2189,
      "four": 2190,
      "across": 2191,
      "##iety": 2192,
      "##wards": 2193,
      "suspense": 2194,
      "Although": 2195,
      "opening": 2196,
      "ang": 2197,
      "reality": 2198,
      "##ots": 2199,
      "stay": 2200,
      "##by": 2201,
      "##AR": 2202,
      "highly": 2203,
      "##nds": 2204,
      "phot": 2205,
      "dest": 2206,
      "foc": 2207,
      "##mm": 2208,
      "##ury": 2209,
      "gun": 2210,
      "##vision": 2211,
      "##dy": 2212,
      "##itting": 2213,
      "deep": 2214,
      "sometimes": 2215,
      "inde": 2216,
      "##ones": 2217,
      "##ole": 2218,
      "198": 2219,
      "huge": 2220,
      "##ield": 2221,
      "build": 2222,
      "##ival": 2223,
      "20": 2224,
      "##esh": 2225,
      "fut": 2226,
      "saying": 2227,
      "lar": 2228,
      "##ground": 2229,
      "body": 2230,
      "exactly": 2231,
      "documentary": 2232,
      "doub": 2233,
      "##illiam": 2234,
      "annoying": 2235,
      "hours": 2236,
      "!\"": 2237,
      "##pping": 2238,
      "Dr": 2239,
      "gore": 2240,
      "yourself": 2241,
      "##enty": 2242,
      "whose": 2243,
      "##ctor": 2244,
      "feat": 2245,
      "similar": 2246,
      "##ino": 2247,
      "strange": 2248,
      "hot": 2249,
      "pay": 2250,
      "##oul": 2251,
      "##--": 2252,
      "shots": 2253,
      "##ina": 2254,
      "##ential": 2255,
      "##form": 2256,
      "Over": 2257,
      "save": 2258,
      "opinion": 2259,
      "started": 2260,
      "important": 2261,
      "pull": 2262,
      "##na": 2263,
      "prem": 2264,
      "turned": 2265,
      "cinematography": 2266,
      "OK": 2267,
      "ill": 2268,
      "possible": 2269,
      "number": 2270,
      "air": 2271,
      "treat": 2272,
      "ones": 2273,
      "##cks": 2274,
      "subt": 2275,
      "El": 2276,
      "##ili": 2277,
      "...<": 2278,
      "ends": 2279,
      "sister": 2280,
      "change": 2281,
      "Paul": 2282,
      "##iction": 2283,
      "##yond": 2284,
      "forget": 2285,
      "honest": 2286,
      "narr": 2287,
      "##co": 2288,
      "German": 2289,
      "post": 2290,
      "living": 2291,
      "prot": 2292,
      "police": 2293,
      "female": 2294,
      "William": 2295,
      "alone": 2296,
      "team": 2297,
      "pri": 2298,
      "filmmak": 2299,
      "running": 2300,
      "##aur": 2301,
      "usual": 2302,
      "despite": 2303,
      "##aim": 2304,
      "somewhat": 2305,
      "##otic": 2306,
      "##estern": 2307,
      "taking": 2308,
      "disappointed": 2309,
      "exist": 2310,
      "rating": 2311,
      "##ball": 2312,
      "detail": 2313,
      "vict": 2314,
      "straight": 2315,
      "Lu": 2316,
      "modern": 2317,
      "fill": 2318,
      "##ouble": 2319,
      "local": 2320,
      "finds": 2321,
      "knew": 2322,
      "##oud": 2323,
      "knows": 2324,
      "silly": 2325,
      "drug": 2326,
      "emb": 2327,
      "single": 2328,
      "sent": 2329,
      "attention": 2330,
      "Wor": 2331,
      "##mos": 2332,
      "##aged": 2333,
      "##apan": 2334,
      "talking": 2335,
      "##ky": 2336,
      "respect": 2337,
      "##ING": 2338,
      "words": 2339,
      "ir": 2340,
      "199": 2341,
      "land": 2342,
      "usually": 2343,
      "##ubb": 2344,
      "problems": 2345,
      "##ec": 2346,
      "sold": 2347,
      "##reci": 2348,
      "hell": 2349,
      "among": 2350,
      "remind": 2351,
      "##ald": 2352,
      "pot": 2353,
      "mostly": 2354,
      "ten": 2355,
      "inn": 2356,
      "middle": 2357,
      "##oof": 2358,
      "mist": 2359,
      "aren": 2360,
      "##oad": 2361,
      "##ants": 2362,
      "hop": 2363,
      "episodes": 2364,
      "bel": 2365,
      "Osc": 2366,
      "equ": 2367,
      "##ises": 2368,
      "##gy": 2369,
      "meet": 2370,
      "Japan": 2371,
      "spir": 2372,
      "sequence": 2373,
      "##ubl": 2374,
      "dog": 2375,
      "convin": 2376,
      "cart": 2377,
      "Sam": 2378,
      "cover": 2379,
      "atmos": 2380,
      "plan": 2381,
      "##vers": 2382,
      "eng": 2383,
      "compl": 2384,
      "British": 2385,
      "exp": 2386,
      "##bel": 2387,
      "forg": 2388,
      "##ished": 2389,
      "cliché": 2390,
      "##ital": 2391,
      "gang": 2392,
      "events": 2393,
      "##orable": 2394,
      "near": 2395,
      "check": 2396,
      "hands": 2397,
      "due": 2398,
      "sign": 2399,
      "television": 2400,
      "intellig": 2401,
      "##rit": 2402,
      "box": 2403,
      "tells": 2404,
      "appreci": 2405,
      "##ires": 2406,
      "##usion": 2407,
      "happy": 2408,
      "Unf": 2409,
      "scary": 2410,
      "stun": 2411,
      "Yes": 2412,
      "##ered": 2413,
      "explain": 2414,
      "mark": 2415,
      "odd": 2416,
      "From": 2417,
      "clear": 2418,
      "hate": 2419,
      "##read": 2420,
      "romantic": 2421,
      "soundtra": 2422,
      "thriller": 2423,
      "mater": 2424,
      "##br": 2425,
      "Maybe": 2426,
      "##any": 2427,
      "George": 2428,
      "previous": 2429,
      "Richard": 2430,
      "##how": 2431,
      "appears": 2432,
      "pleas": 2433,
      "question": 2434,
      "present": 2435,
      "none": 2436,
      "seriously": 2437,
      "upon": 2438,
      "dull": 2439,
      "predictable": 2440,
      "sets": 2441,
      "Mor": 2442,
      "camp": 2443,
      "season": 2444,
      "songs": 2445,
      "Su": 2446,
      "moving": 2447,
      "comic": 2448,
      "enjoyable": 2449,
      "##iod": 2450,
      "Frank": 2451,
      "Dis": 2452,
      "eye": 2453,
      "apart": 2454,
      "##arely": 2455,
      "##EN": 2456,
      "sexual": 2457,
      "soundtrack": 2458,
      "material": 2459,
      "aspect": 2460,
      "spoil": 2461,
      "##athetic": 2462,
      "twist": 2463,
      "beyond": 2464,
      "Unfortunately": 2465,
      "Who": 2466,
      "IM": 2467,
      "ul": 2468,
      "##attle": 2469,
      "giving": 2470,
      "Gu": 2471,
      "conv": 2472,
      "release": 2473,
      "sequel": 2474,
      "message": 2475,
      "free": 2476,
      "clearly": 2477,
      "doubt": 2478,
      "##tim": 2479,
      "##inc": 2480,
      "##reet": 2481,
      "above": 2482,
      "haven": 2483,
      "##ices": 2484,
      "##ension": 2485,
      "visual": 2486,
      "ways": 2487,
      "##wise": 2488,
      "##orry": 2489,
      "victim": 2490,
      "flaw": 2491,
      "future": 2492,
      "feature": 2493,
      "##ength": 2494,
      "easily": 2495,
      "needs": 2496,
      "surprised": 2497,
      "##lin": 2498,
      "##ental": 2499,
      "tried": 2500,
      "Sch": 2501,
      "zomb": 2502,
      "creep": 2503,
      "theat": 2504,
      "slight": 2505,
      "Nor": 2506,
      "entertainment": 2507,
      "##ening": 2508,
      "French": 2509,
      "fast": 2510,
      "##asc": 2511,
      "adult": 2512,
      "accept": 2513,
      "##ublic": 2514,
      "insp": 2515,
      "falls": 2516,
      "NOT": 2517,
      "bar": 2518,
      "showing": 2519,
      "By": 2520,
      "Tw": 2521,
      "##oe": 2522,
      "Most": 2523,
      "mil": 2524,
      "setting": 2525,
      "bunch": 2526,
      "##cious": 2527,
      "period": 2528,
      "theme": 2529,
      "***": 2530,
      "Jul": 2531,
      "##ills": 2532,
      "named": 2533,
      "secret": 2534,
      "Par": 2535,
      "myst": 2536,
      "working": 2537,
      "personal": 2538,
      "?)": 2539,
      "storyline": 2540,
      "adapt": 2541,
      "sugg": 2542,
      "##aught": 2543,
      "suggest": 2544,
      "##asy": 2545,
      "met": 2546,
      "##kay": 2547,
      "##pend": 2548,
      "Ital": 2549,
      "##oose": 2550,
      "Like": 2551,
      "Mov": 2552,
      "iss": 2553,
      "reve": 2554,
      "Com": 2555,
      "attack": 2556,
      "minute": 2557,
      "large": 2558,
      "actual": 2559,
      "filmed": 2560,
      "##iel": 2561,
      "Ab": 2562,
      "supporting": 2563,
      "##off": 2564,
      "yes": 2565,
      "##row": 2566,
      "easy": 2567,
      "##light": 2568,
      "surv": 2569,
      "norm": 2570,
      "within": 2571,
      "kept": 2572,
      "feels": 2573,
      "parents": 2574,
      "Peter": 2575,
      "##EA": 2576,
      "##irt": 2577,
      "means": 2578,
      "Direct": 2579,
      "realistic": 2580,
      "##fficult": 2581,
      "Ex": 2582,
      "ut": 2583,
      "comments": 2584,
      "herself": 2585,
      "Col": 2586,
      "elements": 2587,
      "'.": 2588,
      "Jim": 2589,
      "clim": 2590,
      "comb": 2591,
      "points": 2592,
      "difficult": 2593,
      "fell": 2594,
      "Sim": 2595,
      "viewing": 2596,
      "meaning": 2597,
      "writ": 2598,
      "overall": 2599,
      "typical": 2600,
      "decided": 2601,
      "superb": 2602,
      "##IL": 2603,
      "US": 2604,
      "##res": 2605,
      "famous": 2606,
      "Oscar": 2607,
      "##back": 2608,
      "law": 2609,
      "Good": 2610,
      "five": 2611,
      "##uses": 2612,
      "##view": 2613,
      "editing": 2614,
      "##ceed": 2615,
      "dan": 2616,
      "viewers": 2617,
      "Ang": 2618,
      "truth": 2619,
      "',": 2620,
      "##ially": 2621,
      "tre": 2622,
      "obs": 2623,
      "195": 2624,
      "Can": 2625,
      "?\"": 2626,
      "##iest": 2627,
      "##he": 2628,
      "believable": 2629,
      "buy": 2630,
      "##af": 2631,
      "teach": 2632,
      "Watch": 2633,
      "introdu": 2634,
      "##iff": 2635,
      "nearly": 2636,
      "die": 2637,
      "hear": 2638,
      "##ering": 2639,
      "using": 2640,
      "Qu": 2641,
      "Its": 2642,
      "##rol": 2643,
      "York": 2644,
      "##verage": 2645,
      "brought": 2646,
      "##atural": 2647,
      "##imin": 2648,
      "##phere": 2649,
      "Fl": 2650,
      "city": 2651,
      "##bers": 2652,
      "sens": 2653,
      "whether": 2654,
      "weird": 2655,
      "match": 2656,
      "##sw": 2657,
      "sil": 2658,
      "contain": 2659,
      "##....": 2660,
      "reviews": 2661,
      "leads": 2662,
      "business": 2663,
      "figure": 2664,
      "Mon": 2665,
      "##essed": 2666,
      "ru": 2667,
      "##ored": 2668,
      "auth": 2669,
      "tale": 2670,
      "move": 2671,
      "America": 2672,
      "mix": 2673,
      "##ges": 2674,
      "express": 2675,
      "contr": 2676,
      "##OU": 2677,
      "##esy": 2678,
      "?<": 2679,
      "bab": 2680,
      "##key": 2681,
      "rock": 2682,
      "Des": 2683,
      "background": 2684,
      "ra": 2685,
      "greatest": 2686,
      "sequences": 2687,
      "Ben": 2688,
      "dumb": 2689,
      "theater": 2690,
      "crime": 2691,
      "begins": 2692,
      "basically": 2693,
      "front": 2694,
      "King": 2695,
      "Gra": 2696,
      "soc": 2697,
      "catch": 2698,
      "masterp": 2699,
      "##reed": 2700,
      "expected": 2701,
      "premise": 2702,
      "atmosphere": 2703,
      "##atever": 2704,
      "##lling": 2705,
      "aff": 2706,
      "##ara": 2707,
      "wait": 2708,
      "Bra": 2709,
      "##omin": 2710,
      "refer": 2711,
      "Joe": 2712,
      "stri": 2713,
      "particular": 2714,
      "pat": 2715,
      "##aling": 2716,
      "apparently": 2717,
      "average": 2718,
      "fantastic": 2719,
      "surprise": 2720,
      "Aust": 2721,
      "Overall": 2722,
      "animation": 2723,
      "utter": 2724,
      "Fin": 2725,
      "These": 2726,
      "Lee": 2727,
      "situation": 2728,
      "liter": 2729,
      "Mart": 2730,
      "flash": 2731,
      "##ively": 2732,
      "lim": 2733,
      "##ES": 2734,
      "killing": 2735,
      "forward": 2736,
      "mill": 2737,
      "IMD": 2738,
      "Night": 2739,
      "Ev": 2740,
      "##dden": 2741,
      "Film": 2742,
      "lots": 2743,
      "Tra": 2744,
      "rob": 2745,
      "##lfriend": 2746,
      "wind": 2747,
      "##let": 2748,
      "wood": 2749,
      "Black": 2750,
      "nor": 2751,
      "stere": 2752,
      "train": 2753,
      "clever": 2754,
      "##ously": 2755,
      "monster": 2756,
      "##oor": 2757,
      "##ula": 2758,
      "crew": 2759,
      "needed": 2760,
      "##amb": 2761,
      "##where": 2762,
      "emotional": 2763,
      "male": 2764,
      "stage": 2765,
      "##ogn": 2766,
      "Sm": 2767,
      "tast": 2768,
      "exec": 2769,
      "poorly": 2770,
      "##iences": 2771,
      "##real": 2772,
      "acted": 2773,
      "leaves": 2774,
      "avoid": 2775,
      "fire": 2776,
      "oper": 2777,
      "##lier": 2778,
      "advent": 2779,
      "pure": 2780,
      "wit": 2781,
      "gone": 2782,
      "##icks": 2783,
      "grand": 2784,
      "inte": 2785,
      "resp": 2786,
      "bother": 2787,
      "Ser": 2788,
      "sick": 2789,
      "became": 2790,
      "##acing": 2791,
      "footage": 2792,
      "lame": 2793,
      "girlfriend": 2794,
      "##urther": 2795,
      "forced": 2796,
      "strugg": 2797,
      "##unt": 2798,
      "er": 2799,
      "credits": 2800,
      "AN": 2801,
      "write": 2802,
      "##com": 2803,
      "##cle": 2804,
      "##overs": 2805,
      "sudden": 2806,
      "##rated": 2807,
      "space": 2808,
      "Here": 2809,
      "bored": 2810,
      "memorable": 2811,
      "public": 2812,
      "/>\"": 2813,
      "##ager": 2814,
      "heav": 2815,
      "Will": 2816,
      "##fer": 2817,
      "anyway": 2818,
      "Pat": 2819,
      "##uted": 2820,
      "enc": 2821,
      "copy": 2822,
      "society": 2823,
      "Eur": 2824,
      "##arre": 2825,
      "allow": 2826,
      "##head": 2827,
      "##sh": 2828,
      "shame": 2829,
      "##rific": 2830,
      "emotion": 2831,
      "unique": 2832,
      "##bert": 2833,
      "project": 2834,
      "mad": 2835,
      "interested": 2836,
      "villain": 2837,
      "80": 2838,
      "rich": 2839,
      "profess": 2840,
      "ultim": 2841,
      "somehow": 2842,
      "meets": 2843,
      "##ppy": 2844,
      "mystery": 2845,
      "##rey": 2846,
      "unlike": 2847,
      "discover": 2848,
      "Disney": 2849,
      "dam": 2850,
      "stereot": 2851,
      "laughs": 2852,
      "prison": 2853,
      "water": 2854,
      "whom": 2855,
      "perfectly": 2856,
      "features": 2857,
      "roll": 2858,
      "costum": 2859,
      "los": 2860,
      "En": 2861,
      "##cers": 2862,
      "Wood": 2863,
      "##nding": 2864,
      "Let": 2865,
      "cheesy": 2866,
      "nature": 2867,
      "gay": 2868,
      "##aking": 2869,
      "romance": 2870,
      "reading": 2871,
      "keeps": 2872,
      "##por": 2873,
      "Japanese": 2874,
      "??": 2875,
      "concept": 2876,
      "##ived": 2877,
      "third": 2878,
      "Scott": 2879,
      "30": 2880,
      "##uel": 2881,
      "##angu": 2882,
      "quickly": 2883,
      "##arth": 2884,
      "meant": 2885,
      "##iliar": 2886,
      "masterpiece": 2887,
      "Inst": 2888,
      "Great": 2889,
      "cap": 2890,
      "##ius": 2891,
      "##acy": 2892,
      "196": 2893,
      "possibly": 2894,
      "uns": 2895,
      "imagine": 2896,
      "##agon": 2897,
      "##isf": 2898,
      "worked": 2899,
      "histor": 2900,
      "please": 2901,
      "gh": 2902,
      "##ries": 2903,
      "clos": 2904,
      "conne": 2905,
      "##rupt": 2906,
      "dance": 2907,
      "Act": 2908,
      "extra": 2909,
      "disturb": 2910,
      "popular": 2911,
      "##chie": 2912,
      "badly": 2913,
      "realize": 2914,
      "Star": 2915,
      "Af": 2916,
      "joke": 2917,
      "repe": 2918,
      "general": 2919,
      "cry": 2920,
      "trad": 2921,
      "Gl": 2922,
      "writers": 2923,
      "Ale": 2924,
      "band": 2925,
      "hom": 2926,
      "##ze": 2927,
      "amount": 2928,
      "screenplay": 2929,
      "purp": 2930,
      "earlier": 2931,
      "rate": 2932,
      "starr": 2933,
      "193": 2934,
      "##...": 2935,
      "older": 2936,
      "##uff": 2937,
      "##cted": 2938,
      "##ips": 2939,
      "Em": 2940,
      "fasc": 2941,
      "sorry": 2942,
      "est": 2943,
      "##olf": 2944,
      "##oph": 2945,
      "dramatic": 2946,
      "powerful": 2947,
      "IMDb": 2948,
      "total": 2949,
      "agree": 2950,
      "fi": 2951,
      "innoc": 2952,
      "recogn": 2953,
      "##hood": 2954,
      "##ai": 2955,
      "##urd": 2956,
      "colle": 2957,
      "##king": 2958,
      "brings": 2959,
      "various": 2960,
      "##allow": 2961,
      "##anks": 2962,
      "collect": 2963,
      "Bar": 2964,
      "battle": 2965,
      "##others": 2966,
      "towards": 2967,
      "##more": 2968,
      "cartoon": 2969,
      "brain": 2970,
      "admit": 2971,
      "incredibly": 2972,
      "##ram": 2973,
      "##pper": 2974,
      "scient": 2975,
      "##aked": 2976,
      "inside": 2977,
      "vamp": 2978,
      "answ": 2979,
      "hair": 2980,
      "trash": 2981,
      "directing": 2982,
      "portrayed": 2983,
      "15": 2984,
      "Bill": 2985,
      "##cessary": 2986,
      "creepy": 2987,
      "jour": 2988,
      "spent": 2989,
      "development": 2990,
      "##gest": 2991,
      "reasons": 2992,
      "directors": 2993,
      "Che": 2994,
      "occas": 2995,
      "note": 2996,
      "Another": 2997,
      "sleep": 2998,
      "political": 2999,
      "eventually": 3000,
      "attract": 3001,
      "##ma": 3002,
      "invest": 3003,
      "cir": 3004,
      "imm": 3005,
      "appro": 3006,
      "##ask": 3007,
      "design": 3008,
      "fails": 3009,
      "##itty": 3010,
      "Cr": 3011,
      "langu": 3012,
      "##ned": 3013,
      "Pro": 3014,
      "sounds": 3015,
      "fairly": 3016,
      "##ette": 3017,
      "commun": 3018,
      "##RE": 3019,
      "spirit": 3020,
      "flat": 3021,
      "deserves": 3022,
      "##ana": 3023,
      "und": 3024,
      "wasted": 3025,
      "leading": 3026,
      "beauty": 3027,
      "cond": 3028,
      "##ases": 3029,
      "telling": 3030,
      "##erry": 3031,
      "phys": 3032,
      "deb": 3033,
      "create": 3034,
      "Russ": 3035,
      "##itted": 3036,
      "Mad": 3037,
      "##OO": 3038,
      "manages": 3039,
      "boys": 3040,
      "ign": 3041,
      "fighting": 3042,
      "porn": 3043,
      "ended": 3044,
      "record": 3045,
      "ideas": 3046,
      "revol": 3047,
      "attempts": 3048,
      "nud": 3049,
      "plain": 3050,
      "194": 3051,
      "##andy": 3052,
      "expecting": 3053,
      "era": 3054,
      "Hor": 3055,
      "bed": 3056,
      "ident": 3057,
      "##roy": 3058,
      "social": 3059,
      "plenty": 3060,
      "familiar": 3061,
      "depth": 3062,
      "Other": 3063,
      "neg": 3064,
      "##ivid": 3065,
      "members": 3066,
      "##friend": 3067,
      "Van": 3068,
      "indeed": 3069,
      "World": 3070,
      "ca": 3071,
      "##oman": 3072,
      "missing": 3073,
      "offic": 3074,
      "accident": 3075,
      "whatever": 3076,
      "symp": 3077,
      "outside": 3078,
      "Tim": 3079,
      "caught": 3080,
      "jud": 3081,
      "##uct": 3082,
      "ess": 3083,
      "talented": 3084,
      "##inary": 3085,
      "suffer": 3086,
      "ble": 3087,
      "mood": 3088,
      "suck": 3089,
      "##ague": 3090,
      "travel": 3091,
      "react": 3092,
      "##inger": 3093,
      "common": 3094,
      "positive": 3095,
      "##zz": 3096,
      "stat": 3097,
      "impr": 3098,
      "##ele": 3099,
      "##erm": 3100,
      "relig": 3101,
      "##par": 3102,
      "##iously": 3103,
      "laughing": 3104,
      "Italian": 3105,
      "Instead": 3106,
      "cute": 3107,
      "##ding": 3108,
      "remake": 3109,
      "Mat": 3110,
      "(\"": 3111,
      "##to": 3112,
      "##arrass": 3113,
      "achie": 3114,
      "hy": 3115,
      "repr": 3116,
      "##medi": 3117,
      "potential": 3118,
      "cat": 3119,
      "crazy": 3120,
      "created": 3121,
      "western": 3122,
      "##bo": 3123,
      "produced": 3124,
      "claim": 3125,
      "##izing": 3126,
      "requ": 3127,
      "filmmakers": 3128,
      "##ishing": 3129,
      "leg": 3130,
      "escape": 3131,
      "recently": 3132,
      "Jane": 3133,
      "pace": 3134,
      "##emy": 3135,
      "biz": 3136,
      "##iny": 3137,
      "step": 3138,
      "90": 3139,
      "reach": 3140,
      "##belie": 3141,
      "##erv": 3142,
      "embarrass": 3143,
      "SP": 3144,
      "idi": 3145,
      "pu": 3146,
      "wrote": 3147,
      "mentioned": 3148,
      "funn": 3149,
      "##ero": 3150,
      "brief": 3151,
      "forgot": 3152,
      "##ites": 3153,
      "##ades": 3154,
      "fash": 3155,
      "control": 3156,
      "##overn": 3157,
      "following": 3158,
      "##istry": 3159,
      "unless": 3160,
      "intri": 3161,
      "missed": 3162,
      "nudity": 3163,
      "former": 3164,
      "##ology": 3165,
      "Europe": 3166,
      "Big": 3167,
      "immedi": 3168,
      "stereotyp": 3169,
      "trail": 3170,
      "Dead": 3171,
      "##iers": 3172,
      "doll": 3173,
      "complex": 3174,
      "medi": 3175,
      "anti": 3176,
      "mel": 3177,
      "amb": 3178,
      "Movie": 3179,
      "Director": 3180,
      "##ey": 3181,
      "hardly": 3182,
      "approach": 3183,
      "lady": 3184,
      "credit": 3185,
      "waiting": 3186,
      "subtle": 3187,
      "slightly": 3188,
      "Sw": 3189,
      "Cra": 3190,
      "arri": 3191,
      "##work": 3192,
      "##gress": 3193,
      "Kar": 3194,
      "store": 3195,
      "mach": 3196,
      "##IS": 3197,
      "##ieces": 3198,
      "search": 3199,
      "##ee": 3200,
      "mid": 3201,
      "##uce": 3202,
      "sweet": 3203,
      "rece": 3204,
      "##venge": 3205,
      "earth": 3206,
      "further": 3207,
      "##uter": 3208,
      "doctor": 3209,
      "Red": 3210,
      "cross": 3211,
      "fly": 3212,
      "##ashing": 3213,
      "##oved": 3214,
      "draw": 3215,
      "House": 3216,
      "Park": 3217,
      "##berg": 3218,
      "filled": 3219,
      "Love": 3220,
      "sees": 3221,
      "##aging": 3222,
      "casting": 3223,
      "decides": 3224,
      "color": 3225,
      "convincing": 3226,
      "##mas": 3227,
      "stick": 3228,
      "High": 3229,
      "uses": 3230,
      "fantasy": 3231,
      "Rock": 3232,
      "mass": 3233,
      "desper": 3234,
      "##lu": 3235,
      "##sters": 3236,
      "##rage": 3237,
      "value": 3238,
      "Perhaps": 3239,
      "chem": 3240,
      "##gram": 3241,
      "rad": 3242,
      "##ibility": 3243,
      "wall": 3244,
      "delight": 3245,
      "fit": 3246,
      "##men": 3247,
      "##illing": 3248,
      "Where": 3249,
      "married": 3250,
      "##bs": 3251,
      "entirely": 3252,
      "Ir": 3253,
      "##go": 3254,
      "##uine": 3255,
      "pointless": 3256,
      "tension": 3257,
      "##lict": 3258,
      "Boy": 3259,
      "soul": 3260,
      "##aud": 3261,
      "track": 3262,
      "Gold": 3263,
      "##bor": 3264,
      "myster": 3265,
      "##elly": 3266,
      "follows": 3267,
      "##lusion": 3268,
      "portrayal": 3269,
      "Ye": 3270,
      "tort": 3271,
      "died": 3272,
      "appreciate": 3273,
      "##ened": 3274,
      "##itation": 3275,
      "Lou": 3276,
      "language": 3277,
      "ine": 3278,
      "sum": 3279,
      "unbelie": 3280,
      "scream": 3281,
      "luck": 3282,
      "cause": 3283,
      "##eem": 3284,
      "##iced": 3285,
      "remark": 3286,
      "##alth": 3287,
      "genuine": 3288,
      "##ossible": 3289,
      "bizarre": 3290,
      "choice": 3291,
      "unfortunately": 3292,
      "##eren": 3293,
      "Hitch": 3294,
      "god": 3295,
      "intelligent": 3296,
      "##esome": 3297,
      "younger": 3298,
      "solid": 3299,
      "moves": 3300,
      "##uster": 3301,
      "accent": 3302,
      "##uit": 3303,
      "Fred": 3304,
      "Ray": 3305,
      "week": 3306,
      "##ounter": 3307,
      "##annel": 3308,
      "satisf": 3309,
      "fashion": 3310,
      "mere": 3311,
      "##ivers": 3312,
      "depict": 3313,
      "##ares": 3314,
      "tough": 3315,
      "fol": 3316,
      "party": 3317,
      "pack": 3318,
      "##anch": 3319,
      "ground": 3320,
      "critic": 3321,
      "images": 3322,
      "manner": 3323,
      "successful": 3324,
      "##ED": 3325,
      "biggest": 3326,
      "regard": 3327,
      "situations": 3328,
      "exciting": 3329,
      "##ilt": 3330,
      "sci": 3331,
      "50": 3332,
      "danger": 3333,
      "Dra": 3334,
      "Mac": 3335,
      "garb": 3336,
      "jump": 3337,
      "humour": 3338,
      "##idden": 3339,
      "##VER": 3340,
      "##isingly": 3341,
      "##aus": 3342,
      "##vent": 3343,
      "longer": 3344,
      "Sec": 3345,
      "wild": 3346,
      "rap": 3347,
      "amusing": 3348,
      "incredible": 3349,
      "##isc": 3350,
      "Still": 3351,
      "company": 3352,
      "terror": 3353,
      "compet": 3354,
      "purpose": 3355,
      "##gic": 3356,
      "remain": 3357,
      "breat": 3358,
      "##yl": 3359,
      "decide": 3360,
      "Christmas": 3361,
      "Mur": 3362,
      "culture": 3363,
      "focus": 3364,
      "violent": 3365,
      "dim": 3366,
      "fake": 3367,
      "##irty": 3368,
      "100": 3369,
      "II": 3370,
      "##ille": 3371,
      "effective": 3372,
      "Mel": 3373,
      "ball": 3374,
      "##ki": 3375,
      "##iment": 3376,
      "##ateur": 3377,
      "producers": 3378,
      "##OW": 3379,
      "brut": 3380,
      "recent": 3381,
      "news": 3382,
      "mer": 3383,
      "Best": 3384,
      "otherwise": 3385,
      "office": 3386,
      "spend": 3387,
      "beat": 3388,
      "Sure": 3389,
      "likes": 3390,
      "trouble": 3391,
      "college": 3392,
      "##ribly": 3393,
      "##ization": 3394,
      "##ining": 3395,
      "kills": 3396,
      "changed": 3397,
      "dancing": 3398,
      "inform": 3399,
      "glad": 3400,
      "demon": 3401,
      "Angel": 3402,
      "involving": 3403,
      "repres": 3404,
      "kick": 3405,
      "questions": 3406,
      "##arily": 3407,
      "proper": 3408,
      "program": 3409,
      "suspect": 3410,
      "concern": 3411,
      "bomb": 3412,
      "values": 3413,
      "continu": 3414,
      "Alex": 3415,
      "weren": 3416,
      "Very": 3417,
      "impressive": 3418,
      "##wart": 3419,
      "Anyway": 3420,
      "pathetic": 3421,
      "ups": 3422,
      "fascin": 3423,
      "##itary": 3424,
      "##standing": 3425,
      "compe": 3426,
      "Go": 3427,
      "Mary": 3428,
      "prop": 3429,
      "spot": 3430,
      "product": 3431,
      "ghost": 3432,
      "Bat": 3433,
      "##OM": 3434,
      "##anda": 3435,
      "normal": 3436,
      "showed": 3437,
      "street": 3438,
      "##gend": 3439,
      "garbage": 3440,
      "barely": 3441,
      "##unny": 3442,
      "##while": 3443,
      "assum": 3444,
      "compared": 3445,
      "opportun": 3446,
      "Charles": 3447,
      "##come": 3448,
      "##alt": 3449,
      "fear": 3450,
      "amateur": 3451,
      "Ber": 3452,
      "test": 3453,
      "singing": 3454,
      "taste": 3455,
      "bull": 3456,
      "loud": 3457,
      "##here": 3458,
      "##ensive": 3459,
      "oh": 3460,
      "##andom": 3461,
      "Indian": 3462,
      "Afric": 3463,
      "ST": 3464,
      "##ios": 3465,
      "disg": 3466,
      "interview": 3467,
      "Ann": 3468,
      "runs": 3469,
      "failed": 3470,
      "##asher": 3471,
      "##irl": 3472,
      "OF": 3473,
      "bott": 3474,
      "fat": 3475,
      "suddenly": 3476,
      "Bob": 3477,
      "makers": 3478,
      "awesome": 3479,
      "road": 3480,
      "Two": 3481,
      "chemistry": 3482,
      "Te": 3483,
      "affect": 3484,
      "cold": 3485,
      "spect": 3486,
      "ability": 3487,
      "Bri": 3488,
      "bought": 3489,
      "City": 3490,
      "##BC": 3491,
      "##sequ": 3492,
      "explo": 3493,
      "Fran": 3494,
      "##ective": 3495,
      "considered": 3496,
      "Cor": 3497,
      "length": 3498,
      "##ches": 3499,
      "carry": 3500,
      "disturbing": 3501,
      "shooting": 3502,
      "avail": 3503,
      "accur": 3504,
      "trip": 3505,
      "gag": 3506,
      "studio": 3507,
      "drag": 3508,
      "state": 3509,
      "suit": 3510,
      "door": 3511,
      "##ali": 3512,
      "Str": 3513,
      "Only": 3514,
      "Bur": 3515,
      "repl": 3516,
      "##iding": 3517,
      "##ifully": 3518,
      "Im": 3519,
      "Way": 3520,
      "numb": 3521,
      "crimin": 3522,
      "reveal": 3523,
      "govern": 3524,
      "impossible": 3525,
      "##IT": 3526,
      "leaving": 3527,
      "##ondon": 3528,
      "##LE": 3529,
      "##rel": 3530,
      "##ified": 3531,
      "smart": 3532,
      "exception": 3533,
      "century": 3534,
      "hang": 3535,
      "##iles": 3536,
      "##appe": 3537,
      "Bel": 3538,
      "log": 3539,
      "##aven": 3540,
      "##pher": 3541,
      "Stan": 3542,
      "genius": 3543,
      "Jones": 3544,
      "##cceed": 3545,
      "lab": 3546,
      "twists": 3547,
      "island": 3548,
      "##aper": 3549,
      "minor": 3550,
      "key": 3551,
      "boyfriend": 3552,
      "immediately": 3553,
      "thinks": 3554,
      "books": 3555,
      "Earth": 3556,
      "Ham": 3557,
      "succeed": 3558,
      "London": 3559,
      "natural": 3560,
      "##une": 3561,
      "Mo": 3562,
      "See": 3563,
      "considering": 3564,
      "adventure": 3565,
      "okay": 3566,
      "audiences": 3567,
      "##ders": 3568,
      "literally": 3569,
      "##ging": 3570,
      "##gar": 3571,
      "##ales": 3572,
      "favour": 3573,
      "##idence": 3574,
      "basic": 3575,
      "heavy": 3576,
      "SPO": 3577,
      "impression": 3578,
      "issues": 3579,
      "##ica": 3580,
      "##room": 3581,
      "Bec": 3582,
      "pract": 3583,
      "##fort": 3584,
      "##str": 3585,
      "appeal": 3586,
      "Despite": 3587,
      "sitting": 3588,
      "standard": 3589,
      "##cif": 3590,
      "author": 3591,
      "##con": 3592,
      "##ena": 3593,
      "Though": 3594,
      "baby": 3595,
      "Dark": 3596,
      "investig": 3597,
      "mouth": 3598,
      "redeem": 3599,
      "##ILER": 3600,
      "Jeff": 3601,
      "##cast": 3602,
      "notice": 3603,
      "unex": 3604,
      "Sl": 3605,
      "burn": 3606,
      "ship": 3607,
      "random": 3608,
      "##izes": 3609,
      "##xic": 3610,
      "slasher": 3611,
      "finish": 3612,
      "sav": 3613,
      "Paris": 3614,
      "SPOILER": 3615,
      "Bad": 3616,
      "Miss": 3617,
      "##iring": 3618,
      "fresh": 3619,
      "Because": 3620,
      "##lect": 3621,
      "likely": 3622,
      "fore": 3623,
      "insult": 3624,
      "added": 3625,
      "starring": 3626,
      "pers": 3627,
      "##edy": 3628,
      "force": 3629,
      "sexy": 3630,
      "conclusion": 3631,
      "complain": 3632,
      "stunning": 3633,
      "70": 3634,
      "##ify": 3635,
      "Ag": 3636,
      "##cock": 3637,
      "alive": 3638,
      "har": 3639,
      "##irth": 3640,
      "##oken": 3641,
      "occur": 3642,
      "Bro": 3643,
      "gem": 3644,
      "appearance": 3645,
      "Pol": 3646,
      "Yet": 3647,
      "rated": 3648,
      "revenge": 3649,
      "af": 3650,
      "indust": 3651,
      "##elle": 3652,
      "climax": 3653,
      "neither": 3654,
      "computer": 3655,
      "zombie": 3656,
      "threat": 3657,
      "depress": 3658,
      "faith": 3659,
      "respons": 3660,
      "##owers": 3661,
      "scenery": 3662,
      "Charlie": 3663,
      "Kn": 3664,
      "Co": 3665,
      "Never": 3666,
      "wee": 3667,
      "##wor": 3668,
      "##oop": 3669,
      "plus": 3670,
      "##osp": 3671,
      "terms": 3672,
      "presence": 3673,
      "somewhere": 3674,
      "Smith": 3675,
      "##gen": 3676,
      "Steve": 3677,
      "pieces": 3678,
      "##ands": 3679,
      "cinematic": 3680,
      "journey": 3681,
      "18": 3682,
      "graph": 3683,
      "destroy": 3684,
      "Austral": 3685,
      "##ological": 3686,
      "Ple": 3687,
      "nowhere": 3688,
      "People": 3689,
      "flashback": 3690,
      "available": 3691,
      "jo": 3692,
      "mult": 3693,
      "Jean": 3694,
      "soldiers": 3695,
      "Hen": 3696,
      "Hol": 3697,
      "Mark": 3698,
      "##ode": 3699,
      "##lessly": 3700,
      "magic": 3701,
      "Vict": 3702,
      "##ka": 3703,
      "##bl": 3704,
      "##ID": 3705,
      "neigh": 3706,
      "month": 3707,
      "conflict": 3708,
      "managed": 3709,
      "##arsh": 3710,
      "animated": 3711,
      "passion": 3712,
      "##AS": 3713,
      "Chris": 3714,
      "affair": 3715,
      "spl": 3716,
      "wise": 3717,
      "##icide": 3718,
      "##****": 3719,
      "##anna": 3720,
      "Christian": 3721,
      "motion": 3722,
      "witness": 3723,
      "remains": 3724,
      "comedies": 3725,
      "ultimately": 3726,
      "##riage": 3727,
      "names": 3728,
      "##opher": 3729,
      "##ford": 3730,
      "photography": 3731,
      "din": 3732,
      "squ": 3733,
      "describ": 3734,
      "adaptation": 3735,
      "Sci": 3736,
      "##ander": 3737,
      "historical": 3738,
      "innocent": 3739,
      "##aff": 3740,
      "suppose": 3741,
      "Spe": 3742,
      "rare": 3743,
      "##ores": 3744,
      "##itions": 3745,
      "science": 3746,
      "thrown": 3747,
      "Nothing": 3748,
      "constantly": 3749,
      "narrative": 3750,
      "million": 3751,
      "tradition": 3752,
      "intrigu": 3753,
      "##stem": 3754,
      "charming": 3755,
      "changes": 3756,
      "commer": 3757,
      "beautifully": 3758,
      "emotions": 3759,
      "military": 3760,
      "11": 3761,
      "##athy": 3762,
      "\".<": 3763,
      "##ham": 3764,
      "details": 3765,
      "gold": 3766,
      "prep": 3767,
      "host": 3768,
      "##round": 3769,
      "##ivil": 3770,
      "##ropri": 3771,
      "Tar": 3772,
      "ast": 3773,
      "drink": 3774,
      "utterly": 3775,
      "Harry": 3776,
      "escap": 3777,
      "tone": 3778,
      "##esides": 3779,
      "protagon": 3780,
      "Ry": 3781,
      "six": 3782,
      "Fe": 3783,
      "##estival": 3784,
      "offer": 3785,
      "influ": 3786,
      "##abb": 3787,
      "behav": 3788,
      "individ": 3789,
      "surprisingly": 3790,
      "intended": 3791,
      "terrific": 3792,
      "places": 3793,
      "Bruce": 3794,
      "##rick": 3795,
      "##itude": 3796,
      "##ste": 3797,
      "laughable": 3798,
      "##wr": 3799,
      "##vert": 3800,
      "chall": 3801,
      "producer": 3802,
      "Tony": 3803,
      "##kn": 3804,
      "##urch": 3805,
      "soft": 3806,
      "ur": 3807,
      "Many": 3808,
      "##boy": 3809,
      "##udd": 3810,
      "stands": 3811,
      "alien": 3812,
      "presented": 3813,
      "Victor": 3814,
      "Gi": 3815,
      "loose": 3816,
      "throw": 3817,
      "compar": 3818,
      "disappointing": 3819,
      "building": 3820,
      "date": 3821,
      "recommended": 3822,
      "Too": 3823,
      "##vey": 3824,
      "feelings": 3825,
      "touching": 3826,
      "fool": 3827,
      "##awn": 3828,
      "government": 3829,
      "##imp": 3830,
      "generally": 3831,
      "13": 3832,
      "CG": 3833,
      "boss": 3834,
      "##oking": 3835,
      "unbelievable": 3836,
      "bur": 3837,
      "charm": 3838,
      "addition": 3839,
      "costumes": 3840,
      "Kr": 3841,
      "WW": 3842,
      "##kin": 3843,
      "##OV": 3844,
      "painful": 3845,
      "##oices": 3846,
      "##icated": 3847,
      "Hitchcock": 3848,
      "filming": 3849,
      "##unting": 3850,
      "##orts": 3851,
      "Av": 3852,
      "puts": 3853,
      "Steph": 3854,
      "dad": 3855,
      "##erous": 3856,
      "surround": 3857,
      "curr": 3858,
      "South": 3859,
      "loves": 3860,
      "lovely": 3861,
      "Adam": 3862,
      "object": 3863,
      "absurd": 3864,
      "hoping": 3865,
      "medioc": 3866,
      "##ospital": 3867,
      "Sn": 3868,
      "##eg": 3869,
      "themes": 3870,
      "Once": 3871,
      "breath": 3872,
      "intense": 3873,
      "12": 3874,
      "system": 3875,
      "ener": 3876,
      "##ability": 3877,
      "slowly": 3878,
      "aspects": 3879,
      "Somet": 3880,
      "excuse": 3881,
      "fully": 3882,
      "lived": 3883,
      "Bo": 3884,
      "developed": 3885,
      "Hard": 3886,
      "pun": 3887,
      "##ched": 3888,
      "acts": 3889,
      "moral": 3890,
      "Super": 3891,
      "Barb": 3892,
      "disappointment": 3893,
      "student": 3894,
      "silent": 3895,
      "commercial": 3896,
      "individual": 3897,
      "Gen": 3898,
      "Ro": 3899,
      "##field": 3900,
      "lif": 3901,
      "mistake": 3902,
      "Part": 3903,
      "tired": 3904,
      "mysterious": 3905,
      "fiction": 3906,
      "ride": 3907,
      "##ini": 3908,
      "West": 3909,
      "Harr": 3910,
      "thank": 3911,
      "drunk": 3912,
      "discuss": 3913,
      "expectations": 3914,
      "Stewart": 3915,
      "drawn": 3916,
      "magn": 3917,
      "worthy": 3918,
      "Bet": 3919,
      "init": 3920,
      "##board": 3921,
      "##oes": 3922,
      "##AD": 3923,
      "##elling": 3924,
      "intern": 3925,
      "equally": 3926,
      "Jon": 3927,
      "defe": 3928,
      "legend": 3929,
      "##ploy": 3930,
      "clean": 3931,
      "element": 3932,
      "##oughly": 3933,
      "correct": 3934,
      "sight": 3935,
      "##bol": 3936,
      "Sand": 3937,
      "knowing": 3938,
      "subst": 3939,
      "fascinating": 3940,
      "opportunity": 3941,
      "##entially": 3942,
      "outstanding": 3943,
      "resem": 3944,
      "Jew": 3945,
      "##ueen": 3946,
      "drive": 3947,
      "contains": 3948,
      "##anted": 3949,
      "Carl": 3950,
      "##eal": 3951,
      "##IG": 3952,
      "impl": 3953,
      "##oned": 3954,
      "##reg": 3955,
      "##ooks": 3956,
      "Christopher": 3957,
      "Dou": 3958,
      "Fox": 3959,
      "##inn": 3960,
      "qual": 3961,
      "Martin": 3962,
      "Bas": 3963,
      "edge": 3964,
      "race": 3965,
      "##aine": 3966,
      "content": 3967,
      "laughed": 3968,
      "##min": 3969,
      "serial": 3970,
      "include": 3971,
      "pictures": 3972,
      "melod": 3973,
      "East": 3974,
      "##ipp": 3975,
      "##CH": 3976,
      "disaster": 3977,
      "##sey": 3978,
      "serv": 3979,
      "walking": 3980,
      "Er": 3981,
      "students": 3982,
      "flicks": 3983,
      "critics": 3984,
      "Gar": 3985,
      "pil": 3986,
      "noir": 3987,
      "mainly": 3988,
      "location": 3989,
      "seg": 3990,
      "Thom": 3991,
      "##asty": 3992,
      "surf": 3993,
      "happening": 3994,
      "confusing": 3995,
      "40": 3996,
      "Both": 3997,
      "rac": 3998,
      "image": 3999,
      "Shakes": 4000,
      "desert": 4001,
      "##ledge": 4002,
      "Kelly": 4003,
      "##gl": 4004,
      "Phil": 4005,
      "More": 4006,
      "dies": 4007,
      "rip": 4008,
      "held": 4009,
      "##onna": 4010,
      "Everything": 4011,
      "ge": 4012,
      "cloth": 4013,
      "disgust": 4014,
      "Did": 4015,
      "##gly": 4016,
      "process": 4017,
      "##ples": 4018,
      "Du": 4019,
      "pair": 4020,
      "lover": 4021,
      "likable": 4022,
      "Robin": 4023,
      "irrit": 4024,
      "Ap": 4025,
      "dro": 4026,
      "round": 4027,
      "cell": 4028,
      "dread": 4029,
      "nons": 4030,
      "virt": 4031,
      "##rest": 4032,
      "##ift": 4033,
      "naked": 4034,
      "Americans": 4035,
      "compelling": 4036,
      "Day": 4037,
      "Young": 4038,
      "difference": 4039,
      "Steven": 4040,
      "marriage": 4041,
      "##tend": 4042,
      "##!!!!": 4043,
      "Walk": 4044,
      "##lyn": 4045,
      "##iday": 4046,
      "##ural": 4047,
      "##ribe": 4048,
      "Laur": 4049,
      "Show": 4050,
      "confused": 4051,
      "relationships": 4052,
      "drugs": 4053,
      "Billy": 4054,
      "mir": 4055,
      "oppos": 4056,
      "Bab": 4057,
      "Tre": 4058,
      "dubb": 4059,
      "vampire": 4060,
      "Ter": 4061,
      "##IE": 4062,
      "lacks": 4063,
      "impressed": 4064,
      "Shakespe": 4065,
      "faces": 4066,
      "##table": 4067,
      "folks": 4068,
      "Naz": 4069,
      "lad": 4070,
      "##inct": 4071,
      "dress": 4072,
      "div": 4073,
      "Little": 4074,
      "holes": 4075,
      "Dick": 4076,
      "Sad": 4077,
      "share": 4078,
      "helps": 4079,
      "giant": 4080,
      "actresses": 4081,
      "lighting": 4082,
      "traged": 4083,
      "symbol": 4084,
      "victims": 4085,
      "aut": 4086,
      "ment": 4087,
      "prim": 4088,
      "seemingly": 4089,
      "Story": 4090,
      "appeared": 4091,
      "adds": 4092,
      "AND": 4093,
      "information": 4094,
      "spectac": 4095,
      "gorge": 4096,
      "##uous": 4097,
      "##uts": 4098,
      "##osh": 4099,
      "hospital": 4100,
      "Mexic": 4101,
      "independ": 4102,
      "mart": 4103,
      "forgotten": 4104,
      "Mus": 4105,
      "Mag": 4106,
      "thor": 4107,
      "forever": 4108,
      "##thur": 4109,
      "chase": 4110,
      "Russian": 4111,
      "remote": 4112,
      "paid": 4113,
      "consist": 4114,
      "Rog": 4115,
      "ri": 4116,
      "creative": 4117,
      "Canad": 4118,
      "negative": 4119,
      "##aries": 4120,
      "delivers": 4121,
      "wide": 4122,
      "resc": 4123,
      "##azz": 4124,
      "##ession": 4125,
      "Please": 4126,
      "rout": 4127,
      "##mark": 4128,
      "dreams": 4129,
      "fault": 4130,
      "flaws": 4131,
      "nobody": 4132,
      "bi": 4133,
      "eat": 4134,
      "zombies": 4135,
      "aside": 4136,
      "wondering": 4137,
      "putting": 4138,
      "answer": 4139,
      "multi": 4140,
      "fright": 4141,
      "joy": 4142,
      "##aton": 4143,
      "board": 4144,
      "anymore": 4145,
      "crow": 4146,
      "finding": 4147,
      "estab": 4148,
      "IS": 4149,
      "Sar": 4150,
      "##vir": 4151,
      "progress": 4152,
      "club": 4153,
      "offers": 4154,
      "artist": 4155,
      "##ooked": 4156,
      "everybody": 4157,
      "trailer": 4158,
      "##asing": 4159,
      "highlight": 4160,
      "market": 4161,
      "industry": 4162,
      "melodram": 4163,
      "Hell": 4164,
      "hasn": 4165,
      "disappe": 4166,
      "explan": 4167,
      "##known": 4168,
      "Men": 4169,
      "##ops": 4170,
      "professional": 4171,
      "##anced": 4172,
      "frust": 4173,
      "honestly": 4174,
      "adults": 4175,
      "Batman": 4176,
      "Bond": 4177,
      "freak": 4178,
      "nu": 4179,
      "##icip": 4180,
      "falling": 4181,
      "Conn": 4182,
      "allowed": 4183,
      "cele": 4184,
      "funniest": 4185,
      "ham": 4186,
      "##ita": 4187,
      "convers": 4188,
      "provides": 4189,
      "attractive": 4190,
      "merely": 4191,
      "station": 4192,
      "detective": 4193,
      "Lar": 4194,
      "ahead": 4195,
      "double": 4196,
      "##een": 4197,
      "thin": 4198,
      "willing": 4199,
      "contem": 4200,
      "Jackson": 4201,
      "fort": 4202,
      "suicide": 4203,
      "prefer": 4204,
      "stuck": 4205,
      "imagination": 4206,
      "##ushed": 4207,
      "Western": 4208,
      "##illa": 4209,
      "unus": 4210,
      "display": 4211,
      "Green": 4212,
      "gorgeous": 4213,
      "##time": 4214,
      "##orter": 4215,
      "##text": 4216,
      "followed": 4217,
      "Cam": 4218,
      "led": 4219,
      "sun": 4220,
      "standards": 4221,
      "reminded": 4222,
      "rented": 4223,
      "blind": 4224,
      "mediocre": 4225,
      "Ms": 4226,
      "den": 4227,
      "##AL": 4228,
      "##ountain": 4229,
      "personality": 4230,
      "ready": 4231,
      "occasion": 4232,
      "Jes": 4233,
      "##itz": 4234,
      "sto": 4235,
      "##raid": 4236,
      "##ugs": 4237,
      "impact": 4238,
      "opera": 4239,
      "##ech": 4240,
      "onto": 4241,
      "##rog": 4242,
      "Death": 4243,
      "Jason": 4244,
      "Life": 4245,
      "Wil": 4246,
      "gri": 4247,
      "##ilities": 4248,
      "becoming": 4249,
      "shocking": 4250,
      "numbers": 4251,
      "Shakespeare": 4252,
      "path": 4253,
      "##ront": 4254,
      "prin": 4255,
      "twice": 4256,
      "phone": 4257,
      "##soever": 4258,
      "kidn": 4259,
      "collection": 4260,
      "bottom": 4261,
      "unreal": 4262,
      ".....": 4263,
      "fellow": 4264,
      "aim": 4265,
      "##eral": 4266,
      "area": 4267,
      ".,": 4268,
      "Having": 4269,
      "ord": 4270,
      "whatsoever": 4271,
      "cops": 4272,
      "animals": 4273,
      "scientist": 4274,
      "Lyn": 4275,
      "wearing": 4276,
      "picked": 4277,
      "**": 4278,
      "base": 4279,
      "eight": 4280,
      "unne": 4281,
      "##itor": 4282,
      "Their": 4283,
      "strength": 4284,
      "tragic": 4285,
      "supposedly": 4286,
      "latter": 4287,
      "##gue": 4288,
      "actions": 4289,
      "helped": 4290,
      "inspired": 4291,
      "?!": 4292,
      "Es": 4293,
      "##lled": 4294,
      "underst": 4295,
      "##stein": 4296,
      "##AY": 4297,
      "##anic": 4298,
      "##entional": 4299,
      "McC": 4300,
      "thanks": 4301,
      "Ford": 4302,
      "Hel": 4303,
      "hide": 4304,
      "member": 4305,
      "youth": 4306,
      "shouldn": 4307,
      "Girl": 4308,
      "##pected": 4309,
      "Henry": 4310,
      "##yr": 4311,
      "Dev": 4312,
      "ON": 4313,
      "justice": 4314,
      "Thomas": 4315,
      "Les": 4316,
      "grow": 4317,
      "##appy": 4318,
      "Kevin": 4319,
      "##IC": 4320,
      "listen": 4321,
      "pra": 4322,
      "moved": 4323,
      "trust": 4324,
      "Ryan": 4325,
      "celebr": 4326,
      "achieve": 4327,
      "Edd": 4328,
      "Since": 4329,
      "##eper": 4330,
      "##oted": 4331,
      "plane": 4332,
      "weap": 4333,
      "##agger": 4334,
      "childhood": 4335,
      "proves": 4336,
      "formula": 4337,
      "/>-": 4338,
      "summ": 4339,
      "slap": 4340,
      "artistic": 4341,
      "Jud": 4342,
      "Wal": 4343,
      "##pret": 4344,
      "quiet": 4345,
      "craft": 4346,
      "tragedy": 4347,
      "crowd": 4348,
      "Sus": 4349,
      "sour": 4350,
      "##ta": 4351,
      "##terest": 4352,
      "turning": 4353,
      "born": 4354,
      "friendship": 4355,
      "nasty": 4356,
      "##anish": 4357,
      "##illed": 4358,
      "Blood": 4359,
      "thoroughly": 4360,
      "bene": 4361,
      "##ET": 4362,
      "##asure": 4363,
      "Sy": 4364,
      "Sil": 4365,
      "##lor": 4366,
      "overl": 4367,
      "seconds": 4368,
      "speaking": 4369,
      "teacher": 4370,
      "##ris": 4371,
      "##odies": 4372,
      ".'": 4373,
      "???": 4374,
      "Den": 4375,
      "tar": 4376,
      "knock": 4377,
      "superior": 4378,
      "bright": 4379,
      "sadly": 4380,
      "##LY": 4381,
      "realized": 4382,
      "##azy": 4383,
      "La": 4384,
      "##ring": 4385,
      "##bb": 4386,
      "chick": 4387,
      "warm": 4388,
      "Law": 4389,
      "commentary": 4390,
      "Ac": 4391,
      "punch": 4392,
      "began": 4393,
      "horse": 4394,
      "wooden": 4395,
      "App": 4396,
      "Okay": 4397,
      "broad": 4398,
      "Anne": 4399,
      "epic": 4400,
      "surely": 4401,
      "murders": 4402,
      "Danny": 4403,
      "asked": 4404,
      "Second": 4405,
      "lose": 4406,
      "##mes": 4407,
      "##rid": 4408,
      "##inese": 4409,
      "Space": 4410,
      "continue": 4411,
      "CGI": 4412,
      "000": 4413,
      "Dam": 4414,
      "channel": 4415,
      "plots": 4416,
      "provide": 4417,
      "deserved": 4418,
      "physical": 4419,
      "##mon": 4420,
      "creature": 4421,
      "##ued": 4422,
      "##upp": 4423,
      "thus": 4424,
      "bits": 4425,
      "central": 4426,
      "winning": 4427,
      "Finally": 4428,
      "Pet": 4429,
      "rape": 4430,
      "##hol": 4431,
      "##esty": 4432,
      "angry": 4433,
      "afraid": 4434,
      "IN": 4435,
      "##ium": 4436,
      "crash": 4437,
      "describe": 4438,
      "repeated": 4439,
      "lay": 4440,
      "sell": 4441,
      "insight": 4442,
      "80s": 4443,
      "energy": 4444,
      "clothes": 4445,
      "##ules": 4446,
      "depart": 4447,
      "apartment": 4448,
      "introduced": 4449,
      "dying": 4450,
      "ugly": 4451,
      "White": 4452,
      "agent": 4453,
      "blond": 4454,
      "perform": 4455,
      "relative": 4456,
      "##mi": 4457,
      "##oses": 4458,
      "wanting": 4459,
      "##under": 4460,
      "##oring": 4461,
      "##roc": 4462,
      "employ": 4463,
      "Jerry": 4464,
      "VH": 4465,
      "##ha": 4466,
      "arch": 4467,
      "struggle": 4468,
      "Sher": 4469,
      "pleasure": 4470,
      "damn": 4471,
      "Jenn": 4472,
      "##AC": 4473,
      "vision": 4474,
      "memory": 4475,
      "Look": 4476,
      "rubb": 4477,
      "##arded": 4478,
      "syn": 4479,
      "religious": 4480,
      "unexpected": 4481,
      "Ram": 4482,
      "scare": 4483,
      "loving": 4484,
      "##oos": 4485,
      "##agers": 4486,
      "compare": 4487,
      "la": 4488,
      "##ators": 4489,
      "##icious": 4490,
      "lets": 4491,
      "planet": 4492,
      "redeeming": 4493,
      "load": 4494,
      "##apped": 4495,
      "##port": 4496,
      "necessary": 4497,
      "accom": 4498,
      "teenage": 4499,
      "##----": 4500,
      "favourite": 4501,
      "60": 4502,
      "fre": 4503,
      "food": 4504,
      "##well": 4505,
      "watchable": 4506,
      "Pal": 4507,
      "der": 4508,
      "Williams": 4509,
      "mut": 4510,
      "Chinese": 4511,
      "comedic": 4512,
      "explos": 4513,
      "Johnny": 4514,
      "brutal": 4515,
      "tour": 4516,
      "lies": 4517,
      "Mike": 4518,
      "ver": 4519,
      "##erk": 4520,
      "brothers": 4521,
      "intriguing": 4522,
      "##rors": 4523,
      "##ano": 4524,
      "##otes": 4525,
      "unw": 4526,
      "elect": 4527,
      "Carr": 4528,
      "Jr": 4529,
      "bal": 4530,
      "##aire": 4531,
      "##oom": 4532,
      "Horror": 4533,
      "##kward": 4534,
      "relie": 4535,
      "##pective": 4536,
      "soldier": 4537,
      "nomin": 4538,
      "##xual": 4539,
      "##rend": 4540,
      "separ": 4541,
      "unin": 4542,
      "interact": 4543,
      "##ousy": 4544,
      "anywhere": 4545,
      "surreal": 4546,
      "##ropriate": 4547,
      "unknown": 4548,
      "filmmaker": 4549,
      "North": 4550,
      "accurate": 4551,
      "##reck": 4552,
      "asks": 4553,
      "deserve": 4554,
      "belong": 4555,
      "Lew": 4556,
      "sin": 4557,
      "holds": 4558,
      "clichés": 4559,
      "contrast": 4560,
      "Brian": 4561,
      "Mi": 4562,
      "Which": 4563,
      "block": 4564,
      "intelligence": 4565,
      "torture": 4566,
      "Master": 4567,
      "Roy": 4568,
      "WH": 4569,
      "tears": 4570,
      "##).": 4571,
      "Those": 4572,
      "knowledge": 4573,
      "priv": 4574,
      "##ja": 4575,
      "grad": 4576,
      "Li": 4577,
      "Win": 4578,
      "du": 4579,
      "##icle": 4580,
      "stock": 4581,
      "personally": 4582,
      "surprising": 4583,
      "skin": 4584,
      "issue": 4585,
      "martial": 4586,
      "Last": 4587,
      "games": 4588,
      "deeply": 4589,
      "##UT": 4590,
      "tem": 4591,
      "##earch": 4592,
      "##entious": 4593,
      "doz": 4594,
      "awkward": 4595,
      "Dar": 4596,
      "Lind": 4597,
      "paced": 4598,
      "grade": 4599,
      "research": 4600,
      "Joan": 4601,
      "understanding": 4602,
      "loss": 4603,
      "##afe": 4604,
      "sucks": 4605,
      "tend": 4606,
      "wonderfully": 4607,
      "Arthur": 4608,
      "priest": 4609,
      "player": 4610,
      "##undred": 4611,
      "apparent": 4612,
      "establish": 4613,
      "birth": 4614,
      "cow": 4615,
      "empt": 4616,
      "Howard": 4617,
      "heads": 4618,
      "includes": 4619,
      "target": 4620,
      "bank": 4621,
      "thous": 4622,
      "##eman": 4623,
      "##iance": 4624,
      "##duc": 4625,
      "##ifer": 4626,
      "explanation": 4627,
      "Rus": 4628,
      "Tay": 4629,
      "Alan": 4630,
      "hotel": 4631,
      "Moore": 4632,
      "Stephen": 4633,
      "Ho": 4634,
      "Thank": 4635,
      "phil": 4636,
      "hint": 4637,
      "Allen": 4638,
      "gags": 4639,
      "Was": 4640,
      "civil": 4641,
      "mob": 4642,
      "##kes": 4643,
      "frame": 4644,
      "Before": 4645,
      "Out": 4646,
      "hyp": 4647,
      "mine": 4648,
      "mild": 4649,
      "##cl": 4650,
      "##ency": 4651,
      "##ilst": 4652,
      "blame": 4653,
      "Everyone": 4654,
      "Eddie": 4655,
      "Dor": 4656,
      "##aly": 4657,
      "##ama": 4658,
      "noticed": 4659,
      "magnific": 4660,
      "Sant": 4661,
      "ris": 4662,
      "vir": 4663,
      "Thr": 4664,
      "assist": 4665,
      "Sin": 4666,
      "Tex": 4667,
      "##aph": 4668,
      "motiv": 4669,
      "limited": 4670,
      "radio": 4671,
      "independent": 4672,
      "Del": 4673,
      "Kid": 4674,
      "ted": 4675,
      "##gent": 4676,
      "account": 4677,
      "reminds": 4678,
      "unusual": 4679,
      "dig": 4680,
      "70s": 4681,
      "Pre": 4682,
      "sac": 4683,
      "remarkable": 4684,
      "Dem": 4685,
      "hundred": 4686,
      "##ras": 4687,
      "##enge": 4688,
      "Matth": 4689,
      "flying": 4690,
      "VHS": 4691,
      "Far": 4692,
      "field": 4693,
      "hat": 4694,
      "##father": 4695,
      "##olution": 4696,
      "blue": 4697,
      "recall": 4698,
      "leader": 4699,
      "buff": 4700,
      "purs": 4701,
      "pacing": 4702,
      "##iac": 4703,
      "bland": 4704,
      "DO": 4705,
      "boo": 4706,
      "##ville": 4707,
      "##ancy": 4708,
      "scared": 4709,
      "##aker": 4710,
      "nicely": 4711,
      "##ademy": 4712,
      "stink": 4713,
      "veh": 4714,
      "locations": 4715,
      "##aturally": 4716,
      "captured": 4717,
      "signific": 4718,
      "enth": 4719,
      "##ateg": 4720,
      "arts": 4721,
      "dimens": 4722,
      "Max": 4723,
      "Ron": 4724,
      "tur": 4725,
      "tight": 4726,
      "##AM": 4727,
      "twenty": 4728,
      "##ording": 4729,
      "returns": 4730,
      "protect": 4731,
      "engaging": 4732,
      "Rom": 4733,
      "##oons": 4734,
      "thats": 4735,
      "soap": 4736,
      "anybody": 4737,
      "army": 4738,
      "calls": 4739,
      "accompl": 4740,
      "Ol": 4741,
      "interpret": 4742,
      "intellect": 4743,
      "rarely": 4744,
      "memories": 4745,
      "Pres": 4746,
      "dangerous": 4747,
      "opposite": 4748,
      "##eness": 4749,
      "##herent": 4750,
      "belief": 4751,
      "creating": 4752,
      "nightm": 4753,
      "learned": 4754,
      "Capt": 4755,
      "hurt": 4756,
      "##leep": 4757,
      "insane": 4758,
      "Eric": 4759,
      "Hall": 4760,
      "hated": 4761,
      "##ivity": 4762,
      "responsible": 4763,
      "mental": 4764,
      "##nia": 4765,
      "##atory": 4766,
      "##adow": 4767,
      "pen": 4768,
      "Brown": 4769,
      "references": 4770,
      "nonsense": 4771,
      "unnecessary": 4772,
      "ens": 4773,
      "##atured": 4774,
      "machine": 4775,
      "##yer": 4776,
      "##bian": 4777,
      "manage": 4778,
      "Chap": 4779,
      "visit": 4780,
      "community": 4781,
      "Taylor": 4782,
      "Ell": 4783,
      "les": 4784,
      "##iven": 4785,
      "contri": 4786,
      "finished": 4787,
      "##olds": 4788,
      "months": 4789,
      "bath": 4790,
      "proceed": 4791,
      "lovers": 4792,
      "realism": 4793,
      "##SE": 4794,
      "Mrs": 4795,
      "treated": 4796,
      "explained": 4797,
      "neighbor": 4798,
      "Ey": 4799,
      "educ": 4800,
      "##ante": 4801,
      "regret": 4802,
      "hidden": 4803,
      "opt": 4804,
      "##entle": 4805,
      "##ipul": 4806,
      "fights": 4807,
      "boat": 4808,
      "##soci": 4809,
      "minim": 4810,
      "incre": 4811,
      "heroes": 4812,
      "witch": 4813,
      "##irk": 4814,
      "floor": 4815,
      "technical": 4816,
      "iron": 4817,
      "##house": 4818,
      "crack": 4819,
      "subtit": 4820,
      "****": 4821,
      "Cass": 4822,
      "Hit": 4823,
      "##win": 4824,
      "##unn": 4825,
      "smile": 4826,
      "##ruction": 4827,
      "determ": 4828,
      "IT": 4829,
      "##anity": 4830,
      "players": 4831,
      "yeah": 4832,
      "25": 4833,
      "Nick": 4834,
      "##urs": 4835,
      "aband": 4836,
      "Lewis": 4837,
      "grat": 4838,
      "##ails": 4839,
      "Sean": 4840,
      "humanity": 4841,
      "transl": 4842,
      "comparison": 4843,
      "Jose": 4844,
      "core": 4845,
      "hits": 4846,
      "##asts": 4847,
      "##plic": 4848,
      "specif": 4849,
      "contrib": 4850,
      "lacking": 4851,
      "heroine": 4852,
      "driving": 4853,
      "behavior": 4854,
      "rubbish": 4855,
      "card": 4856,
      "net": 4857,
      "##arp": 4858,
      "##unter": 4859,
      "unint": 4860,
      "hadn": 4861,
      "Anth": 4862,
      "earn": 4863,
      "##osen": 4864,
      "##abor": 4865,
      "arm": 4866,
      "efforts": 4867,
      "represent": 4868,
      "ner": 4869,
      "murdered": 4870,
      "Davis": 4871,
      "Louis": 4872,
      "##aver": 4873,
      "##cise": 4874,
      "##de": 4875,
      "stret": 4876,
      "partner": 4877,
      "humans": 4878,
      "##eron": 4879,
      "summer": 4880,
      ":<": 4881,
      "!).": 4882,
      "theatre": 4883,
      "current": 4884,
      "Gary": 4885,
      "spoof": 4886,
      "dealing": 4887,
      "uncon": 4888,
      "criminal": 4889,
      "pilot": 4890,
      "pet": 4891,
      "##nam": 4892,
      "##vis": 4893,
      "##ogra": 4894,
      "prove": 4895,
      "Mitch": 4896,
      "REA": 4897,
      "junk": 4898,
      "lock": 4899,
      "aware": 4900,
      "gotten": 4901,
      "keeping": 4902,
      "capture": 4903,
      "Columb": 4904,
      "Wr": 4905,
      "na": 4906,
      "##uc": 4907,
      "##war": 4908,
      "##reets": 4909,
      "bigger": 4910,
      "mission": 4911,
      "England": 4912,
      "constant": 4913,
      "text": 4914,
      "instance": 4915,
      "Wayne": 4916,
      "eating": 4917,
      "##ooper": 4918,
      "experien": 4919,
      "bloody": 4920,
      "survive": 4921,
      "foreign": 4922,
      "vs": 4923,
      "##thern": 4924,
      "desp": 4925,
      "struct": 4926,
      "Gh": 4927,
      "##osaur": 4928,
      "award": 4929,
      "villains": 4930,
      "mixed": 4931,
      "Again": 4932,
      "philos": 4933,
      "tape": 4934,
      "##pless": 4935,
      ".\"<": 4936,
      "circum": 4937,
      "reaction": 4938,
      "protagonist": 4939,
      "Jennifer": 4940,
      "cars": 4941,
      "Andrew": 4942,
      "humorous": 4943,
      "cuts": 4944,
      "ban": 4945,
      "goof": 4946,
      "##rous": 4947,
      "##lock": 4948,
      "press": 4949,
      "monsters": 4950,
      "included": 4951,
      "ordinary": 4952,
      "Lord": 4953,
      "Sur": 4954,
      "ring": 4955,
      "##val": 4956,
      "suff": 4957,
      "context": 4958,
      "##icked": 4959,
      "Guy": 4960,
      "desperate": 4961,
      "deals": 4962,
      "##iser": 4963,
      "therefore": 4964,
      "growing": 4965,
      "Barry": 4966,
      "European": 4967,
      "Hu": 4968,
      "##orious": 4969,
      "flesh": 4970,
      "Spanish": 4971,
      "numerous": 4972,
      "below": 4973,
      "Avoid": 4974,
      "##sem": 4975,
      "dism": 4976,
      "discovered": 4977,
      "Wild": 4978,
      "print": 4979,
      "hopes": 4980,
      "cable": 4981,
      "witty": 4982,
      "chore": 4983,
      "speech": 4984,
      "finest": 4985,
      "owner": 4986,
      "irritating": 4987,
      "##vant": 4988,
      "##urse": 4989,
      "envir": 4990,
      "crappy": 4991,
      "Daniel": 4992,
      "Cent": 4993,
      "Jan": 4994,
      "categ": 4995,
      "fif": 4996,
      "##iens": 4997,
      "incomp": 4998,
      "confront": 4999,
      "improv": 5000,
      "revealed": 5001,
      "Lynch": 5002,
      "Nic": 5003,
      "##ulf": 5004,
      "edited": 5005,
      "advice": 5006,
      "guns": 5007,
      "pulled": 5008,
      "encounter": 5009,
      "##ration": 5010,
      "##ication": 5011,
      "relate": 5012,
      "animal": 5013,
      "model": 5014,
      "frequ": 5015,
      "Wow": 5016,
      "sed": 5017,
      "safe": 5018,
      "##atives": 5019,
      "hey": 5020,
      "finale": 5021,
      "steal": 5022,
      "concerned": 5023,
      "##arl": 5024,
      "shop": 5025,
      "France": 5026,
      "results": 5027,
      "window": 5028,
      "green": 5029,
      "##ushing": 5030,
      "regular": 5031,
      "Hay": 5032,
      "seat": 5033,
      "troub": 5034,
      "debut": 5035,
      "officer": 5036,
      "Anthony": 5037,
      "Add": 5038,
      "Cle": 5039,
      "Mont": 5040,
      "kiss": 5041,
      "ran": 5042,
      "##edding": 5043,
      "##icate": 5044,
      "church": 5045,
      "##unted": 5046,
      "talents": 5047,
      "Rose": 5048,
      "stereotypes": 5049,
      "dimensional": 5050,
      "Haw": 5051,
      "pretentious": 5052,
      "skills": 5053,
      "woods": 5054,
      "Texas": 5055,
      "Tit": 5056,
      "Val": 5057,
      "fate": 5058,
      "terribly": 5059,
      "assass": 5060,
      "##down": 5061,
      "remembered": 5062,
      "media": 5063,
      "psychological": 5064,
      "circumst": 5065,
      "environ": 5066,
      "NO": 5067,
      "##irm": 5068,
      "SPOILERS": 5069,
      "##imental": 5070,
      "Chan": 5071,
      "##ques": 5072,
      "speed": 5073,
      "received": 5074,
      "##fortable": 5075,
      "##rical": 5076,
      "##cent": 5077,
      "##sen": 5078,
      "##OL": 5079,
      "##umps": 5080,
      "manipul": 5081,
      "African": 5082,
      "paper": 5083,
      "##rays": 5084,
      "##stick": 5085,
      "sheer": 5086,
      "mini": 5087,
      "singer": 5088,
      "Get": 5089,
      "Mal": 5090,
      "mountain": 5091,
      "Andy": 5092,
      "starting": 5093,
      "parody": 5094,
      "Cast": 5095,
      "toward": 5096,
      "##ruct": 5097,
      "study": 5098,
      "teenagers": 5099,
      "##porary": 5100,
      "hall": 5101,
      "##ading": 5102,
      "forces": 5103,
      "somebody": 5104,
      "##ument": 5105,
      "cruel": 5106,
      "attitude": 5107,
      "circ": 5108,
      "wound": 5109,
      "##zan": 5110,
      "##ario": 5111,
      "disp": 5112,
      "##urity": 5113,
      "kinda": 5114,
      "##rifying": 5115,
      "levels": 5116,
      "fra": 5117,
      "site": 5118,
      "##omen": 5119,
      "bear": 5120,
      "trib": 5121,
      "corrupt": 5122,
      "genuinely": 5123,
      "challeng": 5124,
      "princi": 5125,
      "Matt": 5126,
      "Viet": 5127,
      "##anned": 5128,
      "Comm": 5129,
      "Jimmy": 5130,
      "Kenn": 5131,
      "Lo": 5132,
      "fund": 5133,
      "park": 5134,
      "##ements": 5135,
      "une": 5136,
      "empty": 5137,
      ");": 5138,
      "gory": 5139,
      "##sell": 5140,
      "associ": 5141,
      "organ": 5142,
      "intent": 5143,
      "photograph": 5144,
      "fle": 5145,
      "lin": 5146,
      "##natural": 5147,
      "##ban": 5148,
      "##cher": 5149,
      "##ennis": 5150,
      "continues": 5151,
      "Julie": 5152,
      "EVER": 5153,
      "dated": 5154,
      "##vit": 5155,
      "charism": 5156,
      "##cient": 5157,
      "thrill": 5158,
      "cru": 5159,
      "grown": 5160,
      "failure": 5161,
      "unfunny": 5162,
      "existence": 5163,
      "saved": 5164,
      "Time": 5165,
      "Zomb": 5166,
      "cash": 5167,
      "ju": 5168,
      "##aint": 5169,
      "altern": 5170,
      "morning": 5171,
      "satire": 5172,
      "Morgan": 5173,
      "spectacular": 5174,
      "Jess": 5175,
      "##ym": 5176,
      "truck": 5177,
      "Def": 5178,
      "Leon": 5179,
      "cameo": 5180,
      "breaks": 5181,
      "##reedom": 5182,
      "occasionally": 5183,
      "##ographer": 5184,
      "Lady": 5185,
      "cant": 5186,
      "wra": 5187,
      "##stit": 5188,
      "##idge": 5189,
      "##iro": 5190,
      "screw": 5191,
      "##phy": 5192,
      "generation": 5193,
      "Mean": 5194,
      "Island": 5195,
      "Dougl": 5196,
      "relief": 5197,
      "cal": 5198,
      "wealth": 5199,
      "dressed": 5200,
      "imagin": 5201,
      "reviewers": 5202,
      "miser": 5203,
      "visuals": 5204,
      "Mil": 5205,
      "range": 5206,
      "##II": 5207,
      "##ILL": 5208,
      "feet": 5209,
      "##abeth": 5210,
      "opens": 5211,
      "philosoph": 5212,
      "Are": 5213,
      "Fi": 5214,
      "Moon": 5215,
      "##cies": 5216,
      "##aming": 5217,
      "originally": 5218,
      "featuring": 5219,
      "Australian": 5220,
      "described": 5221,
      "Camp": 5222,
      "##han": 5223,
      "##ilies": 5224,
      "frank": 5225,
      "desire": 5226,
      "sucked": 5227,
      "unrealistic": 5228,
      "Hart": 5229,
      "veter": 5230,
      "##ogy": 5231,
      "evidence": 5232,
      "warning": 5233,
      "THIS": 5234,
      "grace": 5235,
      "Up": 5236,
      "##cra": 5237,
      "##kins": 5238,
      "connect": 5239,
      "connection": 5240,
      "Dian": 5241,
      "fab": 5242,
      "lat": 5243,
      "inh": 5244,
      "##uls": 5245,
      "##ained": 5246,
      "overly": 5247,
      "##athan": 5248,
      "Albert": 5249,
      "distract": 5250,
      "perspective": 5251,
      "Douglas": 5252,
      "fu": 5253,
      "##omed": 5254,
      "Asian": 5255,
      "Really": 5256,
      "##alloween": 5257,
      "magnificent": 5258,
      "tack": 5259,
      "vote": 5260,
      "reb": 5261,
      "unable": 5262,
      "Barbara": 5263,
      "Under": 5264,
      "##__": 5265,
      "##ulous": 5266,
      "deg": 5267,
      "##ella": 5268,
      "Keaton": 5269,
      "Rod": 5270,
      "bound": 5271,
      "vac": 5272,
      "marry": 5273,
      "!!!!": 5274,
      "Watching": 5275,
      "Bor": 5276,
      "Mer": 5277,
      "Ra": 5278,
      "nin": 5279,
      "conce": 5280,
      "discovers": 5281,
      "switch": 5282,
      "contrived": 5283,
      "Gene": 5284,
      "Much": 5285,
      "Old": 5286,
      "decade": 5287,
      "Being": 5288,
      "lesson": 5289,
      "dreadful": 5290,
      "Ted": 5291,
      "king": 5292,
      "##uk": 5293,
      "peace": 5294,
      "decision": 5295,
      "types": 5296,
      "##writer": 5297,
      "Lor": 5298,
      "##isa": 5299,
      "sole": 5300,
      "provided": 5301,
      "delivered": 5302,
      "gangster": 5303,
      "flashbacks": 5304,
      "Hitler": 5305,
      "16": 5306,
      "grew": 5307,
      "pan": 5308,
      "##ube": 5309,
      "whilst": 5310,
      "built": 5311,
      "colour": 5312,
      "Luc": 5313,
      "Franc": 5314,
      "traditional": 5315,
      "##teresting": 5316,
      "Rem": 5317,
      "Run": 5318,
      "shallow": 5319,
      "##agal": 5320,
      "driven": 5321,
      "extraord": 5322,
      "fal": 5323,
      "tor": 5324,
      "##pent": 5325,
      "obl": 5326,
      "higher": 5327,
      "creates": 5328,
      "football": 5329,
      "14": 5330,
      "BBC": 5331,
      "Dog": 5332,
      "Gord": 5333,
      "YOU": 5334,
      "##ault": 5335,
      "##wolf": 5336,
      "##itter": 5337,
      "obsc": 5338,
      "court": 5339,
      "involves": 5340,
      "da": 5341,
      "gas": 5342,
      "##mar": 5343,
      "##bur": 5344,
      "##oyal": 5345,
      "snow": 5346,
      "Eliz": 5347,
      "Actually": 5348,
      "revolution": 5349,
      "gross": 5350,
      "sake": 5351,
      "Three": 5352,
      "##alling": 5353,
      "intention": 5354,
      "corny": 5355,
      "sword": 5356,
      "combination": 5357,
      "executed": 5358,
      "Yeah": 5359,
      "Jesus": 5360,
      "##vere": 5361,
      "##asm": 5362,
      "broken": 5363,
      "marvel": 5364,
      "teenager": 5365,
      "Anyone": 5366,
      "logic": 5367,
      "Broad": 5368,
      "Halloween": 5369,
      "Kim": 5370,
      "gonna": 5371,
      "vul": 5372,
      "reflect": 5373,
      "brilliantly": 5374,
      "Cinem": 5375,
      "sea": 5376,
      "suffering": 5377,
      "delightful": 5378,
      "dry": 5379,
      "fet": 5380,
      "choose": 5381,
      "Alice": 5382,
      "sympathetic": 5383,
      "graphic": 5384,
      "Wat": 5385,
      "cyn": 5386,
      "sal": 5387,
      "##teen": 5388,
      "laughter": 5389,
      "cares": 5390,
      "hearted": 5391,
      "judge": 5392,
      "Cat": 5393,
      "send": 5394,
      "##ights": 5395,
      "bag": 5396,
      "##aa": 5397,
      "##RA": 5398,
      "advert": 5399,
      "glass": 5400,
      "theaters": 5401,
      "essentially": 5402,
      "spr": 5403,
      "##atra": 5404,
      "inex": 5405,
      "minds": 5406,
      "creatures": 5407,
      "asking": 5408,
      "loses": 5409,
      "capable": 5410,
      "Chaplin": 5411,
      "Bud": 5412,
      "emer": 5413,
      "##aken": 5414,
      "families": 5415,
      "uncom": 5416,
      "meeting": 5417,
      "Academy": 5418,
      "##che": 5419,
      "##anged": 5420,
      "Brad": 5421,
      "proved": 5422,
      "curious": 5423,
      "assume": 5424,
      "Coll": 5425,
      "##theless": 5426,
      "underrated": 5427,
      "Anna": 5428,
      "Does": 5429,
      "emotionally": 5430,
      "propag": 5431,
      "amateurish": 5432,
      "tick": 5433,
      "##ilty": 5434,
      "necess": 5435,
      "aged": 5436,
      "believes": 5437,
      "talks": 5438,
      "Plus": 5439,
      "dubbed": 5440,
      "counter": 5441,
      "fict": 5442,
      "##iber": 5443,
      "##vy": 5444,
      "seven": 5445,
      "spin": 5446,
      "skill": 5447,
      "inspir": 5448,
      "authent": 5449,
      "Larry": 5450,
      "Sund": 5451,
      "wel": 5452,
      "allows": 5453,
      "##osexual": 5454,
      "environment": 5455,
      "Take": 5456,
      "Wars": 5457,
      "powers": 5458,
      "##nie": 5459,
      "##rix": 5460,
      "myth": 5461,
      "##iversal": 5462,
      "Fre": 5463,
      "##othy": 5464,
      "standing": 5465,
      "village": 5466,
      "rescue": 5467,
      "Back": 5468,
      "Full": 5469,
      "Kate": 5470,
      "Mir": 5471,
      "Roman": 5472,
      "SH": 5473,
      "##fit": 5474,
      "majority": 5475,
      "handsome": 5476,
      "##IGH": 5477,
      "##ients": 5478,
      "##GE": 5479,
      "##initely": 5480,
      "##usi": 5481,
      "consequ": 5482,
      "subpl": 5483,
      "treatment": 5484,
      "ultimate": 5485,
      "lucky": 5486,
      "naive": 5487,
      "freedom": 5488,
      "hur": 5489,
      "harsh": 5490,
      "##ners": 5491,
      "##owell": 5492,
      "##ums": 5493,
      "sitcom": 5494,
      "expression": 5495,
      "##pir": 5496,
      "guest": 5497,
      "compan": 5498,
      "Sadly": 5499,
      "gratuit": 5500,
      "Long": 5501,
      "Nich": 5502,
      "##iable": 5503,
      "portrays": 5504,
      "controvers": 5505,
      "Evil": 5506,
      "inept": 5507,
      "##alifor": 5508,
      "Hum": 5509,
      "table": 5510,
      "vol": 5511,
      "thoughts": 5512,
      "Anton": 5513,
      "Seagal": 5514,
      "caused": 5515,
      "saving": 5516,
      "inj": 5517,
      "##usive": 5518,
      "endless": 5519,
      "steals": 5520,
      "tedious": 5521,
      "bre": 5522,
      "pal": 5523,
      "##tes": 5524,
      "##onic": 5525,
      "##lying": 5526,
      "sharp": 5527,
      "accomp": 5528,
      "Without": 5529,
      "##LLY": 5530,
      "Captain": 5531,
      "Gordon": 5532,
      "bodies": 5533,
      "##UN": 5534,
      "scr": 5535,
      "##ummy": 5536,
      "##ashed": 5537,
      "invent": 5538,
      "shocked": 5539,
      "embarrassing": 5540,
      "screaming": 5541,
      "BE": 5542,
      "lower": 5543,
      "##angers": 5544,
      "refres": 5545,
      "purch": 5546,
      "promise": 5547,
      "spoilers": 5548,
      "##ule": 5549,
      "##icit": 5550,
      "soph": 5551,
      "viewed": 5552,
      "excited": 5553,
      "Jackie": 5554,
      "ladies": 5555,
      "circumstances": 5556,
      "Air": 5557,
      "Sat": 5558,
      "Anderson": 5559,
      "involve": 5560,
      "rental": 5561,
      "Germany": 5562,
      "Trek": 5563,
      "Hope": 5564,
      "Kill": 5565,
      "Tod": 5566,
      "zero": 5567,
      "ages": 5568,
      "reviewer": 5569,
      "bringing": 5570,
      "disgusting": 5571,
      "Vinc": 5572,
      "fame": 5573,
      "##uther": 5574,
      "streets": 5575,
      "facts": 5576,
      "sequels": 5577,
      "uncle": 5578,
      "Plan": 5579,
      "Gri": 5580,
      "##ba": 5581,
      "forth": 5582,
      "cho": 5583,
      "proud": 5584,
      "##oyd": 5585,
      "Child": 5586,
      "compos": 5587,
      "entertained": 5588,
      "walked": 5589,
      "authentic": 5590,
      "hack": 5591,
      "teens": 5592,
      "Street": 5593,
      "passed": 5594,
      "normally": 5595,
      "Comp": 5596,
      "lone": 5597,
      "lousy": 5598,
      "##thy": 5599,
      "Chuck": 5600,
      "identity": 5601,
      "Harris": 5602,
      "nominated": 5603,
      "Rad": 5604,
      "voices": 5605,
      "classics": 5606,
      "admir": 5607,
      "erotic": 5608,
      "routine": 5609,
      "Joseph": 5610,
      "refreshing": 5611,
      "Cas": 5612,
      "Min": 5613,
      "Us": 5614,
      "push": 5615,
      "chosen": 5616,
      "scale": 5617,
      "Simon": 5618,
      "contemporary": 5619,
      "Rick": 5620,
      "##TH": 5621,
      "Stre": 5622,
      "produce": 5623,
      "##aturday": 5624,
      "pupp": 5625,
      "Pict": 5626,
      "besides": 5627,
      "##ls": 5628,
      "shel": 5629,
      "expert": 5630,
      "technology": 5631,
      "obsessed": 5632,
      "vehicle": 5633,
      "lesbian": 5634,
      "Kong": 5635,
      "Ob": 5636,
      "bond": 5637,
      "rough": 5638,
      "##nal": 5639,
      "##RI": 5640,
      "quir": 5641,
      "horribly": 5642,
      "popul": 5643,
      "costs": 5644,
      "17": 5645,
      "fare": 5646,
      "##stream": 5647,
      "##ura": 5648,
      "convey": 5649,
      "blow": 5650,
      "Stone": 5651,
      "exploitation": 5652,
      "experienced": 5653,
      "gratuitous": 5654,
      "##alifornia": 5655,
      "Sk": 5656,
      "Washing": 5657,
      "lo": 5658,
      "##itiz": 5659,
      ".......": 5660,
      "appl": 5661,
      "center": 5662,
      "Patrick": 5663,
      "Wilson": 5664,
      "Ty": 5665,
      "ende": 5666,
      "strongly": 5667,
      "pleasant": 5668,
      "stopped": 5669,
      "Appar": 5670,
      "Through": 5671,
      "Po": 5672,
      "##za": 5673,
      "offe": 5674,
      "##formed": 5675,
      "Blue": 5676,
      "cutting": 5677,
      "walks": 5678,
      "religion": 5679,
      "weeks": 5680,
      "Meanwhile": 5681,
      "Elizabeth": 5682,
      "Bern": 5683,
      "pity": 5684,
      "##hy": 5685,
      "##imate": 5686,
      "ancient": 5687,
      "plans": 5688,
      "##iverse": 5689,
      "Edward": 5690,
      "learns": 5691,
      "Play": 5692,
      "##ausible": 5693,
      "intellectual": 5694,
      "subtitles": 5695,
      "Sal": 5696,
      "fits": 5697,
      "hol": 5698,
      "##tended": 5699,
      "##away": 5700,
      "##ighter": 5701,
      "painfully": 5702,
      "theatrical": 5703,
      "hyster": 5704,
      "depressing": 5705,
      "Washington": 5706,
      "Dennis": 5707,
      "##arian": 5708,
      "emph": 5709,
      "handed": 5710,
      "portraying": 5711,
      "matters": 5712,
      "##ethod": 5713,
      "\").": 5714,
      "largely": 5715,
      "criticism": 5716,
      "source": 5717,
      "Bon": 5718,
      "Festival": 5719,
      "Saturday": 5720,
      "UK": 5721,
      "flo": 5722,
      "maintain": 5723,
      "qualities": 5724,
      "slapstick": 5725,
      "Apparently": 5726,
      "During": 5727,
      "VER": 5728,
      "##iling": 5729,
      "##atherine": 5730,
      "excit": 5731,
      "##ungle": 5732,
      "descript": 5733,
      "Enter": 5734,
      "Our": 5735,
      "faced": 5736,
      "##IR": 5737,
      "##lder": 5738,
      "whenever": 5739,
      "##ached": 5740,
      "versions": 5741,
      "dollars": 5742,
      "satisfying": 5743,
      "depicted": 5744,
      "Fam": 5745,
      "Ret": 5746,
      "##enstein": 5747,
      "prostit": 5748,
      "Art": 5749,
      "breaking": 5750,
      "ruined": 5751,
      "Irish": 5752,
      "substance": 5753,
      "Canadian": 5754,
      "Francis": 5755,
      "Nichol": 5756,
      "LA": 5757,
      "Mic": 5758,
      "Rain": 5759,
      "##tle": 5760,
      "##night": 5761,
      "losing": 5762,
      "asleep": 5763,
      "factor": 5764,
      "ideal": 5765,
      "prior": 5766,
      "twisted": 5767,
      "enthusi": 5768,
      "propaganda": 5769,
      "Cal": 5770,
      "Vamp": 5771,
      "##uh": 5772,
      "##lla": 5773,
      "##orted": 5774,
      "192": 5775,
      "spends": 5776,
      "appropriate": 5777,
      "cartoons": 5778,
      "Brand": 5779,
      "fish": 5780,
      "##ummer": 5781,
      "##whel": 5782,
      "segment": 5783,
      "latest": 5784,
      "Jac": 5785,
      "Tri": 5786,
      "ash": 5787,
      "clue": 5788,
      "##reek": 5789,
      "handled": 5790,
      "Scar": 5791,
      "unfortun": 5792,
      "Sid": 5793,
      "drop": 5794,
      "gig": 5795,
      "link": 5796,
      "mask": 5797,
      "rise": 5798,
      "##??": 5799,
      "##onel": 5800,
      "##aded": 5801,
      "liber": 5802,
      "sports": 5803,
      "---": 5804,
      "##ynam": 5805,
      "##cohol": 5806,
      "inevit": 5807,
      "relatively": 5808,
      "##mond": 5809,
      "shut": 5810,
      "hearing": 5811,
      "makeup": 5812,
      "angles": 5813,
      "harm": 5814,
      "Bog": 5815,
      "Later": 5816,
      "TO": 5817,
      "rain": 5818,
      "##dom": 5819,
      "##ss": 5820,
      "unfor": 5821,
      "evening": 5822,
      "believed": 5823,
      "van": 5824,
      "##umber": 5825,
      "##arden": 5826,
      "##achel": 5827,
      "incident": 5828,
      "Beaut": 5829,
      "##gged": 5830,
      "excitement": 5831,
      "CH": 5832,
      "lie": 5833,
      "sides": 5834,
      "##enced": 5835,
      "enemy": 5836,
      "Brothers": 5837,
      "distrib": 5838,
      "):": 5839,
      "None": 5840,
      "batt": 5841,
      "fest": 5842,
      "##ij": 5843,
      "revel": 5844,
      "semi": 5845,
      "notch": 5846,
      "holding": 5847,
      "recognize": 5848,
      "Kore": 5849,
      "Your": 5850,
      "##acc": 5851,
      "##urns": 5852,
      "performed": 5853,
      "United": 5854,
      "experiences": 5855,
      "visually": 5856,
      "convince": 5857,
      "Murphy": 5858,
      "NE": 5859,
      "dirty": 5860,
      "rules": 5861,
      "inner": 5862,
      "##etime": 5863,
      "movement": 5864,
      "##ume": 5865,
      "pregn": 5866,
      "cring": 5867,
      "Donald": 5868,
      "expos": 5869,
      "idiot": 5870,
      "Tarzan": 5871,
      "Sometimes": 5872,
      "##break": 5873,
      "reject": 5874,
      "price": 5875,
      "committed": 5876,
      "##insp": 5877,
      "promising": 5878,
      "speaks": 5879,
      "\"),": 5880,
      "Russell": 5881,
      "Vietnam": 5882,
      "ho": 5883,
      "wear": 5884,
      "Inc": 5885,
      "Friday": 5886,
      "Rec": 5887,
      "blonde": 5888,
      "false": 5889,
      "Bull": 5890,
      "Wall": 5891,
      "beach": 5892,
      "appealing": 5893,
      "THAT": 5894,
      "virtually": 5895,
      "Roger": 5896,
      "Die": 5897,
      "Ros": 5898,
      "vague": 5899,
      "Hey": 5900,
      "worthwhile": 5901,
      "captures": 5902,
      "Holmes": 5903,
      "##cul": 5904,
      "##kend": 5905,
      "##ola": 5906,
      "featured": 5907,
      "Ash": 5908,
      "Jewish": 5909,
      "surface": 5910,
      "Had": 5911,
      "tap": 5912,
      "##verse": 5913,
      "##tha": 5914,
      "##udic": 5915,
      "trick": 5916,
      "##apping": 5917,
      "Johnson": 5918,
      "suffers": 5919,
      "Broadway": 5920,
      "Queen": 5921,
      "mock": 5922,
      "##ixt": 5923,
      "##ament": 5924,
      "wrest": 5925,
      "guilty": 5926,
      "contact": 5927,
      "reput": 5928,
      "##ENT": 5929,
      "structure": 5930,
      "emphas": 5931,
      ")<": 5932,
      "San": 5933,
      "gentle": 5934,
      "rot": 5935,
      "rival": 5936,
      "##bles": 5937,
      "##UR": 5938,
      "##ani": 5939,
      "section": 5940,
      "abuse": 5941,
      "outrage": 5942,
      "multiple": 5943,
      "##BI": 5944,
      "alcohol": 5945,
      "related": 5946,
      "Especially": 5947,
      "liners": 5948,
      "unfortunate": 5949,
      "##vol": 5950,
      "States": 5951,
      "accents": 5952,
      "covered": 5953,
      "accidentally": 5954,
      "practically": 5955,
      "influence": 5956,
      "praise": 5957,
      "Walter": 5958,
      ",'": 5959,
      "Lost": 5960,
      "##buster": 5961,
      "##inal": 5962,
      "##arc": 5963,
      "##lly": 5964,
      "outs": 5965,
      "##ostal": 5966,
      "offensive": 5967,
      "Dean": 5968,
      "landsc": 5969,
      "Son": 5970,
      "eth": 5971,
      "jail": 5972,
      "##ching": 5973,
      "exagger": 5974,
      "uni": 5975,
      "acqu": 5976,
      "##mma": 5977,
      "frankly": 5978,
      "degree": 5979,
      "##anny": 5980,
      "##ilogy": 5981,
      "##orting": 5982,
      "##udes": 5983,
      "Unlike": 5984,
      "supernatural": 5985,
      "2001": 5986,
      "position": 5987,
      "suspenseful": 5988,
      "previously": 5989,
      "training": 5990,
      "cab": 5991,
      "till": 5992,
      "##CT": 5993,
      "stalk": 5994,
      "haunting": 5995,
      "chose": 5996,
      "commit": 5997,
      "variety": 5998,
      "About": 5999,
      "Parker": 6000,
      "Drac": 6001,
      "Fer": 6002,
      "Hon": 6003,
      "Such": 6004,
      "festival": 6005,
      "##ker": 6006,
      "##ety": 6007,
      "##roph": 6008,
      "neat": 6009,
      "spark": 6010,
      "bothered": 6011,
      "claims": 6012,
      "initial": 6013,
      "Nat": 6014,
      "Wonder": 6015,
      "##BO": 6016,
      "mainstream": 6017,
      "addict": 6018,
      "clichéd": 6019,
      "sympathy": 6020,
      "statement": 6021,
      "Besides": 6022,
      "Each": 6023,
      "Pri": 6024,
      "Tor": 6025,
      "wedding": 6026,
      "##ston": 6027,
      "anger": 6028,
      "##raction": 6029,
      "##rocious": 6030,
      "favorites": 6031,
      "touches": 6032,
      "\"?": 6033,
      "Come": 6034,
      "boot": 6035,
      "method": 6036,
      "tom": 6037,
      "stol": 6038,
      "##roll": 6039,
      "##umm": 6040,
      "remin": 6041,
      "surprises": 6042,
      "ALL": 6043,
      "California": 6044,
      "Port": 6045,
      "Tur": 6046,
      "##erie": 6047,
      "##enny": 6048,
      "toler": 6049,
      "heck": 6050,
      "directly": 6051,
      "Doctor": 6052,
      "sensitive": 6053,
      "conversation": 6054,
      "unconvin": 6055,
      "MST": 6056,
      "##ait": 6057,
      "##outhern": 6058,
      "health": 6059,
      "##outs": 6060,
      "##ache": 6061,
      "##umbling": 6062,
      "continuity": 6063,
      "Eastwood": 6064,
      "category": 6065,
      "Dracula": 6066,
      "Dun": 6067,
      "Hoff": 6068,
      "fix": 6069,
      "scar": 6070,
      "...\"": 6071,
      "arrest": 6072,
      "preach": 6073,
      "poign": 6074,
      "emp": 6075,
      "Beat": 6076,
      "Carol": 6077,
      "figured": 6078,
      "Africa": 6079,
      "service": 6080,
      "melodrama": 6081,
      "Cons": 6082,
      "overd": 6083,
      "Roberts": 6084,
      "Julia": 6085,
      "stereotypical": 6086,
      "prepared": 6087,
      "Basically": 6088,
      "extraordinary": 6089,
      "cas": 6090,
      "pit": 6091,
      "##ae": 6092,
      "##zo": 6093,
      "##eds": 6094,
      "realizes": 6095,
      "serves": 6096,
      "simpl": 6097,
      "camer": 6098,
      "profound": 6099,
      "unlikely": 6100,
      "costume": 6101,
      "##point": 6102,
      "##EE": 6103,
      "##lection": 6104,
      "##oooo": 6105,
      "trapped": 6106,
      "term": 6107,
      "polic": 6108,
      "sorts": 6109,
      "swim": 6110,
      "forgettable": 6111,
      "appreciated": 6112,
      "destroyed": 6113,
      "Helen": 6114,
      "private": 6115,
      "Cost": 6116,
      "Lau": 6117,
      "ded": 6118,
      "##itious": 6119,
      "##eston": 6120,
      "disag": 6121,
      "everywhere": 6122,
      "schem": 6123,
      "Flor": 6124,
      "crying": 6125,
      "##ooth": 6126,
      "##ez": 6127,
      "##ION": 6128,
      "##oting": 6129,
      "##ello": 6130,
      "spite": 6131,
      "presents": 6132,
      "skip": 6133,
      "Grand": 6134,
      "execution": 6135,
      "required": 6136,
      "demonstr": 6137,
      "jeal": 6138,
      "ludic": 6139,
      "atrocious": 6140,
      "bitter": 6141,
      "effectively": 6142,
      "farm": 6143,
      "driver": 6144,
      "focused": 6145,
      "fictional": 6146,
      "cook": 6147,
      "ice": 6148,
      "##reh": 6149,
      "##olic": 6150,
      "storyt": 6151,
      "flow": 6152,
      "##aze": 6153,
      "Claud": 6154,
      "excess": 6155,
      "hanging": 6156,
      "placed": 6157,
      "arg": 6158,
      "blown": 6159,
      "extras": 6160,
      "India": 6161,
      "pulls": 6162,
      "VERY": 6163,
      "Rh": 6164,
      "##och": 6165,
      "##uty": 6166,
      "##oster": 6167,
      "Alien": 6168,
      "reporter": 6169,
      "changing": 6170,
      "Betty": 6171,
      "abandoned": 6172,
      "Mill": 6173,
      "cust": 6174,
      "sne": 6175,
      "##rie": 6176,
      "##isp": 6177,
      "warn": 6178,
      "Luke": 6179,
      "USA": 6180,
      "massive": 6181,
      "Ful": 6182,
      "hook": 6183,
      "sink": 6184,
      "tong": 6185,
      "##ipped": 6186,
      "##ipping": 6187,
      "##VE": 6188,
      "stom": 6189,
      "##ems": 6190,
      "Stu": 6191,
      "gritty": 6192,
      "calling": 6193,
      "deaths": 6194,
      "renting": 6195,
      "politics": 6196,
      "Otherwise": 6197,
      "Jay": 6198,
      "Mid": 6199,
      "wid": 6200,
      "##ship": 6201,
      "##ulp": 6202,
      "guard": 6203,
      "Movies": 6204,
      "veteran": 6205,
      "domin": 6206,
      "mas": 6207,
      "tiny": 6208,
      "##aust": 6209,
      "##rence": 6210,
      "##ga": 6211,
      "##the": 6212,
      "##ago": 6213,
      "##ogether": 6214,
      "provoking": 6215,
      "Sarah": 6216,
      "MOV": 6217,
      "Sun": 6218,
      "Sorry": 6219,
      "pile": 6220,
      "task": 6221,
      "##ato": 6222,
      "cheese": 6223,
      "repet": 6224,
      "frightening": 6225,
      "reputation": 6226,
      "Cann": 6227,
      "Det": 6228,
      "##ked": 6229,
      "##elve": 6230,
      "worry": 6231,
      "Channel": 6232,
      "##ibal": 6233,
      "courage": 6234,
      "imagery": 6235,
      "Inde": 6236,
      "remotely": 6237,
      "accompan": 6238,
      "Jam": 6239,
      "Vir": 6240,
      "naturally": 6241,
      "ske": 6242,
      "yell": 6243,
      "##ourne": 6244,
      "Brooks": 6245,
      "Clark": 6246,
      "concert": 6247,
      "painting": 6248,
      "narration": 6249,
      "homosexual": 6250,
      "designed": 6251,
      "status": 6252,
      "Something": 6253,
      "Nazi": 6254,
      "End": 6255,
      "Lane": 6256,
      "Person": 6257,
      "wins": 6258,
      "according": 6259,
      "distinct": 6260,
      "Carpent": 6261,
      "Charl": 6262,
      "upset": 6263,
      "Mexican": 6264,
      "nostal": 6265,
      "device": 6266,
      "seasons": 6267,
      "quirky": 6268,
      "hired": 6269,
      "##atically": 6270,
      "chair": 6271,
      "##ission": 6272,
      "command": 6273,
      "Arm": 6274,
      "critical": 6275,
      "mistakes": 6276,
      "robb": 6277,
      "Baby": 6278,
      "stolen": 6279,
      "Hong": 6280,
      "cous": 6281,
      "##laim": 6282,
      "particip": 6283,
      "Krist": 6284,
      "President": 6285,
      "Hoffman": 6286,
      "Fulci": 6287,
      "Have": 6288,
      "bird": 6289,
      "##rad": 6290,
      "/>*": 6291,
      "##chan": 6292,
      "##ogue": 6293,
      "greater": 6294,
      "##uesome": 6295,
      "winner": 6296,
      "Next": 6297,
      "spoiler": 6298,
      "encou": 6299,
      "closer": 6300,
      "arrives": 6301,
      "weapons": 6302,
      "Ara": 6303,
      "Mod": 6304,
      "lift": 6305,
      "##assion": 6306,
      "buying": 6307,
      "convinced": 6308,
      "tremend": 6309,
      "interviews": 6310,
      "Sinatra": 6311,
      "##rating": 6312,
      "##iat": 6313,
      "deeper": 6314,
      "##ocal": 6315,
      "superf": 6316,
      "concent": 6317,
      "1980": 6318,
      "Seriously": 6319,
      "legendary": 6320,
      "Laura": 6321,
      "Produ": 6322,
      "bat": 6323,
      "universe": 6324,
      "demand": 6325,
      "figures": 6326,
      "raised": 6327,
      "Music": 6328,
      "Definitely": 6329,
      "fil": 6330,
      "##GM": 6331,
      "Things": 6332,
      "ruin": 6333,
      "vampires": 6334,
      "WWII": 6335,
      "department": 6336,
      "mildly": 6337,
      "Home": 6338,
      "SO": 6339,
      "bore": 6340,
      "page": 6341,
      "via": 6342,
      "##dies": 6343,
      "chief": 6344,
      "unre": 6345,
      "##obb": 6346,
      "Along": 6347,
      "killers": 6348,
      "contest": 6349,
      "depiction": 6350,
      "focuses": 6351,
      "funnier": 6352,
      "##IGHT": 6353,
      "Ha": 6354,
      "Kurt": 6355,
      "Sir": 6356,
      "##ito": 6357,
      "isol": 6358,
      "reun": 6359,
      "scenario": 6360,
      "##abe": 6361,
      "screening": 6362,
      "explains": 6363,
      "Army": 6364,
      "##etheless": 6365,
      "captiv": 6366,
      "stayed": 6367,
      "sisters": 6368,
      "heavily": 6369,
      "occasional": 6370,
      "dom": 6371,
      "vast": 6372,
      "##),": 6373,
      "choices": 6374,
      "timing": 6375,
      "preview": 6376,
      "teeth": 6377,
      "sounded": 6378,
      "address": 6379,
      "buddy": 6380,
      "##clear": 6381,
      "starred": 6382,
      "puzz": 6383,
      "stomach": 6384,
      "AL": 6385,
      "ain": 6386,
      "##nox": 6387,
      "##add": 6388,
      "offered": 6389,
      "China": 6390,
      "gruesome": 6391,
      "decades": 6392,
      "##liver": 6393,
      "1970": 6394,
      "paying": 6395,
      "dinosaur": 6396,
      "loyal": 6397,
      "##rant": 6398,
      "##uced": 6399,
      "##eel": 6400,
      "##orb": 6401,
      "amazed": 6402,
      "colors": 6403,
      "closing": 6404,
      "dozen": 6405,
      "Sound": 6406,
      "dynam": 6407,
      "hole": 6408,
      "##omer": 6409,
      "##acre": 6410,
      "downright": 6411,
      "##viously": 6412,
      "indul": 6413,
      "minded": 6414,
      "necessarily": 6415,
      "Ll": 6416,
      "Lam": 6417,
      "##zil": 6418,
      "diss": 6419,
      "paint": 6420,
      "murderer": 6421,
      "campy": 6422,
      "reveals": 6423,
      "Vincent": 6424,
      "Mickey": 6425,
      "##IA": 6426,
      "intens": 6427,
      "##avy": 6428,
      "overact": 6429,
      "overwhel": 6430,
      "obnox": 6431,
      "experiment": 6432,
      "understood": 6433,
      "Susan": 6434,
      "Da": 6435,
      "thro": 6436,
      "throws": 6437,
      "coinc": 6438,
      "passing": 6439,
      "1950": 6440,
      "Dad": 6441,
      "haunted": 6442,
      "lights": 6443,
      "listening": 6444,
      "complicated": 6445,
      "capital": 6446,
      "faithful": 6447,
      "Devil": 6448,
      "Cru": 6449,
      "FBI": 6450,
      "MGM": 6451,
      "pitch": 6452,
      "##ilton": 6453,
      "trilogy": 6454,
      "throwing": 6455,
      "##iano": 6456,
      "##wy": 6457,
      "spell": 6458,
      "kinds": 6459,
      "format": 6460,
      "Philip": 6461,
      "Sunday": 6462,
      "unconvincing": 6463,
      "Bu": 6464,
      "Lisa": 6465,
      "Sov": 6466,
      "nude": 6467,
      "##mother": 6468,
      "scares": 6469,
      "mans": 6470,
      "crude": 6471,
      "##arren": 6472,
      "originality": 6473,
      "magical": 6474,
      "ANY": 6475,
      "Berg": 6476,
      "Mom": 6477,
      "Miller": 6478,
      "anime": 6479,
      "seek": 6480,
      "betray": 6481,
      "views": 6482,
      "Welles": 6483,
      "Someone": 6484,
      "dogs": 6485,
      "lawyer": 6486,
      "Brazil": 6487,
      "summary": 6488,
      "Count": 6489,
      "Kane": 6490,
      "native": 6491,
      "chuck": 6492,
      "##aki": 6493,
      "serve": 6494,
      "security": 6495,
      "headed": 6496,
      "integr": 6497,
      "Acting": 6498,
      "uninteresting": 6499,
      "##asant": 6500,
      "arms": 6501,
      "conscious": 6502,
      "titles": 6503,
      "Amaz": 6504,
      "Phill": 6505,
      "combined": 6506,
      "succeeds": 6507,
      "Superman": 6508,
      "inhab": 6509,
      "pregnant": 6510,
      "Lloyd": 6511,
      ":)": 6512,
      "##core": 6513,
      "##iques": 6514,
      "##gie": 6515,
      "depend": 6516,
      "unbe": 6517,
      "maker": 6518,
      "handle": 6519,
      "letter": 6520,
      "jobs": 6521,
      "!),": 6522,
      "struggling": 6523,
      "condition": 6524,
      "Santa": 6525,
      "significant": 6526,
      "goofy": 6527,
      "sophistic": 6528,
      "Goth": 6529,
      "##umble": 6530,
      "charge": 6531,
      "irre": 6532,
      "minimal": 6533,
      "ludicrous": 6534,
      "river": 6535,
      "wand": 6536,
      "##arning": 6537,
      "brave": 6538,
      "Ins": 6539,
      "Grant": 6540,
      "causes": 6541,
      "Swed": 6542,
      "Freddy": 6543,
      "divor": 6544,
      "crafted": 6545,
      "Carpenter": 6546,
      "Land": 6547,
      "heaven": 6548,
      "prime": 6549,
      "ade": 6550,
      "grave": 6551,
      "cultural": 6552,
      "racist": 6553,
      "Hugh": 6554,
      "Cur": 6555,
      "NY": 6556,
      "Pitt": 6557,
      "bill": 6558,
      "##iled": 6559,
      "butt": 6560,
      "blah": 6561,
      "tear": 6562,
      "rights": 6563,
      "shorts": 6564,
      "McG": 6565,
      "Tommy": 6566,
      "facial": 6567,
      "Golden": 6568,
      "regarding": 6569,
      "Cage": 6570,
      "HA": 6571,
      "Pac": 6572,
      "##noon": 6573,
      "##gon": 6574,
      "##ulk": 6575,
      "##plays": 6576,
      "retarded": 6577,
      "Warner": 6578,
      "metaph": 6579,
      "Karl": 6580,
      "Sav": 6581,
      "Water": 6582,
      "##rist": 6583,
      "ing": 6584,
      "reward": 6585,
      "comical": 6586,
      "aliens": 6587,
      "strict": 6588,
      "##ugos": 6589,
      "warned": 6590,
      "Marie": 6591,
      "True": 6592,
      "##incere": 6593,
      "##iscent": 6594,
      "drinking": 6595,
      "description": 6596,
      "Cind": 6597,
      "forest": 6598,
      "subsequ": 6599,
      "##ception": 6600,
      "examples": 6601,
      "delivery": 6602,
      "inspiration": 6603,
      "Cap": 6604,
      "Cole": 6605,
      "Id": 6606,
      "Los": 6607,
      "Oliver": 6608,
      "Ver": 6609,
      "rub": 6610,
      "##taking": 6611,
      "##gia": 6612,
      "stays": 6613,
      "attempting": 6614,
      "##belief": 6615,
      "answers": 6616,
      "nuclear": 6617,
      "Catherine": 6618,
      "PL": 6619,
      "nut": 6620,
      "uninsp": 6621,
      "Spoil": 6622,
      "amazingly": 6623,
      "psycho": 6624,
      "Rating": 6625,
      "friendly": 6626,
      "carried": 6627,
      "advant": 6628,
      "ignor": 6629,
      "productions": 6630,
      "Family": 6631,
      "Dave": 6632,
      "Oz": 6633,
      "Poor": 6634,
      "bon": 6635,
      "bik": 6636,
      "fond": 6637,
      "tun": 6638,
      "severe": 6639,
      "exer": 6640,
      "blat": 6641,
      "helping": 6642,
      "Italy": 6643,
      "expressions": 6644,
      "reference": 6645,
      "patient": 6646,
      "Ren": 6647,
      "Wind": 6648,
      "dude": 6649,
      "fac": 6650,
      "hip": 6651,
      "wreck": 6652,
      "##ught": 6653,
      "##ffe": 6654,
      "##oven": 6655,
      "##acle": 6656,
      "extent": 6657,
      "Class": 6658,
      "Michelle": 6659,
      "Prince": 6660,
      "introduction": 6661,
      "execut": 6662,
      "Karen": 6663,
      "Columbo": 6664,
      "Ow": 6665,
      "cy": 6666,
      "rank": 6667,
      "theory": 6668,
      "##chy": 6669,
      "##olved": 6670,
      "everyday": 6671,
      "flight": 6672,
      "halfway": 6673,
      "Charact": 6674,
      ".)<": 6675,
      "?).": 6676,
      "obser": 6677,
      "##OOD": 6678,
      "properly": 6679,
      "Burton": 6680,
      "obnoxious": 6681,
      "Cry": 6682,
      "Four": 6683,
      "elder": 6684,
      "##pet": 6685,
      "adop": 6686,
      "Anim": 6687,
      "screenwriter": 6688,
      "Arn": 6689,
      "rule": 6690,
      "weekend": 6691,
      "Obviously": 6692,
      "60s": 6693,
      "Cooper": 6694,
      "Dream": 6695,
      "Hal": 6696,
      "LOV": 6697,
      "Mass": 6698,
      "##usty": 6699,
      "weight": 6700,
      "showc": 6701,
      "Stud": 6702,
      "carries": 6703,
      "Soon": 6704,
      "indie": 6705,
      "rolling": 6706,
      "desperately": 6707,
      "join": 6708,
      "racism": 6709,
      "assistant": 6710,
      "disagree": 6711,
      "storytelling": 6712,
      "shadow": 6713,
      "disbelief": 6714,
      "guar": 6715,
      "incor": 6716,
      "enjoying": 6717,
      "Ant": 6718,
      "dinner": 6719,
      "baseball": 6720,
      "aka": 6721,
      "fulf": 6722,
      "jungle": 6723,
      "##fire": 6724,
      "##ari": 6725,
      "cheer": 6726,
      "drives": 6727,
      "novels": 6728,
      "touched": 6729,
      "Check": 6730,
      "Highly": 6731,
      "packed": 6732,
      "Were": 6733,
      "gar": 6734,
      "##hh": 6735,
      "##cean": 6736,
      "argu": 6737,
      "basis": 6738,
      "00": 6739,
      "Gab": 6740,
      "Would": 6741,
      "bow": 6742,
      "/>(": 6743,
      "##ida": 6744,
      "##idents": 6745,
      "franch": 6746,
      "##uns": 6747,
      "##iger": 6748,
      "poet": 6749,
      "Heaven": 6750,
      "served": 6751,
      "Argent": 6752,
      "credible": 6753,
      "Woody": 6754,
      "mentally": 6755,
      "interpretation": 6756,
      "Off": 6757,
      "Ul": 6758,
      "##adays": 6759,
      "##actic": 6760,
      "##plend": 6761,
      "##ianc": 6762,
      "entry": 6763,
      "transform": 6764,
      "stunt": 6765,
      "controversial": 6766,
      "reminiscent": 6767,
      "MOVIE": 6768,
      "45": 6769,
      "Ast": 6770,
      "BL": 6771,
      "cock": 6772,
      "jack": 6773,
      "tag": 6774,
      "tree": 6775,
      "##lected": 6776,
      "Chic": 6777,
      "Alt": 6778,
      "parall": 6779,
      "stupidity": 6780,
      "Probably": 6781,
      "ignore": 6782,
      "Police": 6783,
      "MST3": 6784,
      "Fu": 6785,
      "cand": 6786,
      "##ya": 6787,
      "##OP": 6788,
      "##nda": 6789,
      "##aws": 6790,
      "##ifies": 6791,
      "##beit": 6792,
      "Blair": 6793,
      "flawed": 6794,
      "purely": 6795,
      "turkey": 6796,
      "Greg": 6797,
      "Turn": 6798,
      "mature": 6799,
      "##rate": 6800,
      "##rees": 6801,
      "sher": 6802,
      "shark": 6803,
      "plastic": 6804,
      "prete": 6805,
      "Grade": 6806,
      "attacks": 6807,
      "criminals": 6808,
      "determined": 6809,
      "Top": 6810,
      "Wes": 6811,
      "Witch": 6812,
      "raw": 6813,
      "##ingers": 6814,
      "Thanks": 6815,
      "shape": 6816,
      "border": 6817,
      "caring": 6818,
      "Atl": 6819,
      "elev": 6820,
      "credibility": 6821,
      "medical": 6822,
      "beloved": 6823,
      "accepted": 6824,
      "##utherland": 6825,
      "national": 6826,
      "tense": 6827,
      "##sec": 6828,
      "##imm": 6829,
      "alright": 6830,
      "Andre": 6831,
      "2005": 6832,
      "picks": 6833,
      "carrying": 6834,
      "Hill": 6835,
      "Sutherland": 6836,
      "ped": 6837,
      "ton": 6838,
      "##inging": 6839,
      "outd": 6840,
      "underground": 6841,
      "##beat": 6842,
      "comedian": 6843,
      "deadly": 6844,
      "miscast": 6845,
      "ratings": 6846,
      "Australia": 6847,
      "welcome": 6848,
      "nation": 6849,
      "##iffer": 6850,
      "##onda": 6851,
      "deliber": 6852,
      "Clint": 6853,
      "announ": 6854,
      "femin": 6855,
      "journal": 6856,
      "international": 6857,
      "Lion": 6858,
      "Ven": 6859,
      "##amond": 6860,
      "wears": 6861,
      "nose": 6862,
      "awards": 6863,
      "grim": 6864,
      "resist": 6865,
      "technique": 6866,
      "angle": 6867,
      "amongst": 6868,
      "settings": 6869,
      "attacked": 6870,
      "Mexico": 6871,
      "balance": 6872,
      "lonely": 6873,
      "Give": 6874,
      "jerk": 6875,
      "##sky": 6876,
      "##CK": 6877,
      "##overy": 6878,
      "exists": 6879,
      "alter": 6880,
      "##olph": 6881,
      "neck": 6882,
      "unt": 6883,
      "disgu": 6884,
      "install": 6885,
      "confusion": 6886,
      "topic": 6887,
      "treasure": 6888,
      "revolves": 6889,
      "Walker": 6890,
      "##craft": 6891,
      "tongue": 6892,
      "Bergman": 6893,
      "##lim": 6894,
      "##fits": 6895,
      "cha": 6896,
      "albeit": 6897,
      "castle": 6898,
      "possess": 6899,
      "stylish": 6900,
      "escapes": 6901,
      "assassin": 6902,
      "Pacino": 6903,
      "Caine": 6904,
      "Pred": 6905,
      "Pret": 6906,
      "boun": 6907,
      "gain": 6908,
      "torn": 6909,
      "##isher": 6910,
      "##ouses": 6911,
      "##ibilities": 6912,
      "Reg": 6913,
      "Maria": 6914,
      "replaced": 6915,
      "sinister": 6916,
      "##wyck": 6917,
      "Lat": 6918,
      "tune": 6919,
      "##bit": 6920,
      "Intern": 6921,
      "assign": 6922,
      "stealing": 6923,
      "anticip": 6924,
      "struggles": 6925,
      "immense": 6926,
      "separate": 6927,
      "ashamed": 6928,
      "Nol": 6929,
      "##ams": 6930,
      "libr": 6931,
      "##umph": 6932,
      "learning": 6933,
      "spoken": 6934,
      "backd": 6935,
      "countries": 6936,
      "sleazy": 6937,
      "atmospher": 6938,
      "mirror": 6939,
      "intensity": 6940,
      "sheriff": 6941,
      "Burt": 6942,
      "Fair": 6943,
      "afternoon": 6944,
      "letting": 6945,
      "Reyn": 6946,
      "mindless": 6947,
      "perfection": 6948,
      "opened": 6949,
      "existent": 6950,
      "Cameron": 6951,
      "gripping": 6952,
      "risk": 6953,
      "Bell": 6954,
      "Killer": 6955,
      "candy": 6956,
      "lazy": 6957,
      "##orc": 6958,
      "##antino": 6959,
      "artists": 6960,
      "fairy": 6961,
      "General": 6962,
      "thousands": 6963,
      "network": 6964,
      "\"...": 6965,
      "MU": 6966,
      "PG": 6967,
      "cave": 6968,
      "kung": 6969,
      "laid": 6970,
      "sincere": 6971,
      "wash": 6972,
      "##istent": 6973,
      "greatly": 6974,
      "horrific": 6975,
      "adding": 6976,
      "##gging": 6977,
      "guessing": 6978,
      "stops": 6979,
      "School": 6980,
      "embarrassed": 6981,
      "Techn": 6982,
      "Stanwyck": 6983,
      "graphics": 6984,
      "aston": 6985,
      "##lynn": 6986,
      "poignant": 6987,
      "advantage": 6988,
      "24": 6989,
      "National": 6990,
      "gather": 6991,
      "greed": 6992,
      "##udge": 6993,
      "dislike": 6994,
      "exceptional": 6995,
      "##ification": 6996,
      "miles": 6997,
      "established": 6998,
      "Satan": 6999,
      "Alf": 7000,
      "pool": 7001,
      "##BS": 7002,
      "render": 7003,
      "##ada": 7004,
      "##race": 7005,
      "Heart": 7006,
      "creation": 7007,
      "innov": 7008,
      "robot": 7009,
      "official": 7010,
      "idiotic": 7011,
      "wealthy": 7012,
      "cynical": 7013,
      "Jamie": 7014,
      "Award": 7015,
      "Bollywood": 7016,
      "Dri": 7017,
      "Nancy": 7018,
      "Sol": 7019,
      "##walk": 7020,
      "##ingu": 7021,
      "cance": 7022,
      "seeking": 7023,
      "arrog": 7024,
      "phen": 7025,
      "portra": 7026,
      "##gypt": 7027,
      "adventures": 7028,
      "innocence": 7029,
      "urban": 7030,
      "Soviet": 7031,
      "Ral": 7032,
      "Wolf": 7033,
      "Think": 7034,
      "chilling": 7035,
      "##opath": 7036,
      "manager": 7037,
      "lovable": 7038,
      "equal": 7039,
      "sleeping": 7040,
      "Victoria": 7041,
      "##iveness": 7042,
      "princip": 7043,
      "jumps": 7044,
      "wond": 7045,
      "##ux": 7046,
      "##IM": 7047,
      "##ona": 7048,
      "##adows": 7049,
      "##forms": 7050,
      "##quis": 7051,
      "coach": 7052,
      "McD": 7053,
      "magaz": 7054,
      "challenge": 7055,
      "Hardy": 7056,
      "imaginative": 7057,
      "franchise": 7058,
      "Call": 7059,
      "Powell": 7060,
      "Res": 7061,
      "wanna": 7062,
      "##fall": 7063,
      "##zed": 7064,
      "##oration": 7065,
      "enh": 7066,
      "clips": 7067,
      "scripts": 7068,
      "occup": 7069,
      "illust": 7070,
      "Comedy": 7071,
      "Oliv": 7072,
      "Virgin": 7073,
      "Hud": 7074,
      "Sally": 7075,
      "hipp": 7076,
      "##lan": 7077,
      "##ishment": 7078,
      "finan": 7079,
      "##ointed": 7080,
      "presentation": 7081,
      "Grace": 7082,
      "steps": 7083,
      "sacrif": 7084,
      "specific": 7085,
      "frequently": 7086,
      "Kennedy": 7087,
      "Egypt": 7088,
      "Greek": 7089,
      "Sab": 7090,
      "aired": 7091,
      "##den": 7092,
      "##TER": 7093,
      "##face": 7094,
      "##erior": 7095,
      "##utter": 7096,
      "exh": 7097,
      "arr": 7098,
      "contract": 7099,
      "convict": 7100,
      "suggests": 7101,
      "searching": 7102,
      "Scarlet": 7103,
      "Personally": 7104,
      "Met": 7105,
      "Rachel": 7106,
      "vivid": 7107,
      "##jud": 7108,
      "##aron": 7109,
      "Thing": 7110,
      "##olves": 7111,
      "proof": 7112,
      "consists": 7113,
      "Universal": 7114,
      "devil": 7115,
      "Connery": 7116,
      "Zombie": 7117,
      "Griff": 7118,
      "Aw": 7119,
      "Cont": 7120,
      "cases": 7121,
      "##alley": 7122,
      "shr": 7123,
      "alt": 7124,
      "##gettable": 7125,
      "##ocr": 7126,
      "##airs": 7127,
      "presum": 7128,
      "1950s": 7129,
      "ironic": 7130,
      "##semble": 7131,
      "Flynn": 7132,
      "Ken": 7133,
      "MAN": 7134,
      "firm": 7135,
      "hiding": 7136,
      "##orig": 7137,
      "dece": 7138,
      "useless": 7139,
      "Knight": 7140,
      "coun": 7141,
      "icon": 7142,
      "##ken": 7143,
      "noted": 7144,
      "notable": 7145,
      "conven": 7146,
      "Marl": 7147,
      "sket": 7148,
      "corpor": 7149,
      "unfold": 7150,
      "techniques": 7151,
      "Bobby": 7152,
      "ripped": 7153,
      "Leslie": 7154,
      "nightmare": 7155,
      "Cath": 7156,
      "Hot": 7157,
      "Ice": 7158,
      "Luck": 7159,
      "Brid": 7160,
      "fallen": 7161,
      "2006": 7162,
      "Britain": 7163,
      "spiritual": 7164,
      "breathtaking": 7165,
      "Ghost": 7166,
      "Freeman": 7167,
      "Fire": 7168,
      "Hy": 7169,
      "Hunter": 7170,
      "gal": 7171,
      "hes": 7172,
      "wasting": 7173,
      "happiness": 7174,
      "access": 7175,
      "Wend": 7176,
      "ourselves": 7177,
      "2000": 7178,
      "stunts": 7179,
      "raise": 7180,
      "MST3K": 7181,
      "Pretty": 7182,
      "Lem": 7183,
      "Power": 7184,
      "hung": 7185,
      "pub": 7186,
      "selling": 7187,
      "##estly": 7188,
      "##arring": 7189,
      "attempted": 7190,
      "sexuality": 7191,
      "suffered": 7192,
      "dollar": 7193,
      "initially": 7194,
      "Jessica": 7195,
      "Sky": 7196,
      "hill": 7197,
      "sings": 7198,
      "##vest": 7199,
      "##isation": 7200,
      "##ounding": 7201,
      "##cia": 7202,
      "spy": 7203,
      "restaur": 7204,
      "meaningful": 7205,
      "homage": 7206,
      "weapon": 7207,
      "cousin": 7208,
      "BAD": 7209,
      "Fle": 7210,
      "Holly": 7211,
      "nurse": 7212,
      "splend": 7213,
      "toile": 7214,
      "infect": 7215,
      "states": 7216,
      "exch": 7217,
      "triumph": 7218,
      "appearing": 7219,
      "successfully": 7220,
      "psychiat": 7221,
      "appearances": 7222,
      "destruction": 7223,
      "sentimental": 7224,
      "boredom": 7225,
      "profession": 7226,
      "physically": 7227,
      "Franco": 7228,
      "Imag": 7229,
      "Tarantino": 7230,
      "tribute": 7231,
      "fabulous": 7232,
      "Reynolds": 7233,
      "Father": 7234,
      "Net": 7235,
      "Ur": 7236,
      "hooked": 7237,
      "lying": 7238,
      "lyr": 7239,
      "nom": 7240,
      "##pass": 7241,
      "thumb": 7242,
      "##esis": 7243,
      "enorm": 7244,
      "werewolf": 7245,
      "##ogan": 7246,
      "slo": 7247,
      "relax": 7248,
      "##entionally": 7249,
      "borrow": 7250,
      "hopefully": 7251,
      "transfer": 7252,
      "metal": 7253,
      "repeat": 7254,
      "oblig": 7255,
      "Arnold": 7256,
      "vent": 7257,
      "##UL": 7258,
      "##icles": 7259,
      "traum": 7260,
      "cheek": 7261,
      "instantly": 7262,
      "videos": 7263,
      "corner": 7264,
      "essential": 7265,
      "competent": 7266,
      "protagonists": 7267,
      "REALLY": 7268,
      "Andrews": 7269,
      "300": 7270,
      "99": 7271,
      "Iron": 7272,
      "LI": 7273,
      "tempt": 7274,
      "tied": 7275,
      "##ée": 7276,
      "rend": 7277,
      "##seud": 7278,
      "##ooky": 7279,
      "conspir": 7280,
      "styl": 7281,
      "irony": 7282,
      "scientists": 7283,
      "Jonathan": 7284,
      "performers": 7285,
      "marvelous": 7286,
      "Ralph": 7287,
      "EN": 7288,
      "Veg": 7289,
      "upper": 7290,
      "##yle": 7291,
      "thick": 7292,
      "##amor": 7293,
      "trial": 7294,
      "##ibl": 7295,
      "refuses": 7296,
      "shoots": 7297,
      "destro": 7298,
      "achieved": 7299,
      "legs": 7300,
      "autom": 7301,
      "belongs": 7302,
      "troubled": 7303,
      "consequences": 7304,
      "!.": 7305,
      "HBO": 7306,
      "Ma": 7307,
      "dign": 7308,
      "overcome": 7309,
      "prevent": 7310,
      "caric": 7311,
      "!!!!!": 7312,
      "Prin": 7313,
      "Norman": 7314,
      "surviv": 7315,
      "Secret": 7316,
      "scratch": 7317,
      "Acc": 7318,
      "Pier": 7319,
      "eager": 7320,
      "pseud": 7321,
      "size": 7322,
      "##mp": 7323,
      "##order": 7324,
      "##asp": 7325,
      "beg": 7326,
      "##obi": 7327,
      "struck": 7328,
      "absorb": 7329,
      "##EAD": 7330,
      "obsession": 7331,
      "surrounding": 7332,
      "thousand": 7333,
      "Diane": 7334,
      "Down": 7335,
      "GO": 7336,
      "Page": 7337,
      "Penn": 7338,
      "Rep": 7339,
      "##agh": 7340,
      "##ELL": 7341,
      "storm": 7342,
      "alike": 7343,
      "meat": 7344,
      "##apes": 7345,
      "dramas": 7346,
      "eyed": 7347,
      "##rified": 7348,
      "Final": 7349,
      "connected": 7350,
      "##hem": 7351,
      "beer": 7352,
      "Whatever": 7353,
      "##***": 7354,
      "lesser": 7355,
      "closely": 7356,
      "weakness": 7357,
      "ultra": 7358,
      "##worth": 7359,
      "neighborhood": 7360,
      "Mitchell": 7361,
      "exercise": 7362,
      "Marsh": 7363,
      "Ric": 7364,
      "##ila": 7365,
      "##iments": 7366,
      "##erella": 7367,
      "sends": 7368,
      "chasing": 7369,
      "##elson": 7370,
      "##uno": 7371,
      "tender": 7372,
      "elabor": 7373,
      "essence": 7374,
      "neighb": 7375,
      "vacation": 7376,
      "outrageous": 7377,
      "21": 7378,
      "Ball": 7379,
      "Drew": 7380,
      "Eve": 7381,
      "Further": 7382,
      "Mach": 7383,
      "Right": 7384,
      "Spr": 7385,
      "##LD": 7386,
      "##==": 7387,
      "##itar": 7388,
      "##aser": 7389,
      "stiff": 7390,
      "shines": 7391,
      "plant": 7392,
      "##ogical": 7393,
      "##orses": 7394,
      "horrend": 7395,
      "lacked": 7396,
      "infam": 7397,
      "musicals": 7398,
      "20th": 7399,
      "millions": 7400,
      "ambig": 7401,
      "Sandra": 7402,
      "broadcast": 7403,
      "virgin": 7404,
      "thrillers": 7405,
      "DE": 7406,
      "dump": 7407,
      "saves": 7408,
      "thirty": 7409,
      "broke": 7410,
      "##entric": 7411,
      "chases": 7412,
      "##eline": 7413,
      "alb": 7414,
      "thrilling": 7415,
      "stranger": 7416,
      "decl": 7417,
      "nowadays": 7418,
      "explicit": 7419,
      "poster": 7420,
      "Emily": 7421,
      "##chester": 7422,
      "hundreds": 7423,
      "Sidney": 7424,
      "Bott": 7425,
      "Sub": 7426,
      "##mates": 7427,
      "##BLE": 7428,
      "spots": 7429,
      "incons": 7430,
      "Friend": 7431,
      "solve": 7432,
      "1970s": 7433,
      "Lucy": 7434,
      "personalities": 7435,
      "madness": 7436,
      "Fat": 7437,
      "Rome": 7438,
      "Set": 7439,
      "Saw": 7440,
      "dare": 7441,
      "ecc": 7442,
      "queen": 7443,
      "##rum": 7444,
      "##orrow": 7445,
      "tow": 7446,
      "##asion": 7447,
      "beating": 7448,
      "stumb": 7449,
      "##aky": 7450,
      "Almost": 7451,
      "string": 7452,
      "enjoyment": 7453,
      "territ": 7454,
      "carefully": 7455,
      "editor": 7456,
      "daughters": 7457,
      "sympath": 7458,
      "##blance": 7459,
      "Matthau": 7460,
      "atmospheric": 7461,
      "Lugos": 7462,
      "MA": 7463,
      "Vide": 7464,
      "jew": 7465,
      "sail": 7466,
      "tab": 7467,
      "##ran": 7468,
      "##AA": 7469,
      "##ease": 7470,
      "##asingly": 7471,
      "choos": 7472,
      "suits": 7473,
      "pros": 7474,
      "quote": 7475,
      "##pector": 7476,
      "parent": 7477,
      "mont": 7478,
      "glimp": 7479,
      "darkness": 7480,
      "annoyed": 7481,
      "Matthew": 7482,
      "Lugosi": 7483,
      "glimpse": 7484,
      "Curt": 7485,
      "Josh": 7486,
      "Kath": 7487,
      "Kub": 7488,
      "Living": 7489,
      "Sull": 7490,
      "gro": 7491,
      "tax": 7492,
      "##ype": 7493,
      "thread": 7494,
      "##isis": 7495,
      "brand": 7496,
      "inco": 7497,
      "smooth": 7498,
      "develops": 7499,
      "riding": 7500,
      "dealt": 7501,
      "wishes": 7502,
      "acceptable": 7503,
      "##coming": 7504,
      "Matrix": 7505,
      "briefly": 7506,
      "colorful": 7507,
      "concerns": 7508,
      "##world": 7509,
      "Special": 7510,
      "kidnapped": 7511,
      "uncomfortable": 7512,
      "unforgettable": 7513,
      "battles": 7514,
      "adequ": 7515,
      "Could": 7516,
      "Emma": 7517,
      "Nov": 7518,
      "Ori": 7519,
      "Tru": 7520,
      "sand": 7521,
      "##mate": 7522,
      "##iation": 7523,
      "##ww": 7524,
      "chap": 7525,
      "unh": 7526,
      "pray": 7527,
      "guilt": 7528,
      "buck": 7529,
      "Unless": 7530,
      "sky": 7531,
      "##ONE": 7532,
      "Germans": 7533,
      "##iosity": 7534,
      "AT": 7535,
      "WOR": 7536,
      "inher": 7537,
      "##oma": 7538,
      "heist": 7539,
      "beings": 7540,
      "Stra": 7541,
      "lessons": 7542,
      "##ructed": 7543,
      "Spiel": 7544,
      "importance": 7545,
      "opposed": 7546,
      "Exce": 7547,
      "Norm": 7548,
      "Ten": 7549,
      "Tem": 7550,
      "##mo": 7551,
      "##TV": 7552,
      "##utch": 7553,
      "compr": 7554,
      "ensemble": 7555,
      "Aside": 7556,
      "bucks": 7557,
      "importantly": 7558,
      "larger": 7559,
      "patri": 7560,
      "identify": 7561,
      "folk": 7562,
      "miserably": 7563,
      "Has": 7564,
      "Pot": 7565,
      "bare": 7566,
      "hitting": 7567,
      "kicks": 7568,
      "moon": 7569,
      "##die": 7570,
      "##ellar": 7571,
      "Int": 7572,
      "##ifting": 7573,
      "phr": 7574,
      "confess": 7575,
      "##emption": 7576,
      "ghosts": 7577,
      "locked": 7578,
      "Korean": 7579,
      "##accur": 7580,
      "uninspired": 7581,
      "Spielberg": 7582,
      "Ele": 7583,
      "Fro": 7584,
      "Tot": 7585,
      "fianc": 7586,
      "rushed": 7587,
      "wann": 7588,
      "##vably": 7589,
      "shirt": 7590,
      "##kel": 7591,
      "chron": 7592,
      "##rael": 7593,
      "activ": 7594,
      "##istically": 7595,
      "tricks": 7596,
      "knife": 7597,
      "spending": 7598,
      "pointed": 7599,
      "Myst": 7600,
      "engine": 7601,
      "fashioned": 7602,
      "Leonard": 7603,
      "Indeed": 7604,
      "Hudson": 7605,
      "Mother": 7606,
      "SU": 7607,
      "Say": 7608,
      "##iently": 7609,
      "##onse": 7610,
      "inaccur": 7611,
      "##ado": 7612,
      "##oops": 7613,
      "grows": 7614,
      "##ANT": 7615,
      "afford": 7616,
      "striking": 7617,
      "ignored": 7618,
      "drags": 7619,
      "Cub": 7620,
      "citiz": 7621,
      "chest": 7622,
      "##rian": 7623,
      "attend": 7624,
      "...)": 7625,
      "dialogs": 7626,
      "strangely": 7627,
      "Abs": 7628,
      "incompet": 7629,
      "sophisticated": 7630,
      "Jere": 7631,
      "Jake": 7632,
      "guts": 7633,
      "##icial": 7634,
      "workers": 7635,
      "Sex": 7636,
      "president": 7637,
      "glob": 7638,
      "talked": 7639,
      "Israel": 7640,
      "fourth": 7641,
      "ambitious": 7642,
      "disappear": 7643,
      "repeatedly": 7644,
      "increasingly": 7645,
      "Consider": 7646,
      "unbear": 7647,
      "1st": 7648,
      "River": 7649,
      "Talk": 7650,
      "hood": 7651,
      "rhy": 7652,
      "brill": 7653,
      "spread": 7654,
      "Real": 7655,
      "honor": 7656,
      "Indians": 7657,
      "Juliet": 7658,
      "newsp": 7659,
      "Certain": 7660,
      "Dep": 7661,
      "Nob": 7662,
      "pin": 7663,
      "##hi": 7664,
      "##iner": 7665,
      "unple": 7666,
      "sexually": 7667,
      "relevant": 7668,
      "Need": 7669,
      "revealing": 7670,
      "Event": 7671,
      "dropped": 7672,
      "melodramatic": 7673,
      "daily": 7674,
      "Laurel": 7675,
      "lust": 7676,
      "##stone": 7677,
      "##chest": 7678,
      "shall": 7679,
      "abrupt": 7680,
      "hoped": 7681,
      "expensive": 7682,
      "adapted": 7683,
      "Prof": 7684,
      "westerns": 7685,
      "competition": 7686,
      "Apart": 7687,
      "dubbing": 7688,
      "##uppet": 7689,
      "Az": 7690,
      "Nelson": 7691,
      "##bell": 7692,
      "comfort": 7693,
      "##agan": 7694,
      "consum": 7695,
      "##ographic": 7696,
      "Scream": 7697,
      "dragged": 7698,
      "basement": 7699,
      "admire": 7700,
      "limit": 7701,
      "hype": 7702,
      "Alexander": 7703,
      "endearing": 7704,
      "repetitive": 7705,
      "portrait": 7706,
      "Bros": 7707,
      "##mitted": 7708,
      "##ean": 7709,
      "toss": 7710,
      "sevent": 7711,
      "##igan": 7712,
      "feed": 7713,
      "attraction": 7714,
      "eleg": 7715,
      "##pses": 7716,
      "selfish": 7717,
      "illeg": 7718,
      "dancer": 7719,
      "##conom": 7720,
      "Nevertheless": 7721,
      "subplot": 7722,
      "inevitable": 7723,
      "##breaking": 7724,
      "''": 7725,
      "Aud": 7726,
      "Row": 7727,
      "finger": 7728,
      "##pse": 7729,
      "##oria": 7730,
      "##icing": 7731,
      "shy": 7732,
      "shout": 7733,
      "##udos": 7734,
      "##angle": 7735,
      "easier": 7736,
      "electric": 7737,
      "stretch": 7738,
      "eccentric": 7739,
      "Cus": 7740,
      "fed": 7741,
      "nail": 7742,
      "##erning": 7743,
      "##ils": 7744,
      "##mann": 7745,
      "##ifying": 7746,
      "curiosity": 7747,
      "inspiring": 7748,
      "judg": 7749,
      "Rogers": 7750,
      "Linda": 7751,
      "cowboy": 7752,
      "vulner": 7753,
      "cringe": 7754,
      "Hurt": 7755,
      "Low": 7756,
      "eerie": 7757,
      "ruth": 7758,
      "##hold": 7759,
      "##arts": 7760,
      "prol": 7761,
      "##ounters": 7762,
      "handful": 7763,
      "cameos": 7764,
      "sidek": 7765,
      "strip": 7766,
      "remaining": 7767,
      "##rehens": 7768,
      "Kubrick": 7769,
      "Dirty": 7770,
      "GRE": 7771,
      "Nice": 7772,
      "##nic": 7773,
      "##ieu": 7774,
      "outl": 7775,
      "unim": 7776,
      "trite": 7777,
      "flu": 7778,
      "Carter": 7779,
      "nonetheless": 7780,
      "busy": 7781,
      "Austen": 7782,
      "##ambling": 7783,
      "attracted": 7784,
      "raped": 7785,
      "Stanley": 7786,
      "split": 7787,
      "charisma": 7788,
      "Planet": 7789,
      "Picture": 7790,
      "Return": 7791,
      "Cinderella": 7792,
      "phenomen": 7793,
      "toilet": 7794,
      "infamous": 7795,
      "Khan": 7796,
      "##OS": 7797,
      "##isions": 7798,
      "##arter": 7799,
      "##istan": 7800,
      "Church": 7801,
      "happily": 7802,
      "terrifying": 7803,
      "smoking": 7804,
      "appalling": 7805,
      "Beck": 7806,
      "conclud": 7807,
      "##arby": 7808,
      "returning": 7809,
      "mistaken": 7810,
      "Frankenstein": 7811,
      "requires": 7812,
      "Lawrence": 7813,
      "intentions": 7814,
      "Chicago": 7815,
      "Jer": 7816,
      "Ka": 7817,
      "Kirk": 7818,
      "wow": 7819,
      "##kind": 7820,
      "##bid": 7821,
      "threw": 7822,
      "##icop": 7823,
      "##lee": 7824,
      "##allo": 7825,
      "unm": 7826,
      "clown": 7827,
      "##weet": 7828,
      "Bruno": 7829,
      "suburb": 7830,
      "triv": 7831,
      "Neil": 7832,
      "individuals": 7833,
      "Buddy": 7834,
      "Ah": 7835,
      "Cre": 7836,
      "Roll": 7837,
      "Woman": 7838,
      "bust": 7839,
      "pa": 7840,
      "toy": 7841,
      "##ctions": 7842,
      "stated": 7843,
      "##cend": 7844,
      "##rob": 7845,
      "fears": 7846,
      "goal": 7847,
      "argue": 7848,
      "##ishes": 7849,
      "imit": 7850,
      "blows": 7851,
      "crimes": 7852,
      "contro": 7853,
      "creators": 7854,
      "studios": 7855,
      "Geor": 7856,
      "1980s": 7857,
      "response": 7858,
      "rapid": 7859,
      "widow": 7860,
      "35": 7861,
      "Lots": 7862,
      "Sister": 7863,
      "fitting": 7864,
      "sque": 7865,
      "##ata": 7866,
      "staff": 7867,
      "watches": 7868,
      "reasonable": 7869,
      "Ree": 7870,
      "##ologist": 7871,
      "demons": 7872,
      "launch": 7873,
      "motivation": 7874,
      "backdrop": 7875,
      "cig": 7876,
      "etern": 7877,
      "lur": 7878,
      "wicked": 7879,
      "abys": 7880,
      "##isted": 7881,
      "##umin": 7882,
      "##inda": 7883,
      "##ptic": 7884,
      "......": 7885,
      "##overty": 7886,
      "Season": 7887,
      "devast": 7888,
      "engaged": 7889,
      "reactions": 7890,
      "Science": 7891,
      "commercials": 7892,
      "Nazis": 7893,
      "cardboard": 7894,
      "breasts": 7895,
      "revelation": 7896,
      "Wallace": 7897,
      "RE": 7898,
      "dub": 7899,
      "##iar": 7900,
      "##aste": 7901,
      "Uncle": 7902,
      "elsewhere": 7903,
      "##attan": 7904,
      "captain": 7905,
      "forgive": 7906,
      "checking": 7907,
      "professor": 7908,
      "Glenn": 7909,
      "replace": 7910,
      "investigation": 7911,
      "lifesty": 7912,
      "explosions": 7913,
      "Cinema": 7914,
      "inexplic": 7915,
      "hence": 7916,
      "horses": 7917,
      "oil": 7918,
      "##yc": 7919,
      "##CE": 7920,
      "##va": 7921,
      "##KE": 7922,
      "##otion": 7923,
      "##iders": 7924,
      "button": 7925,
      "precious": 7926,
      "explod": 7927,
      "restra": 7928,
      "possessed": 7929,
      "demands": 7930,
      "Russia": 7931,
      "medium": 7932,
      "beaten": 7933,
      "Angeles": 7934,
      "occurs": 7935,
      "Imagine": 7936,
      "territory": 7937,
      "unpleasant": 7938,
      "Ring": 7939,
      "piano": 7940,
      "wave": 7941,
      "##van": 7942,
      "##ader": 7943,
      "shower": 7944,
      "##ours": 7945,
      "##ivan": 7946,
      "killings": 7947,
      "Claire": 7948,
      "Amanda": 7949,
      "pulling": 7950,
      "observ": 7951,
      "Monster": 7952,
      "##anagh": 7953,
      "burst": 7954,
      "internet": 7955,
      "fortun": 7956,
      "unintentionally": 7957,
      "tremendous": 7958,
      "Ultim": 7959,
      "Excellent": 7960,
      "Cow": 7961,
      "FR": 7962,
      "Fant": 7963,
      "fur": 7964,
      "lit": 7965,
      "nine": 7966,
      "ren": 7967,
      "row": 7968,
      "##lers": 7969,
      "stood": 7970,
      "##awa": 7971,
      "slick": 7972,
      "accused": 7973,
      "Plot": 7974,
      "angel": 7975,
      "Oscars": 7976,
      "loser": 7977,
      "bleak": 7978,
      "Remember": 7979,
      "wonders": 7980,
      "restaurant": 7981,
      "Bac": 7982,
      "econom": 7983,
      "nod": 7984,
      "rat": 7985,
      "wack": 7986,
      "##leton": 7987,
      "##arted": 7988,
      "clues": 7989,
      "precise": 7990,
      "realise": 7991,
      "performing": 7992,
      "invis": 7993,
      "spoiled": 7994,
      "Films": 7995,
      "jumping": 7996,
      "interaction": 7997,
      "Vampire": 7998,
      "library": 7999,
      "horrendous": 8000,
      "Mystery": 8001,
      "brilliance": 8002,
      "Fel": 8003,
      "Gun": 8004,
      "Hind": 8005,
      "Psych": 8006,
      "hunt": 8007,
      "##oms": 8008,
      "##othing": 8009,
      "##uloid": 8010,
      "##usions": 8011,
      "guide": 8012,
      "##ipes": 8013,
      "resolution": 8014,
      "evident": 8015,
      "grandfather": 8016,
      "symbolism": 8017,
      "unwatch": 8018,
      "virus": 8019,
      "fifteen": 8020,
      "Jeremy": 8021,
      "EX": 8022,
      "Rand": 8023,
      "Rather": 8024,
      "duty": 8025,
      "eg": 8026,
      "##HING": 8027,
      "wheel": 8028,
      "areas": 8029,
      "mechan": 8030,
      "thrills": 8031,
      "horrid": 8032,
      "providing": 8033,
      "messages": 8034,
      "corn": 8035,
      "documentaries": 8036,
      "encounters": 8037,
      "Bry": 8038,
      "Ju": 8039,
      "Med": 8040,
      "bog": 8041,
      "boil": 8042,
      "##uing": 8043,
      "##don": 8044,
      "##idel": 8045,
      "perpet": 8046,
      "characterization": 8047,
      "gotta": 8048,
      "Att": 8049,
      "pleased": 8050,
      "##unky": 8051,
      "##etti": 8052,
      "##ettes": 8053,
      "detailed": 8054,
      "?),": 8055,
      "Dragon": 8056,
      "III": 8057,
      "Strange": 8058,
      "Miy": 8059,
      "Dorothy": 8060,
      "Video": 8061,
      "Ire": 8062,
      "west": 8063,
      "wake": 8064,
      "##omit": 8065,
      "##etically": 8066,
      "chain": 8067,
      "##rial": 8068,
      "whoever": 8069,
      "allowing": 8070,
      "helicop": 8071,
      "##ERS": 8072,
      "##gger": 8073,
      "countless": 8074,
      "2004": 8075,
      "tortured": 8076,
      "merit": 8077,
      "labor": 8078,
      "##--------": 8079,
      "associated": 8080,
      "photographed": 8081,
      "hysterical": 8082,
      "jealous": 8083,
      "Owen": 8084,
      "incoherent": 8085,
      "CIA": 8086,
      "Dal": 8087,
      "Eri": 8088,
      "Read": 8089,
      "pig": 8090,
      "/>'": 8091,
      "##ads": 8092,
      "chew": 8093,
      "timeless": 8094,
      "displays": 8095,
      "farce": 8096,
      "advance": 8097,
      "sentence": 8098,
      "immig": 8099,
      "golden": 8100,
      "surrounded": 8101,
      "Honestly": 8102,
      "elderly": 8103,
      "cul": 8104,
      "cried": 8105,
      "hire": 8106,
      "ranks": 8107,
      "##inent": 8108,
      "beast": 8109,
      "champ": 8110,
      "dear": 8111,
      "outcome": 8112,
      "enters": 8113,
      "reasonably": 8114,
      "discovery": 8115,
      "heroic": 8116,
      "motor": 8117,
      "returned": 8118,
      "1960": 8119,
      "Craig": 8120,
      "arrive": 8121,
      "Ern": 8122,
      "segments": 8123,
      "holiday": 8124,
      "Ireland": 8125,
      "mes": 8126,
      "ow": 8127,
      "##mal": 8128,
      "##oni": 8129,
      "drown": 8130,
      "reluct": 8131,
      "##itchen": 8132,
      "hearts": 8133,
      "generous": 8134,
      "Manh": 8135,
      "politic": 8136,
      "walls": 8137,
      "represents": 8138,
      "insulting": 8139,
      "escaped": 8140,
      "accomplished": 8141,
      "charismatic": 8142,
      "Based": 8143,
      "Civil": 8144,
      "Hanks": 8145,
      "daring": 8146,
      "extended": 8147,
      "abilities": 8148,
      "##ortion": 8149,
      "Whether": 8150,
      "##plane": 8151,
      "smoke": 8152,
      "fancy": 8153,
      "distant": 8154,
      "titled": 8155,
      "antics": 8156,
      "flawless": 8157,
      "combat": 8158,
      "Willis": 8159,
      "Madonna": 8160,
      "Boys": 8161,
      "##iversity": 8162,
      "affection": 8163,
      "Canada": 8164,
      "highlights": 8165,
      "dismiss": 8166,
      "uniform": 8167,
      "subsequent": 8168,
      "splendid": 8169,
      "Sullivan": 8170,
      "Gal": 8171,
      "Pick": 8172,
      "Ross": 8173,
      "##yll": 8174,
      "##ef": 8175,
      "##just": 8176,
      "##idal": 8177,
      "webs": 8178,
      "##anting": 8179,
      "##ounds": 8180,
      "directorial": 8181,
      "scripted": 8182,
      "wondered": 8183,
      "Reed": 8184,
      "liking": 8185,
      "Margar": 8186,
      "distance": 8187,
      "picking": 8188,
      "Luci": 8189,
      "pleasantly": 8190,
      "Frankie": 8191,
      "scientific": 8192,
      "causing": 8193,
      "idiots": 8194,
      "receive": 8195,
      "Angela": 8196,
      "fortune": 8197,
      "Brando": 8198,
      "landscape": 8199,
      "argument": 8200,
      "mansion": 8201,
      "Buck": 8202,
      "gif": 8203,
      "mo": 8204,
      "pushed": 8205,
      "tall": 8206,
      "nearby": 8207,
      "crisis": 8208,
      "Shep": 8209,
      "cared": 8210,
      "conserv": 8211,
      "##attered": 8212,
      "Blake": 8213,
      "detract": 8214,
      "Carrey": 8215,
      "sadistic": 8216,
      "Murray": 8217,
      "Hamlet": 8218,
      "threatening": 8219,
      "aimed": 8220,
      "Catholic": 8221,
      "Eventually": 8222,
      "Brend": 8223,
      "Cour": 8224,
      "Hood": 8225,
      "Made": 8226,
      "Ru": 8227,
      "mic": 8228,
      "tons": 8229,
      "##bal": 8230,
      "##ora": 8231,
      "##onne": 8232,
      "##edict": 8233,
      "##ilted": 8234,
      "staged": 8235,
      "##ooges": 8236,
      "offs": 8237,
      "##prise": 8238,
      "sport": 8239,
      "spooky": 8240,
      "##anson": 8241,
      "believing": 8242,
      "meaningless": 8243,
      "complaint": 8244,
      "loosely": 8245,
      "buried": 8246,
      "resembles": 8247,
      "Silver": 8248,
      "Streep": 8249,
      "Gothic": 8250,
      "Baker": 8251,
      "Days": 8252,
      "Fonda": 8253,
      "Nin": 8254,
      "Ned": 8255,
      "Pan": 8256,
      "Rub": 8257,
      "Summer": 8258,
      "Tob": 8259,
      "dict": 8260,
      "hunting": 8261,
      "punk": 8262,
      "##ucing": 8263,
      "##tt": 8264,
      "##jointed": 8265,
      "##atisf": 8266,
      "stead": 8267,
      "blowing": 8268,
      "attached": 8269,
      "resour": 8270,
      "worthless": 8271,
      "audio": 8272,
      "menacing": 8273,
      "definite": 8274,
      "drivel": 8275,
      "stronger": 8276,
      "admitted": 8277,
      "swear": 8278,
      "survival": 8279,
      "burned": 8280,
      "##abbit": 8281,
      "celluloid": 8282,
      "Walken": 8283,
      "Hopper": 8284,
      "juven": 8285,
      "Case": 8286,
      "Candy": 8287,
      "Kat": 8288,
      "Oper": 8289,
      "bang": 8290,
      "bold": 8291,
      "cens": 8292,
      "rive": 8293,
      "sam": 8294,
      "##ds": 8295,
      "##iper": 8296,
      "##ees": 8297,
      "##ira": 8298,
      "maniac": 8299,
      "##avor": 8300,
      "blast": 8301,
      "horrors": 8302,
      "redemption": 8303,
      "1990": 8304,
      "Tracy": 8305,
      "projects": 8306,
      "suspects": 8307,
      "frustrated": 8308,
      "bathroom": 8309,
      "calm": 8310,
      "Altman": 8311,
      "AW": 8312,
      "Ian": 8313,
      "Liz": 8314,
      "gut": 8315,
      "mat": 8316,
      "saf": 8317,
      "##rict": 8318,
      "##cil": 8319,
      "##pire": 8320,
      "sticks": 8321,
      "sup": 8322,
      "worried": 8323,
      "childish": 8324,
      "##ERE": 8325,
      "possibility": 8326,
      "listed": 8327,
      "##AND": 8328,
      "technically": 8329,
      "1999": 8330,
      "'.<": 8331,
      "superbly": 8332,
      "travels": 8333,
      "affected": 8334,
      "discussion": 8335,
      "Cassave": 8336,
      "prostitute": 8337,
      "exaggerated": 8338,
      "superficial": 8339,
      "##original": 8340,
      "Bart": 8341,
      "Care": 8342,
      "Field": 8343,
      "Linc": 8344,
      "Viv": 8345,
      "afor": 8346,
      "ego": 8347,
      "fired": 8348,
      "ramp": 8349,
      "##esth": 8350,
      "plague": 8351,
      "whereas": 8352,
      "compassion": 8353,
      "persona": 8354,
      "warri": 8355,
      "imperson": 8356,
      "concerning": 8357,
      "typically": 8358,
      "planning": 8359,
      "##riters": 8360,
      "*****": 8361,
      "recorded": 8362,
      "continued": 8363,
      "logical": 8364,
      "thankfully": 8365,
      "Campbell": 8366,
      "conceived": 8367,
      "Cusack": 8368,
      "FOR": 8369,
      "Sing": 8370,
      "gift": 8371,
      "##of": 8372,
      "##cingly": 8373,
      "##ye": 8374,
      "##unction": 8375,
      "comfortable": 8376,
      "##uman": 8377,
      "goodness": 8378,
      "glory": 8379,
      "Nightm": 8380,
      "prisoners": 8381,
      "souls": 8382,
      "terrorist": 8383,
      "achievement": 8384,
      "gradu": 8385,
      "birthday": 8386,
      "obscure": 8387,
      "involvement": 8388,
      "metaphor": 8389,
      "pseudo": 8390,
      "Bach": 8391,
      "Dere": 8392,
      "Mun": 8393,
      "Op": 8394,
      "SC": 8395,
      "Try": 8396,
      "covers": 8397,
      "rush": 8398,
      "sen": 8399,
      "venge": 8400,
      "##hill": 8401,
      "##rich": 8402,
      "##cr": 8403,
      "##corn": 8404,
      "##ih": 8405,
      "##ami": 8406,
      "##eland": 8407,
      "##oln": 8408,
      "##place": 8409,
      "##peror": 8410,
      "worker": 8411,
      "careers": 8412,
      "corpse": 8413,
      "##onym": 8414,
      "2002": 8415,
      "delivering": 8416,
      "....<": 8417,
      "subjects": 8418,
      "##heim": 8419,
      "respond": 8420,
      "Seeing": 8421,
      "ONE": 8422,
      "offended": 8423,
      "ingred": 8424,
      "##ffee": 8425,
      "magazine": 8426,
      "Foster": 8427,
      "Garb": 8428,
      "rural": 8429,
      "ward": 8430,
      "##AIN": 8431,
      "shoes": 8432,
      "web": 8433,
      "orchest": 8434,
      "noise": 8435,
      "recover": 8436,
      "Robb": 8437,
      "builds": 8438,
      "sentiment": 8439,
      "Julian": 8440,
      "##ESS": 8441,
      "draws": 8442,
      "Given": 8443,
      "lifetime": 8444,
      "NEVER": 8445,
      "Arab": 8446,
      "\"!": 8447,
      "Five": 8448,
      "cere": 8449,
      "util": 8450,
      "##ameless": 8451,
      "ligh": 8452,
      "##illian": 8453,
      "disjointed": 8454,
      "blank": 8455,
      "##athers": 8456,
      "##weight": 8457,
      "stress": 8458,
      "##entioned": 8459,
      "Union": 8460,
      "morality": 8461,
      "ridiculously": 8462,
      "Carrie": 8463,
      "astonishing": 8464,
      "\";": 8465,
      "Bush": 8466,
      "BUT": 8467,
      "Code": 8468,
      "Dom": 8469,
      "Ep": 8470,
      "Grey": 8471,
      "Navy": 8472,
      "Raj": 8473,
      "WAR": 8474,
      "##arm": 8475,
      "##itudes": 8476,
      "##ementioned": 8477,
      "poison": 8478,
      "Marc": 8479,
      "tales": 8480,
      "groups": 8481,
      "##useum": 8482,
      "devoid": 8483,
      "Except": 8484,
      "traveling": 8485,
      "investigate": 8486,
      "currently": 8487,
      "Children": 8488,
      "Argento": 8489,
      "Scarlett": 8490,
      "wannabe": 8491,
      "(!": 8492,
      "Cold": 8493,
      "Ira": 8494,
      "Pur": 8495,
      "aid": 8496,
      "hunter": 8497,
      "##bury": 8498,
      "ingen": 8499,
      "bew": 8500,
      "beats": 8501,
      "offering": 8502,
      "Shir": 8503,
      "tracks": 8504,
      "explore": 8505,
      "Force": 8506,
      "Davies": 8507,
      "##oubted": 8508,
      "Godfather": 8509,
      "blend": 8510,
      "Murder": 8511,
      "defend": 8512,
      "implausible": 8513,
      "Syd": 8514,
      "Lucas": 8515,
      "ticket": 8516,
      "Bottom": 8517,
      "Certainly": 8518,
      "unwatchable": 8519,
      "Boll": 8520,
      "Gre": 8521,
      "Rita": 8522,
      "##crow": 8523,
      "##uity": 8524,
      "##sp": 8525,
      "##oves": 8526,
      "height": 8527,
      "notably": 8528,
      "Beyond": 8529,
      "##isms": 8530,
      "assault": 8531,
      "Quinn": 8532,
      "racial": 8533,
      "officers": 8534,
      "drunken": 8535,
      "##opsis": 8536,
      "conversations": 8537,
      "Titanic": 8538,
      "Recommend": 8539,
      "cigar": 8540,
      "aforementioned": 8541,
      "Derek": 8542,
      "PR": 8543,
      "Sen": 8544,
      "nerv": 8545,
      "patter": 8546,
      "wing": 8547,
      "##iors": 8548,
      "##eder": 8549,
      "##agin": 8550,
      "##aval": 8551,
      "pretend": 8552,
      "kidding": 8553,
      "differences": 8554,
      "sadness": 8555,
      "slightest": 8556,
      "Quite": 8557,
      "improved": 8558,
      "reached": 8559,
      "label": 8560,
      "influenced": 8561,
      "Todd": 8562,
      "isolated": 8563,
      "installment": 8564,
      "Absolute": 8565,
      "ruthless": 8566,
      "Lincoln": 8567,
      "Amy": 8568,
      "Book": 8569,
      "Dill": 8570,
      "Point": 8571,
      "Ruth": 8572,
      "Terry": 8573,
      "croc": 8574,
      "##entist": 8575,
      "stole": 8576,
      "##isten": 8577,
      "##ortal": 8578,
      "##elli": 8579,
      "prejud": 8580,
      "removed": 8581,
      "popcorn": 8582,
      "politically": 8583,
      "Worst": 8584,
      "Eva": 8585,
      "errors": 8586,
      "overlooked": 8587,
      "##ACK": 8588,
      "stinker": 8589,
      "strictly": 8590,
      "Alfred": 8591,
      "Griffith": 8592,
      "lyrics": 8593,
      "Princess": 8594,
      "juvenile": 8595,
      "Bates": 8596,
      "Fiction": 8597,
      "pir": 8598,
      "sons": 8599,
      "##kish": 8600,
      "##OST": 8601,
      "##erved": 8602,
      "bridge": 8603,
      "##ovich": 8604,
      "##ooge": 8605,
      "##keys": 8606,
      "notes": 8607,
      "scra": 8608,
      "##aks": 8609,
      "dire": 8610,
      "measure": 8611,
      "prev": 8612,
      "##eps": 8613,
      "grasp": 8614,
      "slaughter": 8615,
      "Branagh": 8616,
      "prede": 8617,
      "2007": 8618,
      "##ATCH": 8619,
      "narrator": 8620,
      "signs": 8621,
      "marks": 8622,
      "1930": 8623,
      "Craw": 8624,
      "##********": 8625,
      "benefit": 8626,
      "proceedings": 8627,
      "torment": 8628,
      "Radio": 8629,
      "Throughout": 8630,
      "Swedish": 8631,
      "\"-": 8632,
      "Fay": 8633,
      "Lang": 8634,
      "gimm": 8635,
      "vo": 8636,
      "##?!": 8637,
      "tool": 8638,
      "brains": 8639,
      "##ctic": 8640,
      "reh": 8641,
      "movements": 8642,
      "disease": 8643,
      "##eping": 8644,
      "humili": 8645,
      "##astern": 8646,
      "Rex": 8647,
      "transport": 8648,
      "2003": 8649,
      "curse": 8650,
      "Worth": 8651,
      "conventional": 8652,
      "trend": 8653,
      "disturbed": 8654,
      "require": 8655,
      "primarily": 8656,
      "Nicole": 8657,
      "throat": 8658,
      "LOVE": 8659,
      "sacrifice": 8660,
      "##rehensible": 8661,
      "2nd": 8662,
      "ABC": 8663,
      "Burns": 8664,
      "Din": 8665,
      "Gil": 8666,
      "Gand": 8667,
      "Kl": 8668,
      "Lake": 8669,
      "Make": 8670,
      "Mars": 8671,
      "sarc": 8672,
      "##ipe": 8673,
      "##zel": 8674,
      "##stal": 8675,
      "reel": 8676,
      "##uristic": 8677,
      "planned": 8678,
      "##odge": 8679,
      "closed": 8680,
      "cliff": 8681,
      "disli": 8682,
      "dialogues": 8683,
      "Spir": 8684,
      "grab": 8685,
      "unfair": 8686,
      "models": 8687,
      "devoted": 8688,
      "Morris": 8689,
      "##afia": 8690,
      "bullet": 8691,
      "digital": 8692,
      "hatred": 8693,
      "##ixture": 8694,
      "dedicated": 8695,
      "sidekick": 8696,
      "Bol": 8697,
      "Fa": 8698,
      "Fortunately": 8699,
      "Hust": 8700,
      "Hist": 8701,
      "Kay": 8702,
      "Len": 8703,
      "Mann": 8704,
      "Tal": 8705,
      "mal": 8706,
      "pants": 8707,
      "poverty": 8708,
      "tie": 8709,
      "vicious": 8710,
      "##now": 8711,
      "##ications": 8712,
      "befriend": 8713,
      "unp": 8714,
      "noble": 8715,
      "spare": 8716,
      "root": 8717,
      "genres": 8718,
      "hardcore": 8719,
      "Seven": 8720,
      "Deep": 8721,
      "Martha": 8722,
      "Club": 8723,
      "collabor": 8724,
      "constructed": 8725,
      "recognition": 8726,
      "intrigue": 8727,
      "occurred": 8728,
      "Eye": 8729,
      "conspiracy": 8730,
      "Nobody": 8731,
      "predecess": 8732,
      "50s": 8733,
      "Cong": 8734,
      "cure": 8735,
      "mixture": 8736,
      "agents": 8737,
      "Short": 8738,
      "harder": 8739,
      "##ahl": 8740,
      "psychotic": 8741,
      "Castle": 8742,
      "fetched": 8743,
      "dignity": 8744,
      "elaborate": 8745,
      "Bak": 8746,
      "Dawn": 8747,
      "Save": 8748,
      "kitchen": 8749,
      "sales": 8750,
      "##hand": 8751,
      "##rd": 8752,
      "inject": 8753,
      "##alo": 8754,
      "##aled": 8755,
      "##ilarly": 8756,
      "sho": 8757,
      "orders": 8758,
      "##umsy": 8759,
      "##inder": 8760,
      "upd": 8761,
      "##obic": 8762,
      "decisions": 8763,
      "Brook": 8764,
      "##ashes": 8765,
      "trio": 8766,
      "imagined": 8767,
      "Mario": 8768,
      "Clar": 8769,
      "generic": 8770,
      "Meg": 8771,
      "Justin": 8772,
      "Granted": 8773,
      "opinions": 8774,
      "Sandler": 8775,
      "gradually": 8776,
      "philosophy": 8777,
      "inhabit": 8778,
      "Massacre": 8779,
      "altogether": 8780,
      "Manhattan": 8781,
      "Ext": 8782,
      "Jord": 8783,
      "Pam": 8784,
      "Squ": 8785,
      "Sever": 8786,
      "TR": 8787,
      "ax": 8788,
      "bin": 8789,
      "ech": 8790,
      "ought": 8791,
      "wont": 8792,
      "##oir": 8793,
      "##ca": 8794,
      "##ped": 8795,
      "##water": 8796,
      "##terday": 8797,
      "##emies": 8798,
      "suited": 8799,
      "intr": 8800,
      "##itect": 8801,
      "##eller": 8802,
      "producing": 8803,
      "acclaim": 8804,
      "##ords": 8805,
      "murderous": 8806,
      "Conf": 8807,
      "oddly": 8808,
      "climb": 8809,
      "winds": 8810,
      "Years": 8811,
      "Duke": 8812,
      "hypn": 8813,
      "earned": 8814,
      "overdone": 8815,
      "sloppy": 8816,
      "unbearable": 8817,
      "Bow": 8818,
      "Lin": 8819,
      "UN": 8820,
      "cards": 8821,
      "##oning": 8822,
      "inapp": 8823,
      "Third": 8824,
      "anal": 8825,
      "##aman": 8826,
      "notorious": 8827,
      "##cker": 8828,
      "doors": 8829,
      "clothing": 8830,
      "##plete": 8831,
      "##ocative": 8832,
      "incest": 8833,
      "sett": 8834,
      "relies": 8835,
      "artific": 8836,
      "Note": 8837,
      "Spike": 8838,
      "coffee": 8839,
      "commented": 8840,
      "satir": 8841,
      "staying": 8842,
      "explaining": 8843,
      "odds": 8844,
      "convol": 8845,
      "secrets": 8846,
      "stereotype": 8847,
      "recognized": 8848,
      "##____": 8849,
      "population": 8850,
      "mesmer": 8851,
      "Bald": 8852,
      "hun": 8853,
      "##iere": 8854,
      "##unning": 8855,
      "comics": 8856,
      "aging": 8857,
      "Head": 8858,
      "afterwards": 8859,
      "performer": 8860,
      "Block": 8861,
      "##iko": 8862,
      "motives": 8863,
      "spirited": 8864,
      "exposed": 8865,
      "screams": 8866,
      "intrigued": 8867,
      "explosion": 8868,
      "duo": 8869,
      "frag": 8870,
      "encoura": 8871,
      "arrogant": 8872,
      "lifestyle": 8873,
      "Fall": 8874,
      "Follow": 8875,
      "Hung": 8876,
      "Lum": 8877,
      "Randy": 8878,
      "ack": 8879,
      "bone": 8880,
      "cup": 8881,
      "dre": 8882,
      "##US": 8883,
      "thief": 8884,
      "doomed": 8885,
      "rocks": 8886,
      "slim": 8887,
      "apolog": 8888,
      "misses": 8889,
      "regul": 8890,
      "reduced": 8891,
      "photographer": 8892,
      "##balls": 8893,
      "silver": 8894,
      "strike": 8895,
      "estate": 8896,
      "Girls": 8897,
      "puppet": 8898,
      "wrestling": 8899,
      "Turner": 8900,
      "Nightmare": 8901,
      "Bette": 8902,
      "Bourne": 8903,
      "CD": 8904,
      "Hunt": 8905,
      "Syl": 8906,
      "sag": 8907,
      "##atures": 8908,
      "##oner": 8909,
      "stone": 8910,
      "##ima": 8911,
      "##unior": 8912,
      "##orton": 8913,
      "unpr": 8914,
      "underc": 8915,
      "trained": 8916,
      "##onson": 8917,
      "absence": 8918,
      "sadd": 8919,
      "contained": 8920,
      "##ambo": 8921,
      "Enjoy": 8922,
      "satisfied": 8923,
      "burning": 8924,
      "temper": 8925,
      "Century": 8926,
      "alternative": 8927,
      "inventive": 8928,
      "cabin": 8929,
      "Claude": 8930,
      "captivating": 8931,
      "poetry": 8932,
      "parallel": 8933,
      "Atlant": 8934,
      "newspaper": 8935,
      "illegal": 8936,
      "invisible": 8937,
      "Margaret": 8938,
      "##oubtedly": 8939,
      "Band": 8940,
      "Od": 8941,
      "Road": 8942,
      "vib": 8943,
      "##mit": 8944,
      "##emark": 8945,
      "trade": 8946,
      "aggress": 8947,
      "spaces": 8948,
      "##onscious": 8949,
      "passes": 8950,
      "darker": 8951,
      "misunder": 8952,
      "curs": 8953,
      "suspic": 8954,
      "existed": 8955,
      "porno": 8956,
      "reaches": 8957,
      "subtlety": 8958,
      "Magn": 8959,
      "frustrating": 8960,
      "blockbuster": 8961,
      "unintentional": 8962,
      "arrested": 8963,
      "simplistic": 8964,
      "acknow": 8965,
      "Bett": 8966,
      "Hack": 8967,
      "Math": 8968,
      "SE": 8969,
      "Song": 8970,
      "foul": 8971,
      "lake": 8972,
      "wet": 8973,
      "##isons": 8974,
      "##entin": 8975,
      "diff": 8976,
      "clumsy": 8977,
      "adoles": 8978,
      "function": 8979,
      "Ass": 8980,
      "hopeless": 8981,
      "centered": 8982,
      "unbelievably": 8983,
      "fatal": 8984,
      "distracting": 8985,
      "enormous": 8986,
      "Bal": 8987,
      "dish": 8988,
      "gall": 8989,
      "##vity": 8990,
      "anth": 8991,
      "french": 8992,
      "funeral": 8993,
      "recru": 8994,
      "factory": 8995,
      "composed": 8996,
      "highest": 8997,
      "instant": 8998,
      "Blade": 8999,
      "buddies": 9000,
      "unfolds": 9001,
      "Keith": 9002,
      "trademark": 9003,
      "eighties": 9004,
      "solely": 9005,
      "cameras": 9006,
      "convoluted": 9007,
      "90s": 9008,
      "Eli": 9009,
      "code": 9010,
      "dust": 9011,
      "##ket": 9012,
      "##town": 9013,
      "##gal": 9014,
      "##zen": 9015,
      "chances": 9016,
      "##estic": 9017,
      "conqu": 9018,
      "Shaw": 9019,
      "trap": 9020,
      "insert": 9021,
      "classical": 9022,
      "glor": 9023,
      "snakes": 9024,
      "##ika": 9025,
      "honesty": 9026,
      "equip": 9027,
      "secretary": 9028,
      "catches": 9029,
      "depicts": 9030,
      "succeeded": 9031,
      "depressed": 9032,
      "##!!!!!!!!": 9033,
      "choreography": 9034,
      "EVERY": 9035,
      "rubber": 9036,
      "innovative": 9037,
      "presumably": 9038,
      "montage": 9039,
      "')": 9040,
      "Half": 9041,
      "Macy": 9042,
      "ocean": 9043,
      "##ns": 9044,
      "##lo": 9045,
      "##IP": 9046,
      "notion": 9047,
      "appr": 9048,
      "##aneously": 9049,
      "fantas": 9050,
      "towns": 9051,
      "cannibal": 9052,
      "barg": 9053,
      "introduces": 9054,
      "grandmother": 9055,
      "unsett": 9056,
      "Hamilton": 9057,
      "describes": 9058,
      "scheme": 9059,
      "Curtis": 9060,
      "Origin": 9061,
      "GREAT": 9062,
      "FX": 9063,
      "Gone": 9064,
      "cats": 9065,
      "jazz": 9066,
      "nause": 9067,
      "south": 9068,
      "##jo": 9069,
      "##err": 9070,
      "##oric": 9071,
      "##otte": 9072,
      "stro": 9073,
      "##ela": 9074,
      "conve": 9075,
      "##ciating": 9076,
      "guitar": 9077,
      "thoughtful": 9078,
      "detect": 9079,
      "countryside": 9080,
      "writes": 9081,
      "Glover": 9082,
      "1940": 9083,
      "witnessed": 9084,
      "synopsis": 9085,
      "chaos": 9086,
      "International": 9087,
      "Cag": 9088,
      "Gore": 9089,
      "Live": 9090,
      "Mah": 9091,
      "maid": 9092,
      "pays": 9093,
      "##uable": 9094,
      "##tte": 9095,
      "##woman": 9096,
      "Thunder": 9097,
      "stabb": 9098,
      "exotic": 9099,
      "enemies": 9100,
      "overt": 9101,
      "##pert": 9102,
      "Chase": 9103,
      "carn": 9104,
      "shortly": 9105,
      "coherent": 9106,
      "Prot": 9107,
      "psychopath": 9108,
      "steam": 9109,
      "##ONG": 9110,
      "buildings": 9111,
      "Supp": 9112,
      "damage": 9113,
      "Beautiful": 9114,
      "blatant": 9115,
      "Age": 9116,
      "Cox": 9117,
      "Cross": 9118,
      "Crow": 9119,
      "Doll": 9120,
      "Han": 9121,
      "Put": 9122,
      "tame": 9123,
      "voy": 9124,
      "##gers": 9125,
      "##entions": 9126,
      "stellar": 9127,
      "##ulate": 9128,
      "alle": 9129,
      "cheating": 9130,
      "explored": 9131,
      "Myers": 9132,
      "dramat": 9133,
      "smaller": 9134,
      "amounts": 9135,
      "terrorists": 9136,
      "consistent": 9137,
      "dozens": 9138,
      "specifically": 9139,
      "despair": 9140,
      "casual": 9141,
      "robbery": 9142,
      "Characters": 9143,
      "immensely": 9144,
      "Frost": 9145,
      "Falk": 9146,
      "Vis": 9147,
      "##adget": 9148,
      "##irts": 9149,
      "shine": 9150,
      "agreed": 9151,
      "Alm": 9152,
      "##ruciating": 9153,
      "copies": 9154,
      "painted": 9155,
      "forms": 9156,
      "##etta": 9157,
      "1995": 9158,
      "recording": 9159,
      "regardless": 9160,
      "bullets": 9161,
      "splatter": 9162,
      "primary": 9163,
      "Muslim": 9164,
      "wrapped": 9165,
      "rebell": 9166,
      "shelf": 9167,
      "Predator": 9168,
      "Vegas": 9169,
      "equipment": 9170,
      "Eth": 9171,
      "Py": 9172,
      "WAS": 9173,
      "bes": 9174,
      "fighter": 9175,
      "mudd": 9176,
      "tail": 9177,
      "tires": 9178,
      "wine": 9179,
      "shadows": 9180,
      "##hero": 9181,
      "191": 9182,
      "Ali": 9183,
      "craw": 9184,
      "Forget": 9185,
      "styles": 9186,
      "snake": 9187,
      "cliche": 9188,
      "ruins": 9189,
      "satisfact": 9190,
      "##OME": 9191,
      "Damme": 9192,
      "uneven": 9193,
      "emphasis": 9194,
      "Cassavetes": 9195,
      "Garbo": 9196,
      "Cagney": 9197,
      "Joy": 9198,
      "Women": 9199,
      "je": 9200,
      "sab": 9201,
      "##isand": 9202,
      "user": 9203,
      "agrees": 9204,
      "##izations": 9205,
      "##ressed": 9206,
      "##ucky": 9207,
      "paran": 9208,
      "Marion": 9209,
      "Norris": 9210,
      "##........": 9211,
      "strikes": 9212,
      "Year": 9213,
      "exploit": 9214,
      "fooled": 9215,
      "consistently": 9216,
      "miserable": 9217,
      "philosophical": 9218,
      "##ulsive": 9219,
      "Florida": 9220,
      "financial": 9221,
      "psychiatrist": 9222,
      "Profess": 9223,
      "Miyaz": 9224,
      "DON": 9225,
      "Ward": 9226,
      "ears": 9227,
      "hates": 9228,
      "tank": 9229,
      "##writers": 9230,
      "##adine": 9231,
      "sung": 9232,
      "justify": 9233,
      "endings": 9234,
      "partly": 9235,
      "Sha": 9236,
      "State": 9237,
      "grotes": 9238,
      "relent": 9239,
      "##oked": 9240,
      "monolog": 9241,
      "monkey": 9242,
      "failing": 9243,
      "defeat": 9244,
      "Boris": 9245,
      "Karloff": 9246,
      "Shirley": 9247,
      "Domin": 9248,
      "Pink": 9249,
      "mouse": 9250,
      "##?)": 9251,
      "##olve": 9252,
      "worn": 9253,
      "diamond": 9254,
      "clock": 9255,
      "poetic": 9256,
      "Stars": 9257,
      "resur": 9258,
      "rooms": 9259,
      "convincingly": 9260,
      "teaching": 9261,
      "Patric": 9262,
      "kicked": 9263,
      "##works": 9264,
      "passionate": 9265,
      "Stevens": 9266,
      "loads": 9267,
      "Kids": 9268,
      "Elli": 9269,
      "liberal": 9270,
      "dynamic": 9271,
      "irrele": 9272,
      "exhib": 9273,
      "According": 9274,
      "adequate": 9275,
      "Mason": 9276,
      "MTV": 9277,
      "Wid": 9278,
      "gest": 9279,
      "pale": 9280,
      "southern": 9281,
      "ya": 9282,
      "##hay": 9283,
      "##uf": 9284,
      "##iour": 9285,
      "bell": 9286,
      "##ieve": 9287,
      "retain": 9288,
      "scores": 9289,
      "exter": 9290,
      "props": 9291,
      "blur": 9292,
      "nevertheless": 9293,
      "illness": 9294,
      "Annie": 9295,
      "responsibility": 9296,
      "urge": 9297,
      "companion": 9298,
      "purchase": 9299,
      "Streisand": 9300,
      "accompanied": 9301,
      "thumbs": 9302,
      "Miles": 9303,
      "Walt": 9304,
      "wig": 9305,
      "##bling": 9306,
      "##eric": 9307,
      "anx": 9308,
      "unoriginal": 9309,
      "settle": 9310,
      "Brother": 9311,
      "sounding": 9312,
      "homeless": 9313,
      "excruciating": 9314,
      "considerable": 9315,
      "similarities": 9316,
      "silence": 9317,
      "contrary": 9318,
      "Train": 9319,
      "bottle": 9320,
      "Doug": 9321,
      "architect": 9322,
      "crucial": 9323,
      "transformation": 9324,
      "Ernest": 9325,
      "website": 9326,
      "nervous": 9327,
      "Buster": 9328,
      "Times": 9329,
      "ease": 9330,
      "fro": 9331,
      "##iant": 9332,
      "##gling": 9333,
      "##orthy": 9334,
      "inane": 9335,
      "##alie": 9336,
      "##ersh": 9337,
[...]
